<unk>	0
<s>	0
</s>	0
,	-3.15555
.	-3.3679
▁the	-3.71718
s	-4.12925
▁in	-4.28663
▁of	-4.36952
en	-4.40535
▁die	-4.46268
▁and	-4.47458
▁der	-4.50342
▁to	-4.53371
▁und	-4.54807
n	-4.56083
▁	-4.72361
▁a	-4.89068
-	-4.9764
▁is	-5.17891
e	-5.24977
▁zu	-5.37926
▁that	-5.4427
▁den	-5.47869
▁for	-5.4818
▁von	-5.54353
▁be	-5.61225
▁ist	-5.70434
er	-5.73403
▁für	-5.74019
▁on	-5.76233
▁an	-5.79941
▁auf	-5.80725
▁mit	-5.85114
▁das	-5.87496
▁with	-5.87952
▁The	-5.90509
▁I	-5.92789
▁are	-5.9507
▁des	-5.9546
t	-5.97659
▁(	-5.98385
▁eine	-6.01902
▁ein	-6.07764
▁this	-6.09541
r	-6.11401
▁im	-6.1173
▁as	-6.13007
▁Sie	-6.15111
▁nicht	-6.15565
▁we	-6.18875
▁it	-6.19149
▁werden	-6.21487
:	-6.22209
▁-	-6.23112
▁by	-6.24959
▁have	-6.26375
▁dem	-6.26564
▁not	-6.27986
▁sich	-6.28894
▁dass	-6.2934
▁Die	-6.30375
▁wir	-6.32803
▁you	-6.32959
'	-6.33736
)	-6.34248
▁es	-6.35787
▁will	-6.36687
▁which	-6.41423
▁auch	-6.43546
▁was	-6.45226
▁from	-6.46405
ing	-6.49594
▁sind	-6.51343
▁at	-6.5512
▁or	-6.56549
m	-6.57336
▁wird	-6.57424
▁In	-6.57759
▁has	-6.58004
▁so	-6.61786
▁über	-6.63462
▁um	-6.65842
▁als	-6.6861
▁all	-6.70174
▁can	-6.72897
▁ich	-6.73263
▁aus	-6.74558
▁oder	-6.74657
es	-6.75613
ung	-6.76162
▁A	-6.76243
d	-6.79008
▁our	-6.79407
▁also	-6.79433
▁European	-6.79649
ed	-6.80308
▁haben	-6.80645
▁bei	-6.8519
▁"	-6.85742
▁hat	-6.86203
▁sie	-6.87708
▁einer	-6.88062
▁wie	-6.89299
?	-6.92462
▁zur	-6.94798
!	-6.98665
▁Union	-6.9934
▁diese	-7.00055
▁Das	-7.01213
▁einen	-7.03516
▁We	-7.03608
▁your	-7.04534
▁vor	-7.04709
▁nach	-7.07357
▁können	-7.08479
▁Ich	-7.091
▁–	-7.10289
▁but	-7.11195
▁its	-7.14985
▁would	-7.15041
▁durch	-7.15524
▁er	-7.16134
▁more	-7.16854
’	-7.17045
▁their	-7.17275
▁am	-7.17818
a	-7.18025
▁d	-7.18613
▁einem	-7.18693
▁Wir	-7.21527
▁S	-7.22415
in	-7.23029
▁zum	-7.24088
▁kann	-7.24589
"	-7.24632
▁uns	-7.24789
▁This	-7.24884
▁It	-7.25012
▁nur	-7.25735
▁been	-7.26156
▁one	-7.26159
▁Mr	-7.26749
▁Europäische	-7.26757
▁EU	-7.26776
;	-7.27287
▁should	-7.28683
/	-7.29846
▁Der	-7.32647
▁dieser	-7.36731
▁Es	-7.37465
▁Kommission	-7.38046
▁Commission	-7.38091
▁ihre	-7.39679
▁do	-7.39989
▁must	-7.40393
▁very	-7.40727
ly	-7.41846
▁ver	-7.42995
▁new	-7.43819
▁de	-7.44033
▁noch	-7.4427
▁other	-7.44384
▁there	-7.4458
▁wurde	-7.45477
▁they	-7.45481
▁Hotel	-7.45538
▁Herr	-7.46994
▁time	-7.48582
▁only	-7.48777
aß	-7.49098
▁like	-7.49617
▁President	-7.49844
▁sein	-7.50206
▁aber	-7.50272
▁Ein	-7.5086
▁war	-7.51238
▁wenn	-7.51462
▁about	-7.51713
▁ge	-7.53898
y	-7.54614
▁sehr	-7.55885
▁müssen	-7.56114
▁man	-7.57397
▁unter	-7.58078
▁An	-7.58129
▁no	-7.60393
o	-7.61193
▁who	-7.61804
te	-7.61923
▁Parlament	-7.61927
▁Bericht	-7.61946
▁these	-7.62149
▁un	-7.62831
▁up	-7.64028
▁Präsident	-7.65174
▁us	-7.66626
▁Aus	-7.66649
▁diesem	-7.66749
▁mehr	-7.67024
▁if	-7.68222
▁alle	-7.68662
▁Be	-7.69267
▁E	-7.69562
▁B	-7.70002
k	-7.70153
▁any	-7.71597
▁bis	-7.71678
▁out	-7.719
▁people	-7.73403
▁Europe	-7.73759
▁Parliament	-7.74818
▁were	-7.75087
▁into	-7.75625
▁keine	-7.76829
ten	-7.77048
▁unsere	-7.77129
▁Ab	-7.77178
▁möchte	-7.77707
▁such	-7.78324
▁K	-7.78732
▁Ihre	-7.78884
▁well	-7.79731
i	-7.80178
▁neue	-7.80831
▁D	-7.81246
▁what	-7.81484
).	-7.81712
▁report	-7.82255
▁States	-7.82298
▁Diese	-7.8273
▁Member	-7.83055
▁da	-7.83567
▁need	-7.83971
▁countries	-7.84118
▁than	-7.84273
st	-7.84539
▁my	-7.86005
▁hier	-7.86351
▁his	-7.86414
▁vom	-7.86462
▁ab	-7.86672
▁Vor	-7.86875
▁when	-7.86891
▁use	-7.88572
▁work	-7.89516
▁most	-7.89702
▁some	-7.89766
▁first	-7.89888
▁sowie	-7.89996
▁Council	-7.90113
▁make	-7.90188
▁2	-7.90392
ungen	-7.91617
▁H	-7.91855
▁europäische	-7.92417
▁Zeit	-7.92672
▁he	-7.93383
▁now	-7.93595
▁gibt	-7.93735
z	-7.93773
▁eines	-7.94136
▁Er	-7.94199
▁many	-7.94259
▁important	-7.94603
de	-7.94642
▁between	-7.95433
▁hotel	-7.9556
ch	-7.95926
▁dieses	-7.9671
▁take	-7.97699
▁C	-7.97789
▁zwischen	-7.97815
▁because	-7.9829
ischen	-7.99545
▁F	-7.99641
▁over	-7.99672
▁muss	-8.00608
▁Ver	-8.01422
▁them	-8.01988
▁Mitgliedstaat	-8.02328
end	-8.02765
B	-8.02881
▁„	-8.04131
al	-8.04185
▁seine	-8.0422
▁Europa	-8.04316
▁Rat	-8.04722
▁3	-8.0498
re	-8.05438
▁information	-8.05673
g	-8.06145
▁support	-8.06218
▁two	-8.06256
▁Ihnen	-8.07267
▁just	-8.07386
▁had	-8.08221
▁made	-8.0861
S	-8.08876
...	-8.0907
▁way	-8.0914
▁1	-8.09161
▁years	-8.0928
▁world	-8.09584
▁viel	-8.09815
▁anderen	-8.0992
▁G	-8.10626
▁If	-8.11093
▁those	-8.11211
l	-8.11554
A	-8.11641
),	-8.12367
▁Im	-8.12578
th	-8.13566
▁immer	-8.14249
▁where	-8.14267
h	-8.14311
▁policy	-8.15636
▁“	-8.15687
▁wo	-8.15877
▁Auf	-8.16021
▁Wenn	-8.16061
▁Entwicklung	-8.16377
den	-8.16654
▁dann	-8.16909
▁system	-8.18279
▁Welt	-8.18343
▁being	-8.18507
▁may	-8.19627
▁Da	-8.1965
▁re	-8.19722
▁So	-8.19889
▁damit	-8.20104
▁gegen	-8.20263
▁'	-8.20306
lich	-8.20534
▁even	-8.20843
us	-8.21037
▁zwei	-8.21756
▁good	-8.21764
▁Frau	-8.21884
▁Zu	-8.21959
▁Menschen	-8.22096
▁national	-8.22354
▁right	-8.22859
▁M	-8.22966
▁part	-8.23164
▁wurden	-8.23594
▁order	-8.24536
▁As	-8.25641
▁area	-8.2599
c	-8.26242
▁For	-8.26927
▁meine	-8.26977
▁ganz	-8.27061
▁year	-8.27499
▁viele	-8.27561
an	-8.27629
▁P	-8.27892
▁sonder	-8.28212
▁unserer	-8.28378
▁habe	-8.28756
▁...	-8.29052
▁N	-8.29846
▁s	-8.29849
▁Mit	-8.30521
▁market	-8.30588
▁international	-8.3059
▁place	-8.3088
“	-8.31169
▁jedoch	-8.31276
▁here	-8.3137
iert	-8.31474
▁through	-8.31833
ge	-8.31932
▁ob	-8.32194
▁You	-8.32255
um	-8.33108
▁andere	-8.33125
▁same	-8.33339
▁possible	-8.33501
▁weiter	-8.33504
or	-8.33731
▁after	-8.33781
be	-8.33889
▁could	-8.3391
▁own	-8.34368
▁Jahr	-8.34499
▁Bei	-8.35073
▁me	-8.35151
▁political	-8.35578
▁heute	-8.35663
▁see	-8.3568
▁economic	-8.35686
▁find	-8.35691
ieren	-8.35862
▁development	-8.36497
▁want	-8.36656
b	-8.36938
▁Bürger	-8.37038
▁There	-8.37189
▁wieder	-8.37421
▁5	-8.37432
▁4	-8.37624
em	-8.38787
▁ihr	-8.39615
▁within	-8.39648
▁sollte	-8.40053
▁bereits	-8.40153
▁both	-8.40212
▁much	-8.40431
▁Änderung	-8.40578
▁ohne	-8.40649
▁against	-8.40714
▁rights	-8.41681
▁mich	-8.41904
▁ihrer	-8.42411
▁T	-8.4252
▁how	-8.42531
▁used	-8.42545
▁therefore	-8.4297
▁high	-8.43538
▁selbst	-8.4398
▁Frage	-8.44078
ers	-8.44122
C	-8.44196
▁does	-8.44401
▁country	-8.44755
▁public	-8.44785
”	-8.45074
▁Nach	-8.45757
▁Jahren	-8.45789
▁10	-8.46767
com	-8.47074
▁number	-8.47196
▁point	-8.47339
▁still	-8.47376
f	-8.474
▁la	-8.47663
▁without	-8.48008
el	-8.48451
2	-8.4866
▁great	-8.49135
▁last	-8.49428
▁fact	-8.49566
▁long	-8.49701
▁Land	-8.49997
▁sollten	-8.50137
ische	-8.50583
▁einige	-8.50804
▁under	-8.50916
▁know	-8.51056
▁Re	-8.51293
▁social	-8.51307
to	-8.51318
D	-8.5135
▁services	-8.51574
▁finden	-8.51667
▁view	-8.52187
▁e	-8.52372
▁human	-8.52454
▁best	-8.52483
▁free	-8.52598
▁different	-8.52926
▁politische	-8.5295
▁say	-8.52959
▁available	-8.53341
▁per	-8.54013
▁room	-8.54276
▁bietet	-8.54439
le	-8.54856
▁believe	-8.55327
zu	-8.55866
sten	-8.56214
▁able	-8.56242
▁future	-8.56264
▁dazu	-8.56361
▁Ent	-8.5642
F	-8.56444
▁Unternehmen	-8.56487
▁liegt	-8.56631
▁machen	-8.56694
ation	-8.56704
▁weil	-8.57006
▁already	-8.57189
ver	-8.5786
▁before	-8.57943
▁course	-8.58138
▁m	-8.58181
▁To	-8.59067
▁service	-8.59348
▁That	-8.59541
▁dies	-8.59601
▁Arbeit	-8.59694
▁darauf	-8.59715
▁today	-8.59744
▁her	-8.59799
▁seiner	-8.59823
▁think	-8.60438
ic	-8.6054
▁jetzt	-8.60651
▁Lage	-8.60684
▁end	-8.60833
▁All	-8.61033
▁get	-8.61086
▁set	-8.61347
▁But	-8.61436
▁Teil	-8.61754
schlag	-8.61791
▁process	-8.61812
▁welche	-8.62202
▁data	-8.62417
▁Euro	-8.62428
▁products	-8.62556
▁too	-8.6263
▁Um	-8.62816
▁cannot	-8.62958
▁L	-8.63181
▁k	-8.63332
▁case	-8.6334
▁Internet	-8.63371
▁Maßnahmen	-8.63468
▁geht	-8.63506
w	-8.63549
▁möglich	-8.63645
▁schon	-8.63773
▁V	-8.63831
▁hin	-8.64436
▁Grund	-8.64525
▁Bereich	-8.64581
▁seit	-8.65092
▁Dies	-8.65475
▁Informationen	-8.65651
▁R	-8.65702
▁Art	-8.65765
K	-8.65778
▁dafür	-8.65902
▁Jahre	-8.65942
▁real	-8.66025
ar	-8.66414
▁20	-8.66433
▁level	-8.6658
▁question	-8.66738
▁18	-8.67243
▁Zimmer	-8.67339
on	-8.6745
▁Eine	-8.67493
▁Commissioner	-8.67723
▁offers	-8.68026
▁ent	-8.68036
▁allen	-8.68464
▁Rahmen	-8.68564
able	-8.68615
▁Ziel	-8.68683
p	-8.68749
▁financial	-8.68996
Kommissar	-8.69171
ern	-8.69272
▁city	-8.69424
▁issue	-8.69621
▁during	-8.69638
▁wichtig	-8.69645
▁day	-8.69812
▁example	-8.69952
▁small	-8.69983
ist	-8.70271
▁%	-8.70357
▁&	-8.70468
▁Ihr	-8.7052
▁bin	-8.70645
▁Regierung	-8.70886
▁allem	-8.71009
▁eigene	-8.71036
▁proposal	-8.71144
▁nun	-8.71279
▁said	-8.71309
▁access	-8.71481
▁help	-8.71489
u	-8.71669
▁Herrn	-8.71764
▁Stadt	-8.71773
▁Daten	-8.71928
ität	-8.72065
▁means	-8.72353
G	-8.72492
▁clear	-8.72677
▁würde	-8.72677
▁every	-8.72868
▁[[	-8.73052
▁situation	-8.73052
▁since	-8.73073
▁debate	-8.73083
▁große	-8.7342
▁mir	-8.73531
▁quality	-8.73716
▁gut	-8.73937
▁business	-8.73967
▁Mittel	-8.74314
▁15	-8.74506
▁du	-8.74682
▁He	-8.74776
▁Wie	-8.7489
▁wollen	-8.75194
▁However	-8.7565
T	-8.75663
E	-8.7575
▁pro	-8.75802
der	-8.75881
▁6	-8.75917
▁Für	-8.76014
▁offer	-8.76315
▁far	-8.76327
▁Our	-8.76596
▁währ	-8.76702
▁Ge	-8.76895
▁including	-8.76932
▁particular	-8.76943
▁Politik	-8.76951
▁each	-8.76955
▁China	-8.7699
▁rooms	-8.77142
▁zusammen	-8.77344
▁Und	-8.77413
▁De	-8.77749
▁Committee	-8.77913
▁modern	-8.78241
politik	-8.78295
▁US	-8.78601
▁W	-8.78798
▁give	-8.79132
▁unseren	-8.79343
hin	-8.79394
▁On	-8.79524
ter	-8.79572
▁three	-8.7966
▁And	-8.79885
▁Länder	-8.80028
x	-8.80131
▁common	-8.80354
▁Recht	-8.80666
▁next	-8.8067
▁etwas	-8.80693
▁sagen	-8.80755
▁sicher	-8.80907
▁drei	-8.80908
▁provide	-8.80954
▁doch	-8.81032
3	-8.81076
▁large	-8.81104
▁problem	-8.81313
▁measures	-8.81371
▁few	-8.81471
▁z	-8.81901
ा	-8.8233
▁agreement	-8.82335
▁come	-8.8254
▁back	-8.82603
▁energy	-8.82621
▁At	-8.83147
▁insbesondere	-8.83343
▁private	-8.83606
▁go	-8.83661
▁put	-8.83742
sch	-8.83824
▁citizens	-8.8384
▁areas	-8.83975
▁ersten	-8.84369
▁erhalten	-8.84628
ß	-8.84762
bar	-8.84817
▁ensure	-8.8511
▁Fall	-8.85519
▁global	-8.85716
▁Unterstützung	-8.85934
]]	-8.85975
▁again	-8.86012
▁soll	-8.86369
ierung	-8.86531
▁O	-8.86609
▁taken	-8.86616
▁denn	-8.86725
▁La	-8.86812
▁change	-8.86868
▁Namen	-8.86938
et	-8.87042
▁further	-8.87168
▁Kunden	-8.87804
▁letzten	-8.87891
land	-8.87955
▁Problem	-8.88108
▁position	-8.88127
▁tun	-8.88486
▁Group	-8.88512
▁einfach	-8.88519
▁Unter	-8.88731
ity	-8.88816
▁stay	-8.88822
क	-8.8895
bei	-8.89403
▁Zusammenarbeit	-8.89467
▁lassen	-8.89504
▁shall	-8.89537
▁kein	-8.89628
▁waren	-8.89703
▁necessary	-8.89731
▁company	-8.89929
P	-8.89933
innen	-8.89976
▁Sicherheit	-8.89996
▁security	-8.90209
▁special	-8.90288
heit	-8.90414
▁problems	-8.90503
▁Energie	-8.91021
▁law	-8.91128
▁beim	-8.91142
▁stehen	-8.91239
▁why	-8.91268
▁geben	-8.91268
▁while	-8.91295
▁given	-8.91447
▁however	-8.91577
▁/	-8.9163
▁besteht	-8.91759
▁System	-8.91771
▁|	-8.91784
it	-8.92131
M	-8.92219
▁Über	-8.92232
▁group	-8.92278
▁zurück	-8.92291
ig	-8.92306
▁cooperation	-8.92509
▁No	-8.92537
▁life	-8.92658
▁hope	-8.9296
▁legal	-8.93113
▁2009	-8.93437
▁form	-8.93756
dem	-8.93838
▁Ländern	-8.93907
▁located	-8.93938
▁vote	-8.93948
▁7	-8.94049
igen	-8.94178
ll	-8.94336
gar	-8.94665
▁wäre	-8.94672
ab	-8.9468
▁steht	-8.94715
▁always	-8.94845
▁With	-8.94901
▁House	-8.95211
▁United	-8.95282
▁neu	-8.95562
▁sehen	-8.95632
mit	-8.95737
W	-8.95837
▁einmal	-8.95866
▁fest	-8.96182
▁weitere	-8.96431
▁wirklich	-8.96544
▁better	-8.96617
▁action	-8.96628
▁8	-8.96683
▁12	-8.96805
▁present	-8.96814
▁dabei	-8.96884
▁They	-8.96962
▁main	-8.97076
▁protection	-8.97144
▁30	-8.97431
H	-8.97472
▁full	-8.97606
▁Fragen	-8.9761
▁Richtlinie	-8.97676
▁Finanz	-8.98032
▁natürlich	-8.9808
▁result	-8.98133
grund	-8.98292
▁USA	-8.98397
▁Was	-8.9877
▁Kollegen	-8.98914
▁did	-8.99009
erstatt	-8.99136
▁trade	-8.9919
▁needs	-8.99534
▁Umwelt	-8.99588
▁power	-8.99723
▁solche	-8.99788
▁production	-8.99858
▁worden	-8.9999
ia	-9.00118
as	-9.00185
▁using	-9.0023
▁p	-9.00286
▁Community	-9.00369
▁down	-9.00372
▁current	-9.00387
se	-9.00551
▁open	-9.00554
▁muß	-9.00623
▁Bedeutung	-9.00625
▁become	-9.00689
▁around	-9.00707
▁U	-9.00942
ion	-9.01116
▁based	-9.0113
▁c	-9.01326
▁Verfügung	-9.01415
ste	-9.01428
▁working	-9.01592
▁state	-9.01636
isch	-9.01754
aus	-9.01923
▁What	-9.02027
▁local	-9.02216
▁centre	-9.02269
▁Un	-9.02279
na	-9.02336
▁hand	-9.02419
▁Seite	-9.02524
▁terms	-9.02647
▁Aber	-9.02734
▁Möglichkeit	-9.02753
▁seinen	-9.02861
▁großen	-9.0295
▁whether	-9.03179
▁wissen	-9.03204
O	-9.03405
▁water	-9.03437
र	-9.03675
▁particularly	-9.03919
▁These	-9.03982
is	-9.03993
▁role	-9.04021
▁direkt	-9.0428
at	-9.04322
▁respect	-9.04383
▁together	-9.04385
▁Thema	-9.04407
1	-9.04433
▁another	-9.04456
▁aller	-9.04457
▁Schutz	-9.04505
▁second	-9.0471
▁kommen	-9.0485
▁erste	-9.04861
man	-9.04905
▁Kinder	-9.0491
▁Auch	-9.05042
▁Als	-9.05225
▁gleich	-9.05282
4	-9.05581
▁di	-9.0569
▁St	-9.05815
▁Beispiel	-9.05828
▁children	-9.05835
▁Hier	-9.06098
▁Markt	-9.06134
▁When	-9.06371
▁German	-9.06613
▁könnte	-9.06901
erhalb	-9.06917
▁rapporteur	-9.07059
▁Ende	-9.07229
▁Weise	-9.07318
▁davon	-9.07481
▁bieten	-9.07663
no	-9.07739
▁Zukunft	-9.07939
▁km	-9.08054
▁stellen	-9.08243
▁gegenüber	-9.08481
▁Service	-9.08549
▁Rolle	-9.08603
▁conditions	-9.08667
▁darüber	-9.08715
▁Probleme	-9.08814
os	-9.08937
▁certain	-9.09084
▁experience	-9.09216
▁Weg	-9.09268
v	-9.09311
▁daher	-9.09501
▁issues	-9.09534
▁entfernt	-9.09539
▁soziale	-9.0961
▁whole	-9.09874
co	-9.09915
▁control	-9.10121
▁page	-9.10182
▁close	-9.10227
R	-9.10324
▁women	-9.10405
▁companies	-9.10448
V	-9.10514
▁health	-9.10546
▁account	-9.1066
▁various	-9.10712
▁government	-9.10812
the	-9.1095
▁positive	-9.10975
_	-9.11072
▁Frauen	-9.1115
▁unser	-9.11156
▁sowohl	-9.11211
▁Bar	-9.11286
▁hatte	-9.11296
▁Gäste	-9.11379
▁erreichen	-9.11458
▁industry	-9.1158
▁budget	-9.11624
▁matter	-9.1177
N	-9.11922
▁basis	-9.11955
▁befindet	-9.12041
san	-9.12237
▁sector	-9.12413
ta	-9.12445
▁Mrs	-9.1247
ungs	-9.12574
▁Arbeits	-9.12671
▁unterstützen	-9.12688
▁research	-9.12813
▁non	-9.12995
un	-9.13009
il	-9.13166
▁really	-9.1325
▁Staaten	-9.13446
▁Am	-9.13558
▁Man	-9.13596
kommen	-9.13609
▁especially	-9.13686
▁transport	-9.13732
▁besonders	-9.13809
▁meiner	-9.13938
▁gemeinsame	-9.14062
▁systems	-9.1423
े	-9.14261
▁project	-9.14288
5	-9.14349
▁con	-9.14463
ra	-9.14581
▁create	-9.14635
▁ihnen	-9.14711
▁done	-9.14787
▁staff	-9.14933
▁region	-9.15019
▁short	-9.15159
▁l	-9.15183
▁wichtige	-9.15186
▁look	-9.1553
▁Haushalts	-9.15594
▁third	-9.15597
▁dort	-9.156
▁Haus	-9.15637
▁location	-9.15871
▁site	-9.16009
▁verschiedenen	-9.16163
ur	-9.16233
▁Situation	-9.16252
▁Tag	-9.16303
▁million	-9.16339
▁Fraktion	-9.16364
up	-9.16409
▁Meinung	-9.16415
markt	-9.16454
I	-9.16562
▁International	-9.16581
▁name	-9.16603
▁less	-9.16616
▁wirtschaftliche	-9.16624
▁single	-9.1665
▁New	-9.16651
▁beide	-9.16708
▁ja	-9.16726
▁programme	-9.16913
▁J	-9.16924
▁Seiten	-9.16941
▁gute	-9.16957
punkt	-9.17012
▁major	-9.17131
▁zwar	-9.17248
▁f	-9.17255
ige	-9.17675
▁San	-9.17712
▁decision	-9.18038
▁i	-9.18299
▁b	-9.18595
ein	-9.18611
L	-9.18632
▁start	-9.18793
ment	-9.1919
▁specific	-9.19256
▁general	-9.19368
▁continue	-9.19368
▁Alle	-9.19374
▁environment	-9.19409
▁itself	-9.19458
▁Germany	-9.19558
▁Rechts	-9.1963
▁alles	-9.19728
▁subject	-9.19943
▁something	-9.19983
▁several	-9.20078
▁Artikel	-9.2017
▁klar	-9.20234
▁food	-9.20388
▁Haupt	-9.20399
▁führen	-9.20409
▁price	-9.20502
▁50	-9.20583
▁genau	-9.20623
her	-9.20678
▁old	-9.20803
▁thank	-9.20946
antrag	-9.21059
▁resolution	-9.21084
▁Software	-9.21118
▁Hilfe	-9.21319
▁glaube	-9.21346
▁car	-9.21371
▁ange	-9.21406
▁EUR	-9.216
▁least	-9.21638
▁making	-9.21773
▁home	-9.21802
▁range	-9.21838
▁internationalen	-9.21909
wohl	-9.2199
schließ	-9.2203
▁Programm	-9.2212
▁personal	-9.22185
▁gesamte	-9.22217
▁excellent	-9.22327
▁Uhr	-9.22399
▁regard	-9.22418
me	-9.22489
▁ask	-9.2257
zeit	-9.22576
▁crisis	-9.22653
▁2008	-9.22687
▁Leben	-9.2271
▁weit	-9.22734
▁wish	-9.22943
▁following	-9.23068
▁Le	-9.23131
▁co	-9.23217
▁individual	-9.23441
▁Z	-9.23522
▁gentlemen	-9.23577
▁2010	-9.23657
▁16	-9.23692
ve	-9.23723
▁directive	-9.23777
▁line	-9.23959
▁away	-9.2404
sprache	-9.24102
▁going	-9.24228
▁Lösung	-9.2447
▁Ort	-9.24525
▁forward	-9.24664
▁management	-9.24761
▁gemeinsam	-9.24928
▁family	-9.24947
▁Gemeinschaft	-9.25008
▁möchten	-9.25055
▁Form	-9.25179
▁rules	-9.25367
▁notwendig	-9.25385
▁money	-9.26057
raum	-9.26065
▁17	-9.26076
▁found	-9.26113
di	-9.26115
▁approach	-9.26122
▁welcome	-9.26132
▁air	-9.26281
▁Wasser	-9.26456
▁Preis	-9.26511
▁Kolleg	-9.26529
▁hinaus	-9.26535
▁bekannt	-9.2657
▁öffentliche	-9.26659
▁growth	-9.26738
▁9	-9.26764
▁product	-9.26786
▁once	-9.26889
▁little	-9.27122
▁software	-9.27145
▁Region	-9.27149
▁etc	-9.2738
▁period	-9.27604
(	-9.27672
▁towards	-9.27681
▁institutions	-9.27778
▁Du	-9.27946
▁Geschäfts	-9.27952
lichen	-9.27991
▁online	-9.28193
▁ideal	-9.28307
▁Zusammenhang	-9.28373
▁increase	-9.28379
▁Personen	-9.28411
▁until	-9.28482
▁Madam	-9.28577
▁stellt	-9.28612
go	-9.28637
▁Ihren	-9.28658
▁fast	-9.28661
▁World	-9.28931
▁him	-9.28949
▁things	-9.29033
liche	-9.29222
ka	-9.29399
▁kommt	-9.29477
्	-9.29548
▁often	-9.29561
▁call	-9.29746
▁pre	-9.29813
▁erst	-9.29832
▁agree	-9.29833
▁14	-9.29916
▁jeder	-9.30142
▁Bank	-9.30236
▁Gebiet	-9.30251
träge	-9.30356
▁aid	-9.30386
▁zweite	-9.3042
ner	-9.30536
▁Wirtschaft	-9.30615
▁off	-9.30895
▁Treaty	-9.309
▁regional	-9.30918
▁Schluss	-9.31074
ant	-9.3108
▁100	-9.31127
▁value	-9.31235
▁play	-9.3127
▁opportunity	-9.31413
▁besser	-9.31499
▁größte	-9.31562
ä	-9.31593
ien	-9.31602
▁rather	-9.31611
▁bitte	-9.31882
ma	-9.31898
▁customers	-9.32006
ordnung	-9.32025
▁25	-9.32332
▁voll	-9.32525
®	-9.32534
▁Kosten	-9.32554
bstimmung	-9.326
▁mind	-9.32693
▁activities	-9.3273
▁weniger	-9.32778
▁schnell	-9.32911
▁interest	-9.32936
▁days	-9.32942
ness	-9.32944
▁Rück	-9.33167
ling	-9.33206
▁quite	-9.33231
ca	-9.33266
leicht	-9.33285
▁list	-9.33342
▁daran	-9.33348
▁Verbraucher	-9.33515
▁unterstützt	-9.33558
▁might	-9.33558
▁bringen	-9.33573
▁Industrie	-9.33706
▁bzw	-9.33919
trifft	-9.33982
▁resources	-9.34005
so	-9.3408
▁State	-9.34087
da	-9.34272
▁provided	-9.34279
ke	-9.34287
▁sea	-9.34324
▁include	-9.34415
▁design	-9.34444
▁Durch	-9.3457
▁Produkte	-9.3477
▁11	-9.34776
▁gilt	-9.34794
▁progress	-9.34841
▁gemacht	-9.34884
▁Viel	-9.35156
▁Geld	-9.35236
j	-9.35339
la	-9.35491
▁etwa	-9.35503
▁reason	-9.35567
▁framework	-9.35574
▁fully	-9.35662
▁town	-9.3569
▁economy	-9.35743
ie	-9.35746
▁Millionen	-9.35752
▁Ebene	-9.35872
▁indem	-9.35965
▁yet	-9.36001
▁favour	-9.36029
▁gesagt	-9.36063
▁nämli	-9.36144
ि	-9.3636
▁Unsere	-9.36415
▁behalf	-9.3647
▁Hotels	-9.3659
ro	-9.36679
▁Mal	-9.36827
▁field	-9.36885
▁September	-9.37054
▁having	-9.37061
▁past	-9.37098
▁she	-9.37132
▁Wirtschafts	-9.37133
▁dar	-9.37167
▁gerade	-9.37274
▁technology	-9.37359
▁solution	-9.37385
▁mehrere	-9.37399
ate	-9.37525
▁bereit	-9.37528
▁Reform	-9.37776
▁contact	-9.379
▁among	-9.37906
▁ladies	-9.38018
▁Erfahrung	-9.38222
▁Berlin	-9.38319
▁Rates	-9.38326
▁After	-9.38467
▁left	-9.38672
und	-9.38815
▁light	-9.39019
▁ihn	-9.39128
▁Qualität	-9.39151
▁jeden	-9.39247
▁nehmen	-9.3926
▁:	-9.39287
▁members	-9.3932
▁content	-9.39385
▁allow	-9.39432
ism	-9.39469
▁2007	-9.39492
ce	-9.39598
▁above	-9.39603
▁amendments	-9.39752
▁Punkt	-9.3979
|	-9.39852
▁meisten	-9.39964
▁safety	-9.3998
▁easy	-9.40071
▁kind	-9.40123
▁statt	-9.40125
ary	-9.40137
nächst	-9.40167
▁heart	-9.40199
▁show	-9.4039
▁Ansicht	-9.40405
▁Deutschland	-9.40458
▁Rechte	-9.40498
▁Spiel	-9.4052
enden	-9.40553
▁minutes	-9.40618
▁erforderlich	-9.40673
▁enjoy	-9.40699
▁costs	-9.40758
▁Projekt	-9.40779
▁taking	-9.40811
▁key	-9.40847
▁adopted	-9.40941
gen	-9.40942
▁opinion	-9.40976
▁ebenfalls	-9.41066
▁ihm	-9.41267
ry	-9.41493
keit	-9.41577
▁13	-9.41615
▁dessen	-9.4168
7	-9.41689
▁proposals	-9.41727
recht	-9.41735
▁Vorschläge	-9.41744
▁unterschiedlich	-9.41996
▁risk	-9.42018
▁Bezug	-9.42054
▁Kultur	-9.42091
▁Europas	-9.42124
The	-9.42198
▁website	-9.42281
▁Web	-9.42409
im	-9.42448
▁verbunden	-9.42489
▁text	-9.42505
▁Gesellschaft	-9.42612
▁addition	-9.4266
▁legislation	-9.42688
▁application	-9.4273
sichtlich	-9.42919
ive	-9.42938
▁One	-9.42962
▁difficult	-9.42983
▁darf	-9.43006
▁called	-9.43024
▁Park	-9.43116
▁darin	-9.43121
स	-9.43135
▁handelt	-9.43171
▁policies	-9.43242
▁se	-9.43271
▁building	-9.43555
▁Sch	-9.43767
▁hohe	-9.44006
▁Minister	-9.44039
▁gehen	-9.44042
▁Members	-9.44077
▁verwendet	-9.44118
▁Bild	-9.44266
für	-9.4447
▁weltweit	-9.44482
▁Wahl	-9.44498
▁attention	-9.44662
▁ca	-9.44664
▁Verhandlung	-9.44895
▁besondere	-9.44992
▁X	-9.45016
▁due	-9.45046
bau	-9.45053
do	-9.45127
satz	-9.45529
▁simply	-9.45624
EN	-9.45655
▁concerned	-9.45799
▁Website	-9.45826
".	-9.45863
▁sei	-9.4589
▁deutlich	-9.45911
▁responsibility	-9.46016
▁beautiful	-9.4603
▁19	-9.46063
ende	-9.46132
▁schaffen	-9.4634
▁macht	-9.46351
▁2000	-9.46378
▁Sozial	-9.46422
stand	-9.46425
8	-9.46568
▁dürfen	-9.46582
é	-9.46602
▁Restaurant	-9.46671
▁results	-9.46729
▁erreicht	-9.46813
▁projects	-9.46914
and	-9.47006
ber	-9.47006
▁Do	-9.47073
▁Produkt	-9.47125
▁0	-9.47252
▁verschiedene	-9.47271
bkommen	-9.47298
▁effective	-9.47319
▁Steuer	-9.47355
▁importance	-9.4741
▁Co	-9.4742
▁bestimmte	-9.47493
▁provides	-9.47505
ton	-9.47519
▁complete	-9.47527
▁society	-9.47635
eshalb	-9.47675
Y	-9.47925
haus	-9.47954
▁sub	-9.48092
▁brauchen	-9.48125
▁bedeutet	-9.48182
▁principle	-9.4829
▁total	-9.483
tern	-9.48394
▁strategy	-9.48551
teil	-9.48607
▁person	-9.4866
▁hoch	-9.48687
▁del	-9.48878
▁points	-9.48911
▁Se	-9.48936
▁24	-9.49008
▁version	-9.4902
▁Demokratie	-9.49021
▁environmental	-9.49047
▁greater	-9.49063
▁hoffe	-9.49373
▁natural	-9.49385
▁makes	-9.49441
▁Menschenrechte	-9.49509
▁einigen	-9.49608
▁groups	-9.49611
ak	-9.49723
▁sollen	-9.49801
▁Richtung	-9.49858
schaft	-9.49863
▁TV	-9.49883
stellung	-9.49908
▁Anwendung	-9.50275
▁National	-9.50434
ti	-9.50497
▁land	-9.50531
ul	-9.50565
▁Fortschritt	-9.50629
▁training	-9.50672
▁bring	-9.50719
▁Debatte	-9.50762
▁questions	-9.50762
▁Verantwortung	-9.50764
▁side	-9.50948
schutz	-9.51071
▁deal	-9.51096
▁recent	-9.51157
Z	-9.51246
▁along	-9.51316
ated	-9.51382
▁El	-9.51398
▁central	-9.51457
▁pay	-9.51468
▁known	-9.51491
▁standards	-9.51519
▁achieve	-9.51563
age	-9.51579
isierung	-9.51713
▁Bau	-9.51746
ik	-9.51746
▁required	-9.51795
zustellen	-9.51849
▁breakfast	-9.51866
▁words	-9.51881
▁times	-9.51927
ty	-9.51929
▁meeting	-9.51935
▁Dank	-9.51983
▁Zugang	-9.52131
ler	-9.52226
▁Verbindung	-9.52328
▁others	-9.52386
6	-9.52474
न	-9.52513
ze	-9.52551
chen	-9.52661
▁Umsetzung	-9.52911
▁authorities	-9.52926
▁Zahl	-9.52946
▁visit	-9.52981
▁fundamental	-9.53038
▁hervor	-9.5317
▁clearly	-9.53225
▁Mar	-9.53242
am	-9.53354
▁cost	-9.5347
▁deshalb	-9.5355
▁)	-9.53556
▁step	-9.53599
fall	-9.53698
uß	-9.53794
▁See	-9.53928
▁via	-9.5394
▁live	-9.53997
▁Von	-9.54121
▁entwickelt	-9.54127
▁bar	-9.54161
▁competition	-9.54257
▁essential	-9.54316
▁standard	-9.54403
▁feel	-9.54424
▁Initiative	-9.5443
▁four	-9.54442
sa	-9.54478
▁address	-9.54523
▁UN	-9.54573
▁Wettbewerb	-9.54592
▁würden	-9.54629
▁je	-9.54758
30	-9.5488
▁reform	-9.54881
▁Nähe	-9.54889
▁November	-9.54905
▁cultural	-9.55041
nehmen	-9.55074
▁Geschichte	-9.55151
▁top	-9.55265
▁Bevölkerung	-9.55384
▁technical	-9.55477
▁let	-9.55511
plan	-9.556
▁et	-9.55628
▁Lebens	-9.55648
▁Version	-9.55664
▁user	-9.55679
▁lange	-9.55716
",	-9.55718
▁wichtigste	-9.55718
▁2005	-9.55784
▁serious	-9.55791
X	-9.55826
▁Nicht	-9.55914
▁internal	-9.55917
▁nature	-9.55979
▁anzu	-9.56044
▁enough	-9.56139
▁near	-9.56148
▁longer	-9.56151
▁Pro	-9.56293
▁employment	-9.56323
▁Interesse	-9.56334
▁le	-9.56371
▁nächsten	-9.56437
▁directly	-9.56486
ं	-9.56502
ir	-9.56708
▁months	-9.56751
▁proposed	-9.56874
▁findet	-9.56931
▁40	-9.56966
▁Text	-9.56979
▁facilities	-9.57053
ismus	-9.57063
▁Klima	-9.57075
▁views	-9.57078
▁responsible	-9.57093
▁history	-9.57175
▁Windows	-9.57211
▁Dienstleistung	-9.57415
fassung	-9.57417
▁vier	-9.57441
▁nutzen	-9.57471
▁Natur	-9.5754
▁My	-9.57554
▁young	-9.57554
auf	-9.57573
▁allerdings	-9.57637
▁Russia	-9.57788
legen	-9.57805
ting	-9.57876
▁Sicherheits	-9.57897
▁gehört	-9.57902
gleich	-9.57917
▁beach	-9.5792
▁[	-9.58038
▁Verbesserung	-9.58198
▁besten	-9.58201
▁currently	-9.58207
▁Jahres	-9.58386
▁Paris	-9.58402
ad	-9.5843
▁April	-9.58442
▁werde	-9.58579
▁u	-9.58593
wirkungen	-9.5868
▁2006	-9.58797
▁requirements	-9.58817
▁g	-9.58893
▁pages	-9.58917
▁peace	-9.58919
weisen	-9.5895
▁force	-9.58969
▁themselves	-9.59013
▁solutions	-9.59062
▁network	-9.59127
▁parties	-9.59182
▁interests	-9.59308
▁Handels	-9.59383
▁internationale	-9.59483
ja	-9.59502
▁Ob	-9.59506
▁ago	-9.59514
▁needed	-9.5955
▁Israel	-9.59581
▁Ziele	-9.59584
▁Ja	-9.59609
los	-9.5962
▁ausge	-9.59654
▁involved	-9.59744
▁request	-9.59816
▁implementation	-9.5982
▁freedom	-9.5985
▁guests	-9.59851
▁beispielsweise	-9.59924
▁Entscheidung	-9.59934
▁event	-9.60012
▁improve	-9.601
▁never	-9.60111
▁sure	-9.60166
▁Bedingungen	-9.60205
▁Grundlage	-9.60323
▁000	-9.6047
▁station	-9.60524
▁fair	-9.60625
▁Tat	-9.60676
▁Hand	-9.60686
▁language	-9.60711
▁century	-9.60777
per	-9.60778
▁einzige	-9.60808
▁events	-9.6081
▁Verfahren	-9.60852
▁democracy	-9.60909
nach	-9.60954
▁Tatsache	-9.60996
▁Vereinigte	-9.61105
▁art	-9.61108
▁gegeben	-9.61157
▁extremely	-9.61187
▁house	-9.6121
▁From	-9.61241
▁Zusammen	-9.61274
li	-9.6128
▁efforts	-9.61444
▁regions	-9.61462
▁Partei	-9.61467
▁y	-9.61493
▁Selbst	-9.61512
▁voted	-9.61601
▁Please	-9.61622
▁keep	-9.61642
he	-9.61684
system	-9.61699
ster	-9.61711
▁weiß	-9.61748
▁please	-9.61773
mo	-9.61812
au	-9.61897
▁upon	-9.61968
▁hard	-9.62209
▁unique	-9.62299
▁regulation	-9.62316
▁h	-9.6232
▁France	-9.62322
id	-9.62462
usschusses	-9.62608
▁capital	-9.62614
▁plan	-9.62668
▁wide	-9.6267
á	-9.62748
▁final	-9.62757
ei	-9.62852
▁arbeiten	-9.62913
▁Reihe	-9.62915
▁team	-9.62957
▁führt	-9.63144
▁developed	-9.63149
est	-9.63315
त	-9.63319
▁effect	-9.63416
▁Partner	-9.63434
▁ermöglicht	-9.63482
▁additional	-9.63697
spolitik	-9.63704
▁Neu	-9.6373
▁GmbH	-9.6375
ierte	-9.6375
▁night	-9.63755
▁strong	-9.63791
bereich	-9.63793
▁enthalten	-9.63937
▁kleinen	-9.64071
▁understand	-9.64075
staat	-9.64083
▁restaurant	-9.64226
▁file	-9.64238
geordneten	-9.64249
▁sprechen	-9.64282
▁Wert	-9.64291
▁o	-9.64412
▁soon	-9.64426
▁Einsatz	-9.64439
je	-9.64473
▁negotiations	-9.64692
▁foreign	-9.64696
▁Doch	-9.6482
▁bleiben	-9.64833
▁Technologie	-9.64859
▁music	-9.64874
▁comfortable	-9.64934
▁Vertrag	-9.64935
]	-9.65067
▁Wort	-9.65067
▁lot	-9.65071
▁though	-9.65114
▁Damen	-9.65126
▁share	-9.65161
▁gestellt	-9.6524
tragen	-9.65296
▁By	-9.65329
▁consider	-9.65331
▁developing	-9.65414
lage	-9.65415
▁either	-9.65424
▁frei	-9.65452
▁rate	-9.65547
▁größere	-9.65551
▁halten	-9.6556
▁Kontrolle	-9.65567
▁que	-9.65673
▁fünf	-9.6571
out	-9.65729
▁changes	-9.65787
▁situated	-9.65872
▁direct	-9.65875
zahl	-9.659
ी	-9.66099
ischer	-9.66199
▁zeigt	-9.6621
▁education	-9.66227
mann	-9.66233
▁verfügt	-9.66352
▁Frei	-9.66424
▁Blick	-9.66453
▁Auto	-9.665
tritt	-9.66511
▁könnten	-9.6656
▁meet	-9.66618
▁created	-9.66675
▁Landes	-9.66777
▁Herren	-9.6685
▁everything	-9.66868
igkeit	-9.67079
▁add	-9.67211
▁Möglichkeiten	-9.6722
ci	-9.67305
▁turn	-9.67309
▁program	-9.67323
ek	-9.67346
▁ganze	-9.67361
▁Schritt	-9.67407
rseits	-9.67411
▁wenig	-9.67429
▁climate	-9.6743
▁true	-9.67442
▁post	-9.67473
▁success	-9.67634
▁Strategie	-9.67763
ierten	-9.67777
▁idea	-9.67783
▁nie	-9.67829
▁almost	-9.67922
▁run	-9.67968
▁Verordnung	-9.68022
▁prices	-9.68078
▁Erfolg	-9.68105
&	-9.68125
▁vorgeschlagen	-9.68125
▁check	-9.68151
▁care	-9.68166
▁schwer	-9.68237
▁later	-9.68238
▁accept	-9.68309
▁according	-9.68316
▁v	-9.68332
▁Erklärung	-9.68342
▁French	-9.68382
vor	-9.68427
▁Presidency	-9.6855
In	-9.68566
▁markets	-9.68653
▁Japan	-9.68723
▁thus	-9.68747
▁gleichzeitig	-9.68801
▁comes	-9.68836
▁type	-9.68903
art	-9.68964
▁receive	-9.69054
▁cases	-9.69088
▁web	-9.69206
führung	-9.69235
▁living	-9.69237
▁states	-9.69335
▁Institutionen	-9.69339
▁Design	-9.69411
▁‘	-9.69431
▁democratic	-9.69473
▁Nutzung	-9.69586
▁actually	-9.69608
U	-9.69651
▁lead	-9.69656
▁appropriate	-9.69716
▁Erweiterung	-9.69759
▁Platz	-9.69794
▁wohl	-9.69827
ह	-9.69953
▁included	-9.70001
▁ebenso	-9.70027
▁Druck	-9.70234
▁reach	-9.70432
gestimmt	-9.70503
▁Minuten	-9.70532
▁Tages	-9.70563
▁original	-9.70602
zen	-9.70674
▁outside	-9.70692
▁stark	-9.70692
ating	-9.70699
stellen	-9.7078
▁Seit	-9.70825
▁Zentrum	-9.70857
▁West	-9.70879
▁dis	-9.70884
▁Forschung	-9.71025
▁held	-9.7104
▁knowledge	-9.71089
mittel	-9.71139
▁Ergebnis	-9.71188
▁Con	-9.71226
▁Sport	-9.7127
▁Musik	-9.71332
▁procedure	-9.71367
ance	-9.71511
▁thing	-9.7167
▁read	-9.71736
müh	-9.71856
▁send	-9.7189
▁funds	-9.71907
▁investment	-9.71973
ian	-9.71982
▁context	-9.71995
ine	-9.72026
▁Ausdruck	-9.72192
▁rest	-9.72302
inblick	-9.72306
▁einzu	-9.72332
schen	-9.72364
▁road	-9.72383
▁May	-9.72555
▁AG	-9.72561
▁Al	-9.7257
▁walk	-9.72605
▁Interessen	-9.7263
▁America	-9.72681
▁low	-9.72702
▁American	-9.72703
▁Ergebnisse	-9.72846
▁workers	-9.72956
▁hatten	-9.72991
▁impact	-9.73039
▁week	-9.73072
▁21	-9.73236
▁nahe	-9.73256
wesen	-9.73283
setzung	-9.73431
sion	-9.73444
▁space	-9.73466
▁Not	-9.73481
▁Mai	-9.73517
▁Außen	-9.73535
▁aktuelle	-9.73618
▁tax	-9.73621
▁amount	-9.73662
▁darum	-9.73681
▁Mitglieder	-9.7373
ekämpfung	-9.73779
io	-9.73825
sicherheit	-9.73832
▁Dah	-9.73853
▁jede	-9.7386
▁majority	-9.7387
▁communication	-9.73875
▁designed	-9.73914
▁hätte	-9.73925
▁Währung	-9.73938
ger	-9.7403
▁Dr	-9.74117
▁guarantee	-9.74167
▁einzelnen	-9.74197
▁early	-9.74236
▁Antwort	-9.74257
▁How	-9.74288
▁stand	-9.74323
line	-9.74341
9	-9.74382
▁five	-9.74391
▁customer	-9.74416
▁model	-9.74439
▁professional	-9.7446
▁Regionen	-9.74494
ö	-9.7461
▁famous	-9.74735
▁moment	-9.74735
▁Russland	-9.74757
greifen	-9.74762
▁Position	-9.74778
▁media	-9.7492
▁el	-9.7498
▁denke	-9.75056
ex	-9.75091
▁throughout	-9.75132
▁1.	-9.75176
▁Binnen	-9.75245
▁date	-9.7528
▁Fest	-9.7529
▁konnte	-9.75336
▁Herausforderung	-9.7535
▁features	-9.75467
▁demokratische	-9.75493
▁rund	-9.75511
▁London	-9.75552
▁entsprechend	-9.75693
ußerdem	-9.75724
▁auszu	-9.75758
▁across	-9.75772
▁angenommen	-9.75895
▁benefit	-9.75906
▁Government	-9.75926
00	-9.7601
▁dank	-9.76075
▁seen	-9.76096
▁big	-9.76141
▁looking	-9.7615
ina	-9.76194
ga	-9.762
▁Freiheit	-9.76213
▁August	-9.76259
▁genannt	-9.76278
▁2004	-9.76319
DE	-9.76342
▁remain	-9.76355
▁Court	-9.76361
mals	-9.76402
▁certainly	-9.76404
▁ernst	-9.76422
▁ever	-9.7645
▁Online	-9.76553
rat	-9.76712
▁jedem	-9.76838
▁€	-9.76877
▁Sa	-9.76885
J	-9.76934
▁kleine	-9.76977
▁hours	-9.77119
▁euro	-9.77165
▁Personal	-9.77216
que	-9.77259
▁doing	-9.77284
▁gab	-9.77287
sektor	-9.77301
▁Programme	-9.7735
▁Let	-9.7741
▁befinden	-9.77436
▁traditional	-9.77451
▁prevent	-9.77456
▁General	-9.7762
▁perfect	-9.77719
ier	-9.77724
▁heraus	-9.77736
▁setzen	-9.77738
▁Unser	-9.77788
▁Turkey	-9.77841
ßt	-9.77886
▁Po	-9.77953
▁writing	-9.78063
▁Beziehungen	-9.78104
▁Information	-9.78137
▁book	-9.78193
▁links	-9.78201
▁Förderung	-9.78264
▁anti	-9.78279
▁mein	-9.78319
▁game	-9.78357
tra	-9.78383
▁connection	-9.78412
▁pool	-9.78549
ni	-9.78635
▁existing	-9.78677
▁took	-9.78717
haft	-9.78791
rechte	-9.78945
▁relations	-9.79041
▁basic	-9.79043
▁practice	-9.79067
▁Aufgabe	-9.79155
▁fight	-9.79191
▁heißt	-9.79253
▁60	-9.79258
▁South	-9.79352
▁member	-9.79352
▁neben	-9.79365
▁significant	-9.79499
▁half	-9.79649
▁inter	-9.79685
▁normal	-9.79735
▁face	-9.79767
▁Kampf	-9.79795
▁Liste	-9.79806
▁simple	-9.79902
▁helfen	-9.79902
▁Raum	-9.8
▁Familien	-9.80057
▁concerns	-9.80065
▁Türkei	-9.80066
▁term	-9.80182
▁Gelegenheit	-9.80278
▁material	-9.80282
term	-9.80289
▁Beitrag	-9.80308
▁Schaff	-9.80393
▁Bereichen	-9.80456
▁population	-9.80463
▁users	-9.8055
▁try	-9.80572
mal	-9.80703
▁tatsächlich	-9.80734
▁völlig	-9.8077
▁military	-9.80782
folge	-9.80819
▁concerning	-9.80822
ft	-9.80829
▁mentioned	-9.80834
▁apply	-9.80953
▁culture	-9.80956
▁although	-9.8099
▁liegen	-9.81036
form	-9.8108
▁Kraft	-9.81127
▁Mo	-9.81128
▁leading	-9.81131
▁sense	-9.81169
▁develop	-9.81238
▁lack	-9.81297
ो	-9.81315
▁Themen	-9.81383
▁Nord	-9.81442
▁Na	-9.81442
▁Or	-9.81453
▁nothing	-9.81487
▁Iran	-9.81511
▁Verpflichtung	-9.81589
verständlich	-9.81664
▁Macht	-9.81677
▁community	-9.81724
▁committee	-9.81744
▁offen	-9.81858
▁built	-9.81865
▁richtig	-9.81889
▁Kunst	-9.81912
▁completely	-9.81941
nd	-9.82038
▁promote	-9.8233
▁aware	-9.82381
▁deine	-9.82403
10	-9.82475
▁related	-9.82485
▁English	-9.82506
▁holiday	-9.82541
▁relevant	-9.82614
▁bestimmt	-9.82644
▁23	-9.82672
▁package	-9.82699
▁Informations	-9.8274
▁demand	-9.82766
▁East	-9.82853
▁programmes	-9.82949
tal	-9.82977
▁Zum	-9.8302
▁kurz	-9.83041
▁friendly	-9.83095
▁objective	-9.83137
▁choice	-9.83144
▁kon	-9.83257
ial	-9.8326
▁clean	-9.83262
▁reasons	-9.83275
▁double	-9.83376
▁move	-9.83489
▁fort	-9.83512
▁bleibt	-9.83574
▁Dinge	-9.83593
mail	-9.83593
▁internet	-9.83731
zug	-9.8374
erin	-9.83772
▁Struktur	-9.83781
म	-9.83787
▁II	-9.83862
vi	-9.83866
lo	-9.83986
▁image	-9.8405
▁computer	-9.84154
▁äußerst	-9.84161
▁Meer	-9.84173
▁Berg	-9.8428
▁decisions	-9.84287
▁Krise	-9.84343
▁Of	-9.84351
▁Since	-9.84378
gehen	-9.84504
ies	-9.84533
▁abzu	-9.84575
▁link	-9.84677
▁act	-9.84806
▁equipment	-9.84827
▁body	-9.84841
▁1999	-9.85039
▁parts	-9.85047
▁Mitarbeiter	-9.85078
▁Fehler	-9.85082
▁innovative	-9.85121
▁Konferenz	-9.85145
za	-9.85153
▁performance	-9.85164
platz	-9.85206
▁Staats	-9.85227
▁travel	-9.85245
▁focus	-9.85328
▁concern	-9.85386
▁danke	-9.85465
▁200	-9.85604
▁bekommen	-9.85645
▁Prozess	-9.85684
▁card	-9.85752
▁center	-9.85766
▁received	-9.85772
▁weiteren	-9.85839
ü	-9.85858
▁jobs	-9.85918
0	-9.85988
▁established	-9.86021
▁takes	-9.8616
▁includes	-9.86234
▁jedes	-9.86288
▁Bitte	-9.86433
igung	-9.86466
arbeiten	-9.86467
▁objectives	-9.8653
spräsident	-9.86562
son	-9.86583
mm	-9.86635
▁guest	-9.86642
▁aim	-9.86652
▁Transport	-9.86709
▁wegen	-9.86732
▁digital	-9.86792
▁entire	-9.86808
▁Behörden	-9.86808
▁return	-9.8683
▁Prior	-9.86835
ana	-9.86838
▁allows	-9.86847
▁answer	-9.86969
▁später	-9.87093
▁Frankreich	-9.87147
▁men	-9.87178
▁front	-9.87184
▁2003	-9.87199
▁Lisbon	-9.87216
▁Funktion	-9.87265
▁Verwendung	-9.87315
ous	-9.87366
▁schriftlich	-9.87376
▁partners	-9.87407
tro	-9.87468
▁Central	-9.87514
▁regarding	-9.87774
▁values	-9.8778
halten	-9.87793
▁Gewalt	-9.87814
▁Here	-9.87866
▁Sektor	-9.8796
▁agreements	-9.87971
▁follow	-9.88032
▁nachhaltig	-9.88049
▁potential	-9.88072
▁stop	-9.88086
▁agricultural	-9.88104
▁quickly	-9.88108
ko	-9.8817
▁self	-9.88317
▁works	-9.88349
▁Gruppe	-9.88363
▁gerne	-9.88379
▁function	-9.88464
weise	-9.88498
▁Post	-9.88556
gemäß	-9.88561
▁Produktion	-9.8858
▁party	-9.88632
▁Barcelona	-9.88687
▁test	-9.88715
▁below	-9.88736
▁beginning	-9.88826
▁wesentlich	-9.88841
▁Angebot	-9.88889
see	-9.89048
▁ermöglichen	-9.89057
▁Lissabon	-9.89126
▁sound	-9.89131
▁Me	-9.89158
▁Standard	-9.89175
▁Management	-9.89178
▁bed	-9.89198
▁treatment	-9.89219
▁keyword	-9.89502
▁Red	-9.89654
▁Film	-9.89656
▁nice	-9.89691
▁oil	-9.89699
▁Affairs	-9.89748
▁Reise	-9.89762
▁dialogue	-9.8977
▁Auswahl	-9.89773
▁protect	-9.89779
▁Standpunkt	-9.89814
▁stage	-9.89817
▁initiative	-9.8984
▁exchange	-9.89857
▁mean	-9.89867
▁huge	-9.89883
▁Gegen	-9.89897
▁Organisation	-9.89927
ären	-9.89955
▁Her	-9.89964
▁Les	-9.90089
▁Strand	-9.90148
▁extra	-9.90189
▁job	-9.90221
otwendigkeit	-9.90235
▁seems	-9.90257
▁Gesundheit	-9.90269
▁politisch	-9.90276
▁Integration	-9.90308
▁Insel	-9.90353
▁recently	-9.90405
▁Some	-9.90427
▁geführt	-9.90445
▁Article	-9.90471
▁applications	-9.90475
▁al	-9.90521
▁Gesamt	-9.90526
▁enthält	-9.90544
▁indeed	-9.90684
▁Investition	-9.90719
▁achieved	-9.90746
य	-9.90752
Mail	-9.90791
▁accommodation	-9.90824
▁2002	-9.9086
▁illegal	-9.90877
▁finanzielle	-9.90896
▁pressure	-9.90918
▁Groß	-9.90935
▁credit	-9.9096
▁Computer	-9.90977
▁Anfang	-9.90992
▁zeigen	-9.91004
▁ten	-9.91121
▁Mitglied	-9.91151
▁spielen	-9.91169
▁Meine	-9.91208
▁complex	-9.91227
▁stärker	-9.91238
▁Person	-9.91284
í	-9.9136
ring	-9.91674
ell	-9.91766
▁Video	-9.91797
▁choose	-9.91817
▁Arbeitnehmer	-9.91831
▁vergangen	-9.91911
▁contains	-9.91937
▁zahlreiche	-9.91965
▁gehören	-9.91978
▁hinter	-9.91988
▁gar	-9.92008
lichkeit	-9.92033
▁Erst	-9.92073
▁search	-9.92201
▁floor	-9.92271
▁bestehen	-9.92291
ise	-9.92512
▁Finally	-9.92546
ho	-9.92629
▁öffentlich	-9.92687
▁22	-9.927
▁highly	-9.92729
▁billion	-9.92776
ted	-9.92889
▁verbessern	-9.929
usschuss	-9.92929
les	-9.92968
▁successful	-9.92984
setzen	-9.93021
▁derzeit	-9.9309
▁integration	-9.9313
▁mobile	-9.93152
▁Tage	-9.93155
▁Benutzer	-9.93175
▁lässt	-9.93188
▁Golf	-9.93292
▁wider	-9.93321
▁governments	-9.93419
ol	-9.93433
▁everyone	-9.9354
▁June	-9.93546
▁heutige	-9.9357
▁verfüg	-9.93598
sitz	-9.93696
▁increased	-9.93701
▁series	-9.93743
tes	-9.93816
▁jene	-9.93859
▁Ro	-9.93979
50	-9.9398
▁files	-9.9416
▁presented	-9.94163
▁came	-9.94191
▁active	-9.9425
▁Flug	-9.94265
▁leicht	-9.94303
▁erklärt	-9.94324
sche	-9.9433
con	-9.94372
kraft	-9.94387
legung	-9.94397
▁office	-9.94405
less	-9.94449
▁equipped	-9.94479
▁Verein	-9.94492
▁whose	-9.94503
▁Ko	-9.94515
▁Vertreter	-9.94559
▁City	-9.94607
verkehr	-9.94633
▁Umgebung	-9.94685
▁Woche	-9.94736
berg	-9.94807
bewert	-9.94815
▁higher	-9.94823
industrie	-9.94834
..."	-9.94836
▁direction	-9.94866
▁ausgestattet	-9.94881
▁Anzahl	-9.94904
▁Amsterdam	-9.94909
of	-9.94977
▁Jahrhundert	-9.94988
▁commitment	-9.94992
▁st	-9.95011
▁carried	-9.95067
▁Gemeinschafts	-9.95073
ization	-9.95109
▁joint	-9.95166
▁Ukraine	-9.95245
▁amendment	-9.95263
▁Juni	-9.95313
bare	-9.95364
min	-9.95368
▁Landwirtschaft	-9.95383
▁entsprechende	-9.95395
▁creation	-9.95462
▁Li	-9.95482
buch	-9.95516
tu	-9.95537
▁alte	-9.95547
▁agreed	-9.95566
▁PC	-9.9557
ful	-9.95625
bank	-9.95627
▁2001	-9.95661
dauer	-9.95769
▁nuclear	-9.95778
▁Dialog	-9.9578
▁verwenden	-9.95781
▁häufig	-9.95794
▁rates	-9.95884
▁Herzen	-9.95926
▁Beschäftigung	-9.95957
20	-9.96003
▁Now	-9.96087
▁gewisse	-9.96102
haltung	-9.96106
▁Can	-9.96129
▁fördern	-9.96153
▁historische	-9.96203
▁Zweit	-9.96249
▁Privat	-9.96287
▁Team	-9.96329
▁consumers	-9.96338
▁civil	-9.96591
▁cross	-9.96592
▁industrial	-9.96689
▁gebracht	-9.96694
▁asked	-9.96701
▁commercial	-9.96706
▁video	-9.96736
we	-9.96756
▁perhaps	-9.96791
▁unseres	-9.96794
▁Bo	-9.96851
one	-9.96866
▁geschlossen	-9.96867
▁Gebäude	-9.96908
stimmen	-9.96919
▁Arbeitsplätze	-9.96934
ischerei	-9.96979
▁aktiv	-9.97041
▁Pa	-9.97068
bo	-9.97098
Re	-9.97131
▁Einführung	-9.97147
▁balance	-9.97178
▁goods	-9.97215
▁enable	-9.97273
▁Ski	-9.97304
wirtschaft	-9.9736
▁external	-9.97363
vo	-9.97402
▁Business	-9.97415
▁compromise	-9.97447
Be	-9.97447
denken	-9.97469
bi	-9.97525
▁don	-9.97542
mäßig	-9.97593
▁Währ	-9.97611
▁behind	-9.9769
▁press	-9.9772
Mehrheit	-9.97758
▁wahr	-9.97795
▁bus	-9.97878
▁80	-9.97897
▁schwierig	-9.97923
▁principles	-9.97967
▁levels	-9.97995
▁table	-9.98007
▁Preise	-9.98076
▁reduce	-9.9819
pe	-9.98228
▁reviews	-9.98272
▁York	-9.98277
▁sorgen	-9.98302
▁Therefore	-9.98347
▁sagte	-9.9838
che	-9.98384
▁download	-9.98471
▁Go	-9.98528
▁added	-9.98563
▁speak	-9.9861
mp	-9.98671
▁size	-9.98824
▁response	-9.98862
▁First	-9.98878
▁opportunities	-9.98912
ap	-9.98945
▁alternative	-9.98959
▁eigentlich	-9.99016
▁considered	-9.99098
▁head	-9.99115
sh	-9.99123
▁Bad	-9.99136
▁27	-9.99162
▁entwickeln	-9.99255
▁aspects	-9.99257
▁Debian	-9.99273
▁latest	-9.9931
▁age	-9.99354
▁setting	-9.99386
▁Lösungen	-9.99413
▁possibility	-9.99442
▁style	-9.99464
si	-9.99469
▁Villa	-9.99536
▁speed	-9.99592
▁Convention	-9.99647
▁Wachstum	-9.99724
po	-9.99735
▁Neben	-9.99779
▁Handel	-9.99806
▁summer	-9.99807
▁bestehende	-9.99842
▁War	-9.9986
▁popular	-9.99936
▁Familie	-9.99937
ri	-9.9995
▁multi	-9.99969
▁Car	-9.99974
▁Ho	-10.0004
▁shown	-10.0006
net	-10.0008
▁Server	-10.002
▁Luft	-10.0024
▁bisher	-10.0024
▁atmosphere	-10.003
▁legislative	-10.0032
iger	-10.0032
▁Konflikt	-10.0034
000	-10.0039
▁lediglich	-10.0043
▁previous	-10.0043
▁shows	-10.0045
▁providing	-10.0053
▁sofort	-10.0058
time	-10.0059
▁North	-10.0064
▁500	-10.0068
▁Sitzung	-10.0068
▁reached	-10.007
▁CD	-10.0071
▁Besuch	-10.0075
programm	-10.0077
▁Flughafen	-10.0083
▁effects	-10.0086
▁verstehen	-10.0088
▁easily	-10.0088
▁Buch	-10.0099
▁*	-10.01
▁persönlich	-10.0111
▁Spain	-10.0112
▁Lebensmittel	-10.012
geht	-10.0121
ut	-10.0126
▁allein	-10.0128
▁nichts	-10.0132
▁High	-10.0136
▁Vertrags	-10.0138
▁sustainable	-10.0138
IT	-10.0142
▁mal	-10.0144
▁neuer	-10.0154
▁Sommer	-10.0157
▁matters	-10.016
iz	-10.0162
▁Ausgabe	-10.0163
▁rule	-10.0166
▁erfolgreich	-10.0168
▁prepared	-10.0171
elwor	-10.0171
hilfe	-10.0173
sichts	-10.0177
▁Party	-10.0186
▁umfassende	-10.019
▁cause	-10.0191
ac	-10.0201
ल	-10.0206
▁similar	-10.0213
▁Italy	-10.0216
▁erneut	-10.022
▁capacity	-10.022
▁leave	-10.0224
ach	-10.0224
▁enlargement	-10.0228
▁March	-10.0229
▁verfügbar	-10.0234
▁combat	-10.0236
erweise	-10.0238
for	-10.024
▁Ma	-10.0244
▁Africa	-10.0245
ker	-10.025
▁gewährleisten	-10.0252
▁zusätzliche	-10.0253
▁reports	-10.0255
▁guten	-10.0256
▁charge	-10.0259
▁eingesetzt	-10.026
▁Behandlung	-10.026
ländern	-10.0263
▁decided	-10.0263
▁thanks	-10.0268
▁t	-10.0276
▁construction	-10.0283
▁coming	-10.0287
ure	-10.029
▁increasing	-10.0291
▁materials	-10.0309
ck	-10.0311
▁supply	-10.0328
des	-10.0331
▁Diskussion	-10.0342
▁hohen	-10.0344
▁Sicht	-10.0346
▁tool	-10.0351
▁Sprache	-10.0354
▁à	-10.0355
▁draw	-10.0356
hand	-10.0356
▁Präsidentschaft	-10.0363
▁British	-10.0364
wie	-10.0365
ium	-10.0373
▁Den	-10.0374
▁Kern	-10.0378
▁remains	-10.0379
▁Vereinbarung	-10.0381
▁bessere	-10.0381
▁Era	-10.0381
▁consumer	-10.0382
▁IT	-10.0391
▁submitted	-10.0397
▁Folgen	-10.0399
▁Kontakt	-10.0409
pro	-10.0412
▁allgemeine	-10.0418
▁leben	-10.0423
bel	-10.0423
▁train	-10.0427
▁property	-10.0433
▁anderer	-10.0437
व	-10.0439
▁Site	-10.044
▁movement	-10.0446
▁six	-10.0446
▁Medien	-10.0452
▁w	-10.0454
▁distance	-10.0455
▁negative	-10.0457
प	-10.0466
▁scheint	-10.0467
▁tragen	-10.0468
▁December	-10.0471
▁document	-10.0471
▁Kosovo	-10.0472
ha	-10.0473
▁Frühstück	-10.0486
▁priority	-10.049
▁Regierungs	-10.0501
▁com	-10.0508
▁Zentral	-10.052
är	-10.0532
▁details	-10.0534
▁closed	-10.0537
▁Italian	-10.054
▁island	-10.0548
star	-10.0551
▁erwähnt	-10.0554
▁dritte	-10.0555
▁Italien	-10.0557
▁limited	-10.0557
▁Also	-10.0561
ó	-10.0567
▁Booking	-10.0568
fragen	-10.0569
▁funding	-10.057
▁Western	-10.0589
▁Gruppen	-10.0593
ino	-10.0599
▁www	-10.0603
▁assistance	-10.0604
die	-10.0607
ities	-10.0608
länder	-10.0611
▁Museum	-10.0621
▁partner	-10.063
▁recht	-10.0634
▁WTO	-10.0634
sicht	-10.0638
▁Inter	-10.0643
▁versucht	-10.0647
▁quiet	-10.0647
▁Bildung	-10.0648
▁vorgesehen	-10.0649
▁Haushalt	-10.0661
▁purpose	-10.0664
▁Aktivitäten	-10.0665
▁Einzel	-10.0665
▁safe	-10.0666
▁Ri	-10.0671
▁former	-10.0674
▁Urlaub	-10.0674
▁Basis	-10.068
über	-10.069
▁Gefahr	-10.0692
by	-10.0692
▁vorgelegt	-10.0701
▁Ru	-10.0714
▁Ra	-10.0714
▁flexible	-10.0719
▁versuchen	-10.0729
▁Dezember	-10.0731
▁Star	-10.0735
▁independent	-10.0736
▁brought	-10.0736
druck	-10.0743
▁Nur	-10.0743
▁bevor	-10.0746
Fraktion	-10.0751
▁Stelle	-10.0751
ator	-10.0752
▁Juli	-10.0756
▁Test	-10.0763
▁lang	-10.0772
▁Tätigkeit	-10.0772
unternehmen	-10.0783
▁base	-10.0783
stein	-10.0785
TM	-10.0797
▁actions	-10.0802
chtens	-10.0803
▁dadurch	-10.0805
▁discussion	-10.0805
▁Punkte	-10.0809
▁creating	-10.0809
▁code	-10.0811
▁message	-10.0811
▁supported	-10.0812
▁Je	-10.082
▁Wein	-10.082
▁Free	-10.0825
▁amerikanische	-10.084
▁festgelegt	-10.0844
▁betroffen	-10.0849
▁Republic	-10.085
gesetzt	-10.0853
▁airport	-10.0855
▁Gleich	-10.0858
▁effort	-10.0862
▁durchgeführt	-10.0867
fangen	-10.0867
▁apartment	-10.0867
sächlich	-10.087
▁film	-10.0872
▁sites	-10.0876
ron	-10.0876
ized	-10.0877
ba	-10.088
▁konkrete	-10.088
▁Bestimmungen	-10.0884
▁Projekte	-10.0886
▁Fund	-10.0891
▁300	-10.0895
▁außerdem	-10.0898
ehrte	-10.0902
''	-10.0907
▁pass	-10.0914
▁variety	-10.0934
schließlich	-10.0936
▁largest	-10.0936
▁insgesamt	-10.0936
▁Entwicklungs	-10.0942
▁oft	-10.0944
▁school	-10.0945
▁pleased	-10.0947
▁conference	-10.0951
ard	-10.0952
▁January	-10.0953
▁avoid	-10.0956
▁became	-10.0956
▁rich	-10.0957
▁abge	-10.0957
▁nationale	-10.0961
▁gives	-10.0964
▁stability	-10.0965
▁vollständig	-10.0965
▁1998	-10.097
▁Club	-10.0982
weg	-10.0988
▁instead	-10.0995
▁produce	-10.0996
▁Aufmerksamkeit	-10.0996
▁source	-10.0999
▁Lo	-10.1002
▁Stunden	-10.1004
▁Portugal	-10.1011
gang	-10.102
ix	-10.1021
▁produced	-10.1022
▁regulations	-10.1023
▁relation	-10.1027
ub	-10.1032
▁groß	-10.1032
▁aufgenommen	-10.1038
elle	-10.104
va	-10.1047
▁tell	-10.1052
▁Such	-10.1056
led	-10.1065
▁build	-10.1072
▁concept	-10.1076
▁task	-10.1083
▁+	-10.109
▁study	-10.1098
▁eigen	-10.11
▁express	-10.1103
mar	-10.1107
ale	-10.1108
▁late	-10.1111
▁Volks	-10.1112
▁October	-10.1113
▁ground	-10.1114
ES	-10.1115
▁kulturelle	-10.1115
streng	-10.1116
▁ändern	-10.1127
▁wine	-10.1128
▁Opfer	-10.114
pa	-10.1151
ow	-10.1154
▁einschließlich	-10.1161
▁Werte	-10.1163
▁review	-10.117
▁item	-10.1172
▁damage	-10.1175
ize	-10.1186
▁draft	-10.1188
einander	-10.1188
▁Zur	-10.119
▁März	-10.1191
gesellschaft	-10.1192
▁allowed	-10.1193
▁village	-10.1193
▁Today	-10.1195
▁forms	-10.1202
▁Development	-10.1204
▁word	-10.1208
▁restaurants	-10.121
▁interesting	-10.1211
▁na	-10.1218
▁operation	-10.1219
▁activity	-10.1221
▁started	-10.1225
▁contribution	-10.1226
▁Gesundheits	-10.1234
▁Entscheidungen	-10.124
▁folgt	-10.124
▁status	-10.1246
▁hotels	-10.1248
▁persönliche	-10.1251
▁jeweilige	-10.1251
▁enter	-10.1255
▁Bereiche	-10.1256
▁genießen	-10.1259
▁conflict	-10.1261
▁Öffentlichkeit	-10.1261
▁Küche	-10.1263
▁expect	-10.1264
ER	-10.127
▁para	-10.1271
handel	-10.1277
▁fishing	-10.1278
▁medium	-10.1286
▁Folge	-10.1287
▁r	-10.1288
IP	-10.1289
▁Agrar	-10.1308
▁vertreten	-10.1309
▁Beginn	-10.131
▁Oktober	-10.1311
feld	-10.1312
▁places	-10.132
▁su	-10.132
▁Höhe	-10.1328
ud	-10.1332
FR	-10.1336
▁Rights	-10.1336
res	-10.1338
▁morgen	-10.1339
▁Anforderungen	-10.134
zimmer	-10.134
ical	-10.1346
▁Inhalt	-10.1348
▁distribution	-10.1351
▁Fach	-10.1352
ence	-10.1356
▁park	-10.1356
▁erfahren	-10.1361
▁Staat	-10.1365
11	-10.1365
▁Plan	-10.137
▁Frieden	-10.1373
ang	-10.1374
iv	-10.1377
▁Dur	-10.138
▁require	-10.1383
▁bit	-10.1385
▁option	-10.1387
▁chance	-10.1387
▁click	-10.1393
▁Republik	-10.1394
▁leisten	-10.1397
▁Grenzen	-10.1397
▁gleiche	-10.1411
▁statement	-10.1423
▁Paket	-10.1424
▁Ex	-10.1425
sp	-10.1426
▁Vorschriften	-10.1429
▁nor	-10.1431
▁van	-10.1437
▁plant	-10.1437
▁Sinne	-10.1439
▁labour	-10.1449
▁equal	-10.145
▁steps	-10.1453
▁learn	-10.146
▁agenda	-10.146
▁Transparenz	-10.1463
▁helpful	-10.1463
▁erwarten	-10.1465
+	-10.1469
▁offering	-10.148
▁Augen	-10.1483
▁structure	-10.1486
▁Finanzierung	-10.149
▁Nationen	-10.149
▁procedures	-10.1492
▁written	-10.1495
▁gas	-10.1498
▁reading	-10.1501
▁Anfrage	-10.1503
▁Tier	-10.1504
▁Spanish	-10.1505
▁giving	-10.1506
▁violence	-10.1506
▁provisions	-10.1507
▁Bilder	-10.1507
▁Unternehmens	-10.1508
estens	-10.1512
▁Gipfel	-10.1516
▁wenige	-10.152
▁lower	-10.152
▁wichtiger	-10.1522
▁geworden	-10.1525
▁Last	-10.1527
▁$	-10.1528
▁leider	-10.1539
▁historical	-10.1541
▁criteria	-10.1556
▁ourselves	-10.1558
nahme	-10.1558
▁warm	-10.1559
selben	-10.156
ken	-10.1562
▁aufzu	-10.1566
▁erzielt	-10.1567
▁meines	-10.157
tion	-10.157
rkennung	-10.1571
▁Spieler	-10.1571
▁CO	-10.1572
▁transfer	-10.158
▁contract	-10.1581
▁separate	-10.1583
▁regards	-10.1586
leben	-10.1594
▁konnten	-10.1597
▁behandelt	-10.1605
▁Dami	-10.1608
▁method	-10.161
▁drive	-10.1613
▁halte	-10.1615
▁instruments	-10.1621
▁Prozent	-10.1623
service	-10.1624
▁finally	-10.1626
gi	-10.1626
▁Open	-10.1642
▁round	-10.1642
▁sechs	-10.1645
ah	-10.1652
▁Aspekte	-10.1654
▁benefits	-10.1655
▁Start	-10.1662
▁verantwortlich	-10.1666
tin	-10.1677
▁treffen	-10.1681
▁Rede	-10.1684
▁useful	-10.1685
▁Jo	-10.1686
zusetzen	-10.1689
▁Chinese	-10.1692
▁Wochen	-10.1694
▁los	-10.1695
▁efficient	-10.1695
ish	-10.1695
▁Unterschied	-10.1699
hof	-10.1699
▁Verkehrs	-10.17
tel	-10.1703
▁Centre	-10.1706
▁genommen	-10.1712
ari	-10.1715
▁July	-10.1715
▁Januar	-10.1717
▁ski	-10.1719
▁Stabilität	-10.1722
gabe	-10.1723
▁got	-10.1724
▁Many	-10.1729
▁erfolgt	-10.1734
▁Instrument	-10.1736
▁export	-10.1737
▁She	-10.1738
▁benötigen	-10.1743
▁Sache	-10.1745
baren	-10.1752
▁Innovation	-10.1755
ors	-10.1771
▁Linux	-10.1775
▁section	-10.1776
▁immediately	-10.1791
▁Spanien	-10.1791
▁rise	-10.1794
mindest	-10.1794
▁challenge	-10.1794
▁Services	-10.1798
▁begin	-10.18
▁vorhanden	-10.1804
▁Firma	-10.1808
ert	-10.1811
▁britische	-10.182
▁note	-10.1821
▁highest	-10.1834
▁Gründen	-10.1834
▁Although	-10.1835
▁documents	-10.184
sfähigkeit	-10.1844
spiel	-10.1847
▁nächste	-10.185
▁fine	-10.1853
genommen	-10.1857
▁death	-10.1862
▁langfristig	-10.1866
isation	-10.1874
▁transparency	-10.1876
▁End	-10.1886
wand	-10.1886
barkeit	-10.1889
▁Forschungs	-10.1891
▁En	-10.1897
▁erwartet	-10.1901
▁geschaffen	-10.1901
▁Halt	-10.1909
▁Dritt	-10.1909
An	-10.1911
bedingungen	-10.1913
▁Spa	-10.1915
­	-10.1917
▁Di	-10.1918
▁zehn	-10.1925
▁employees	-10.1926
▁Nacht	-10.1928
▁gefunden	-10.193
▁influence	-10.1935
▁implement	-10.1938
▁bezüglich	-10.1939
▁email	-10.1939
▁integrated	-10.194
▁Aufenthalt	-10.1944
▁elements	-10.1947
▁reality	-10.1948
▁''	-10.195
falt	-10.1952
▁ex	-10.1953
▁payment	-10.1956
▁1997	-10.1957
▁University	-10.1961
▁mention	-10.1967
▁challenges	-10.197
▁Licht	-10.1971
▁poverty	-10.1973
▁Gi	-10.1976
▁Mehr	-10.1977
ou	-10.198
▁Cor	-10.1981
▁90	-10.1983
▁moderne	-10.1985
▁Wohn	-10.1987
▁Protokoll	-10.1988
▁parking	-10.1989
▁numerous	-10.1994
▁letzte	-10.1994
▁consequences	-10.1998
sverfahren	-10.1999
zi	-10.2011
▁applied	-10.2013
▁elegant	-10.2017
▁Ressourcen	-10.2019
▁hinzu	-10.2021
▁congratulate	-10.2022
▁talk	-10.2025
▁board	-10.2026
▁Armu	-10.2027
itäten	-10.2031
▁Heute	-10.2035
▁Su	-10.2037
▁sent	-10.2037
▁70	-10.2039
▁beyond	-10.2042
▁weder	-10.2044
▁Regeln	-10.2049
▁allgemein	-10.205
▁alt	-10.2051
▁Furthermore	-10.2051
▁led	-10.2053
ative	-10.2058
geordnete	-10.2059
▁bathroom	-10.2061
▁cut	-10.2062
▁begrüße	-10.2066
▁Jede	-10.2066
▁lä	-10.2068
▁doubt	-10.2069
▁mountain	-10.2073
▁Pi	-10.2074
▁types	-10.2075
▁vital	-10.2075
sk	-10.2078
▁elections	-10.2081
PL	-10.2087
▁Des	-10.209
▁crucial	-10.2092
▁official	-10.2092
if	-10.21
svor	-10.2101
Kompromiss	-10.2102
▁inform	-10.2106
ada	-10.2107
▁Directive	-10.2107
kan	-10.2114
▁diejenigen	-10.2117
▁gelegen	-10.2121
▁daily	-10.2122
▁analysis	-10.2123
▁thought	-10.2124
▁processes	-10.2127
▁saying	-10.2127
▁übrigen	-10.2131
sätze	-10.2133
▁sieht	-10.2134
▁waste	-10.2142
▁solidarity	-10.2142
▁Linie	-10.2145
▁bringt	-10.2147
▁Datei	-10.2149
▁Your	-10.2154
▁instrument	-10.216
▁Solidarität	-10.2161
▁Ka	-10.2163
▁Wieder	-10.2169
▁Nr	-10.2174
sehen	-10.2182
tre	-10.2185
▁ziehen	-10.2188
▁friends	-10.2189
▁Wunsch	-10.2198
▁comprehensive	-10.2199
▁paid	-10.2199
▁automatisch	-10.2209
▁verhindern	-10.2209
▁beste	-10.2212
▁gelten	-10.222
▁transparent	-10.2221
▁vergessen	-10.2222
mon	-10.2223
▁reference	-10.2225
halt	-10.2229
EL	-10.2235
ide	-10.2237
▁Russian	-10.2238
▁Verfassung	-10.224
based	-10.2245
▁Natürlich	-10.2248
▁Q	-10.2248
▁tools	-10.2256
▁getan	-10.2258
▁terrace	-10.226
▁Sea	-10.226
Ver	-10.2264
▁carry	-10.2265
▁secure	-10.2268
▁Even	-10.2274
▁Fällen	-10.2276
▁Human	-10.2281
▁photo	-10.2288
▁offered	-10.2292
▁Bus	-10.2292
▁Center	-10.2292
ally	-10.2295
▁kam	-10.2295
▁ausschließlich	-10.2297
▁Straßen	-10.2305
▁practical	-10.2315
▁Verwaltung	-10.2321
▁goes	-10.2323
▁Krieg	-10.2325
Office	-10.2335
▁apartments	-10.2339
▁class	-10.2339
▁eindeutig	-10.2341
▁Vi	-10.2347
▁Mediterranean	-10.2348
gelegenheiten	-10.2349
Die	-10.2349
▁happy	-10.2352
▁!	-10.2356
▁Aufgaben	-10.2359
▁poor	-10.2362
▁Risiko	-10.2368
schlossen	-10.2368
▁colleagues	-10.237
▁Systems	-10.2371
isiert	-10.2395
▁Modell	-10.24
▁x	-10.24
▁Monaten	-10.2401
ado	-10.2405
▁morning	-10.2405
▁Tor	-10.2407
▁sort	-10.2408
fer	-10.2417
▁voran	-10.242
▁sch	-10.2421
orschriften	-10.2426
▁requires	-10.2431
▁machine	-10.2433
▁ways	-10.2441
▁Aussch	-10.2442
▁minimum	-10.2454
losigkeit	-10.2455
eher	-10.2458
▁Fuß	-10.2459
▁historic	-10.2464
▁sign	-10.2465
▁reduction	-10.2471
▁Völker	-10.2474
▁met	-10.248
▁growing	-10.2481
▁Besucher	-10.2484
▁hätten	-10.249
▁ha	-10.2494
▁richtige	-10.2502
▁Te	-10.2506
▁paar	-10.251
▁dringend	-10.2511
▁Hoch	-10.2511
▁»	-10.2513
werk	-10.2515
hu	-10.2517
▁tomorrow	-10.2529
fonds	-10.2533
▁implemented	-10.2543
▁Air	-10.2547
▁Öl	-10.2547
▁Grand	-10.2547
▁evening	-10.2548
▁server	-10.2554
%	-10.2554
▁green	-10.2557
▁gewesen	-10.2559
▁adopt	-10.2565
▁Public	-10.2566
▁Y	-10.2568
▁modified	-10.2574
▁Microsoft	-10.2577
▁Stand	-10.258
▁Austria	-10.258
▁Amendment	-10.2584
▁anderem	-10.2585
▁forces	-10.2586
▁ideas	-10.26
▁love	-10.2603
▁persons	-10.2604
▁Room	-10.2607
▁debt	-10.2608
▁nimmt	-10.2612
▁Green	-10.262
▁child	-10.262
▁verpflichtet	-10.262
▁While	-10.2621
▁Menge	-10.2623
▁organisations	-10.2627
▁shopping	-10.2627
▁caused	-10.2631
▁relating	-10.2632
▁par	-10.2634
▁starke	-10.2637
▁starting	-10.2645
▁Atmosphäre	-10.2647
▁Garten	-10.2648
red	-10.2652
om	-10.2653
systeme	-10.2654
ven	-10.2655
▁published	-10.2656
zeugung	-10.2658
bschließend	-10.2662
del	-10.2663
▁unbe	-10.2668
▁monitoring	-10.2671
▁kennen	-10.2672
▁les	-10.2675
▁target	-10.2679
▁Viele	-10.2683
▁berücksichtigt	-10.2683
▁geeignet	-10.2683
▁sales	-10.2684
ding	-10.2684
▁efficiency	-10.2687
org	-10.2692
▁street	-10.2693
ny	-10.2694
▁join	-10.2695
▁administrative	-10.2699
▁Hin	-10.27
oder	-10.2705
▁Körper	-10.2707
▁establish	-10.2708
▁border	-10.271
EC	-10.271
▁führende	-10.2713
▁sp	-10.2715
▁überhaupt	-10.2721
gelegenheit	-10.2721
sam	-10.2721
▁begrüßen	-10.2722
▁Schritte	-10.2725
▁ready	-10.2725
▁operating	-10.2726
frage	-10.273
ag	-10.2739
ov	-10.2746
▁Erz	-10.2748
▁erfüllen	-10.275
▁erlaubt	-10.2751
▁unabhängig	-10.2752
▁weeks	-10.2756
▁Conference	-10.2757
treten	-10.2757
▁ständig	-10.2758
▁Anti	-10.2765
weit	-10.2767
▁klare	-10.2769
▁selection	-10.2776
▁grundlegende	-10.2779
▁clients	-10.278
▁maximum	-10.2784
▁decide	-10.2792
▁fordern	-10.2794
nde	-10.2797
▁Praxis	-10.2797
▁anything	-10.2797
▁usw	-10.2797
cal	-10.2799
▁accordance	-10.2799
▁Vergangenheit	-10.2803
▁Wohl	-10.2808
fi	-10.2809
wissenschaftlich	-10.281
▁sometimes	-10.2815
▁schützen	-10.2816
▁extent	-10.2822
▁technologies	-10.2826
▁garden	-10.2829
▁Fähigkeit	-10.2829
schau	-10.2847
ziehen	-10.2849
▁More	-10.2849
▁probably	-10.2855
tischen	-10.2856
durch	-10.2857
▁port	-10.2866
▁Volk	-10.2866
preise	-10.2867
▁Airport	-10.2867
▁Installation	-10.2877
▁Restaurants	-10.2879
▁encourage	-10.288
▁worldwide	-10.2882
▁Durchführung	-10.2883
▁maintain	-10.2884
▁stet	-10.2887
▁Klein	-10.2902
▁terrorism	-10.2904
▁lives	-10.291
▁milit	-10.291
zulegen	-10.2913
ations	-10.2914
reichen	-10.2914
▁advantage	-10.2917
▁Annahme	-10.2922
ability	-10.2926
▁Vertrauen	-10.2932
▁leaders	-10.2932
schließen	-10.294
▁mo	-10.2941
▁Download	-10.2944
40	-10.2945
▁Best	-10.2945
▁correct	-10.2946
▁stress	-10.2947
fahrt	-10.295
12	-10.2951
ib	-10.2951
▁Winter	-10.2958
▁Foto	-10.2961
▁Präsidenten	-10.2964
▁technische	-10.2972
▁sports	-10.2973
ben	-10.2974
▁Lassen	-10.2974
▁farmers	-10.2977
▁comfort	-10.2985
▁options	-10.2986
US	-10.2988
▁setzt	-10.2991
▁Denn	-10.2991
▁Wi	-10.2995
▁benötigt	-10.3003
▁́	-10.3007
▁benutzt	-10.3009
burg	-10.3013
▁genutzt	-10.3013
▁Vergleich	-10.3014
▁swimming	-10.3015
▁Fischer	-10.3022
schlagen	-10.303
▁zahlreichen	-10.3033
▁Einrichtung	-10.3033
▁Tagen	-10.3035
verfahren	-10.3037
fe	-10.3041
fa	-10.3046
▁voting	-10.3048
ging	-10.305
▁release	-10.305
▁sämtliche	-10.3051
▁Afrika	-10.306
▁gesetzt	-10.3063
ised	-10.3065
▁trotz	-10.3068
lin	-10.307
▁administration	-10.3073
▁getroffen	-10.3077
▁despite	-10.3077
▁darstellt	-10.3077
▁players	-10.3078
▁menschliche	-10.308
▁broad	-10.3083
▁vorliegende	-10.3083
▁wünschen	-10.3084
▁Thank	-10.3084
▁Google	-10.3087
▁stimmen	-10.3094
▁Firmen	-10.3097
▁interested	-10.3098
▁scientific	-10.3098
▁Afghanistan	-10.3101
▁Einige	-10.3105
▁gegenwärtig	-10.3106
▁Reich	-10.3112
technik	-10.3121
▁außerhalb	-10.3121
▁Partnerschaft	-10.3132
▁Meter	-10.3135
▁Dienst	-10.3136
▁lines	-10.3138
haben	-10.3144
▁genug	-10.3146
▁Männer	-10.3151
▁wählen	-10.3155
seite	-10.3155
▁Pre	-10.3155
▁Security	-10.3158
▁Lu	-10.3162
ite	-10.3163
▁tourist	-10.3165
press	-10.3165
▁hold	-10.3168
val	-10.3174
▁businesses	-10.3178
▁französische	-10.3187
▁Milliarden	-10.3188
▁Ne	-10.3189
▁bald	-10.319
▁1996	-10.3192
▁wanted	-10.3195
▁Moreover	-10.3197
wanderung	-10.3198
way	-10.3203
▁His	-10.3204
▁accepted	-10.3206
▁methods	-10.3215
ere	-10.3226
▁suchen	-10.3233
▁früher	-10.3241
▁lost	-10.3241
▁Gott	-10.3241
bild	-10.3244
▁innovation	-10.3244
wert	-10.3251
▁spirit	-10.3251
ot	-10.3258
richtung	-10.3262
▁Mitteilung	-10.3265
bit	-10.327
▁Mac	-10.3277
▁eingerichtet	-10.3285
IS	-10.3292
▁geändert	-10.3295
▁fresh	-10.3301
▁Sitz	-10.3304
▁trying	-10.3305
▁Dazu	-10.3309
▁Bedürfnisse	-10.3309
▁Rechtsv	-10.3309
▁Organ	-10.331
▁UK	-10.3311
▁lokale	-10.3314
▁raised	-10.3315
▁Schwierigkeiten	-10.3316
▁2.	-10.3316
op	-10.3318
▁languages	-10.332
▁Ireland	-10.3324
zeichen	-10.3325
achtet	-10.3326
geben	-10.3328
isten	-10.333
▁banks	-10.3334
▁Gold	-10.3337
▁Dann	-10.3342
▁menu	-10.3345
▁Allerding	-10.3351
ip	-10.3352
▁kürz	-10.3352
▁sun	-10.3356
▁ban	-10.3358
▁walking	-10.3359
▁ausdrücklich	-10.3364
▁Zeichen	-10.337
▁strategic	-10.337
ki	-10.3375
letzt	-10.3376
▁Swiss	-10.3379
▁kurze	-10.338
▁Abend	-10.3388
▁Wer	-10.339
▁Schlüssel	-10.3391
▁Bio	-10.3396
▁Nun	-10.3398
minister	-10.3398
▁visitors	-10.3399
ley	-10.3409
▁limit	-10.341
▁lies	-10.3411
▁Moment	-10.3413
▁28	-10.3414
▁Verteidigung	-10.3415
▁absolutely	-10.3417
▁path	-10.3418
▁annual	-10.3424
▁spend	-10.344
bringen	-10.344
▁hot	-10.344
jo	-10.3445
▁relationship	-10.3447
▁erinnern	-10.3453
▁bad	-10.3457
▁overall	-10.347
qui	-10.3473
▁Hu	-10.3479
▁26	-10.3491
▁«	-10.3494
▁verstärkt	-10.3501
▁deutschen	-10.3503
▁Dienste	-10.3504
hr	-10.3504
▁exist	-10.3507
▁Real	-10.3509
▁games	-10.3512
25	-10.3522
vis	-10.3522
▁sectors	-10.3525
▁Roma	-10.3528
▁entscheiden	-10.3533
▁Osten	-10.3534
▁Mobil	-10.3534
ort	-10.3546
▁regime	-10.3547
▁Einfluss	-10.3549
▁Just	-10.355
è	-10.355
▁Tour	-10.3551
▁fun	-10.3553
day	-10.3557
▁folgenden	-10.3558
▁borders	-10.3558
▁überzeugt	-10.3563
preis	-10.3563
▁month	-10.3564
▁namely	-10.3566
▁entgegen	-10.3568
▁wrong	-10.357
rufen	-10.3575
▁Port	-10.3576
▁Secondly	-10.3576
▁technischen	-10.3578
▁unten	-10.3579
▁Zweck	-10.3582
▁4.	-10.3582
▁trans	-10.3587
▁changed	-10.3588
▁übernehmen	-10.3588
▁35	-10.3589
▁Weiter	-10.359
gel	-10.3593
▁fall	-10.3593
bald	-10.3602
▁DVD	-10.3614
▁goal	-10.3617
▁ehemalige	-10.3618
du	-10.3625
▁Kapital	-10.3626
▁eben	-10.3632
lt	-10.3634
▁tätig	-10.3634
Hotel	-10.3635
▁Klick	-10.3646
▁accession	-10.3653
▁Bewertung	-10.3658
▁cover	-10.3663
▁demands	-10.3667
▁Stil	-10.367
▁People	-10.367
▁Inhalte	-10.3672
▁images	-10.3672
hotel	-10.368
glück	-10.3682
port	-10.3686
▁Per	-10.3686
▁fish	-10.3687
▁staatliche	-10.3689
▁trust	-10.369
▁jährlich	-10.3694
▁NATO	-10.3696
▁Asia	-10.3697
▁wirtschaftlich	-10.3701
▁Link	-10.3701
ru	-10.3701
weder	-10.3703
▁gesehen	-10.3704
▁endlich	-10.3704
▁player	-10.3708
▁opening	-10.3712
tic	-10.3715
▁Waren	-10.3719
▁Only	-10.3725
▁currency	-10.3729
gesprochen	-10.3729
▁intended	-10.3735
▁kaum	-10.3736
▁Pe	-10.3738
▁yourself	-10.374
▁Österreich	-10.3742
▁traffic	-10.3742
heim	-10.3747
La	-10.3749
▁representatives	-10.3749
off	-10.3752
▁Zustimmung	-10.3754
▁Wo	-10.3757
▁phone	-10.3757
▁=	-10.3758
▁Terrorism	-10.3759
▁suggest	-10.376
19	-10.376
▁cities	-10.3762
▁structural	-10.3762
▁character	-10.3762
▁powers	-10.3766
▁increasingly	-10.3767
▁heard	-10.3769
▁record	-10.3774
▁worked	-10.3775
▁Wettbewerbs	-10.3775
▁expressed	-10.3775
▁committed	-10.3776
▁teil	-10.3786
▁Agreement	-10.3791
▁gezeigt	-10.3792
wasser	-10.3793
▁ability	-10.3799
▁Werk	-10.38
▁Vorteile	-10.3801
gehend	-10.3803
▁Irak	-10.3806
▁Val	-10.3811
▁Fi	-10.3819
▁proper	-10.382
▁angeboten	-10.3827
▁zusätzlich	-10.383
▁vi	-10.383
▁Economic	-10.3833
▁bank	-10.3836
▁Indeed	-10.3836
all	-10.3839
▁Süd	-10.3841
▁alone	-10.3841
▁beteiligt	-10.3842
▁verbessert	-10.3843
▁Band	-10.3846
▁processing	-10.3846
▁folgende	-10.3851
wandel	-10.3851
hi	-10.3852
car	-10.3861
▁Leute	-10.3862
hilfen	-10.3863
▁zudem	-10.3869
▁Falle	-10.3872
▁Ku	-10.3876
PT	-10.3882
▁spa	-10.3884
▁Gas	-10.3885
▁season	-10.3891
▁infrastructure	-10.3895
▁unbedingt	-10.3897
ible	-10.3899
▁bewusst	-10.3905
▁initiatives	-10.3905
amp	-10.3906
management	-10.3908
▁Regel	-10.391
▁te	-10.3918
use	-10.3922
▁brand	-10.3922
▁Künstler	-10.3924
▁Produktions	-10.3926
▁welches	-10.3927
stoff	-10.3932
▁running	-10.3933
▁Hause	-10.3935
▁talking	-10.3935
our	-10.3936
▁mass	-10.3936
▁purchase	-10.3939
▁conclusion	-10.3942
leistet	-10.3942
wenden	-10.3944
▁Ba	-10.395
ju	-10.3951
▁erstellt	-10.3952
▁Wann	-10.396
▁families	-10.3961
park	-10.3968
▁feature	-10.397
▁täglich	-10.3972
▁Costa	-10.3973
▁save	-10.3975
▁entscheidend	-10.3976
▁Straf	-10.3976
▁discuss	-10.3979
▁God	-10.3979
▁Fisch	-10.3983
▁mainly	-10.3983
▁aufge	-10.3985
▁Ist	-10.3986
▁—	-10.3989
ör	-10.3996
▁breite	-10.3996
▁fields	-10.3997
▁Konzept	-10.3997
▁wahrscheinlich	-10.4002
märkte	-10.4003
▁außer	-10.4005
▁planning	-10.4006
▁Board	-10.4008
▁reforms	-10.4015
▁command	-10.4019
▁1990	-10.4025
▁began	-10.4025
▁improved	-10.4028
▁placed	-10.4029
▁Aufnahme	-10.4031
▁cohesion	-10.4031
▁Netzwerk	-10.4032
▁Idee	-10.4035
▁wonderful	-10.4039
▁beginnen	-10.4042
▁einheitliche	-10.4042
▁Ausbildung	-10.4048
24	-10.4049
▁justice	-10.4053
▁sozial	-10.4055
mi	-10.4056
):	-10.4059
dy	-10.4063
▁gefordert	-10.4066
ong	-10.4069
▁Nations	-10.407
▁collection	-10.407
▁India	-10.407
cher	-10.4071
▁moral	-10.4071
uch	-10.408
▁strengthen	-10.408
▁approved	-10.4081
▁calls	-10.4082
▁bitten	-10.4085
▁powerful	-10.4088
▁contribute	-10.4088
ringer	-10.4089
▁students	-10.409
lose	-10.4091
prinzip	-10.4093
▁John	-10.4094
▁unemployment	-10.4096
kosten	-10.41
▁Telefon	-10.4102
dienst	-10.4102
▁Iraq	-10.4104
▁circumstances	-10.4108
▁gerecht	-10.4109
▁Holz	-10.4114
▁falls	-10.4114
▁plans	-10.4121
▁erkennen	-10.4122
“,	-10.4123
▁akzeptiere	-10.4124
▁affected	-10.4126
▁emissions	-10.4127
ini	-10.4129
▁electronic	-10.4132
▁Ferien	-10.4132
tri	-10.4137
▁critical	-10.4144
▁permanent	-10.4146
▁folgen	-10.4148
▁Rechnung	-10.415
ski	-10.4155
▁fellow	-10.4156
kategorien	-10.4161
▁reduced	-10.4168
▁Boden	-10.417
tor	-10.4174
▁police	-10.4174
▁Sonder	-10.4181
called	-10.4181
kommens	-10.4186
▁entspricht	-10.4186
▁confidence	-10.4192
▁Abschluss	-10.4196
▁Super	-10.4196
▁italienische	-10.4199
▁Hersteller	-10.4208
▁Waffen	-10.421
▁beschlossen	-10.4211
▁Einstellung	-10.4215
▁suitable	-10.4216
▁braucht	-10.4218
▁eng	-10.4219
▁Organisationen	-10.4221
▁traditionelle	-10.4221
▁Ad	-10.4222
▁höhere	-10.4226
stimme	-10.4232
70	-10.4233
▁Überwachung	-10.4242
▁automatically	-10.4242
▁priorities	-10.4246
▁bilden	-10.4249
Sch	-10.425
maßnahmen	-10.4254
▁extensive	-10.4254
▁whom	-10.4256
▁refer	-10.426
▁sitting	-10.4266
▁entschieden	-10.4269
▁Falls	-10.4274
▁white	-10.4274
▁spezifische	-10.4276
▁Ober	-10.428
▁manner	-10.4281
ku	-10.4281
▁scope	-10.4282
lang	-10.4283
▁veröffentlicht	-10.4286
tz	-10.4291
▁ensuring	-10.4298
▁participation	-10.4299
▁client	-10.4301
▁delivery	-10.4303
▁Fahr	-10.4308
mehr	-10.4309
▁Ca	-10.431
▁crime	-10.4312
▁Schul	-10.4312
▁comment	-10.4314
St	-10.4316
▁unge	-10.4317
▁comments	-10.4318
blick	-10.4318
q	-10.4318
▁Station	-10.4321
▁liebe	-10.4324
▁länger	-10.4329
▁Zweifel	-10.4336
द	-10.4339
wirken	-10.4343
let	-10.4344
Ge	-10.4345
äre	-10.4348
▁else	-10.4348
tum	-10.4349
mb	-10.4355
▁berücksichtigen	-10.4357
▁Texte	-10.4358
welt	-10.4358
▁Karte	-10.436
▁plus	-10.4361
daten	-10.4365
▁zentrale	-10.4366
üb	-10.437
▁threat	-10.4372
▁1,	-10.4379
▁Enterprise	-10.4383
ran	-10.4383
stadt	-10.4387
▁Social	-10.4387
▁Stellungnahme	-10.4387
▁shower	-10.4391
▁Front	-10.4391
▁reception	-10.4395
ich	-10.4403
ice	-10.4404
▁kitchen	-10.4404
▁appear	-10.4405
arbeit	-10.4406
▁kostenlos	-10.4424
▁recommend	-10.4424
▁south	-10.4426
▁Sal	-10.4431
▁serve	-10.4441
▁pa	-10.4443
führen	-10.4446
fälle	-10.4452
▁ad	-10.4456
öl	-10.4458
ile	-10.446
▁tour	-10.4461
▁Greece	-10.4462
▁erfüllt	-10.4463
▁Middle	-10.4469
▁likely	-10.4471
RO	-10.4471
▁Zwischen	-10.4472
▁specifically	-10.4473
tag	-10.4474
konferenz	-10.4474
15	-10.4474
▁wesentliche	-10.4475
▁played	-10.4475
▁victims	-10.4478
▁competitive	-10.448
▁Kriterien	-10.4485
▁Agenda	-10.4486
▁establishment	-10.4491
▁angegeben	-10.4492
▁remember	-10.4495
▁bilateral	-10.4497
ica	-10.4506
▁Anspruch	-10.4508
arüber	-10.4512
▁hoffen	-10.4516
▁"...	-10.4518
▁Suche	-10.4523
wa	-10.4524
@	-10.4525
lassen	-10.4528
▁Wahlen	-10.4529
▁Frankfurt	-10.4537
pi	-10.454
can	-10.4546
ज	-10.4547
▁effectively	-10.455
▁black	-10.4554
gearbeitet	-10.4555
ries	-10.4556
ware	-10.4559
▁sagt	-10.456
▁agriculture	-10.456
ya	-10.4561
▁introduced	-10.4564
▁star	-10.4566
▁Czech	-10.457
▁Bi	-10.4582
▁Ane	-10.4585
gestellt	-10.4585
▁red	-10.4587
▁Banken	-10.4588
▁represent	-10.459
partei	-10.4594
▁failure	-10.4596
▁tabled	-10.4597
▁Gu	-10.4597
://	-10.4599
künftig	-10.4601
▁aimed	-10.4604
▁larger	-10.4606
▁partnership	-10.4606
▁motion	-10.4607
av	-10.4608
▁getting	-10.4608
▁umgesetzt	-10.4609
▁inside	-10.4611
▁sport	-10.4612
▁Chance	-10.4616
▁camera	-10.4618
are	-10.4622
▁select	-10.4626
▁usually	-10.4629
▁hinweisen	-10.4634
▁una	-10.4635
insicht	-10.4636
60	-10.4636
▁installation	-10.4636
▁Hintergrund	-10.4637
ola	-10.4639
▁Übersetzung	-10.4642
▁served	-10.4643
▁summit	-10.4644
gelegt	-10.4645
▁telephone	-10.4646
▁Each	-10.4648
anlagen	-10.465
kon	-10.4652
▁Voll	-10.4653
▁absolut	-10.4655
▁detailed	-10.466
▁ausgezeichnete	-10.4666
▁jegliche	-10.4667
▁institutional	-10.4672
▁prior	-10.4672
▁Infrastruktur	-10.4675
ante	-10.4676
ständigkeit	-10.4679
gegen	-10.4682
▁150	-10.4682
▁komplett	-10.4682
▁attack	-10.4685
▁Engagement	-10.4685
▁Policy	-10.4686
pre	-10.4688
▁display	-10.4693
▁Bis	-10.4694
▁becoming	-10.4694
▁referred	-10.4695
▁gegründet	-10.4699
▁positiv	-10.47
▁screen	-10.4704
ob	-10.4705
80	-10.4706
▁Griechenland	-10.4714
▁angezeigt	-10.4715
▁ging	-10.472
▁Most	-10.4722
ato	-10.4723
▁Mio	-10.4724
▁rural	-10.4731
▁precisely	-10.4731
tan	-10.4731
uk	-10.4733
▁Nutzen	-10.4735
ano	-10.4736
▁exactly	-10.4736
▁Antrag	-10.4737
▁2020	-10.4739
▁regular	-10.4741
▁Homepage	-10.4743
ärisch	-10.4749
▁Instrumente	-10.4755
▁Menschenrecht	-10.476
▁Sollte	-10.4761
heben	-10.4763
▁manage	-10.4764
▁pleasant	-10.4764
▁euch	-10.4766
▁geschützt	-10.4766
▁Dem	-10.4768
▁Nutzer	-10.4776
▁buy	-10.4776
▁instance	-10.4778
tar	-10.4787
▁anerkannt	-10.4788
▁Code	-10.4789
qualität	-10.4791
▁Stein	-10.4795
▁winter	-10.4799
▁hear	-10.48
▁kommende	-10.4801
ue	-10.4802
shalb	-10.4806
▁Dollar	-10.4807
▁deep	-10.4807
ship	-10.4808
▁otherwise	-10.4808
▁31	-10.4809
▁purposes	-10.481
▁assessment	-10.4811
▁angesprochen	-10.4812
▁benutzen	-10.4813
▁1995	-10.4815
▁speziell	-10.4815
▁measure	-10.4816
gt	-10.4818
▁protected	-10.4818
▁sources	-10.482
▁animals	-10.4821
▁worth	-10.4824
▁praktisch	-10.4831
▁Zeitraum	-10.4831
prüfen	-10.4832
▁paper	-10.4839
:00	-10.4843
board	-10.4852
▁laws	-10.4853
▁nötig	-10.4856
▁Versuch	-10.486
▁Casino	-10.4861
▁Terrasse	-10.4862
bericht	-10.4863
▁seines	-10.4869
▁peaceful	-10.4871
politische	-10.488
▁stated	-10.4881
▁Angriff	-10.4882
▁budgetary	-10.4882
▁Aspekt	-10.4883
▁dealing	-10.4883
▁expected	-10.4884
▁discussed	-10.4885
▁risks	-10.4886
rd	-10.489
schlüsse	-10.4892
ED	-10.491
eln	-10.4911
▁managed	-10.4913
▁einge	-10.4916
AR	-10.4919
De	-10.492
▁Mitte	-10.4923
▁Sprachen	-10.4924
▁Komfort	-10.493
▁Great	-10.4932
▁origin	-10.4933
▁Wege	-10.4937
fen	-10.494
stelle	-10.4942
▁thousands	-10.4945
▁Anpassung	-10.4947
entwicklung	-10.4947
Q	-10.4948
log	-10.4949
▁Stimme	-10.4949
▁represents	-10.4952
nis	-10.4954
▁hervorragende	-10.4959
▁February	-10.4959
▁introduction	-10.496
▁medical	-10.4964
möglicherweise	-10.4964
▁j	-10.4969
▁Schengen	-10.497
▁funktioniert	-10.4974
▁Tri	-10.4976
▁map	-10.4979
▁spacious	-10.498
low	-10.4983
▁lösen	-10.4985
▁Gesetz	-10.4987
▁happen	-10.4991
▁introduce	-10.4991
union	-10.4993
systems	-10.4995
▁Charakter	-10.4997
▁booking	-10.4998
▁Monate	-10.4998
▁voice	-10.4999
▁Pu	-10.5
▁earlier	-10.5001
ifizierung	-10.5005
▁Kenntnis	-10.5008
▁fallen	-10.5011
▁Anteil	-10.5014
▁functions	-10.5016
categories	-10.5017
▁Teile	-10.5019
TV	-10.5021
gebiet	-10.5023
▁entry	-10.5025
▁bezeichnet	-10.5026
▁followed	-10.5027
▁Herstellung	-10.5028
▁oben	-10.5034
▁Festival	-10.5035
hen	-10.5036
▁Titel	-10.5038
▁actual	-10.5038
▁Worte	-10.5039
▁format	-10.5041
▁Büro	-10.5046
▁Stärk	-10.5046
▁mm	-10.5049
▁metres	-10.5052
▁covered	-10.5057
▁track	-10.5058
zugehen	-10.5058
▁respond	-10.5059
▁fahren	-10.5061
▁vermeiden	-10.5064
ay	-10.5065
▁guidelines	-10.5073
sprozess	-10.5076
▁Regelung	-10.5079
sis	-10.508
▁bath	-10.5084
▁surface	-10.5089
▁Straße	-10.5091
▁fund	-10.5092
▁Name	-10.5092
▁herzlich	-10.5096
▁closely	-10.5097
▁Dokument	-10.5098
▁loss	-10.5099
jährige	-10.5101
▁provision	-10.5103
▁combination	-10.5104
▁freuen	-10.5104
noch	-10.511
side	-10.511
▁discussions	-10.5112
▁selected	-10.5112
▁Großbritannien	-10.5113
▁Vorbereitung	-10.5118
▁criminal	-10.5121
▁color	-10.5128
▁Leistung	-10.5132
kehr	-10.5133
▁Why	-10.5136
▁news	-10.5138
▁Pflicht	-10.5139
Ma	-10.5141
▁Betrieb	-10.5145
▁firm	-10.5145
▁Hafen	-10.515
▁Mittelmeer	-10.5152
enü	-10.5154
▁Office	-10.5154
▁exclusive	-10.5156
▁understanding	-10.5156
▁Research	-10.5158
▁Wirkung	-10.5162
▁fear	-10.5168
▁4-	-10.5168
▁gewählt	-10.5168
fuhr	-10.5172
lauf	-10.5172
▁degree	-10.5182
▁stock	-10.5186
▁Forderung	-10.5189
▁finanz	-10.5197
▁programs	-10.52
hl	-10.5202
▁teilweise	-10.5204
▁improving	-10.5208
▁wind	-10.5211
16	-10.5212
▁seem	-10.5214
▁enterprises	-10.5215
▁listed	-10.5215
▁Home	-10.522
▁29	-10.5222
à	-10.5227
▁Aufbau	-10.5227
▁immigration	-10.5227
▁Mi	-10.5228
▁Kauf	-10.523
▁jederzeit	-10.5235
▁Click	-10.5237
▁darunter	-10.5244
▁speech	-10.5244
od	-10.5252
zentrum	-10.5255
schein	-10.5261
▁Roman	-10.5266
▁spezielle	-10.5273
▁neues	-10.5277
▁considerable	-10.5279
▁3.	-10.5285
folgend	-10.5285
▁Amerika	-10.5286
▁Hoffnung	-10.5287
rahmen	-10.5289
▁average	-10.529
▁rein	-10.529
▁Forum	-10.5293
ey	-10.5293
▁cuisine	-10.5294
▁derartige	-10.5294
▁mag	-10.5297
▁absolute	-10.5297
▁beziehen	-10.5299
▁verfolgt	-10.53
▁linked	-10.5304
▁Messe	-10.5307
▁detail	-10.5307
▁si	-10.5308
▁signal	-10.531
▁che	-10.5313
▁32	-10.5316
▁höher	-10.5316
▁Street	-10.5317
ellen	-10.5328
▁jeweil	-10.5329
sized	-10.533
▁Motor	-10.5331
hnen	-10.5333
▁Bush	-10.5335
▁opened	-10.5337
eingeschränkt	-10.534
▁sufficient	-10.5342
▁domestic	-10.5342
▁offensichtlich	-10.5342
▁erziel	-10.5344
▁chinesische	-10.5344
▁animal	-10.5352
▁junge	-10.5356
▁title	-10.5356
▁erhöhen	-10.5358
▁Are	-10.536
falls	-10.5367
teilt	-10.5367
▁tourism	-10.537
▁went	-10.5371
ick	-10.5374
▁globale	-10.5379
▁Fa	-10.5379
▁income	-10.5385
▁Ruhe	-10.5389
▁Switzerland	-10.5392
▁desire	-10.54
▁Begriff	-10.5402
hafte	-10.5405
ff	-10.541
wahl	-10.5411
▁gave	-10.5411
▁dienen	-10.5419
▁button	-10.542
▁trip	-10.5421
▁presence	-10.5424
werte	-10.5424
zone	-10.5425
▁ausreichend	-10.543
▁supporting	-10.5432
▁Status	-10.5433
▁Garantie	-10.5436
▁Funktionen	-10.5443
▁Ost	-10.5444
unter	-10.5451
gre	-10.5455
▁Gesetzgebung	-10.5457
era	-10.5459
ions	-10.5462
▁Prüfung	-10.5463
▁Zivil	-10.5464
▁spanische	-10.5465
ement	-10.5468
▁exercise	-10.547
▁says	-10.547
▁gern	-10.547
▁operations	-10.5475
▁Andere	-10.5475
sprechen	-10.5478
ug	-10.5486
▁Kredit	-10.5492
▁Rooms	-10.5497
ising	-10.5498
ez	-10.5501
▁Tradition	-10.5501
▁gelangen	-10.5509
▁Geist	-10.5509
▁Gebiete	-10.5513
▁freien	-10.5515
▁Santa	-10.5515
▁lesen	-10.5518
”.	-10.5523
▁relax	-10.5524
▁Hamburg	-10.5524
▁properly	-10.5525
▁remind	-10.5527
stehen	-10.5531
▁betrachtet	-10.5531
making	-10.5532
▁race	-10.5533
▁garantiert	-10.5533
▁Trade	-10.5534
▁campaign	-10.5534
▁resort	-10.5537
▁Februar	-10.5543
▁wollte	-10.5546
Г	-10.555
▁Einrichtungen	-10.5551
▁playing	-10.5552
ktionen	-10.5553
▁marketing	-10.5553
▁networks	-10.5558
bus	-10.5558
▁Aktions	-10.556
–	-10.5562
▁entirely	-10.5562
ktion	-10.5565
▁import	-10.5565
▁Dateien	-10.5568
▁Ha	-10.5568
▁Apartments	-10.5572
▁eingeführt	-10.5573
▁näher	-10.5576
ction	-10.5578
free	-10.5578
▁authority	-10.5583
uck	-10.5584
▁tradition	-10.5585
▁Wachstums	-10.5587
▁Europäer	-10.5587
▁Polen	-10.5589
▁Bundes	-10.559
spekt	-10.5591
region	-10.5596
ral	-10.5599
▁competitiveness	-10.5599
istischen	-10.56
rhöhung	-10.56
RE	-10.5602
▁Material	-10.5608
▁won	-10.561
▁betreffend	-10.561
90	-10.5614
▁coordination	-10.5619
▁fisheries	-10.562
▁duty	-10.5624
▁Sinn	-10.5625
▁components	-10.5628
pass	-10.5631
▁Kindern	-10.5636
▁Mann	-10.5638
▁Saint	-10.5638
▁Indien	-10.5638
▁fire	-10.5641
▁besuchen	-10.5644
▁foot	-10.5645
▁glaub	-10.5646
▁ISO	-10.5648
nischen	-10.565
text	-10.5651
▁gekommen	-10.5652
ros	-10.5655
▁Qualitäts	-10.5659
▁relate	-10.566
▁Ausnahme	-10.5661
▁generally	-10.5662
▁bestätigt	-10.5665
▁experts	-10.5666
sweise	-10.5668
▁founded	-10.5668
fahren	-10.5671
▁übernachten	-10.5673
▁presidency	-10.5677
chi	-10.5678
▁beds	-10.5678
▁berühmte	-10.5683
▁Veränderungen	-10.5687
▁typical	-10.5689
▁super	-10.5689
▁Madrid	-10.5689
og	-10.5692
We	-10.5693
ING	-10.5694
▁Koh	-10.5695
▁Dritten	-10.5696
▁Poland	-10.5696
▁Kritik	-10.5696
ella	-10.5701
ble	-10.5707
laufen	-10.5711
▁http	-10.5711
▁Übe	-10.5711
▁picture	-10.5712
▁voraus	-10.5714
▁difficulties	-10.5715
ons	-10.5716
▁Entwurf	-10.5719
▁valid	-10.5719
▁buildings	-10.5721
lange	-10.5722
▁Ausführ	-10.5723
▁Stellen	-10.5723
▁facing	-10.5723
lagen	-10.5725
▁Pass	-10.5727
SA	-10.5727
▁Wissen	-10.5727
▁Rad	-10.5728
▁Paul	-10.5733
bauen	-10.574
▁Brussels	-10.5741
▁handeln	-10.5743
▁Pakistan	-10.5744
rad	-10.5746
▁organisation	-10.5746
▁fand	-10.5747
▁Schweiz	-10.5747
▁Grenz	-10.5749
»	-10.5757
▁betonen	-10.5758
▁Universität	-10.5759
▁Sol	-10.5762
▁Martin	-10.5766
▁spielt	-10.5767
▁Health	-10.5769
▁Presse	-10.577
▁optimal	-10.5771
▁propose	-10.578
▁Because	-10.578
▁höchste	-10.578
▁coast	-10.5781
▁break	-10.5786
▁darstellen	-10.5786
▁consideration	-10.5789
▁opposition	-10.5793
▁attempt	-10.5796
▁(19	-10.5796
▁Unfortunately	-10.5797
tisch	-10.5797
ep	-10.5798
▁Analyse	-10.5799
▁estate	-10.5804
▁Irland	-10.5804
▁square	-10.5813
▁lernen	-10.5813
hnung	-10.5816
▁Sta	-10.5818
lig	-10.5822
▁district	-10.5825
▁aufmerksam	-10.5826
▁dynamic	-10.5833
▁45	-10.5836
▁Media	-10.5838
▁Multi	-10.5841
▁Wohnung	-10.5841
▁author	-10.5842
▁Netz	-10.5843
▁Webseite	-10.5845
▁informieren	-10.5849
▁umfasst	-10.5851
▁Meeres	-10.5853
▁Leider	-10.5857
▁).	-10.5858
▁science	-10.5862
▁items	-10.5862
▁hour	-10.5862
▁radio	-10.5864
▁Option	-10.5866
▁dagegen	-10.5866
▁Militär	-10.5868
▁sur	-10.5868
▁architecture	-10.5869
▁Nah	-10.5869
▁wären	-10.5871
▁attractive	-10.5872
dlich	-10.5878
▁Beschreibung	-10.588
▁Fort	-10.5881
ala	-10.5883
eben	-10.5885
▁thinking	-10.5886
▁advanced	-10.5892
▁Leistungen	-10.5892
▁Top	-10.5892
griffen	-10.5894
▁Kommunikation	-10.5896
▁Arab	-10.5896
▁pe	-10.5897
09	-10.5897
▁genuine	-10.5899
▁paragraph	-10.5905
reinkommen	-10.5906
nommen	-10.5913
▁Jetzt	-10.5914
▁400	-10.5916
▁aspect	-10.592
▁Königreich	-10.5924
▁coffee	-10.5927
grenzen	-10.5927
▁gewährleiste	-10.5927
▁Übergang	-10.5928
▁votes	-10.5935
▁erfolgen	-10.5937
▁stärken	-10.5937
▁Fonds	-10.5937
schluß	-10.5939
dienste	-10.5939
bahn	-10.5943
▁vehicles	-10.5943
year	-10.5944
▁Mindest	-10.5944
not	-10.5947
▁applies	-10.5953
▁Produkten	-10.5954
▁Seine	-10.5955
▁Lizenz	-10.5958
▁fixed	-10.596
▁erklären	-10.5966
▁plants	-10.5966
▁entstehen	-10.5966
▁verloren	-10.5966
▁defence	-10.5968
▁middle	-10.5968
▁evidence	-10.5969
▁politics	-10.5969
▁stable	-10.5969
▁Friedens	-10.5972
▁regelmäßig	-10.5972
▁speaking	-10.5973
▁Zwei	-10.5975
▁Botschaft	-10.5976
▁PHP	-10.5978
lu	-10.5978
getragen	-10.598
▁forget	-10.598
▁zunehmend	-10.5982
▁2011	-10.5985
iß	-10.5991
▁Regulation	-10.5993
ique	-10.5994
ria	-10.6
zwischen	-10.6005
gegeben	-10.6007
▁interessante	-10.6007
▁Lake	-10.6009
▁hands	-10.6014
▁monetary	-10.6015
▁IP	-10.602
uff	-10.6022
▁flexibility	-10.6022
▁shops	-10.6027
▁Absatz	-10.6027
▁Prime	-10.6029
▁north	-10.603
▁phase	-10.6031
▁miss	-10.6034
▁Kingdom	-10.6035
ji	-10.6036
▁erleben	-10.6036
▁initial	-10.6041
back	-10.6041
▁arrival	-10.6045
▁Arten	-10.6047
▁fragen	-10.605
▁einfache	-10.6051
▁riesige	-10.6052
▁Power	-10.6053
wirklich	-10.6053
führer	-10.6054
▁EADS	-10.6059
▁Beweis	-10.6062
▁umfangreiche	-10.6063
▁erhöht	-10.6063
▁Van	-10.6064
▁Gar	-10.6065
▁Peter	-10.607
▁According	-10.6071
▁relativ	-10.6074
▁Gefühl	-10.6076
▁financing	-10.6076
▁Welche	-10.6077
▁Angesicht	-10.6077
AS	-10.6077
▁einzelne	-10.6078
▁Grundsätze	-10.6084
š	-10.6085
Fi	-10.6091
▁Angaben	-10.6094
▁database	-10.6096
ces	-10.6096
▁told	-10.6096
▁Via	-10.6099
▁Systeme	-10.6104
▁Association	-10.6106
▁bodies	-10.6107
▁himself	-10.6108
▁Dimension	-10.611
▁enormous	-10.611
▁Belarus	-10.6113
TA	-10.6113
▁machines	-10.6114
▁Pan	-10.612
cia	-10.6121
▁expression	-10.6123
▁manche	-10.6126
▁Warum	-10.6126
▁freue	-10.6129
hung	-10.6132
▁translation	-10.6134
old	-10.6135
▁Standards	-10.614
Ã	-10.6141
▁difference	-10.615
ette	-10.6152
rate	-10.6153
▁Asyl	-10.6155
▁dangerous	-10.6156
▁economies	-10.6158
▁Technik	-10.616
▁easier	-10.6161
▁Trans	-10.6162
▁strategische	-10.6164
▁arbeitet	-10.6169
cy	-10.617
zieren	-10.6171
▁5.	-10.6176
▁Sonnen	-10.6177
▁7.	-10.618
▁defined	-10.618
lar	-10.6183
▁unternehmen	-10.6183
▁trägt	-10.6183
▁Once	-10.6184
cur	-10.6187
▁myself	-10.6191
▁konzentrieren	-10.6197
▁spät	-10.6197
king	-10.6198
▁supports	-10.6199
▁promoting	-10.62
▁Rum	-10.6201
▁Liberal	-10.6202
▁Brüssel	-10.6203
▁hält	-10.6204
ender	-10.6206
izing	-10.6208
zy	-10.6209
▁outcome	-10.6209
▁wants	-10.6211
▁verfolgen	-10.6211
jenigen	-10.6213
*	-10.6214
räume	-10.6214
Ein	-10.6216
zugeben	-10.6217
▁zufrieden	-10.6218
▁television	-10.622
▁Untersuchung	-10.6225
schehen	-10.623
▁Breakfast	-10.6232
▁signed	-10.6235
isieren	-10.6236
▁Beteiligung	-10.624
▁abgeschlossen	-10.624
maß	-10.6241
▁participate	-10.6242
▁developments	-10.6243
▁erscheint	-10.6245
▁adoption	-10.6246
▁mis	-10.625
trägen	-10.6251
ai	-10.6252
ping	-10.6252
▁anders	-10.6253
▁Beratung	-10.6257
▁parliamentary	-10.6258
▁bi	-10.6263
▁Za	-10.6266
▁ancient	-10.6271
21	-10.6273
▁Ci	-10.6275
how	-10.6275
▁England	-10.628
▁anyone	-10.6282
▁Tisch	-10.6282
▁Mess	-10.6283
▁Wissenschaft	-10.6283
System	-10.6284
▁seriously	-10.6285
rlei	-10.6289
▁ve	-10.6292
▁verursach	-10.6293
work	-10.6295
▁Over	-10.6299
▁element	-10.6304
par	-10.6305
▁informed	-10.6307
▁experienced	-10.6307
")	-10.6314
ita	-10.6314
▁vision	-10.632
▁Kirche	-10.632
handels	-10.6331
▁Sorge	-10.6332
gehalten	-10.6338
▁associated	-10.6339
rechts	-10.634
▁Greek	-10.6341
°	-10.6343
▁uner	-10.6345
fordern	-10.6348
▁practices	-10.635
folger	-10.6351
▁Ni	-10.6351
ON	-10.6353
▁min	-10.6355
▁concrete	-10.6359
▁übertragen	-10.6359
ब	-10.6362
rüber	-10.6366
▁sa	-10.6369
▁studies	-10.6378
▁gegenseitig	-10.638
▁obtain	-10.6381
European	-10.6381
▁leader	-10.6383
▁ma	-10.6383
arten	-10.6386
ual	-10.6387
▁Berichte	-10.639
▁African	-10.6394
▁meetings	-10.6394
▁win	-10.6397
▁massive	-10.64
chließlich	-10.6402
ped	-10.6406
arbeitung	-10.641
fähig	-10.6413
▁Gemeinde	-10.6413
▁laut	-10.6417
▁Deutsche	-10.6418
ious	-10.6418
▁article	-10.6418
▁Achtung	-10.6418
wechsel	-10.6419
01	-10.6421
cha	-10.6421
▁Forderungen	-10.6421
▁humanitarian	-10.6421
pan	-10.6422
▁Strom	-10.6423
▁connected	-10.6425
▁door	-10.6428
▁promotion	-10.6428
▁Katastrophe	-10.6429
over	-10.6436
▁rent	-10.644
▁Buchung	-10.6441
tische	-10.6442
ssystem	-10.6444
dorf	-10.6446
▁behaupte	-10.6446
▁erstellen	-10.6447
▁klicken	-10.645
ving	-10.6451
▁aims	-10.6455
▁happened	-10.6455
▁Hauses	-10.6455
▁Digital	-10.6456
gra	-10.6456
▁THE	-10.6457
▁exhibition	-10.6458
▁Bereits	-10.6459
▁verlassen	-10.646
▁immediate	-10.646
▁Speicher	-10.6461
▁seek	-10.6461
▁impossible	-10.6462
▁reducing	-10.6462
▁rechts	-10.6462
▁Private	-10.6462
▁spring	-10.6466
▁spent	-10.6466
▁scale	-10.6467
ok	-10.6467
▁zuständig	-10.6467
ennoch	-10.6467
henswürdigkeiten	-10.6469
lock	-10.6471
▁wenigen	-10.6472
▁por	-10.6473
▁implementing	-10.6473
▁contain	-10.6473
mel	-10.6475
▁Realität	-10.6476
▁ursprünglich	-10.6476
▁fordert	-10.6478
wohner	-10.6479
▁Guest	-10.6482
nisse	-10.6484
house	-10.6488
▁perform	-10.6491
▁Prinzip	-10.6493
▁Jahrhunderts	-10.6497
▁condition	-10.6502
▁Dorf	-10.6502
▁Will	-10.6504
▁Drog	-10.6506
▁agencies	-10.6507
▁Umfang	-10.6509
sorgt	-10.6514
▁differences	-10.6519
▁notice	-10.6525
▁Patienten	-10.6526
▁guide	-10.6526
treffen	-10.6527
▁echte	-10.6527
▁carefully	-10.6527
▁Globalisierung	-10.6528
▁Every	-10.6529
han	-10.6534
▁Market	-10.6535
▁IN	-10.6535
▁Live	-10.6536
▁diskutieren	-10.654
▁volle	-10.654
▁nennen	-10.6542
▁advance	-10.6542
Pro	-10.6543
▁appears	-10.6545
ori	-10.6547
▁Landwirt	-10.6548
▁anderes	-10.6551
▁Arbeiten	-10.6551
▁Verkehr	-10.6557
▁route	-10.6558
▁Support	-10.6559
iere	-10.6563
SE	-10.6572
cu	-10.658
IC	-10.6582
▁erhält	-10.6585
▁beaches	-10.659
▁Unterkunft	-10.6591
▁announced	-10.6593
▁niemand	-10.6593
▁zahlen	-10.6595
▁producers	-10.6598
tage	-10.6598
▁Original	-10.66
▁19.	-10.6603
▁truly	-10.6603
▁Firstly	-10.6604
▁reasonable	-10.6608
▁Ideen	-10.661
▁structures	-10.6614
▁Regional	-10.6615
▁improvement	-10.6615
▁consumption	-10.6617
wi	-10.6617
karte	-10.6618
▁recognition	-10.662
rum	-10.662
▁schneller	-10.6626
▁Justice	-10.6627
▁Due	-10.6627
▁generation	-10.6628
▁shared	-10.6633
▁Immobilien	-10.6638
gu	-10.6639
cker	-10.6641
▁raise	-10.6641
▁Polizei	-10.6642
▁meist	-10.6643
>	-10.6647
ged	-10.6653
▁box	-10.6654
▁described	-10.6657
RA	-10.6658
partner	-10.666
elt	-10.6662
▁Gast	-10.6664
▁Au	-10.6665
▁Don	-10.6667
▁entscheidende	-10.6667
▁Check	-10.6667
▁Irish	-10.6668
▁seven	-10.6668
▁ahead	-10.6668
13	-10.6669
▁territory	-10.667
▁becomes	-10.6674
▁mittlere	-10.6675
▁unit	-10.6676
▁calling	-10.6678
▁Tourismus	-10.6679
bruch	-10.668
▁Kurz	-10.668
▁Global	-10.6681
▁Miss	-10.6684
▁Seh	-10.6686
▁slow	-10.6686
▁Teilnehmer	-10.6689
AL	-10.669
▁Vielen	-10.6695
möglichkeiten	-10.6695
stoffe	-10.6703
▁Bay	-10.6704
▁object	-10.6706
▁Zugriff	-10.6706
▁bear	-10.6706
setzt	-10.6706
-1	-10.6714
▁Verträge	-10.6715
▁watch	-10.6715
▁diverse	-10.6717
▁feststellen	-10.672
ür	-10.6721
▁Resort	-10.6721
▁monitor	-10.6721
▁institutionelle	-10.6722
app	-10.6726
light	-10.6731
▁background	-10.6732
▁discrimination	-10.6732
statten	-10.6733
▁Har	-10.6734
▁models	-10.6736
▁Control	-10.6736
▁jemand	-10.6738
▁hören	-10.6738
▁released	-10.6739
▁Par	-10.6741
licher	-10.6744
▁geöffnet	-10.6746
dessen	-10.6749
▁membership	-10.675
▁write	-10.675
room	-10.6752
nimmt	-10.6752
▁intensive	-10.6753
regelung	-10.6755
▁Einheit	-10.6755
▁continued	-10.6756
▁Überprüf	-10.6756
▁legen	-10.6759
▁mark	-10.6759
▁Städte	-10.6759
▁wood	-10.6762
▁lo	-10.6765
▁Ta	-10.677
▁urban	-10.677
ara	-10.6772
ification	-10.6779
▁profitieren	-10.6779
▁charged	-10.6781
▁tief	-10.6783
geleitet	-10.6786
zo	-10.6789
▁Obama	-10.6791
▁statements	-10.6791
45	-10.6794
14	-10.6795
fällig	-10.6796
▁Heimat	-10.6796
▁po	-10.6799
▁river	-10.6799
www	-10.68
▁eight	-10.68
▁Tu	-10.6801
ges	-10.6802
▁Atom	-10.6804
▁Formen	-10.6805
▁Verlust	-10.6808
▁1994	-10.6816
▁äußer	-10.6816
▁Landschaft	-10.6818
▁Rand	-10.6819
▁hergestellt	-10.6819
▁availability	-10.682
▁Barroso	-10.682
tritts	-10.6821
Flexibilität	-10.6821
▁skills	-10.6823
▁größer	-10.6836
DA	-10.6837
▁possibilities	-10.6837
▁überprüfen	-10.6838
▁Bedarf	-10.6839
▁touch	-10.684
▁bequem	-10.6842
▁Führung	-10.6843
ute	-10.6843
▁host	-10.6844
▁Liebe	-10.6847
▁Foundation	-10.6848
▁Gemeinsame	-10.6855
▁satellite	-10.6861
▁begann	-10.6864
▁•	-10.6865
▁Sand	-10.6865
krieg	-10.6865
IN	-10.6865
▁Che	-10.6865
SP	-10.6865
▁court	-10.6867
▁ideale	-10.6868
verkehrs	-10.687
▁extreme	-10.687
▁jüngste	-10.687
weisung	-10.6871
▁Rome	-10.6872
▁regionale	-10.6873
▁rapid	-10.6873
▁Data	-10.6873
▁schönen	-10.6874
▁trading	-10.6876
▁Si	-10.6878
zügig	-10.6879
▁hingewiesen	-10.6879
▁formal	-10.688
0.000	-10.6881
gruppen	-10.6886
▁wishes	-10.6889
▁miteinander	-10.6889
▁unacceptable	-10.6892
▁greatest	-10.6892
▁shop	-10.6892
▁Haut	-10.6893
▁weight	-10.6895
▁spread	-10.6897
▁combined	-10.6897
▁Wünsche	-10.6898
ps	-10.69
▁surrounding	-10.6903
▁diskutiert	-10.6904
▁Other	-10.6906
▁Wechsel	-10.6907
▁relaxing	-10.6907
▁Michael	-10.691
▁wirksam	-10.6917
unt	-10.6918
▁glass	-10.6918
rang	-10.6918
▁symbol	-10.6919
▁nearby	-10.692
▁Wind	-10.6922
▁union	-10.6925
▁gewinnen	-10.6926
vent	-10.6928
istische	-10.6932
▁effektiv	-10.6933
č	-10.6936
▁aktuell	-10.6939
▁burden	-10.6939
▁schöne	-10.6939
▁print	-10.6941
▁;	-10.6945
▁insurance	-10.6945
05	-10.6949
▁Niveau	-10.695
Le	-10.695
▁haupt	-10.6951
▁fi	-10.6954
▁allowing	-10.6955
▁Bewegung	-10.6955
ete	-10.6957
zunehmen	-10.696
▁Com	-10.696
eur	-10.6961
Sterne	-10.6961
▁Democrats	-10.6962
▁hit	-10.6967
▁mission	-10.6971
set	-10.6972
▁houses	-10.6975
akt	-10.6977
▁religious	-10.6978
▁einsetzen	-10.6979
▁freie	-10.6982
▁komplexe	-10.6985
▁Maschinen	-10.6986
▁strongly	-10.6987
▁sale	-10.6991
PPE	-10.6993
ika	-10.6994
▁Marken	-10.6994
AT	-10.6995
produktion	-10.6996
box	-10.6999
▁unless	-10.7003
sta	-10.7003
03	-10.7004
▁Mon	-10.7005
▁Willen	-10.7012
▁Beach	-10.7015
▁Größe	-10.7016
▁fiscal	-10.7016
▁spending	-10.7022
station	-10.7023
▁Prä	-10.7025
▁Aussicht	-10.7025
▁attitude	-10.7027
▁buffet	-10.7032
▁wer	-10.7036
▁Maria	-10.7036
▁figures	-10.7038
▁Zahlung	-10.7038
▁Report	-10.7038
▁register	-10.704
▁Verwaltungs	-10.704
▁Federal	-10.7041
▁finance	-10.7048
▁genannte	-10.7048
▁guarantees	-10.7049
▁completed	-10.7051
pf	-10.7054
▁acht	-10.7054
▁unfortunately	-10.7054
▁Alternative	-10.7057
▁Turkish	-10.7059
▁pour	-10.7062
▁überall	-10.7066
▁pictures	-10.7066
▁Wa	-10.7068
▁erweitert	-10.707
22	-10.7071
position	-10.7073
▁Flugzeug	-10.7078
▁entitled	-10.7079
klang	-10.708
qu	-10.7082
▁window	-10.7085
▁net	-10.7085
▁perspective	-10.7085
▁hall	-10.7087
▁shape	-10.7094
▁betont	-10.7097
35	-10.7099
▁institution	-10.71
▁Sub	-10.7101
vin	-10.7103
▁Latin	-10.7108
ero	-10.711
▁Institute	-10.711
▁bildet	-10.7111
iti	-10.7115
Koordinierung	-10.7116
▁Elemente	-10.7116
vorschlag	-10.7117
kräfte	-10.7118
▁asylum	-10.7119
▁beginnt	-10.712
ably	-10.7121
▁informiert	-10.7123
▁denken	-10.7123
anlage	-10.7123
▁beauty	-10.7127
sbereich	-10.713
ans	-10.7133
▁unterstütze	-10.7139
zieht	-10.714
▁beinhaltet	-10.7142
▁born	-10.7142
▁meaning	-10.7147
▁Maße	-10.7151
▁Altstadt	-10.7152
chärf	-10.7152
älfte	-10.7156
eck	-10.716
▁Kurs	-10.716
▁Monat	-10.7164
▁Jeder	-10.7164
“.	-10.7165
une	-10.7168
▁gain	-10.717
▁Aktion	-10.717
▁Diskriminierung	-10.7172
▁registered	-10.7172
zip	-10.7173
bb	-10.7179
▁attractions	-10.7181
liste	-10.7183
▁Vienna	-10.7187
▁Radio	-10.7191
▁Anlagen	-10.7192
▁Poker	-10.7192
▁komfortable	-10.7193
▁entstanden	-10.7194
▁failed	-10.7197
▁devices	-10.7198
mas	-10.7199
link	-10.7201
ET	-10.7201
Grundsatz	-10.7207
▁24-	-10.7208
▁meters	-10.7209
fähigkeit	-10.721
▁taste	-10.7211
leichzeitig	-10.7212
▁tasks	-10.7213
▁recognise	-10.7213
üben	-10.7216
▁besitzt	-10.7216
ij	-10.7218
▁closer	-10.7222
▁cards	-10.7225
▁grenzüber	-10.7228
▁fit	-10.7231
▁dedicated	-10.7231
▁railway	-10.7236
▁Anwendungen	-10.7237
▁Todes	-10.7237
▁expenditure	-10.7238
van	-10.7239
▁forced	-10.7239
▁disease	-10.7244
▁beschäftigt	-10.7245
▁erheblich	-10.7245
▁Justiz	-10.7246
Aus	-10.7249
▁reservation	-10.7252
▁Kräft	-10.7255
OS	-10.7257
▁gestalten	-10.7258
▁Vorteil	-10.7262
▁Ereignisse	-10.7263
▁garantier	-10.7268
▁Gerichtshof	-10.7271
06	-10.7272
▁Erde	-10.7273
18	-10.7274
▁golf	-10.7275
ants	-10.7276
▁organisiert	-10.7279
▁flat	-10.7282
▁externe	-10.7282
▁Ti	-10.7282
ologie	-10.7283
▁Sha	-10.7287
▁zentral	-10.7294
▁install	-10.7296
voll	-10.7298
▁positions	-10.7298
▁platform	-10.7303
▁Studio	-10.7306
▁stattfinden	-10.7308
▁Wall	-10.7314
▁vollkommen	-10.7316
▁Märkte	-10.7316
▁Anlage	-10.7321
▁klein	-10.7323
▁Ju	-10.7323
züge	-10.7324
▁Voraus	-10.7325
ME	-10.7325
▁kept	-10.7326
nden	-10.7327
kultur	-10.7329
▁session	-10.7329
▁ne	-10.733
▁Verständnis	-10.7331
rischen	-10.7333
▁Ordnung	-10.7333
▁Tra	-10.7336
▁compared	-10.7337
▁6.	-10.7342
▁grow	-10.7342
▁11.	-10.7343
▁Links	-10.7344
▁device	-10.7344
▁richtigen	-10.7346
▁story	-10.7347
▁advice	-10.7348
ld	-10.7348
▁numbers	-10.7348
▁Rom	-10.735
▁corporate	-10.7351
▁Austrian	-10.7351
▁Gründe	-10.7352
▁reliable	-10.7352
▁learning	-10.7354
▁Another	-10.7354
oli	-10.7356
5-0	-10.7357
▁advertising	-10.7357
▁defend	-10.7357
▁motor	-10.7358
▁Treffen	-10.7359
▁establishing	-10.7362
▁weiterer	-10.7366
fo	-10.7367
▁storage	-10.7367
▁claims	-10.7368
▁interessiert	-10.7369
▁PDF	-10.7369
zer	-10.7374
▁deliver	-10.7374
▁urgent	-10.7376
▁core	-10.7377
▁intervention	-10.7379
▁Manager	-10.7379
versorgung	-10.7379
▁Any	-10.7382
▁totally	-10.7385
pon	-10.7387
▁Foreign	-10.7388
▁Kopf	-10.7391
▁unmittelbar	-10.7392
▁Hinweis	-10.7392
modell	-10.7393
▁blue	-10.7393
▁names	-10.7395
ock	-10.7397
▁Generation	-10.7398
▁USB	-10.7399
▁verändert	-10.7401
mark	-10.7402
▁enables	-10.7402
▁eröffnet	-10.7403
▁claim	-10.7406
▁appeal	-10.741
▁biggest	-10.741
▁granted	-10.7412
▁Fenster	-10.7415
▁minute	-10.7415
▁Note	-10.7417
▁ergeben	-10.7419
▁installed	-10.7419
▁Kontroll	-10.7421
▁landscape	-10.7422
reg	-10.7425
▁counter	-10.7425
▁Very	-10.7429
ple	-10.743
▁unto	-10.743
▁elektronische	-10.743
▁convinced	-10.743
▁Hall	-10.7432
gruppe	-10.7433
▁Card	-10.7433
ture	-10.7435
▁packages	-10.7436
▁dir	-10.7439
▁mid	-10.744
▁empfehlen	-10.744
▁deutsche	-10.7442
▁festgestellt	-10.7443
avi	-10.7445
▁Kandidat	-10.7446
rin	-10.7447
▁vers	-10.7448
▁Delegation	-10.7452
▁vereinbart	-10.7452
▁Meiner	-10.7457
lässlich	-10.7459
▁Tiere	-10.746
▁falsch	-10.746
е	-10.7461
▁luxury	-10.7461
ona	-10.747
▁schnelle	-10.7471
▁Nevertheless	-10.7474
Das	-10.7475
▁Yet	-10.7476
▁dient	-10.7478
▁Liberalisierung	-10.748
▁Alter	-10.7481
▁Neue	-10.7481
▁ausgezeichnet	-10.7481
▁patent	-10.7483
▁discover	-10.7483
99	-10.7485
von	-10.7488
▁election	-10.749
▁extended	-10.749
sichtig	-10.7491
ec	-10.7492
▁strength	-10.7493
▁inner	-10.7497
▁definition	-10.7497
▁Glück	-10.7503
▁3-	-10.7505
▁memory	-10.7506
▁contrary	-10.7506
▁saw	-10.7508
ani	-10.751
▁Rest	-10.7514
▁Chi	-10.7518
bad	-10.7521
▁Christian	-10.7521
▁terrorist	-10.7523
▁unable	-10.7524
▁Min	-10.7525
▁Farb	-10.7525
▁Premier	-10.7527
▁Reaktion	-10.7533
▁Eindruck	-10.7537
sel	-10.754
▁weapons	-10.7541
▁moving	-10.7545
▁Netherlands	-10.7549
▁passed	-10.7549
▁Eastern	-10.7551
atur	-10.7555
Unabhängigkeit	-10.7555
▁quick	-10.7559
▁entsprechen	-10.7566
▁micro	-10.7568
▁continues	-10.7569
▁zuvor	-10.7572
freiheit	-10.7576
kontrolle	-10.7578
▁ökologisch	-10.7579
▁Company	-10.7579
▁überzeugen	-10.758
▁fuel	-10.7581
▁warten	-10.7582
▁tut	-10.7582
▁candidate	-10.7585
oni	-10.7591
▁rasch	-10.7592
verteidig	-10.7594
ura	-10.7595
▁MP	-10.7595
▁tried	-10.7596
fach	-10.7603
▁Va	-10.7603
=	-10.7603
▁factors	-10.7603
▁solcher	-10.7605
▁verabschiedet	-10.7606
▁Vorsitzende	-10.7608
▁gegenwärtigen	-10.7609
▁Regelungen	-10.7612
▁Zustand	-10.7614
▁betrachten	-10.7616
▁update	-10.7624
▁Patent	-10.763
▁mar	-10.763
▁wait	-10.7631
▁church	-10.7637
ata	-10.7639
cho	-10.7641
gy	-10.7642
▁Phase	-10.7642
▁wachsende	-10.7643
▁akzeptiert	-10.7648
▁Weitere	-10.7651
▁lake	-10.7652
▁gratulier	-10.7653
▁integriert	-10.7655
▁interface	-10.7656
▁Geräte	-10.7657
▁Kor	-10.7658
▁Gebrauch	-10.766
▁cars	-10.7661
▁Vo	-10.7661
hm	-10.7662
▁Gegensatz	-10.7669
▁Klar	-10.7672
wagen	-10.7677
beziehung	-10.7679
▁Studien	-10.7689
sofern	-10.7693
waff	-10.7693
ade	-10.7695
▁sogenannte	-10.7695
▁maintenance	-10.7695
▁Non	-10.7698
▁Special	-10.7698
rie	-10.7699
wegen	-10.7701
▁Feld	-10.7703
▁neither	-10.7704
streb	-10.7705
▁üblich	-10.7706
▁sensitive	-10.7708
lastung	-10.771
ris	-10.771
▁laid	-10.7713
▁Risik	-10.7713
▁Westen	-10.7713
▁Trag	-10.7714
behörde	-10.7716
▁perfectly	-10.7718
tätigkeit	-10.7722
▁affect	-10.7727
gefähr	-10.7728
▁Verhältnis	-10.7733
▁Palace	-10.7736
▁Constitution	-10.7738
▁Institution	-10.7742
▁Karten	-10.7743
▁Stadtzentrum	-10.7743
▁teilnehmen	-10.7744
04	-10.7747
bu	-10.775
ama	-10.7754
schlägt	-10.7755
vel	-10.7755
wald	-10.7762
▁comp	-10.7763
▁pleasure	-10.7765
▁Verbrechen	-10.7766
▁chosen	-10.7768
▁conclusions	-10.7769
▁Thus	-10.7769
▁Theater	-10.777
▁bo	-10.7774
fallen	-10.7775
▁flight	-10.7775
▁fruit	-10.7778
▁holidays	-10.7779
dere	-10.778
▁Pool	-10.7783
▁Good	-10.7785
▁Serie	-10.7785
▁Gesetze	-10.7788
▁bedeutende	-10.7789
▁achieving	-10.7793
▁Wellness	-10.7793
▁delay	-10.7797
▁Prozesse	-10.78
▁Under	-10.78
▁erneuer	-10.7802
▁Zeiten	-10.7803
▁veran	-10.7805
mat	-10.7805
▁ambitious	-10.7806
wirtschaftliche	-10.7807
▁ri	-10.7813
▁remove	-10.7816
ham	-10.7816
▁Tal	-10.7816
▁colleague	-10.7818
▁sold	-10.782
▁agency	-10.7822
▁Book	-10.7822
dis	-10.7823
▁einzigartige	-10.7823
▁extrem	-10.7823
▁Robert	-10.7826
▁organization	-10.7827
tik	-10.7832
▁ausgewogen	-10.7833
▁bekannte	-10.7833
▁honourable	-10.7835
macht	-10.7836
▁Worten	-10.7837
▁extension	-10.7837
▁engine	-10.7841
EG	-10.7843
▁umfassend	-10.7844
▁Maß	-10.7846
▁rightly	-10.7849
test	-10.7851
▁daraus	-10.7853
heiten	-10.7856
ys	-10.7859
▁artists	-10.786
▁vehicle	-10.7863
last	-10.787
▁Definition	-10.787
▁Sprach	-10.7875
▁Betriebs	-10.7877
▁evaluation	-10.7879
▁Dis	-10.7882
bot	-10.7882
▁drawn	-10.7885
schluss	-10.7885
▁Direkt	-10.7885
▁Bestandteil	-10.7887
▁gelungen	-10.7893
ath	-10.7894
▁outstanding	-10.7898
▁regret	-10.7899
▁stands	-10.79
name	-10.79
▁individuals	-10.7905
▁las	-10.7906
▁Korea	-10.7908
▁obviously	-10.7912
▁Gedanken	-10.7912
▁Kamera	-10.7915
treu	-10.7915
▁Grad	-10.7917
▁Klimaanlage	-10.7917
▁continuing	-10.7919
▁Mag	-10.7921
▁obligations	-10.7922
);	-10.7924
▁extend	-10.7924
▁sides	-10.7926
schleunig	-10.7927
▁Leistungs	-10.7928
▁constantly	-10.7929
▁elected	-10.7931
▁parallel	-10.7932
▁ECU	-10.7934
jahr	-10.7936
▁Mark	-10.7936
▁mountains	-10.7939
▁Wür	-10.7941
▁courses	-10.7945
vers	-10.7947
▁russische	-10.7954
ology	-10.7957
nstatt	-10.7958
▁someone	-10.7962
▁Englisch	-10.7965
▁Show	-10.7967
▁Marketing	-10.7969
▁factor	-10.7973
teilung	-10.7974
▁River	-10.7976
▁definiert	-10.7977
cent	-10.7977
▁Bra	-10.798
▁Fer	-10.7984
▁urge	-10.7984
▁chain	-10.7987
straße	-10.7987
uring	-10.7989
▁aircraft	-10.799
▁dimension	-10.7991
()	-10.7991
OR	-10.7991
▁length	-10.7992
▁eingereicht	-10.7995
▁multilateral	-10.7996
▁zukünftige	-10.7997
▁Kombination	-10.7998
▁commitments	-10.8
manchmal	-10.8002
▁Erholung	-10.8003
▁rock	-10.8004
angebot	-10.8005
▁Gemeinsam	-10.8005
▁Bre	-10.8007
▁Royal	-10.8008
▁ausländische	-10.8009
▁eingeh	-10.8009
▁wunderschöne	-10.8009
▁organised	-10.8011
▁Player	-10.8012
▁surrounded	-10.8016
▁equality	-10.8017
lic	-10.8019
”,	-10.802
▁Palestinian	-10.8021
▁Agentur	-10.8021
benso	-10.8022
pol	-10.8023
▁beachten	-10.8024
▁Laufe	-10.8027
▁emphasise	-10.8028
▁independence	-10.803
▁Papier	-10.803
▁club	-10.8032
▁8.	-10.8034
▁Lord	-10.8036
▁multiple	-10.8036
▁Los	-10.8037
act	-10.8037
▁cu	-10.8038
▁Fotos	-10.8038
▁yesterday	-10.8038
▁Agency	-10.804
▁Bahnhof	-10.8041
▁conduct	-10.8041
PC	-10.8042
ruf	-10.8042
▁Aktionen	-10.8045
▁wonder	-10.8048
▁Arbeitsmarkt	-10.8053
essen	-10.8053
▁Ausland	-10.8055
eugnisse	-10.8055
ava	-10.8058
▁Formular	-10.8058
▁rechtliche	-10.8058
richten	-10.8058
post	-10.8061
▁successfully	-10.8062
▁blood	-10.8063
ziert	-10.8063
▁Summit	-10.8063
▁facilitate	-10.8064
IL	-10.8064
▁accessible	-10.8064
ev	-10.8068
▁Experten	-10.8069
▁intention	-10.807
▁Wald	-10.8071
▁konkret	-10.8075
Al	-10.8078
▁#	-10.8081
▁gemeinschaft	-10.809
▁Planung	-10.8097
▁criticism	-10.8102
▁mode	-10.8102
Bei	-10.8103
▁Glas	-10.8103
▁Burg	-10.8105
▁User	-10.8105
▁ähnliche	-10.8106
▁registration	-10.8107
war	-10.8109
64	-10.8109
▁emphasis	-10.8113
▁Beschluss	-10.8114
▁merely	-10.8114
▁repeat	-10.8114
rangig	-10.8119
▁comply	-10.812
▁sorgfältig	-10.8121
▁browser	-10.8124
▁physical	-10.8124
▁obvious	-10.8126
▁limits	-10.8126
▁category	-10.8127
▁prepare	-10.8128
▁Zoll	-10.813
▁store	-10.8133
▁asking	-10.8134
▁Putin	-10.8137
zeigen	-10.8137
▁mechanism	-10.8146
▁überein	-10.8152
gri	-10.8152
▁Architektur	-10.8153
nz	-10.8163
▁einverstanden	-10.8164
▁payments	-10.8164
▁Empfehlungen	-10.8165
▁Kar	-10.8168
▁liberal	-10.8173
▁geschieht	-10.8174
17	-10.8175
▁changing	-10.8176
▁Use	-10.8177
▁früh	-10.8177
▁communities	-10.8178
▁III	-10.8179
nummer	-10.8184
kreis	-10.8185
▁Jugend	-10.8186
▁Island	-10.819
▁species	-10.8191
▁Kur	-10.8197
▁goals	-10.8199
▁Beschäftigungs	-10.8199
▁determine	-10.82
▁decades	-10.8201
▁Streit	-10.8203
▁Sc	-10.8206
▁balanced	-10.8206
▁stimmt	-10.8208
▁speziellen	-10.8209
gan	-10.8211
wing	-10.8213
räumen	-10.8213
▁gehalten	-10.8214
ndlichen	-10.8214
▁sage	-10.8217
punkte	-10.8218
▁targets	-10.8219
▁Both	-10.822
▁Tagung	-10.8221
ico	-10.8221
▁flow	-10.8225
bildung	-10.8226
▁uses	-10.8226
▁technological	-10.823
▁Environment	-10.8233
▁Süden	-10.8236
▁Cha	-10.8236
▁operate	-10.8236
▁außerordentlich	-10.8237
▁recovery	-10.8237
▁universal	-10.8239
▁kaufen	-10.8241
▁ship	-10.8241
▁Located	-10.8242
netz	-10.8248
▁zugänglich	-10.825
▁Mini	-10.8252
▁zählen	-10.8252
▁recommendations	-10.8252
▁Typ	-10.8252
europäische	-10.8254
▁metal	-10.8255
förderung	-10.8255
seitig	-10.8255
tief	-10.8255
▁rail	-10.8256
▁license	-10.8256
az	-10.8259
▁Teilnahme	-10.8261
▁Herz	-10.8261
das	-10.8262
ú	-10.8262
▁Square	-10.8264
▁putting	-10.8264
▁Ki	-10.8265
▁contemporary	-10.8266
paket	-10.8266
▁il	-10.8267
▁Freunde	-10.8267
richtlinie	-10.8268
▁damals	-10.827
▁Nor	-10.8274
▁Autor	-10.828
▁Tod	-10.828
▁furnished	-10.8281
▁Farben	-10.8282
▁treten	-10.8282
▁sicherstell	-10.8282
▁Export	-10.8283
▁Voraussetzungen	-10.8285
▁Its	-10.8286
▁fühl	-10.8288
▁Jean	-10.8288
▁Revolution	-10.8289
▁Time	-10.8289
schreitende	-10.829
▁substantial	-10.8291
ments	-10.8292
▁participants	-10.8292
▁waiting	-10.8294
quality	-10.8295
▁Beim	-10.8297
▁contained	-10.8297
▁disposal	-10.8298
teile	-10.8303
▁define	-10.8303
▁spricht	-10.8304
▁conclude	-10.8305
▁unterscheide	-10.8307
▁vorher	-10.831
▁deposit	-10.8311
▁journey	-10.8312
▁Innen	-10.8313
▁approximately	-10.8316
▁selten	-10.8318
▁ältere	-10.8318
▁erfreu	-10.832
MA	-10.832
▁abhängig	-10.832
▁mini	-10.832
istic	-10.832
▁1992	-10.8322
wäg	-10.8322
ska	-10.8323
▁jungen	-10.8325
ु	-10.8327
▁erhebliche	-10.8327
▁übernommen	-10.8329
▁consists	-10.833
▁explain	-10.833
▁prevention	-10.8331
▁Bedro	-10.8333
ati	-10.8333
▁Arm	-10.8337
▁White	-10.8337
▁log	-10.8338
▁bringing	-10.834
▁bewegen	-10.834
▁Datenschutz	-10.8343
▁seeking	-10.8344
▁mittels	-10.8344
▁sonst	-10.8348
▁geling	-10.8348
▁controls	-10.835
tech	-10.835
▁Minderheiten	-10.8351
▁Those	-10.8353
list	-10.8358
▁Nahrungsmittel	-10.8358
▁Blog	-10.8359
material	-10.836
gas	-10.8362
▁Schulden	-10.8365
▁installiert	-10.8366
▁Abschnitt	-10.8366
▁Treib	-10.8366
▁nearly	-10.8368
▁Dom	-10.8368
ht	-10.8371
len	-10.8371
▁professionelle	-10.8372
▁Kon	-10.8375
▁Hauptstadt	-10.8375
▁Freude	-10.8377
phrase	-10.8379
▁Monte	-10.838
▁zeit	-10.838
forschung	-10.8383
▁sinnvoll	-10.8383
▁Problemen	-10.8383
IA	-10.8384
arm	-10.8385
▁mail	-10.8386
▁Eigen	-10.8389
▁proceed	-10.8392
▁lose	-10.8393
▁resulting	-10.8396
▁erfolgreiche	-10.8396
▁Zi	-10.8397
▁letter	-10.8397
▁Master	-10.8397
▁sieben	-10.8398
licherweise	-10.8401
▁planned	-10.8401
▁wild	-10.8403
äni	-10.8404
▁profit	-10.8405
▁governance	-10.8407
▁skin	-10.8407
▁steel	-10.8408
ph	-10.8411
Lo	-10.8414
schränken	-10.8416
Pa	-10.8419
▁guaranteed	-10.842
▁Alliance	-10.8421
▁capable	-10.8422
alter	-10.8422
▁wirksame	-10.8424
500	-10.8424
▁notwendige	-10.8424
responsibilities	-10.8425
▁Grunde	-10.8429
▁Austausch	-10.8431
▁representative	-10.8431
▁photos	-10.8434
▁Essen	-10.8436
haften	-10.8439
▁manufacturing	-10.8441
ack	-10.8441
▁strengthening	-10.8443
▁Rechnungs	-10.8451
▁gebe	-10.8453
▁gestaltet	-10.8455
▁association	-10.8459
д	-10.8459
▁Gegend	-10.8461
▁anbieten	-10.8464
Ab	-10.8464
▁Audio	-10.8467
▁Enjoy	-10.8468
anz	-10.8471
▁guter	-10.8472
▁Vom	-10.8477
ängt	-10.8481
▁acceptable	-10.8485
▁pointed	-10.8491
▁Hilfs	-10.8491
ida	-10.8491
▁langen	-10.8495
▁zone	-10.8504
▁drawing	-10.8508
laden	-10.8508
NA	-10.8509
▁noise	-10.8509
MS	-10.851
▁Effizienz	-10.851
▁Jan	-10.8517
▁Inn	-10.852
▁Element	-10.8521
▁Touristen	-10.8521
▁secret	-10.8523
▁Religion	-10.8524
▁Sweden	-10.8524
CC	-10.8524
▁Zug	-10.8525
▁präsentiert	-10.8526
machen	-10.8527
km	-10.8528
mes	-10.8529
zeiten	-10.8534
Kontinent	-10.8535
▁sell	-10.8536
itz	-10.8539
▁eye	-10.854
▁convenient	-10.8542
▁reflect	-10.8545
▁Mensch	-10.8546
▁dr	-10.8547
▁identity	-10.8548
Ro	-10.8548
▁Paläst	-10.8548
▁Nichtraucher	-10.8551
gesellschaftlich	-10.8551
▁smaller	-10.8552
▁Energy	-10.8552
▁Gericht	-10.8555
▁Auftrag	-10.8563
▁Charter	-10.8564
LE	-10.8564
CD	-10.8566
▁21.	-10.8569
▁blog	-10.8569
▁thereby	-10.857
▁00	-10.857
▁Angebote	-10.857
▁Signal	-10.8571
▁Pension	-10.858
▁Kooperation	-10.8581
geräte	-10.8582
▁dinner	-10.8583
ppen	-10.8583
▁Rules	-10.8583
cre	-10.8584
▁consensus	-10.8584
▁Wesen	-10.8587
programme	-10.8588
▁primary	-10.8589
▁Ern	-10.8593
▁Sound	-10.8593
▁vollständige	-10.8595
isches	-10.8595
07	-10.8596
▁OS	-10.8604
▁Sp	-10.8607
▁Trotz	-10.8607
met	-10.8609
hält	-10.8614
▁wiederhol	-10.8614
▁adequate	-10.8616
▁Chamber	-10.8616
wettbewerb	-10.8617
▁Apartment	-10.8619
▁Act	-10.8625
schicht	-10.8626
▁acts	-10.8628
▁Express	-10.863
eb	-10.863
▁enorme	-10.8635
▁truth	-10.8636
▁Th	-10.8641
▁JavaScript	-10.8642
▁großes	-10.8643
▁industries	-10.8647
schiff	-10.8649
reise	-10.865
▁explore	-10.865
hang	-10.865
▁Methode	-10.8651
ausschuss	-10.8652
illa	-10.8653
▁grounds	-10.8656
▁teilen	-10.8657
▁Morgen	-10.866
▁southern	-10.866
▁driving	-10.8661
▁Nachfrage	-10.8661
▁Weiß	-10.8661
losen	-10.8664
▁Budget	-10.8664
well	-10.8665
▁perfekt	-10.8667
ía	-10.8667
▁Offen	-10.8668
▁fällt	-10.8671
▁Old	-10.8673
▁Black	-10.8674
▁reagieren	-10.8674
▁weg	-10.8679
▁erscheinen	-10.868
karten	-10.8684
▁Schwerpunkt	-10.8684
▁ließ	-10.8685
achstum	-10.8686
▁default	-10.8686
border	-10.869
▁Sach	-10.8694
▁Krisen	-10.8694
einrichtungen	-10.87
▁audio	-10.87
▁Romania	-10.8701
smöglichkeiten	-10.8701
ney	-10.8704
▁Schwarz	-10.8705
▁School	-10.8708
▁ähnlich	-10.8708
▁sensible	-10.8709
Innen	-10.871
▁Symbol	-10.8712
▁König	-10.8716
▁op	-10.8718
▁George	-10.8719
▁Fax	-10.872
▁farm	-10.8726
▁causes	-10.8727
▁impression	-10.8727
▁Wahrheit	-10.8728
zahlt	-10.8729
gegangen	-10.873
künftige	-10.8732
▁expensive	-10.8732
▁Dutch	-10.8734
right	-10.8735
▁password	-10.8736
▁Eltern	-10.8737
▁em	-10.8738
▁Gewicht	-10.8739
achtung	-10.8739
▁addressed	-10.8742
▁basiert	-10.8743
▁launch	-10.8745
umwelt	-10.8745
▁Mitgliedern	-10.8746
ram	-10.8747
enken	-10.8748
▁Two	-10.8751
▁schönste	-10.8756
kar	-10.876
kurs	-10.8765
▁liability	-10.8768
▁primarily	-10.877
af	-10.8773
▁mother	-10.8774
▁Pflanzen	-10.8774
▁nation	-10.8776
ova	-10.8777
▁48	-10.8778
▁respekt	-10.8781
▁forest	-10.8783
hy	-10.8784
▁dürfte	-10.8785
▁reicht	-10.8787
▁attacks	-10.8788
▁requested	-10.8789
Programm	-10.8789
ID	-10.8791
▁finde	-10.8791
schi	-10.8792
eu	-10.8795
▁Mor	-10.8797
▁verein	-10.8798
▁contents	-10.8799
▁siehe	-10.8803
sagen	-10.8803
▁block	-10.8803
▁opposite	-10.8804
▁Mutter	-10.8804
▁lokal	-10.8806
▁previously	-10.8807
▁Vision	-10.8808
▁testing	-10.8808
5%	-10.8809
Veröffentlichung	-10.8811
▁Day	-10.8812
▁continent	-10.8813
▁höchsten	-10.8813
▁Wild	-10.8814
▁abgestimmt	-10.8816
▁discussing	-10.8818
▁sand	-10.8821
▁100%	-10.8822
▁erhältlich	-10.8825
▁patients	-10.8825
▁Take	-10.8826
▁effizient	-10.8828
frei	-10.8829
▁outdoor	-10.883
Berücksichtig	-10.883
▁King	-10.8831
▁copy	-10.8833
version	-10.8835
organisation	-10.8835
cing	-10.8836
fest	-10.8837
▁gefördert	-10.8838
▁1980	-10.8841
31	-10.8841
▁konstru	-10.8841
▁Financial	-10.8841
▁leads	-10.8843
mut	-10.8845
▁Set	-10.8846
wind	-10.8846
▁turned	-10.8846
▁album	-10.8851
AP	-10.8851
▁Gründung	-10.8853
▁produziert	-10.8853
▁langsam	-10.8856
code	-10.8858
▁Nice	-10.8858
niveau	-10.886
▁Prodi	-10.8863
▁apart	-10.8864
▁president	-10.8869
▁?	-10.8869
▁beschränkt	-10.887
▁Mir	-10.887
▁fertig	-10.8871
pt	-10.8871
▁Verbot	-10.8875
weite	-10.8876
▁Methoden	-10.8878
.”	-10.8881
▁bedeutend	-10.8882
▁Ur	-10.8883
▁angemessene	-10.8888
▁ho	-10.8889
▁Bu	-10.8892
ct	-10.8896
95	-10.8899
tain	-10.8901
bereiche	-10.8902
▁determined	-10.8903
▁bio	-10.8904
▁nochmal	-10.8904
▁solid	-10.8909
▁{{	-10.891
itäre	-10.8911
SC	-10.8912
bach	-10.8914
lan	-10.8921
▁Lehr	-10.8922
Adresse	-10.8923
Der	-10.8926
▁),	-10.8926
NL	-10.8929
▁leadership	-10.893
▁nations	-10.893
▁master	-10.8931
▁Dublin	-10.8931
▁Geb	-10.8934
▁Rotary	-10.8934
▁Geschäfte	-10.8935
pel	-10.8938
▁soft	-10.894
▁territorial	-10.894
▁Berufs	-10.894
äle	-10.8941
▁mutual	-10.8941
▁Vater	-10.8942
ré	-10.8944
▁Cal	-10.8945
sprogramm	-10.8945
▁effiziente	-10.8946
▁Haar	-10.895
▁Kind	-10.8952
▁renoviert	-10.8952
▁Freizeit	-10.8954
▁Bucht	-10.896
▁bars	-10.8961
▁cheap	-10.8962
▁Ganz	-10.8965
▁Ga	-10.8967
kämpfen	-10.8969
▁roll	-10.8969
tru	-10.8971
▁Ton	-10.8974
▁medizinische	-10.8976
▁Fälle	-10.8979
dal	-10.8981
▁Anliegen	-10.8981
▁Trek	-10.8983
▁Verhalten	-10.8984
▁books	-10.8986
▁behandeln	-10.8988
▁Java	-10.8988
▁renewable	-10.8989
}}	-10.899
▁Flash	-10.8991
▁Schweden	-10.8993
linie	-10.8996
ät	-10.8997
▁une	-10.8998
▁delivered	-10.8998
▁Details	-10.8999
▁mandate	-10.9
ast	-10.9
▁begonnen	-10.9
top	-10.9004
▁piece	-10.9004
schaften	-10.9006
nu	-10.9006
▁kleiner	-10.9006
eg	-10.9009
▁führte	-10.901
▁willkommen	-10.9014
▁highlight	-10.9016
2-	-10.9017
ray	-10.9017
▁Veranstaltungen	-10.9017
Me	-10.9018
▁Stück	-10.9018
▁diesbezüglich	-10.9019
▁stone	-10.9021
▁höchst	-10.9021
sfonds	-10.9029
02	-10.9032
▁Anbieter	-10.9033
▁Kaffee	-10.9033
▁leiden	-10.9035
▁consultation	-10.9036
▁Thanks	-10.9039
▁Despite	-10.9039
▁Fluss	-10.9042
▁est	-10.9048
örter	-10.905
mmer	-10.9052
▁Well	-10.9055
▁Gut	-10.9055
▁vielmehr	-10.9058
gebracht	-10.906
gerät	-10.906
▁Dach	-10.9063
▁feeling	-10.9064
08	-10.9065
strafe	-10.9065
▁Paper	-10.9066
▁talks	-10.9067
▁David	-10.9067
▁valley	-10.9068
▁Gleichgewicht	-10.9069
onsens	-10.907
▁1993	-10.9073
▁appreciate	-10.9074
kommt	-10.9076
▁diversity	-10.9076
▁assist	-10.9077
leiten	-10.9077
▁intensiv	-10.9077
▁verlieren	-10.9078
▁dealt	-10.9078
▁Schloss	-10.9078
▁Stunde	-10.908
▁cable	-10.9081
To	-10.9081
▁Drei	-10.9084
▁freundlich	-10.9086
▁father	-10.9088
▁Spiele	-10.9092
▁reply	-10.9092
▁brings	-10.9095
▁Sam	-10.9095
▁Genau	-10.9096
bezogen	-10.9103
▁named	-10.9103
▁Massen	-10.9107
▁gering	-10.9109
brechen	-10.9109
▁schools	-10.911
gemeinschaft	-10.9111
▁sorgt	-10.9114
अ	-10.9115
▁sanctions	-10.9115
▁amongst	-10.9115
▁bereitgestellt	-10.9116
▁resolve	-10.9121
ration	-10.9121
grenzung	-10.9123
▁wall	-10.9123
zit	-10.9126
▁gr	-10.9127
▁Umständen	-10.9129
▁Operation	-10.9133
▁interior	-10.9135
▁Eisenbahn	-10.9135
▁Verkauf	-10.9135
▁ta	-10.9136
▁residence	-10.9144
▁Lager	-10.9145
my	-10.9147
▁München	-10.9148
▁>	-10.9149
▁Programms	-10.9152
▁EC	-10.9156
▁qualified	-10.9162
▁Nachrichten	-10.9165
geführt	-10.9168
▁Gewinn	-10.9169
▁castle	-10.9174
▁Inseln	-10.9175
▁Kunde	-10.9175
▁constant	-10.9178
entscheidung	-10.9179
▁Grenze	-10.9179
▁Blut	-10.9179
▁discharge	-10.918
▁reichen	-10.918
▁confirm	-10.9182
▁feed	-10.9191
▁Norden	-10.9192
▁binding	-10.9192
frontier	-10.9196
▁Ger	-10.9197
▁offene	-10.9198
amerikanische	-10.9199
kehrt	-10.9201
«	-10.9201
▁Ya	-10.9205
ón	-10.9209
xi	-10.9209
▁mechanisms	-10.921
▁umgeben	-10.9211
▁moved	-10.9211
▁Kommunikations	-10.9212
75	-10.9214
produkte	-10.9215
▁Bef	-10.9215
▁Main	-10.9215
32	-10.9215
▁Kreis	-10.9216
▁Kilometer	-10.9217
▁fix	-10.9217
▁Question	-10.922
▁fill	-10.9221
▁marked	-10.9222
▁Mein	-10.9222
band	-10.9223
▁Eis	-10.9223
hä	-10.9226
▁angemessen	-10.9228
▁refugees	-10.9229
▁friend	-10.9229
▁bedarf	-10.9229
å	-10.923
austausch	-10.9232
▁Doppel	-10.9235
▁significantly	-10.9236
CS	-10.9236
▁Schaden	-10.9239
▁250	-10.9241
dacht	-10.9242
geschrieben	-10.9245
ius	-10.9248
▁türkische	-10.9249
▁Shop	-10.925
▁Ziffer	-10.9251
▁holding	-10.9251
Er	-10.9251
▁situations	-10.9253
itäts	-10.9258
▁existence	-10.9259
▁competence	-10.9259
ugnisse	-10.9262
▁Tür	-10.9263
▁("	-10.9263
▁beschrieben	-10.9264
SV	-10.9264
▁rejected	-10.9265
▁Dadurch	-10.9266
ehr	-10.9267
vert	-10.9268
▁griechische	-10.9269
▁approval	-10.9271
▁charming	-10.9272
▁shift	-10.9272
▁invest	-10.9274
mitten	-10.9276
▁Aussage	-10.9276
▁tra	-10.9279
win	-10.928
▁manufacturers	-10.9281
▁Verfügbarkeit	-10.9288
▁heavy	-10.929
▁Werbe	-10.9293
▁launched	-10.9294
26	-10.9294
▁Get	-10.9295
▁obligation	-10.9295
▁corner	-10.9296
▁Mat	-10.9297
▁Studie	-10.9298
▁ziemlich	-10.93
▁Empfehlung	-10.9301
sländer	-10.9303
▁Ve	-10.9306
▁onto	-10.9306
▁Action	-10.9308
▁Schäden	-10.9311
▁Voraussetzung	-10.9312
▁derzeitigen	-10.9314
▁Regulierung	-10.9316
bra	-10.9317
▁presentation	-10.9323
▁vast	-10.9324
▁output	-10.9324
▁Minutes	-10.9325
PS	-10.9326
▁grüne	-10.933
▁contrast	-10.933
▁constructive	-10.9331
reiche	-10.9331
ified	-10.9331
▁compliance	-10.9334
▁expectations	-10.9336
idad	-10.9339
ves	-10.9339
▁Dokumente	-10.9345
▁Before	-10.935
▁berechtigt	-10.9352
▁destination	-10.9356
▁helping	-10.9357
ax	-10.9357
namen	-10.936
fläche	-10.9361
▁ju	-10.9366
▁vorgenommen	-10.9367
▁heat	-10.9367
▁offizielle	-10.9369
▁assume	-10.9369
▁betreffen	-10.9371
nische	-10.9374
▁Adresse	-10.9375
via	-10.9376
▁Tre	-10.9379
▁spaces	-10.9379
ight	-10.9381
▁NI	-10.9385
▁investments	-10.9389
▁relatively	-10.939
▁Einkaufs	-10.939
▁fantastic	-10.939
▁worse	-10.9391
▁furniture	-10.9392
▁compensation	-10.9392
eller	-10.9394
▁consistent	-10.9395
▁ba	-10.9395
pu	-10.9396
▁leisure	-10.9398
günstig	-10.9402
▁solve	-10.9405
▁Hans	-10.9406
▁pi	-10.9407
▁ID	-10.9408
▁Zins	-10.9409
▁Munich	-10.941
pack	-10.9411
▁Tele	-10.9411
▁GDP	-10.9412
▁expertise	-10.9413
dra	-10.9414
▁felt	-10.9414
▁privacy	-10.9416
▁schließen	-10.942
▁südlich	-10.9422
▁verlangt	-10.9425
Service	-10.9426
▁Kyoto	-10.9426
▁auto	-10.9427
▁Music	-10.9429
uell	-10.943
▁treated	-10.9435
▁prove	-10.9435
oordinier	-10.9435
▁adapt	-10.9437
▁Grün	-10.944
book	-10.9441
volle	-10.9441
▁Terror	-10.9443
▁recommended	-10.9445
▁möglichen	-10.9445
ett	-10.9446
defi	-10.9448
▁effektive	-10.9448
sport	-10.9453
▁Ze	-10.9454
▁Datenbank	-10.9455
▁Objekt	-10.9455
▁12.	-10.9456
ches	-10.9457
▁versions	-10.9459
air	-10.946
card	-10.9463
▁Spar	-10.9464
▁Bildungs	-10.9467
▁Identität	-10.9467
träger	-10.9468
а	-10.9468
▁au	-10.9472
▁Badezimmer	-10.9473
ng	-10.9474
▁sprach	-10.9475
▁sh	-10.9475
bl	-10.9475
▁läuft	-10.9476
▁prefer	-10.9477
▁battle	-10.9477
▁Übernachtung	-10.9477
▁kinds	-10.9477
▁Bahn	-10.9478
▁zweit	-10.948
▁fail	-10.9487
▁improvements	-10.9488
su	-10.9489
▁Handeln	-10.949
▁Sauna	-10.9493
kehren	-10.9496
▁figure	-10.9504
▁wealth	-10.9506
▁cold	-10.9508
▁suffering	-10.951
▁valuable	-10.9515
▁gemütliche	-10.9516
▁error	-10.9517
▁Win	-10.9517
luft	-10.9518
▁Tausend	-10.9519
▁gross	-10.952
▁Camp	-10.952
▁taxes	-10.9521
▁arms	-10.9521
▁herrliche	-10.9523
▁Lieferung	-10.9526
staatlich	-10.9527
regeln	-10.9528
]],	-10.9528
▁gespeichert	-10.9529
श	-10.953
▁800	-10.9534
AC	-10.9535
mitteln	-10.9539
▁Schlafzimmer	-10.9541
▁cm	-10.9541
▁trotzdem	-10.9542
▁sonstige	-10.9542
▁drugs	-10.9548
ille	-10.9548
▁Mu	-10.9549
▁Asien	-10.955
▁lautet	-10.9555
▁Erreich	-10.9558
▁cycle	-10.9558
▁Diskussionen	-10.9558
shop	-10.9559
▁schafft	-10.9562
▁verlangen	-10.9562
ators	-10.9562
site	-10.9562
▁stehende	-10.9563
▁Zahlungs	-10.9566
▁Besonder	-10.9569
▁Vice	-10.9569
ido	-10.957
▁Skype	-10.9573
▁schön	-10.9575
▁arm	-10.9576
gna	-10.9576
▁Brand	-10.9577
▁bemüht	-10.9578
▁Fahrzeug	-10.9578
ball	-10.9578
▁entertainment	-10.9579
sicherung	-10.9579
▁Eigenschaften	-10.958
▁Gerichte	-10.958
с	-10.9582
▁band	-10.9582
▁direkte	-10.9583
▁Deck	-10.9583
lösung	-10.9584
▁Mer	-10.9584
▁Hände	-10.9585
▁Tauch	-10.9588
▁Maßnahme	-10.9589
än	-10.9591
▁represented	-10.9591
▁Beiträge	-10.9591
▁Mur	-10.9591
▁danger	-10.9595
▁tr	-10.9595
▁Col	-10.9595
▁9.	-10.9596
CO	-10.9599
▁Küste	-10.9599
▁versch	-10.9599
▁bedroom	-10.9603
▁qui	-10.9604
▁individuelle	-10.9604
▁hochwertige	-10.9605
▁politicians	-10.9606
▁speakers	-10.9606
▁Allgemeinen	-10.9608
stell	-10.9608
▁Schl	-10.9611
sländern	-10.9611
olo	-10.9612
▁entlang	-10.9612
▁Gran	-10.9613
▁Garden	-10.9615
mission	-10.9616
▁dishes	-10.9617
stärkt	-10.9617
ky	-10.9623
zogen	-10.9624
▁Ausstattung	-10.9625
▁Gestaltung	-10.9626
sort	-10.9626
bro	-10.9628
gezogen	-10.9628
▁suit	-10.9629
get	-10.9632
▁disaster	-10.9637
—	-10.9638
▁protest	-10.9638
▁seien	-10.9641
▁Where	-10.9641
▁DE	-10.9642
▁2009.	-10.9644
▁Dauer	-10.9645
▁creative	-10.9647
▁Frist	-10.9649
▁Pack	-10.9649
plätze	-10.965
▁proud	-10.965
▁applicable	-10.9655
▁fraud	-10.9655
▁Pen	-10.9657
gewiesen	-10.966
ssen	-10.9661
class	-10.9661
pos	-10.9665
▁award	-10.9666
▁latter	-10.9669
▁bedrooms	-10.9671
▁Suite	-10.9672
▁Schiff	-10.9675
isse	-10.9675
▁gestern	-10.9681
hor	-10.9682
▁Erste	-10.9683
▁letzt	-10.9683
wo	-10.9683
▁zählt	-10.9684
▁delegation	-10.9687
▁classic	-10.9688
▁temperature	-10.9692
PA	-10.9692
▁Airbus	-10.9693
▁tend	-10.9693
▁Vermittlung	-10.9695
▁intellectual	-10.9696
yo	-10.9698
▁Law	-10.9698
▁Rot	-10.9699
▁liefern	-10.9699
swert	-10.9702
FI	-10.9707
▁entered	-10.9708
▁bezieht	-10.971
▁whatever	-10.9712
▁Leitlinien	-10.9713
▁collect	-10.9714
lia	-10.9715
▁Sun	-10.9716
▁Technology	-10.9717
reich	-10.9717
▁wiederholt	-10.9717
▁Network	-10.9721
▁geist	-10.9723
▁36	-10.9727
sur	-10.9729
technologie	-10.9729
▁besucht	-10.9732
▁kompliziert	-10.9733
LA	-10.9738
▁keeping	-10.9739
ls	-10.9739
▁streets	-10.9741
▁geplant	-10.9742
▁Britain	-10.9746
▁Defi	-10.975
▁vacation	-10.975
bin	-10.975
bre	-10.9751
aire	-10.9751
oc	-10.9752
▁Schule	-10.9753
RI	-10.9754
▁units	-10.9754
tter	-10.9754
▁affairs	-10.9754
▁rental	-10.9759
kin	-10.9759
▁impressive	-10.976
▁arrive	-10.9761
▁Zusatz	-10.9761
▁boat	-10.9764
strebt	-10.9764
ž	-10.9764
äußert	-10.9765
▁Bord	-10.9765
▁Haftung	-10.9769
wünschen	-10.9771
▁argument	-10.9773
▁helped	-10.9777
▁career	-10.9778
27	-10.978
▁substances	-10.9781
▁é	-10.9782
tig	-10.9783
▁cor	-10.9787
100	-10.9789
viel	-10.979
▁interessant	-10.979
▁sauna	-10.9793
▁20.	-10.9794
▁sexual	-10.9794
▁engineering	-10.9798
stock	-10.98
LT	-10.9801
▁Praktik	-10.9803
▁copyright	-10.9804
▁drop	-10.9805
▁sichern	-10.9805
▁außergewöhnlich	-10.9808
▁hair	-10.9811
quellen	-10.9811
▁Dar	-10.9812
▁(2	-10.9812
▁keiner	-10.9812
auch	-10.9812
▁Wien	-10.9814
▁Genehmigung	-10.9819
▁intend	-10.9821
▁120	-10.9822
▁planet	-10.9824
▁trees	-10.9825
▁2010.	-10.9826
▁Client	-10.9827
▁weekend	-10.9829
tlichen	-10.983
▁operators	-10.983
▁alter	-10.9831
▁arrangements	-10.9831
▁involving	-10.9832
200	-10.9835
▁Bed	-10.9835
▁whilst	-10.9836
▁Studenten	-10.9837
verwaltung	-10.9845
▁respective	-10.9848
▁View	-10.9849
▁Ferner	-10.9849
schüsse	-10.985
▁Konsequenz	-10.985
▁era	-10.9851
dner	-10.9851
▁Wä	-10.9851
energie	-10.9852
▁Comp	-10.9854
▁Umweltschutz	-10.9856
▁gewährt	-10.986
▁runs	-10.986
▁finding	-10.9864
▁Güter	-10.9864
▁older	-10.9866
▁Führer	-10.9867
▁Provinz	-10.9867
DS	-10.9869
▁600	-10.9869
greif	-10.9871
▁match	-10.9875
kel	-10.9876
▁reject	-10.9879
▁lounge	-10.9884
▁Plaza	-10.9884
glichen	-10.9887
▁Far	-10.9887
▁Browser	-10.989
▁beträgt	-10.9892
ates	-10.9893
▁description	-10.9897
▁frame	-10.9897
ological	-10.9901
▁Regime	-10.9902
23	-10.9904
▁largely	-10.9905
schaffung	-10.9909
▁react	-10.9911
legt	-10.9912
mor	-10.9914
▁volume	-10.9915
▁Wirklichkeit	-10.9916
▁Life	-10.9918
tim	-10.9919
▁Welcome	-10.992
▁75	-10.9924
▁ausgerichtet	-10.9925
▁Format	-10.9926
▁museum	-10.9929
▁exclusively	-10.993
▁naturally	-10.993
▁Antworten	-10.9931
▁geschrieben	-10.9931
▁streng	-10.9934
▁Dort	-10.9934
▁Boot	-10.9935
lie	-10.9938
▁ignor	-10.9941
▁Liefer	-10.9943
▁Str	-10.9944
▁Erwartungen	-10.9944
▁unabhängige	-10.9945
▁wenden	-10.9946
▁personally	-10.9946
▁exists	-10.9947
lä	-10.9948
▁erzeugt	-10.9949
▁colour	-10.995
▁hart	-10.995
▁couple	-10.9951
fällen	-10.9951
gg	-10.9952
sieht	-10.9952
▁Strategy	-10.9954
▁Jung	-10.9954
68	-10.9956
ef	-10.9956
▁Wähle	-10.9957
zig	-10.9957
▁aktive	-10.9958
wort	-10.996
vol	-10.996
schaffen	-10.9961
▁Safety	-10.9961
▁opposed	-10.9962
▁vo	-10.9963
▁bedeuten	-10.9967
▁Strategien	-10.9969
cht	-10.9972
▁suffer	-10.9973
▁rück	-10.9973
▁Zimmern	-10.9974
gesehen	-10.9975
▁articles	-10.9976
▁objects	-10.9978
▁Geschäft	-10.9983
▁Flüchtlinge	-10.9984
bürger	-10.9987
▁Dusche	-10.9988
▁Optim	-10.9989
▁examples	-10.999
▁1000	-10.9995
AN	-10.9996
▁familiar	-10.9999
▁mobility	-10.9999
▁Fein	-10.9999
rc	-11.0006
▁Strecke	-11.0009
▁remote	-11.0011
known	-11.0012
betrieb	-11.0013
▁Umgang	-11.0017
▁requests	-11.0018
▁17.	-11.0018
▁Schau	-11.0019
▁außen	-11.0022
▁happening	-11.0023
▁diseases	-11.0024
▁recognised	-11.0024
39	-11.0024
▁prä	-11.0025
igt	-11.0028
steuerung	-11.0029
▁Fu	-11.003
▁Kategorie	-11.003
▁mon	-11.003
▁boot	-11.0033
▁schlecht	-11.0034
▁Mode	-11.0036
▁Ohne	-11.0037
▁unver	-11.0037
made	-11.0038
▁accounts	-11.0038
fello	-11.0039
projekt	-11.0039
din	-11.0043
▁lu	-11.0043
tur	-11.0046
▁gest	-11.0046
▁weather	-11.0048
▁meat	-11.0048
▁bridge	-11.0049
TE	-11.005
serv	-11.005
ebene	-11.005
DI	-11.0051
▁happens	-11.0052
▁Materialien	-11.0056
▁cool	-11.0057
▁gebaut	-11.0057
schläge	-11.0058
▁laufen	-11.006
▁Instead	-11.0061
▁advantages	-11.0061
▁camp	-11.0061
▁confirmed	-11.0062
▁Stellung	-11.0064
reform	-11.0065
▁schwierige	-11.0065
▁amtierende	-11.0066
kt	-11.0066
▁Ambiente	-11.0069
▁li	-11.0071
▁Swedish	-11.0071
spect	-11.0073
mobil	-11.0074
lon	-11.0074
zuhalten	-11.0074
gesellschaften	-11.0074
▁faced	-11.0075
▁reserve	-11.0077
▁Mut	-11.0078
▁praktische	-11.008
▁entdecken	-11.008
▁überwach	-11.0081
▁ones	-11.0081
▁nahm	-11.0083
els	-11.0084
EU	-11.0087
▁disk	-11.0087
▁spot	-11.009
▁irgend	-11.0094
2.	-11.0096
ore	-11.0096
▁Wander	-11.0097
▁MySQL	-11.0097
ward	-11.0099
ics	-11.01
▁gefährlich	-11.0101
▁OF	-11.0103
▁besitzen	-11.0105
▁offiziell	-11.0109
▁exceptional	-11.011
ient	-11.011
▁domain	-11.0112
▁abgelehnt	-11.0115
aktion	-11.0116
▁angenehm	-11.0117
▁öffnen	-11.0119
▁grundsätzlich	-11.0119
▁Reserve	-11.012
▁hilft	-11.0121
gesundheit	-11.0123
▁Effekt	-11.0124
gebiete	-11.0127
î	-11.013
load	-11.0131
rry	-11.0131
▁drink	-11.0131
▁occasion	-11.0132
▁involvement	-11.0133
▁13.	-11.0133
▁beraten	-11.0134
▁automatic	-11.0138
gesetz	-11.0141
raft	-11.0142
▁dans	-11.0143
▁firstly	-11.0143
▁va	-11.0144
▁Bett	-11.0144
häuser	-11.0144
▁leaving	-11.0147
▁Mangel	-11.0152
▁obtained	-11.0152
▁Vorsitz	-11.0152
▁gelegt	-11.0153
▁Image	-11.0155
dia	-11.0156
▁Gaza	-11.0158
▁collective	-11.0161
point	-11.0162
▁discovered	-11.0168
format	-11.017
▁Hat	-11.0171
▁Wegen	-11.0173
▁Las	-11.0176
▁Spezial	-11.0176
inter	-11.0178
nom	-11.018
▁Inc	-11.0181
ziel	-11.0181
▁treaty	-11.0182
sichern	-11.0184
▁Men	-11.0187
▁radi	-11.0188
ult	-11.0191
pul	-11.0191
erzeug	-11.0192
its	-11.0192
▁relative	-11.0195
▁typisch	-11.0197
▁Bern	-11.0198
drückt	-11.0198
▁Ausgangspunkt	-11.0202
▁begrenzt	-11.0207
▁Überleg	-11.0207
33	-11.0211
▁geprüft	-11.0216
▁Erinnerung	-11.0216
▁durchzuführen	-11.0217
stück	-11.0222
maschinen	-11.0223
wiegend	-11.0225
$	-11.0226
▁visual	-11.0227
▁tests	-11.0227
▁Automobil	-11.0232
▁1991	-11.0232
▁Japanese	-11.0234
run	-11.0236
passen	-11.0237
▁protecting	-11.0241
▁strategies	-11.0244
ähr	-11.0249
▁GNU	-11.0249
▁temporary	-11.0249
▁bike	-11.0254
ace	-11.0257
pläne	-11.0258
▁1989	-11.0258
28	-11.0261
▁hostels	-11.0262
▁Regen	-11.0263
treiben	-11.0263
▁equally	-11.0264
egel	-11.0266
pool	-11.0267
ppe	-11.0267
▁tri	-11.0268
▁sit	-11.0268
▁Angst	-11.0268
▁requirement	-11.0269
▁except	-11.0272
▁SA	-11.0274
▁emp	-11.0276
struktur	-11.0277
▁inflation	-11.0277
▁preparation	-11.0278
▁Kann	-11.0278
ets	-11.0279
▁religiöse	-11.028
geschäft	-11.0282
AM	-11.0282
▁Mikro	-11.0282
▁covers	-11.0288
keiten	-11.0289
schwäch	-11.0292
stände	-11.0296
dor	-11.0298
▁zuerst	-11.0301
▁handle	-11.0301
▁pr	-11.0303
ivität	-11.0303
▁tea	-11.0303
▁Schiffe	-11.0305
aktivität	-11.0306
▁Stahl	-11.0307
▁Sicherung	-11.0308
MI	-11.0309
Do	-11.0312
▁Veranstaltung	-11.0313
ox	-11.0313
▁removed	-11.0314
▁einig	-11.0314
mos	-11.0314
▁gra	-11.0315
▁Übereinstimmung	-11.0319
▁verändern	-11.032
▁passengers	-11.032
▁senden	-11.032
▁Luxembourg	-11.0322
▁websites	-11.0322
sbedingungen	-11.0323
34	-11.0324
▁officials	-11.0326
▁Second	-11.0327
▁stations	-11.0333
▁Werke	-11.0335
▁Kas	-11.0338
TC	-11.0338
▁sets	-11.0341
▁Besitz	-11.0342
▁unterst	-11.0348
var	-11.035
ux	-11.0351
▁Islam	-11.0353
schreiben	-11.0356
▁Hostel	-11.036
▁Croatia	-11.0361
â	-11.0364
mitglieder	-11.0365
finden	-11.0365
▁spoke	-11.0368
gewicht	-11.0369
▁Fernseh	-11.037
▁erstmal	-11.0371
▁experiences	-11.0372
▁Marina	-11.0375
▁Küsten	-11.0375
▁tours	-11.0377
▁Mail	-11.0377
▁Kontext	-11.0379
▁rec	-11.038
▁Procedure	-11.0383
и	-11.0386
row	-11.0387
steuer	-11.0387
wältigen	-11.039
zel	-11.0392
▁50%	-11.0392
▁organizations	-11.0399
quer	-11.04
▁Balkan	-11.0401
▁Aktien	-11.0401
▁dream	-11.0401
▁liberalisation	-11.0403
▁Kom	-11.0404
anischen	-11.0404
▁Gang	-11.0406
▁komplette	-11.0406
▁schreiben	-11.0408
▁Stock	-11.0409
gehoben	-11.0411
▁remaining	-11.0415
ierenden	-11.0416
▁restrictions	-11.0417
▁Balkon	-11.0419
cip	-11.0422
▁fighting	-11.0423
▁musste	-11.0423
nehm	-11.0423
▁ro	-11.0425
▁Rock	-11.0425
▁lebt	-11.0426
▁sichtbar	-11.0427
▁erreichbar	-11.0428
gelöst	-11.0428
▁eyes	-11.0429
▁bestätig	-11.0431
/2001	-11.0433
▁gerichtet	-11.0435
▁lovely	-11.0439
▁Taiwan	-11.0439
schnitt	-11.044
▁handling	-11.0448
▁Opposition	-11.0448
▁healthy	-11.0449
▁abroad	-11.0449
▁Viertel	-11.045
trieben	-11.045
▁fehlt	-11.0452
nicht	-11.0453
ehrt	-11.0453
▁configuration	-11.0455
bri	-11.0455
▁awareness	-11.0455
▁neuesten	-11.0456
ave	-11.0457
▁dahin	-11.0458
gunst	-11.046
▁Pra	-11.046
▁16.	-11.0462
▁Normen	-11.0462
▁Indian	-11.0465
▁Glaub	-11.0466
▁glad	-11.0467
▁10.	-11.0467
▁Kat	-11.0469
SL	-11.0471
▁37	-11.0476
▁Bulgaria	-11.0476
ition	-11.0477
▁Autobahn	-11.0479
▁aufzunehmen	-11.0479
rent	-11.0479
▁replace	-11.0479
steigen	-11.0482
arch	-11.0487
▁Beruf	-11.0487
Co	-11.0488
▁gewalt	-11.0488
▁Blue	-11.0491
▁Kra	-11.0491
lay	-11.0494
▁pick	-11.0495
▁Ladies	-11.0496
55	-11.0497
film	-11.0497
▁Beispiele	-11.0498
▁fee	-11.0499
▁verhindert	-11.0503
▁33	-11.0504
▁earth	-11.0508
▁gold	-11.0508
▁Monetary	-11.0508
▁submit	-11.0509
▁serves	-11.051
▁USD	-11.0513
▁UNO	-11.0515
▁Hi	-11.0522
▁technologische	-11.0523
dro	-11.0524
▁newly	-11.0528
rolle	-11.0532
hören	-11.0532
▁Mission	-11.0535
lau	-11.0536
▁Elektro	-11.0539
▁gender	-11.0543
▁balcony	-11.0549
▁Kongress	-11.0549
▁verkauft	-11.055
▁recommendation	-11.055
▁issued	-11.0552
▁richten	-11.0553
▁Alt	-11.0555
with	-11.0555
zweck	-11.0557
▁identify	-11.0559
▁Canada	-11.0559
▁ethn	-11.0559
▁gelöst	-11.056
periode	-11.056
▁involve	-11.0562
▁fl	-11.0564
▁Washington	-11.0565
▁Bestellung	-11.0572
▁returned	-11.0574
würdig	-11.0575
▁gap	-11.0578
▁belief	-11.0579
design	-11.058
▁erlebt	-11.0581
▁edge	-11.0581
▁Still	-11.0581
▁reden	-11.0581
▁Ungar	-11.0583
eth	-11.0584
▁listen	-11.0585
▁Dä	-11.0585
▁Congress	-11.0585
würdigkeit	-11.0589
read	-11.0589
nie	-11.0589
▁seat	-11.0592
▁Ministers	-11.0596
minute	-11.0597
▁Krankheiten	-11.0598
▁visa	-11.0598
▁Executive	-11.0599
▁Plenum	-11.0599
▁Their	-11.0599
▁strict	-11.0601
OL	-11.0603
hol	-11.0603
cer	-11.0604
▁Shi	-11.0604
nsbesondere	-11.0604
▁suite	-11.0604
RC	-11.0605
lands	-11.0609
▁maintained	-11.0609
▁dining	-11.061
▁Verantwortlich	-11.061
▁Schatten	-11.061
▁Town	-11.061
▁Ber	-11.0612
▁Ac	-11.0612
▁laden	-11.0613
▁gl	-11.0615
▁Schönheit	-11.0618
▁Vorgehen	-11.0618
▁TO	-11.0619
▁artist	-11.0621
▁transportation	-11.0623
▁operational	-11.0623
zubringen	-11.0623
▁Widerstand	-11.0624
▁grosse	-11.0625
▁legt	-11.0625
▁integrierte	-11.063
▁Standort	-11.0631
▁gezogen	-11.0632
▁dich	-11.0633
▁befass	-11.0633
▁dé	-11.0634
▁characteristics	-11.0636
tem	-11.0637
▁Reservierung	-11.0638
ory	-11.0638
GA	-11.0638
▁decisive	-11.0639
▁funktionieren	-11.0641
▁ausgeführt	-11.0641
▁ausgesprochen	-11.0641
▁Gentoo	-11.0642
▁hervorragend	-11.0643
kal	-11.0643
▁brief	-11.0644
▁ko	-11.0645
▁Sein	-11.0645
▁erinnert	-11.0645
▁unterzeichnet	-11.0645
▁depend	-11.0646
▁Thomas	-11.0646
▁Konsum	-11.0647
▁niedrig	-11.0648
▁Church	-11.0648
▁Anfragen	-11.0649
nder	-11.0651
demokrat	-11.0654
▁Beziehung	-11.0657
▁trag	-11.0658
▁Bulgari	-11.066
▁erlauben	-11.066
▁anschließend	-11.066
ora	-11.0662
▁entdeckt	-11.0665
▁vous	-11.0665
Star	-11.0665
▁precise	-11.0665
▁heiße	-11.0666
т	-11.0667
▁ruhigen	-11.0667
▁pen	-11.0667
▁Freund	-11.0668
▁migration	-11.0668
▁depends	-11.067
▁pension	-11.067
▁unmöglich	-11.0671
garten	-11.0672
▁offices	-11.0672
▁ausgeschlossen	-11.0673
gut	-11.0673
▁ausgewählt	-11.0676
▁Pla	-11.0676
stellt	-11.0677
▁Casa	-11.0679
▁Ban	-11.068
scale	-11.0684
erfordert	-11.0684
▁Vel	-11.0685
▁übernimmt	-11.0686
▁Award	-11.0688
▁Hohen	-11.0689
cc	-11.0692
bhängigkeit	-11.0693
ole	-11.0694
▁Milch	-11.0695
▁texts	-11.0695
chefs	-11.0698
▁expansion	-11.0699
▁spezialisiert	-11.0699
▁Hostelsclub	-11.0699
▁Zusätzlich	-11.0701
▁passiert	-11.0701
▁gewonnen	-11.0701
viertel	-11.0707
▁Box	-11.0709
▁representation	-11.071
▁religion	-11.0711
▁Hof	-11.0711
IM	-11.0716
▁fashion	-11.0716
п	-11.072
▁contributions	-11.072
▁Zyp	-11.072
zierung	-11.0722
leistungen	-11.0724
▁Fahrt	-11.0725
▁renovated	-11.0729
uri	-11.0729
▁verdient	-11.0729
▁exit	-11.073
TH	-11.0732
▁geltend	-11.0732
lear	-11.0733
▁Geschmack	-11.0733
▁Legal	-11.0734
▁abuse	-11.0734
▁iron	-11.0734
related	-11.0735
▁verbreite	-11.0735
▁begrüßt	-11.0736
▁Kriegs	-11.0736
▁Ä	-11.0736
fahrer	-11.0736
▁Find	-11.0738
▁Kapitel	-11.0738
▁repair	-11.0739
▁waters	-11.0739
▁Year	-11.0741
klar	-11.0743
▁decorated	-11.0743
▁transition	-11.0745
▁leistungs	-11.0747
▁Krankheit	-11.0752
▁Redu	-11.0753
▁pan	-11.0754
▁gone	-11.0754
▁Fleisch	-11.0754
▁treat	-11.0757
▁reserves	-11.0762
▁amounts	-11.0763
put	-11.0764
▁enhance	-11.0764
▁soweit	-11.0766
▁lay	-11.0766
▁entrance	-11.0768
ane	-11.0769
▁Ausstellung	-11.0771
▁Amts	-11.0774
▁geboren	-11.0777
▁vorzu	-11.0779
▁generate	-11.0779
▁Maastricht	-11.0779
▁topic	-11.0781
▁blo	-11.0781
wunder	-11.0782
▁Verarbeitung	-11.0784
▁Schüler	-11.0785
▁mix	-11.0787
▁mangel	-11.0789
▁BSE	-11.0789
erei	-11.079
▁Umfeld	-11.0793
UR	-11.0793
▁geprägt	-11.0794
▁Erhalt	-11.0795
▁east	-11.0795
91	-11.0801
lit	-11.0804
▁Budapest	-11.0805
schuss	-11.0805
chten	-11.0806
¤	-11.0807
don	-11.0808
▁sauber	-11.0812
▁News	-11.0815
-2	-11.0816
▁regulatory	-11.0816
▁ethnic	-11.0819
CH	-11.0819
▁Bal	-11.0819
▁vereinfach	-11.0823
▁5-	-11.0823
▁Amt	-11.0825
▁mögliche	-11.0826
▁optimale	-11.0827
▁verur	-11.0828
urs	-11.0829
▁2.0	-11.083
bal	-11.0831
▁Stoffe	-11.0831
▁snow	-11.0832
▁Zwecke	-11.0834
▁Kan	-11.0834
▁auftreten	-11.0835
▁contracts	-11.0835
▁mi	-11.0836
▁dark	-11.0837
ntlich	-11.0837
▁konzentriert	-11.0837
▁trend	-11.0838
▁Bearbeitung	-11.0842
▁Detail	-11.0842
▁acknowledge	-11.0842
entwurf	-11.0843
▁conducted	-11.0845
▁investors	-11.0847
▁buchen	-11.0851
▁fla	-11.0851
initiative	-11.0852
▁hardware	-11.0852
▁Noch	-11.0852
rom	-11.0853
▁letzter	-11.0854
▁Werkzeug	-11.0855
▁angesehen	-11.0855
▁Prinzipie	-11.0857
▁Back	-11.0858
▁fa	-11.0859
▁regularly	-11.0862
▁sum	-11.0863
▁Polish	-11.0863
▁Bel	-11.0865
ierende	-11.0866
▁Sonne	-11.0866
▁Harmonis	-11.0867
▁lag	-11.0867
▁ultimately	-11.0868
▁catch	-11.0869
unk	-11.0869
▁sehe	-11.087
IG	-11.087
lat	-11.087
▁quarter	-11.0871
▁surroundings	-11.0872
▁cha	-11.0873
97	-11.0874
licht	-11.0875
▁label	-11.0875
▁walls	-11.0875
down	-11.0876
▁01	-11.0877
▁reduziert	-11.0877
48	-11.088
▁RE	-11.0881
▁Inflation	-11.0884
wertet	-11.0884
fried	-11.0885
▁qualifizierte	-11.0886
▁aufgefordert	-11.0888
getreten	-11.0888
Projekt	-11.0888
▁MEPs	-11.0889
▁Rechtsgrund	-11.089
▁properties	-11.0891
▁Edition	-11.0892
▁interpretation	-11.0892
onne	-11.0893
▁Farbe	-11.0893
▁millions	-11.0894
kräftig	-11.0896
▁Urteil	-11.0898
fern	-11.0898
tom	-11.0899
flug	-11.09
▁boost	-11.0902
▁bisherige	-11.0904
▁mü	-11.0907
▁Glauben	-11.0907
▁hundreds	-11.0908
▁entwickelte	-11.091
▁App	-11.0911
▁drug	-11.0913
ê	-11.0913
ehrg	-11.0914
▁northern	-11.0917
fel	-11.0919
▁charges	-11.0922
▁Sunday	-11.0924
zugang	-11.0924
füllen	-11.0925
▁achten	-11.0926
plans	-11.0926
▁ticket	-11.0926
rist	-11.0929
Se	-11.093
stil	-11.093
▁ride	-11.0931
▁afternoon	-11.0933
▁maritime	-11.0935
▁kostet	-11.0937
▁Friday	-11.0938
▁Mont	-11.0939
29	-11.0943
▁performed	-11.0948
level	-11.0949
▁unverzüglich	-11.0949
▁verstanden	-11.0952
▁Bew	-11.0952
▁Mitglieds	-11.0952
▁fleet	-11.0957
▁Cyprus	-11.0958
▁communications	-11.0963
▁Intervention	-11.0963
▁somewhat	-11.0964
ific	-11.0965
Mo	-11.0965
▁Plattform	-11.0967
▁collaboration	-11.0968
erkennen	-11.0971
▁ru	-11.0972
fug	-11.0974
▁ci	-11.0975
▁Ware	-11.0976
▁2012	-11.0979
▁zurückzu	-11.098
▁traditions	-11.098
▁parents	-11.0981
schöpf	-11.0982
▁Vorstellung	-11.0984
▁Fol	-11.0985
▁Strukturen	-11.0986
▁connect	-11.0987
▁durchführen	-11.0987
▁customs	-11.099
bed	-11.0992
▁trifft	-11.0992
meister	-11.0995
▁centres	-11.0996
▁nieder	-11.0997
▁Rund	-11.0997
▁bezahlen	-11.0997
handlung	-11.0998
▁Gepäck	-11.0999
▁joined	-11.1
leistung	-11.1002
▁herrscht	-11.1002
rot	-11.1003
▁Gesicht	-11.1006
▁expert	-11.1007
▁occur	-11.1012
▁Muslim	-11.1013
▁Water	-11.1014
▁vorbereitet	-11.1015
ello	-11.1016
urlaub	-11.1016
verhältnis	-11.1017
▁cash	-11.102
▁Hol	-11.102
str	-11.1021
▁Kohle	-11.1022
▁hostel	-11.1025
▁discount	-11.1025
▁load	-11.1025
€	-11.1026
▁minority	-11.1026
▁kurzfristig	-11.1026
bett	-11.1026
▁beruht	-11.1028
▁finanziell	-11.1028
▁einfacher	-11.1031
▁10%	-11.1032
▁WLAN	-11.1037
PO	-11.1037
▁electricity	-11.1037
▁west	-11.1038
▁steuer	-11.1038
▁sodas	-11.1039
halb	-11.104
▁erforder	-11.1041
▁Mandat	-11.1043
▁calm	-11.1045
▁invite	-11.1047
▁parliaments	-11.1048
▁Investment	-11.1049
▁frequently	-11.1049
▁avec	-11.1051
ausgabe	-11.1051
▁34	-11.1052
Strategie	-11.1052
media	-11.1052
▁Professional	-11.1055
palästinensische	-11.1055
▁Ursprung	-11.1058
▁Gesetzes	-11.1061
-19	-11.1063
▁Ce	-11.1063
▁insist	-11.1064
deckt	-11.1065
▁driver	-11.1065
▁stylish	-11.1067
▁Kroatien	-11.1069
pot	-11.1073
▁displayed	-11.1074
TI	-11.1074
like	-11.1075
▁reported	-11.1075
▁nu	-11.1077
36	-11.1078
TS	-11.1079
▁Director	-11.108
▁Wirtschaftsw	-11.1082
rück	-11.1083
▁gift	-11.1087
▁Zuge	-11.1093
smaßnahmen	-11.1099
▁emergency	-11.11
▁Strände	-11.1103
▁conflicts	-11.1104
▁youth	-11.1104
▁updated	-11.1104
▁Konzern	-11.1105
▁Spr	-11.1108
CI	-11.111
yl	-11.1111
hör	-11.1112
▁Panorama	-11.1112
▁faster	-11.1112
▁kontinuierlich	-11.1112
▁ought	-11.1115
▁Protection	-11.1115
▁2013	-11.1117
▁verbringen	-11.1118
Sp	-11.112
▁app	-11.1124
▁organized	-11.1124
▁messages	-11.1128
▁Know	-11.1129
▁Sony	-11.113
▁perfekte	-11.1132
aj	-11.1132
▁Framework	-11.1134
▁increases	-11.1136
▁succeed	-11.1137
anda	-11.1138
▁grateful	-11.1138
ville	-11.1141
ever	-11.1142
BA	-11.1143
fang	-11.1143
meter	-11.1145
Bahn	-11.1148
ili	-11.1152
führt	-11.1153
▁retain	-11.1155
part	-11.1159
▁bestimmen	-11.1162
▁Hinter	-11.1162
▁Muse	-11.1169
pri	-11.117
lor	-11.117
▁impose	-11.1171
▁Ball	-11.1171
▁demanding	-11.1174
▁bottom	-11.1177
▁liefert	-11.1177
▁Baltic	-11.1178
misch	-11.1178
▁Geschwindigkeit	-11.1179
▁Speise	-11.1182
tour	-11.1185
▁wa	-11.1186
▁meant	-11.1188
vertrag	-11.1188
▁looks	-11.1188
▁constitute	-11.1188
▁widely	-11.1189
▁constitution	-11.119
rt	-11.1192
▁directives	-11.1193
▁divided	-11.1194
krise	-11.1197
▁kostenlose	-11.1198
▁owner	-11.12
▁multinational	-11.1201
▁KMU	-11.1202
gleichen	-11.1202
tabilität	-11.1202
▁ober	-11.1204
▁Wichtig	-11.1207
▁Investor	-11.1209
▁knows	-11.121
▁Kreuz	-11.121
tergovernmental	-11.121
}})	-11.121
▁hängt	-11.1212
heitlich	-11.1213
▁Erlebnis	-11.1222
▁Deutsch	-11.1223
án	-11.1224
▁schwedische	-11.1225
nachteilig	-11.1226
▁Faktoren	-11.1227
quote	-11.1228
kl	-11.1229
▁zentralen	-11.1229
▁Ideal	-11.123
▁willing	-11.1235
new	-11.1237
▁welfare	-11.1237
▁techniques	-11.1238
▁pollution	-11.1239
ando	-11.1241
▁intelligent	-11.1244
▁historisch	-11.1245
▁seeing	-11.1245
▁Metro	-11.1251
▁declaration	-11.1251
▁trial	-11.1253
▁Israeli	-11.1253
▁Email	-11.1254
▁angepasst	-11.1254
▁Cam	-11.1254
66	-11.1256
ulation	-11.1256
▁berufliche	-11.1256
▁Update	-11.1257
▁weitgehend	-11.1259
ermaßen	-11.1259
▁serviert	-11.1261
▁eat	-11.1261
▁subsidies	-11.1263
▁emerging	-11.1264
▁Feuer	-11.1265
boot	-11.1266
▁({{	-11.1266
▁Unternehmer	-11.1267
por	-11.1267
ssozi	-11.1272
▁demonstrate	-11.1272
▁Verri	-11.1272
▁heritage	-11.1273
▁Werbung	-11.1276
kette	-11.1279
sser	-11.1279
és	-11.1279
▁Gerät	-11.128
nce	-11.128
▁Customer	-11.1283
▁cutting	-11.1285
wärm	-11.1286
▁halb	-11.1286
ngerung	-11.1289
▁Zone	-11.1289
▁konsequent	-11.129
▁straight	-11.129
▁visible	-11.129
korea	-11.1293
▁(1	-11.1293
lei	-11.1294
wege	-11.1296
genügend	-11.1296
▁Europol	-11.1296
▁producing	-11.1299
▁Earth	-11.1299
▁geeignete	-11.13
▁Science	-11.1302
handelt	-11.1304
selbe	-11.1306
▁statistics	-11.1307
▁Schuld	-11.1307
▁Mexico	-11.131
▁proof	-11.131
Or	-11.1311
▁proved	-11.1312
▁tackle	-11.1313
▁20%	-11.1316
▁gezwungen	-11.1324
▁helps	-11.1326
läufe	-11.1326
stoß	-11.1329
▁Mc	-11.1329
isierte	-11.1332
zuführen	-11.1334
▁protocol	-11.1334
bis	-11.1338
regierung	-11.134
Vi	-11.134
SI	-11.1341
LI	-11.1341
▁channel	-11.1341
▁Christ	-11.1342
freundliche	-11.1344
▁Räume	-11.1347
▁Konto	-11.1351
▁Food	-11.1352
▁eingegangen	-11.1354
▁verleihen	-11.1356
▁18.	-11.1356
▁delighted	-11.1356
▁Karl	-11.1358
▁Whether	-11.1358
▁focused	-11.1359
▁relaxation	-11.136
bor	-11.136
▁maintaining	-11.1367
▁Kompetenz	-11.1367
▁personnel	-11.1367
merk	-11.1368
auern	-11.1371
lass	-11.1373
▁Schließ	-11.1375
Arbeitsplatz	-11.1377
Con	-11.1379
schlags	-11.138
▁jetz	-11.1385
▁identifi	-11.1385
▁Tool	-11.1386
▁accident	-11.1387
▁Statistik	-11.1388
dienstleistung	-11.1388
fin	-11.139
▁1970	-11.1392
▁prison	-11.1393
▁Hostels	-11.1393
▁Spannung	-11.1394
▁2008.	-11.1394
▁cl	-11.1394
▁entsteht	-11.1397
▁kämpfen	-11.1401
fördert	-11.1401
▁percent	-11.1402
▁Transfer	-11.1405
▁ersetzt	-11.1406
iva	-11.1407
asse	-11.1408
▁geringe	-11.1409
▁careful	-11.141
▁carbon	-11.1412
Sa	-11.1413
▁bright	-11.1414
▁geboten	-11.1415
▁count	-11.1415
ée	-11.1417
maschine	-11.1425
wide	-11.1426
▁Soviet	-11.1426
▁cooperate	-11.1427
fu	-11.1428
▁Malta	-11.1429
▁Copenhagen	-11.143
▁Sammlung	-11.143
▁existieren	-11.1431
▁Verbreitung	-11.1434
▁strenge	-11.1434
IR	-11.1434
▁referendum	-11.1434
▁understood	-11.1434
▁library	-11.1437
▁oral	-11.1438
▁department	-11.1438
▁Georgia	-11.1439
▁opinions	-11.1439
▁demonstrated	-11.1443
▁inhabitants	-11.1447
ifi	-11.1448
ties	-11.1448
COM	-11.1448
▁arise	-11.145
tellung	-11.145
swegen	-11.145
▁Given	-11.1452
▁stolz	-11.1454
▁showing	-11.1456
▁assure	-11.1461
▁gespielt	-11.1461
WF	-11.1464
71	-11.1466
▁Em	-11.1466
ula	-11.1467
▁Brazil	-11.1468
ationen	-11.1468
rea	-11.1469
▁erleichtern	-11.1476
▁Kl	-11.1477
rates	-11.1477
▁Place	-11.1479
▁exciting	-11.1479
▁settlement	-11.148
▁bedroh	-11.1482
▁Portuguese	-11.1486
▁foundation	-11.1487
▁Gewährleistung	-11.1489
▁Prague	-11.1489
ose	-11.1489
key	-11.1491
▁orders	-11.1492
neu	-11.1493
uit	-11.1493
▁resistance	-11.1494
▁competent	-11.1499
▁indicated	-11.1501
▁plastic	-11.1501
▁Subsidiar	-11.1504
just	-11.1504
zentren	-11.1509
▁Handlung	-11.151
▁channels	-11.151
▁14.	-11.1512
▁ergänzen	-11.1512
▁safeguard	-11.1514
▁involves	-11.1518
▁corresponding	-11.152
-20	-11.1521
▁chemische	-11.1522
behalten	-11.1522
informationen	-11.1523
▁Pact	-11.1524
hal	-11.1528
▁Common	-11.1529
▁Ltd	-11.1534
rio	-11.1535
lines	-11.1536
att	-11.1537
▁ferner	-11.154
▁male	-11.1541
▁accompanied	-11.1541
▁Holiday	-11.1543
▁follows	-11.1545
▁tu	-11.1547
mpf	-11.1548
▁generell	-11.1549
▁Ruf	-11.1549
▁Anwender	-11.1551
belang	-11.1551
▁honour	-11.1552
▁Leitung	-11.1552
!!	-11.1554
▁stored	-11.1554
▁cosy	-11.1555
▁finish	-11.1555
▁Single	-11.1556
▁Access	-11.1558
▁Termin	-11.1558
▁Ankunft	-11.1559
▁comparison	-11.1561
cz	-11.1562
▁visiting	-11.1563
▁Hohe	-11.1568
ill	-11.1569
▁Who	-11.1573
▁overcome	-11.1574
▁appearance	-11.1575
▁visited	-11.1575
▁vorbei	-11.1575
▁Rezeption	-11.1577
▁assets	-11.1578
▁starten	-11.1579
▁Korruption	-11.1581
▁depending	-11.1582
tle	-11.1585
style	-11.1586
▁Verfass	-11.1588
▁proven	-11.1589
▁ongoing	-11.1589
▁EN	-11.159
prozess	-11.1591
▁Sorgen	-11.1593
▁wann	-11.1594
ENT	-11.1596
▁Professor	-11.1598
▁umge	-11.1599
▁Alpen	-11.1603
▁suites	-11.1604
▁windows	-11.1606
▁Tom	-11.1606
▁rational	-11.1607
▁Deutschen	-11.1609
▁Full	-11.1609
▁mostly	-11.161
▁Dienstleistungs	-11.1615
strategie	-11.1616
sfähig	-11.1618
▁hinzufügen	-11.1623
▁industrielle	-11.1624
▁individuell	-11.1625
▁Investitions	-11.1625
aries	-11.1627
▁legitimate	-11.1628
▁Indi	-11.1628
▁massage	-11.1628
▁cap	-11.1632
orgni	-11.1632
▁Cu	-11.1632
▁Schweizer	-11.1634
▁wollten	-11.1635
▁Meeting	-11.1636
▁unfair	-11.1637
llen	-11.1638
▁citizen	-11.1639
▁pur	-11.1641
▁Registrierung	-11.1641
▁grundlegend	-11.1643
▁behaviour	-11.1644
▁15.	-11.1646
▁islands	-11.1647
▁fitness	-11.1647
]].	-11.165
gänge	-11.1652
▁rapidly	-11.1656
▁prize	-11.1656
▁concluded	-11.1657
▁bu	-11.1657
telefon	-11.1657
च	-11.1659
MP	-11.166
▁creates	-11.1661
▁th	-11.1662
85	-11.1662
▁sugar	-11.1662
▁documentation	-11.1663
▁consent	-11.1664
erst	-11.1664
▁Cap	-11.1665
linien	-11.1665
▁answers	-11.1666
▁Newsletter	-11.1668
table	-11.1669
bur	-11.167
▁Gespräche	-11.167
▁effectiveness	-11.1671
▁pl	-11.1673
▁facility	-11.1675
ы	-11.1676
▁corruption	-11.1677
▁pieces	-11.1679
▁spoken	-11.1679
▁examine	-11.1681
▁spectacular	-11.1681
▁verstärk	-11.1683
▁resolutions	-11.1684
▁finished	-11.1685
har	-11.1686
▁erm	-11.1686
mus	-11.1686
▁Perhaps	-11.1686
ierungs	-11.1688
▁firms	-11.1689
▁Adobe	-11.1689
▁bill	-11.1695
▁profile	-11.1696
▁Gre	-11.1697
▁verteilt	-11.1698
▁connections	-11.1702
▁kurzen	-11.1702
▁Bemerkungen	-11.1702
▁exception	-11.1704
▁beendet	-11.1705
▁drivers	-11.1706
▁provider	-11.1708
▁bound	-11.1708
▁dates	-11.1711
▁settings	-11.1712
▁Himmel	-11.1712
▁Kabel	-11.1714
lle	-11.1715
▁struggle	-11.1717
▁Wal	-11.1717
streit	-11.1721
▁38	-11.1722
▁Yes	-11.1724
▁knapp	-11.1726
▁flights	-11.1726
▁plenty	-11.1727
▁input	-11.1729
Server	-11.1732
sausschuss	-11.1733
▁Mari	-11.1734
▁Page	-11.1734
▁Brief	-11.1737
▁mistake	-11.1737
▁Tibet	-11.1737
onvention	-11.1738
▁passende	-11.1741
▁recording	-11.1745
▁Jahrzehnt	-11.1747
▁scheme	-11.175
▁Canon	-11.175
glichkeit	-11.1752
sprachen	-11.1752
▁Punkten	-11.1753
▁raw	-11.1753
▁tourists	-11.1754
▁controlled	-11.1754
▁hundert	-11.1754
▁Bibliothek	-11.1757
▁passenger	-11.1757
mord	-11.1757
▁educational	-11.1758
▁echten	-11.1759
▁Apple	-11.176
▁getrennt	-11.1762
▁hearing	-11.1762
▁Chancen	-11.1764
▁printing	-11.1764
este	-11.1764
▁replaced	-11.1765
▁einfachen	-11.1766
örtlich	-11.1766
▁Training	-11.1767
▁Schalt	-11.1767
▁mündlich	-11.1768
▁SMEs	-11.177
▁angenehme	-11.1777
▁traditionell	-11.1778
MO	-11.1779
▁owners	-11.178
▁immigrants	-11.178
▁Eurozone	-11.1781
schrift	-11.1781
▁Fern	-11.1783
▁Weil	-11.1783
▁minorities	-11.1786
sfreiheit	-11.1792
▁pursue	-11.1792
▁Pri	-11.1792
▁Funds	-11.1795
kur	-11.1801
cor	-11.1802
▁reduzier	-11.1802
86	-11.1802
▁sah	-11.1802
gue	-11.1803
zehn	-11.1804
49	-11.1806
spezifische	-11.1806
▁Pat	-11.1809
▁kontrolliert	-11.1812
wanderer	-11.1813
Mar	-11.1814
sagt	-11.1815
▁lunch	-11.1821
nahm	-11.1822
▁kontrollier	-11.1822
▁imposed	-11.1823
▁fulfil	-11.1825
▁heating	-11.1825
funktion	-11.1827
ira	-11.1827
▁Play	-11.183
▁Anschluss	-11.1835
▁42	-11.1835
drücklich	-11.1835
▁Il	-11.1838
▁constitutional	-11.1839
▁categories	-11.184
ontext	-11.1841
▁signs	-11.1841
▁blind	-11.1842
trag	-11.1847
▁Ol	-11.1847
▁Laut	-11.1849
▁usual	-11.1849
▁Kopie	-11.185
rei	-11.1851
▁Fo	-11.1851
▁trafficking	-11.1852
▁Tip	-11.1854
88	-11.1854
ima	-11.1857
▁Ei	-11.1858
ito	-11.1861
▁revision	-11.1862
▁Ch	-11.1863
▁opt	-11.1863
▁Einschränkung	-11.1865
▁sta	-11.1866
sia	-11.1868
▁Betrag	-11.1869
roll	-11.187
▁Bücher	-11.187
holen	-11.1871
▁zer	-11.1871
ktive	-11.1871
ändliche	-11.1874
▁James	-11.1876
ZB	-11.1877
▁chemical	-11.1879
pra	-11.1879
▁ruhig	-11.188
▁Entscheidungs	-11.1883
▁österreichische	-11.1883
▁revolution	-11.1883
▁Auge	-11.1883
▁Kirk	-11.1883
▁wines	-11.1885
▁Ed	-11.1887
▁deals	-11.1888
▁awarded	-11.1889
vorschläge	-11.189
▁Nummer	-11.1891
▁definitely	-11.1892
▁Konzert	-11.1892
▁Betracht	-11.1894
▁israel	-11.1896
▁speaker	-11.1896
▁Net	-11.1896
▁Metall	-11.1897
▁Hungarian	-11.1898
▁Description	-11.1901
▁Consumer	-11.1903
67	-11.1904
▁Wandel	-11.1906
▁switch	-11.1908
▁Renten	-11.1909
▁Brasilien	-11.1911
▁WC	-11.1914
▁concert	-11.1914
▁doesn	-11.1916
▁Gefahren	-11.1919
▁manufacturer	-11.192
▁woman	-11.192
▁recorded	-11.1921
ici	-11.1921
з	-11.1924
ctor	-11.1926
▁Max	-11.1927
▁Anmerkung	-11.1929
▁sex	-11.193
eva	-11.1939
norm	-11.1941
▁Kenn	-11.1942
▁credibility	-11.1945
▁Project	-11.1945
AG	-11.1946
▁Games	-11.1946
▁Webseiten	-11.1947
las	-11.1949
▁niedriger	-11.195
CA	-11.1951
▁HD	-11.1953
CE	-11.1954
▁Partnern	-11.1954
sign	-11.1955
▁centuries	-11.1955
▁Travel	-11.1955
▁organisieren	-11.1956
▁expand	-11.1956
▁Könn	-11.1956
▁destruction	-11.1958
▁edition	-11.1958
beziehungen	-11.1959
▁gardens	-11.1959
▁meaningful	-11.1961
tas	-11.1962
44	-11.1972
dos	-11.1976
werben	-11.1978
▁milk	-11.1979
▁lobby	-11.1981
▁compatible	-11.1982
▁ou	-11.1982
▁installieren	-11.1984
▁departure	-11.1984
▁pop	-11.1993
mäßige	-11.1996
▁friedliche	-11.1996
▁Massage	-11.1997
▁Heil	-11.1998
▁Betrug	-11.2
▁elegante	-11.2001
barer	-11.2001
▁offenbar	-11.2001
▁adopting	-11.2002
▁Eigentum	-11.2002
ध	-11.2002
▁casino	-11.2002
▁Übertragung	-11.2002
▁beschäftigen	-11.2002
▁Wetter	-11.2003
gab	-11.2004
▁chair	-11.2005
▁Volkswirtschaft	-11.2005
Applause	-11.2007
▁Prag	-11.2008
▁Pol	-11.2009
▁Marktes	-11.2012
UNG	-11.2015
gro	-11.2015
▁errichtet	-11.2016
lösungen	-11.2017
▁magnificent	-11.202
▁Cre	-11.2021
tis	-11.2022
38	-11.2023
▁virtual	-11.2024
▁neutral	-11.2025
▁possibly	-11.2025
▁Stimmen	-11.2026
trieb	-11.2029
▁verbind	-11.2029
▁Argument	-11.203
▁grant	-11.2032
▁Komponenten	-11.2034
slaw	-11.2034
ı	-11.2036
operation	-11.2036
▁partly	-11.2038
▁Lauf	-11.2038
▁occasions	-11.2038
▁uniform	-11.2038
▁desired	-11.2039
▁Tabak	-11.204
▁Wissenschaftler	-11.204
erbe	-11.2041
▁Wahr	-11.2042
▁Hungary	-11.2044
bon	-11.2046
▁ice	-11.2047
▁bezahlt	-11.2052
▁transatlanti	-11.2052
▁Miet	-11.2053
ident	-11.2053
▁behalten	-11.2054
▁mitten	-11.2054
▁65	-11.2054
hold	-11.2056
▁stronger	-11.2058
▁respected	-11.2059
▁Route	-11.2059
▁containing	-11.206
▁Northern	-11.2061
▁antworte	-11.2062
▁Förder	-11.2062
▁appointed	-11.2063
▁Gegenstand	-11.2063
▁Stockholm	-11.2065
gäste	-11.2066
Bericht	-11.2066
▁arrived	-11.2066
▁älte	-11.2068
ami	-11.2073
ras	-11.2073
▁charm	-11.2074
▁declared	-11.2076
▁Führungs	-11.2078
▁Puerto	-11.2078
▁brachte	-11.2078
▁dance	-11.208
▁judicial	-11.2085
▁2009,	-11.2088
▁narrow	-11.2088
▁ursprüngliche	-11.209
▁korrekt	-11.209
▁province	-11.2094
▁verkaufen	-11.2095
grad	-11.2096
▁Stra	-11.2098
▁Apart	-11.21
▁tickets	-11.21
▁Belgium	-11.2101
▁Fundamental	-11.2103
▁transactions	-11.2104
▁rot	-11.2106
Wir	-11.2107
▁correctly	-11.2109
▁subsidiarity	-11.2109
▁Internationale	-11.2109
spir	-11.211
erkannt	-11.2111
▁functioning	-11.2113
▁proportion	-11.2116
cut	-11.2117
▁Ke	-11.2117
▁sending	-11.2118
▁division	-11.2119
griff	-11.212
▁irgendeine	-11.2121
▁Rio	-11.2124
Datei	-11.2125
oren	-11.2129
▁Erfüllung	-11.2129
▁vorstellen	-11.2131
▁Ehe	-11.2132
▁Exchange	-11.2133
▁enjoyed	-11.2135
zukommen	-11.2135
▁legitim	-11.2137
ery	-11.2138
▁dry	-11.2139
▁Fitness	-11.214
▁Traum	-11.214
65	-11.2144
Ka	-11.2144
▁ball	-11.2146
▁Salzburg	-11.2147
▁hundred	-11.2148
amt	-11.2148
▁manager	-11.215
▁erhielt	-11.215
▁solch	-11.2151
▁eastern	-11.2151
▁Charles	-11.2152
tsch	-11.2152
▁Untersuchungen	-11.2154
▁natürliche	-11.2154
pr	-11.2156
pl	-11.2156
▁fuer	-11.2157
37	-11.2158
▁Bemerkung	-11.2161
ink	-11.2163
▁gallery	-11.2165
▁satisfy	-11.2168
▁Following	-11.2168
rap	-11.2168
▁crimes	-11.2169
▁Websites	-11.2177
▁Gesellschaften	-11.2179
▁gewünschte	-11.218
▁encouraging	-11.2181
▁cast	-11.2181
gebühren	-11.2181
▁Hamas	-11.2182
▁Fö	-11.2182
▁gefährdet	-11.2183
▁satisfied	-11.2183
gewinn	-11.2185
wann	-11.2187
▁günstige	-11.2188
terrasse	-11.2188
▁taxation	-11.2189
gl	-11.219
▁pure	-11.219
▁Oder	-11.219
▁deficit	-11.2194
freien	-11.2194
▁minor	-11.2195
▁Content	-11.2195
▁Pin	-11.2195
oo	-11.2195
▁jenen	-11.2195
▁Fair	-11.2196
▁Structural	-11.2197
rill	-11.2198
▁verantwort	-11.2198
▁Qui	-11.2203
▁Beamte	-11.2204
▁luxurious	-11.2205
▁Ausflüge	-11.2206
▁Sil	-11.2207
▁Darstellung	-11.221
▁slightly	-11.2212
▁Vorlage	-11.2214
konzept	-11.2215
onsultation	-11.2217
▁inclusion	-11.2218
▁artistic	-11.222
▁conditioning	-11.2221
▁Fußball	-11.2221
▁trouble	-11.2223
▁realistic	-11.2224
ih	-11.2224
▁Visa	-11.2226
▁Tel	-11.223
▁regel	-11.2234
OW	-11.2235
▁mu	-11.2235
41	-11.2236
▁prime	-11.2236
▁Amendments	-11.2237
marquis	-11.2242
▁attend	-11.2243
▁elsewhere	-11.2245
▁Fremden	-11.2245
▁substance	-11.2248
▁identified	-11.2249
▁brutal	-11.225
▁Valley	-11.2251
▁Desk	-11.2251
▁pla	-11.2254
demokratisch	-11.2256
▁zerstört	-11.2257
▁Gefä	-11.2258
▁erwähn	-11.2259
▁debates	-11.2262
▁Verlauf	-11.2263
uf	-11.2263
▁globalisation	-11.2265
▁Filter	-11.2266
▁enge	-11.2268
▁belong	-11.2271
▁Within	-11.2272
safe	-11.2273
iges	-11.2274
▁Tro	-11.2274
zz	-11.2274
▁weltweite	-11.2277
▁functional	-11.2279
▁horizontal	-11.228
breite	-11.228
▁nützlich	-11.2284
▁Netze	-11.2284
▁distributed	-11.2285
▁Women	-11.2288
▁eventually	-11.2292
▁Schlacht	-11.2292
gängig	-11.2293
teilen	-11.2294
zahlen	-11.2294
▁films	-11.2295
▁Verfahrens	-11.2295
▁Bas	-11.2295
▁Städten	-11.2296
Ä	-11.2298
▁rechtzeitig	-11.2299
issen	-11.2299
▁adventure	-11.2299
▁Anstieg	-11.2304
▁Freitag	-11.2305
▁aussprechen	-11.2305
▁Mitgliedschaft	-11.2306
▁Lounge	-11.2306
▁miles	-11.2307
ström	-11.2308
▁Bauern	-11.2309
▁routes	-11.2309
▁component	-11.231
wirkung	-11.231
▁angewandt	-11.2312
▁fro	-11.2314
spolitische	-11.2314
real	-11.2314
▁preparing	-11.2317
ación	-11.2318
▁dargestellt	-11.2319
▁Kopenhagen	-11.2322
▁Angel	-11.2323
schaftliche	-11.2325
▁entspannen	-11.2326
▁Steuerung	-11.2328
▁survey	-11.2328
▁angelegt	-11.2328
gua	-11.2328
▁imagine	-11.2328
47	-11.2331
▁SP	-11.2333
▁pilot	-11.2334
▁Ticket	-11.2335
▁Spaß	-11.2335
▁eure	-11.2336
dies	-11.2336
▁considering	-11.2336
в	-11.2338
▁adults	-11.234
cio	-11.2342
▁AKP	-11.2344
▁Bade	-11.2346
▁eingebracht	-11.2346
▁Rule	-11.2348
▁thousand	-11.2349
▁komme	-11.2351
▁addresses	-11.2352
▁Call	-11.2354
▁housing	-11.2355
▁extraordinary	-11.2363
problem	-11.2363
▁army	-11.2367
▁Institut	-11.2368
▁Versammlung	-11.237
reisen	-11.237
▁Verletzung	-11.2371
strich	-11.2373
sbehörde	-11.2375
▁Gri	-11.2375
stammt	-11.2376
▁ultra	-11.2377
▁Baum	-11.2378
suchen	-11.238
kern	-11.2381
▁Olive	-11.2381
▁absence	-11.2382
▁Kaiser	-11.2383
▁Charta	-11.2384
▁Tochter	-11.2388
▁Monday	-11.2391
▁resolved	-11.2391
nahe	-11.2393
▁Tennis	-11.2394
kov	-11.2395
▁Mos	-11.2402
▁BMW	-11.2404
▁Kampagne	-11.2406
▁endorse	-11.2407
▁ST	-11.2408
▁OR	-11.2408
beschreibung	-11.2409
national	-11.241
▁Kong	-11.241
▁Thursday	-11.2412
▁condemn	-11.2414
▁Orte	-11.2418
▁Nachbar	-11.2419
▁rising	-11.2422
eng	-11.2422
effekt	-11.2422
iff	-11.2423
▁plenary	-11.2431
TO	-11.2431
▁sleep	-11.2432
160	-11.2433
▁executive	-11.2433
▁committees	-11.2434
gerufen	-11.2434
wir	-11.2435
▁suppliers	-11.2435
gericht	-11.2436
▁Assembly	-11.2436
una	-11.2436
▁Add	-11.2438
▁vulnerable	-11.2439
änderung	-11.2441
raten	-11.2442
bring	-11.2444
▁surprise	-11.2444
▁appeared	-11.2445
▁Ag	-11.2445
▁contacts	-11.2445
Ü	-11.2445
▁individuellen	-11.2449
verfolg	-11.245
▁stick	-11.2452
▁tobacco	-11.2455
▁Satz	-11.2456
▁manufacture	-11.2456
▁Castle	-11.2457
▁kritis	-11.2457
300	-11.2458
▁musical	-11.2459
▁Space	-11.2462
▁excessive	-11.2463
▁Staates	-11.2463
▁Problems	-11.2463
UM	-11.2464
▁typische	-11.2464
VO	-11.2464
rüchte	-11.2468
lösen	-11.2468
▁Spitzen	-11.2469
ically	-11.2469
▁director	-11.2473
▁sichere	-11.2474
▁Medizin	-11.2474
▁vermitteln	-11.2475
▁Without	-11.2475
▁Solar	-11.2476
ect	-11.2476
projekte	-11.2479
▁empfohlen	-11.248
▁Zeitung	-11.2482
▁Nachricht	-11.2482
▁courts	-11.2482
▁sphere	-11.2483
▁Game	-11.2483
oth	-11.2483
▁55	-11.2484
▁labor	-11.2487
▁Armee	-11.2491
tta	-11.2493
▁Sicher	-11.2494
▁minimal	-11.2494
▁inklusive	-11.2494
breiten	-11.2495
Konfiguration	-11.2496
▁custom	-11.2497
▁za	-11.2498
▁grand	-11.25
▁wertvolle	-11.2501
▁organise	-11.2502
▁Mobile	-11.2502
▁warning	-11.2503
entgelt	-11.2507
▁info	-11.2507
▁Parkplatz	-11.2508
läuft	-11.2509
igh	-11.2509
mont	-11.2511
▁hinweg	-11.2511
▁duties	-11.2512
PP	-11.2514
▁englische	-11.2516
▁empfangen	-11.2516
landschaft	-11.2516
▁Thirdly	-11.2517
▁filter	-11.2518
▁Wochenende	-11.2518
▁Zell	-11.2519
bert	-11.2519
agentur	-11.2522
▁noted	-11.2523
▁VAT	-11.2524
▁stammen	-11.2526
▁actively	-11.2527
▁shock	-11.2527
▁formed	-11.2528
▁everyday	-11.253
▁Education	-11.2532
Li	-11.2533
rechnung	-11.2533
mitglied	-11.2534
▁kamen	-11.2539
▁Optionen	-11.2543
▁luxuriös	-11.2544
▁Among	-11.2545
Amerikaner	-11.2551
▁fourth	-11.2554
▁concentrate	-11.2554
▁providers	-11.2554
▁Vorder	-11.2556
▁Freunden	-11.2556
▁principal	-11.2557
▁Lobby	-11.2557
▁Piazza	-11.2559
▁beteiligen	-11.2559
▁auseinander	-11.2561
imo	-11.2561
▁Handy	-11.2563
▁pu	-11.2565
▁solely	-11.257
▁Parameter	-11.2571
ats	-11.2571
sorge	-11.2573
▁Balkans	-11.2573
▁Lehrer	-11.2574
▁Account	-11.2576
▁Like	-11.2578
matic	-11.2578
▁überprüft	-11.2579
sha	-11.258
▁Gra	-11.2581
team	-11.2581
Com	-11.2583
▁Cup	-11.2584
decken	-11.2584
▁scene	-11.2584
▁Satelliten	-11.2587
▁beruh	-11.2587
bedarf	-11.259
▁organize	-11.2593
organ	-11.2595
meldung	-11.2598
▁starts	-11.26
▁supplies	-11.2601
rungen	-11.2602
▁Gro	-11.2602
▁Mel	-11.2602
▁2007.	-11.2602
▁Able	-11.2602
▁chapter	-11.2606
▁nine	-11.2607
▁mut	-11.261
planung	-11.261
uellen	-11.2611
▁MO	-11.2611
▁Potenzial	-11.2612
▁proposing	-11.2615
▁Bri	-11.2615
seiten	-11.2622
▁HTML	-11.2622
▁Modern	-11.2623
▁dead	-11.2623
erhalten	-11.2624
▁gesunde	-11.2625
herstellung	-11.2628
wiesen	-11.2628
▁Egypt	-11.263
▁Bur	-11.2634
▁geliefert	-11.2635
▁western	-11.2637
▁Palm	-11.2638
gefühl	-11.2639
▁{	-11.2639
▁locations	-11.264
▁Getränke	-11.2646
For	-11.2647
\	-11.2649
▁wrote	-11.2653
▁Misch	-11.2654
▁proposes	-11.2654
lam	-11.2655
▁potenzi	-11.2655
▁privat	-11.2655
/97	-11.2655
uld	-11.2656
weis	-11.2656
GB	-11.2659
▁Mas	-11.266
▁verboten	-11.266
▁Tschech	-11.2661
▁ce	-11.2661
2)	-11.2663
sc	-11.2664
▁beobachten	-11.2668
▁Saturday	-11.267
▁university	-11.2671
▁Bestimmung	-11.2671
▁BE	-11.2673
hersteller	-11.2674
still	-11.2674
spielen	-11.2675
▁Luxemburg	-11.2676
▁gekennzeichnet	-11.2677
▁beträchtliche	-11.2679
▁packaging	-11.2681
▁Käufer	-11.2682
market	-11.2682
▁Have	-11.2683
leitung	-11.2684
▁nevertheless	-11.2684
▁IV	-11.2686
▁root	-11.2687
▁Pl	-11.2687
▁Projekten	-11.2688
▁Syria	-11.2688
währt	-11.269
51	-11.2691
suite	-11.2692
pflicht	-11.2693
▁95	-11.2693
▁resource	-11.2693
▁lift	-11.2693
qua	-11.2696
▁eingestellt	-11.2698
▁carrying	-11.2699
43	-11.27
worfen	-11.2702
▁countryside	-11.2703
▁applying	-11.2704
▁birth	-11.2704
▁EP	-11.2705
py	-11.2706
▁della	-11.2708
▁großem	-11.2709
▁banking	-11.2711
alität	-11.2711
mu	-11.2717
spiegel	-11.272
▁machte	-11.272
Ha	-11.272
▁theory	-11.2721
▁Anlass	-11.2724
▁Sohn	-11.2724
rick	-11.2727
▁diplomat	-11.2727
▁empf	-11.2728
▁didn	-11.2728
▁generated	-11.2729
▁Road	-11.2729
▁Schulen	-11.2729
field	-11.2732
▁Schon	-11.2734
▁Nos	-11.2736
▁·	-11.2738
enfalls	-11.2739
▁recognize	-11.274
▁iPhone	-11.274
▁neun	-11.274
59	-11.2743
sein	-11.2745
▁shadow	-11.2745
▁cent	-11.2748
indernisse	-11.2748
strasse	-11.2749
▁lessons	-11.2752
▁shipping	-11.2755
▁nights	-11.2756
▁height	-11.2756
▁Allianz	-11.2757
▁sexuelle	-11.2757
▁Entspannung	-11.2758
glieder	-11.2758
▁aktivieren	-11.2762
ffer	-11.2764
▁forum	-11.2765
▁Deine	-11.2765
▁robust	-11.2765
Vizepräsident	-11.2765
NE	-11.2768
▁Work	-11.2768
▁Schnell	-11.2769
▁towns	-11.2769
▁wage	-11.2771
SK	-11.2771
▁64	-11.2774
▁voluntary	-11.2777
▁endgültige	-11.2777
▁Bill	-11.2778
▁ye	-11.278
▁Belgien	-11.2782
▁rechtlich	-11.2783
kunst	-11.2784
▁gained	-11.2785
▁Willkommen	-11.2785
▁gets	-11.2785
▁humanit	-11.2786
▁Mitarbeitern	-11.2787
ule	-11.2787
▁upper	-11.2788
▁Mallorca	-11.2788
▁Point	-11.2789
▁song	-11.2791
▁Donnerstag	-11.2791
н	-11.2791
▁illegale	-11.2794
▁fur	-11.2794
▁Abfall	-11.2796
▁Mrd	-11.2798
▁rare	-11.2798
▁drinks	-11.2799
▁crew	-11.2802
kunden	-11.2806
▁Sterne	-11.2809
▁supplier	-11.2812
güt	-11.2814
▁investieren	-11.2816
▁Schei	-11.2816
▁Gel	-11.2817
▁Finanzkrise	-11.2818
körper	-11.2818
sendung	-11.2819
▁acc	-11.282
ester	-11.2821
▁Atlantic	-11.2821
▁verbindet	-11.2821
▁philosophy	-11.2822
▁Sonntag	-11.2825
sy	-11.2825
NET	-11.2826
▁gestattet	-11.2827
▁gewünscht	-11.2829
▁Sat	-11.283
gebieten	-11.283
2010	-11.2832
▁Vietnam	-11.2837
▁SAP	-11.2837
head	-11.2838
▁standing	-11.2838
▁Tourism	-11.2841
Bo	-11.2843
cs	-11.2844
eh	-11.2845
▁Louis	-11.2845
bil	-11.2845
anten	-11.2845
pin	-11.2846
▁greatly	-11.2849
▁existiert	-11.2852
▁Arzneimittel	-11.2854
itation	-11.2855
▁exports	-11.2858
▁savings	-11.2859
▁suggested	-11.2861
▁suggestions	-11.2861
rand	-11.2861
▁schicken	-11.2866
▁professionals	-11.2867
▁index	-11.2868
▁Thailand	-11.2868
▁Hardware	-11.2869
▁Ref	-11.2869
▁Besides	-11.287
▁arab	-11.2871
▁cell	-11.2872
▁Bö	-11.2873
ank	-11.2877
oid	-11.2878
kürz	-11.2879
▁reaction	-11.2881
▁Veränderung	-11.2882
ars	-11.2883
▁Agriculture	-11.2884
▁Wissens	-11.2885
schule	-11.2885
pp	-11.2887
▁beantworten	-11.2887
▁receiving	-11.2887
geber	-11.2887
▁700	-11.2888
▁logo	-11.2888
artige	-11.2889
▁taxi	-11.2889
phy	-11.2889
▁Genieße	-11.2889
▁Nu	-11.2889
▁Part	-11.2891
ér	-11.2891
dan	-11.2891
▁polnische	-11.2894
▁Stuttgart	-11.2896
▁shares	-11.2896
▁regarded	-11.2898
▁Montag	-11.2899
▁ré	-11.2899
zielt	-11.29
▁Warn	-11.29
ituated	-11.2901
lot	-11.2901
▁patient	-11.2902
▁Baby	-11.2904
gibt	-11.2905
у	-11.2905
sky	-11.2906
▁federal	-11.2907
▁satisfaction	-11.2907
struct	-11.2907
▁Next	-11.2911
AD	-11.2913
▁upgrade	-11.2916
▁permit	-11.2917
▁lebens	-11.2917
sstrategie	-11.2918
▁female	-11.2921
ý	-11.2924
▁Widerspruch	-11.2924
▁untersucht	-11.2924
▁Wiederaufbau	-11.2925
о	-11.2926
▁bra	-11.2926
ologische	-11.2927
▁Kontakte	-11.2928
Software	-11.293
▁teaching	-11.2931
▁Reinigung	-11.2931
77	-11.2933
▁toilet	-11.2934
▁Verteilung	-11.2938
▁Hügel	-11.2939
spiele	-11.2941
▁Luxus	-11.2941
▁mental	-11.2943
sol	-11.2943
drücken	-11.2945
▁difficulty	-11.2947
▁gal	-11.2949
▁updates	-11.295
stiegen	-11.295
▁prosperity	-11.295
drück	-11.2951
▁ACP	-11.2952
strukturier	-11.2953
▁Playa	-11.2953
iden	-11.2954
gh	-11.2955
▁.....	-11.2955
date	-11.2956
▁stream	-11.2956
▁transmission	-11.2956
ase	-11.2957
transport	-11.2957
&#	-11.2958
▁Extra	-11.2961
Vor	-11.2963
▁Verzöger	-11.2963
eine	-11.2964
▁enabling	-11.2964
▁Bla	-11.2965
▁confirmation	-11.2965
▁Sind	-11.2965
genz	-11.2966
▁Light	-11.2966
cul	-11.2966
▁invited	-11.2969
▁Having	-11.2971
ité	-11.2971
▁leichter	-11.2971
grenze	-11.2972
rich	-11.2973
systemen	-11.2975
▁sought	-11.2976
▁script	-11.2979
lim	-11.2979
▁Normal	-11.298
▁ships	-11.2984
ös	-11.2985
▁presents	-11.2986
▁Schrift	-11.2989
▁specified	-11.299
▁berichtet	-11.2993
probleme	-11.2994
▁metro	-11.2999
▁Stärke	-11.2999
▁Marke	-11.3
▁maximal	-11.3
▁cancer	-11.3001
89	-11.3002
verbrauch	-11.3002
szeit	-11.3002
▁Saison	-11.3002
▁realise	-11.3002
▁welt	-11.3005
▁delicious	-11.3005
▁einzigartigen	-11.3007
jpg	-11.3007
▁Br	-11.3008
▁Os	-11.3012
▁Schwa	-11.3013
▁roof	-11.3019
▁Fahrzeuge	-11.3021
▁Belastung	-11.3021
46	-11.3022
▁gefallen	-11.3023
▁Augenblick	-11.3024
sphäre	-11.3025
▁afford	-11.3026
▁alarm	-11.3028
bt	-11.3031
▁lots	-11.3032
▁score	-11.3033
▁gesetzlich	-11.3033
lagerung	-11.3033
▁Mängel	-11.3033
▁topics	-11.3034
aff	-11.3035
▁Übrigen	-11.3036
▁Disk	-11.3037
▁Up	-11.3037
▁qualitativ	-11.3037
▁Stiftung	-11.3037
tieren	-11.3039
steckt	-11.304
▁mild	-11.304
▁bay	-11.3041
▁Cla	-11.3042
▁Schlag	-11.3044
▁Sky	-11.3045
halle	-11.3046
ST	-11.3047
▁betreiben	-11.3047
▁acting	-11.3049
uni	-11.305
▁societies	-11.3051
▁Album	-11.3051
▁Beide	-11.3051
▁module	-11.3052
▁Gerechtigkeit	-11.3052
abel	-11.3053
▁präzise	-11.3054
▁Quellen	-11.3054
▁einzusetzen	-11.3055
▁Zucker	-11.3056
▁PRO	-11.3057
▁kosten	-11.3058
▁dependent	-11.306
▁Klaus	-11.3061
й	-11.3062
ष	-11.3062
▁ring	-11.3065
▁Gerade	-11.3069
▁wohnen	-11.3071
Mitgliedstaat	-11.3073
▁Stamm	-11.3077
▁Fri	-11.308
▁berühmt	-11.308
▁productivity	-11.3081
▁concepts	-11.3082
▁Frank	-11.3082
▁disabled	-11.3082
▁Prüf	-11.3082
duc	-11.3084
▁USS	-11.3085
▁destroyed	-11.3086
ify	-11.3088
▁Kriege	-11.3089
▁permitted	-11.3089
leiter	-11.3094
▁Georgi	-11.3095
▁Federation	-11.3095
▁Urlaubs	-11.3095
stunde	-11.3098
▁decline	-11.3099
▁Beteilig	-11.31
automat	-11.3102
▁Strasbourg	-11.3103
▁twenty	-11.3103
▁Beschwerde	-11.3103
▁roads	-11.3103
▁killed	-11.3105
▁einzig	-11.3106
93	-11.3108
▁Bekannt	-11.3108
▁Herbst	-11.3109
▁execution	-11.3109
wood	-11.311
äh	-11.3112
lung	-11.3113
▁tight	-11.3116
itt	-11.3117
▁ersetzen	-11.3118
kenntnisse	-11.3119
gegriffen	-11.3119
ego	-11.312
▁Beste	-11.3121
▁Ak	-11.3121
▁festival	-11.3122
EM	-11.3125
▁interview	-11.3127
▁electric	-11.3129
▁stellte	-11.3131
▁2008,	-11.3131
▁Trotzdem	-11.3131
▁Länge	-11.3132
oper	-11.3133
▁Porto	-11.3135
sbericht	-11.3136
▁schätze	-11.3137
ctic	-11.3138
▁nördlich	-11.3138
▁qua	-11.3138
schieben	-11.3143
▁Schi	-11.3143
▁Budgets	-11.3146
▁eventuell	-11.3146
▁Asian	-11.3146
▁radical	-11.3147
▁dauert	-11.3147
▁mussten	-11.315
▁desk	-11.315
hielt	-11.3152
▁amazing	-11.3153
92	-11.3153
▁Kanada	-11.3154
▁Palma	-11.3154
vy	-11.3156
▁publication	-11.3157
enten	-11.3159
He	-11.316
näher	-11.3165
▁Katalog	-11.3167
Ja	-11.3167
▁overview	-11.3168
kauf	-11.3168
stands	-11.3171
▁MB	-11.3171
Version	-11.3174
state	-11.3174
aria	-11.3175
▁Gelder	-11.3177
▁Akteure	-11.3178
▁Existenz	-11.318
▁stake	-11.318
▁Ö	-11.3181
▁Resolution	-11.3182
igkeiten	-11.3184
▁bekommt	-11.3184
rid	-11.3185
▁welcoming	-11.3185
HA	-11.3188
▁Secretary	-11.3188
▁icon	-11.319
▁rely	-11.3191
▁verd	-11.3192
▁betrieben	-11.3193
▁vorgestellt	-11.3197
▁Nigeria	-11.3197
▁significance	-11.3199
▁Klasse	-11.32
▁Innere	-11.3201
▁gesamt	-11.3202
ssysteme	-11.3202
▁aufgebaut	-11.3205
ě	-11.3205
▁Mittag	-11.3205
▁obliged	-11.3208
▁Islamic	-11.3209
▁Golden	-11.3209
lem	-11.321
▁politically	-11.321
▁attempts	-11.3212
gründlich	-11.3212
fisch	-11.3213
▁Make	-11.3213
▁weak	-11.3215
▁William	-11.3215
gin	-11.3215
▁tan	-11.3217
2009	-11.3218
▁romantic	-11.3221
geordnet	-11.3221
▁SE	-11.3222
▁fo	-11.3225
▁mittel	-11.3226
▁Cra	-11.3228
▁nord	-11.3228
▁wenigsten	-11.3228
▁jüngst	-11.323
▁Nein	-11.3232
▁football	-11.3232
aut	-11.3235
▁movie	-11.3235
felder	-11.3236
▁portfolio	-11.3237
üren	-11.3241
▁composition	-11.3242
▁harmonis	-11.3243
▁geraten	-11.3244
▁Culture	-11.3247
ban	-11.3248
▁breit	-11.3249
▁unterliegen	-11.3252
ew	-11.3252
▁exclusion	-11.3253
▁Statt	-11.3253
than	-11.3255
▁günstig	-11.3256
▁Kranken	-11.3258
▁Quality	-11.3259
▁manual	-11.326
▁Unterkünfte	-11.3262
gli	-11.3264
hängen	-11.3264
▁westliche	-11.3264
▁farming	-11.3268
▁olive	-11.3268
▁arguments	-11.3269
▁Gehminuten	-11.3273
HU	-11.3274
▁Ganze	-11.3278
Frühstücksbuffet	-11.3279
▁Planeten	-11.328
▁unforgettable	-11.3282
▁theatre	-11.3282
▁forests	-11.3282
▁Finland	-11.3283
view	-11.3283
rou	-11.3284
▁AND	-11.3284
▁interpret	-11.3284
▁remained	-11.3285
▁Geburt	-11.3285
▁begleitet	-11.3285
▁decade	-11.3285
▁geringer	-11.3285
▁Bars	-11.3285
▁missing	-11.3287
friendly	-11.3288
▁Para	-11.3289
▁AC	-11.329
▁Chinas	-11.3291
eten	-11.3292
space	-11.3293
lag	-11.3293
▁negotiating	-11.3294
▁superior	-11.3294
VP	-11.3295
▁PSE	-11.3296
dre	-11.3296
▁supposed	-11.3296
▁Out	-11.3296
▁Richard	-11.3297
▁heading	-11.3298
▁tennis	-11.3298
▁reservations	-11.3302
▁paying	-11.3303
▁exklusive	-11.3304
▁Av	-11.3304
▁ausgehen	-11.3306
schalten	-11.3308
▁villages	-11.3308
▁Verhaltens	-11.3308
▁Ter	-11.3309
▁reg	-11.331
▁digitale	-11.331
▁colours	-11.3312
tec	-11.3312
ular	-11.3313
▁Islands	-11.3313
▁Ste	-11.3314
▁specialist	-11.3315
▁suffered	-11.3315
AI	-11.3319
▁Vir	-11.3321
▁Roth	-11.3321
▁recall	-11.3321
▁richtet	-11.3321
▁wireless	-11.3322
▁Socialist	-11.3324
▁Preisen	-11.3325
▁Plus	-11.3326
▁schwere	-11.3326
▁hierbei	-11.3329
▁Grünen	-11.3329
wärts	-11.333
▁Alb	-11.333
FA	-11.3331
pil	-11.3333
▁regul	-11.3334
kapital	-11.3334
▁vielfältige	-11.3335
▁justified	-11.3336
enkt	-11.3338
▁doors	-11.3341
▁langjährige	-11.3343
▁harmonisation	-11.3344
▁registriert	-11.3345
▁Guests	-11.3346
м	-11.3348
▁falsche	-11.3349
▁Orient	-11.335
▁aufgeführt	-11.3351
78	-11.3351
▁Verkaufs	-11.3351
ereitschaft	-11.3354
▁convert	-11.3356
▁Millennium	-11.3359
▁Zürich	-11.3359
▁engagiert	-11.3361
▁Tar	-11.3361
▁Perspektive	-11.3362
▁renowned	-11.3362
▁approve	-11.3366
▁Cri	-11.3366
sandt	-11.3367
▁Line	-11.3368
▁Heizung	-11.3369
▁Based	-11.3371
▁Maz	-11.3371
General	-11.3372
▁freundliche	-11.3373
steht	-11.3373
▁instructions	-11.3373
▁Dreh	-11.3376
▁faith	-11.3378
▁enterprise	-11.3379
▁liked	-11.338
▁directory	-11.3381
chte	-11.3382
я	-11.3383
▁push	-11.3385
▁welcomed	-11.3389
▁Print	-11.339
▁Wählen	-11.3391
USS	-11.3395
▁Family	-11.3395
▁continuous	-11.3395
▁contributed	-11.3397
▁herunter	-11.3397
▁novel	-11.3399
▁exp	-11.3399
▁string	-11.3399
▁EG	-11.34
kratie	-11.3401
zerr	-11.3403
▁hardly	-11.3405
schw	-11.3409
▁indicate	-11.341
▁toward	-11.341
▁preventing	-11.341
▁complicated	-11.3413
situation	-11.3415
▁Hundert	-11.3416
▁steigende	-11.3418
▁Australia	-11.3418
▁Cas	-11.342
▁legally	-11.342
▁sharing	-11.3421
▁Bonus	-11.3421
vorschrift	-11.3422
wed	-11.3424
▁cleaning	-11.3424
bestimmungen	-11.3426
▁Chile	-11.3431
▁surely	-11.3433
▁proceedings	-11.3435
▁progressive	-11.3435
▁studio	-11.3441
▁kommerzielle	-11.3441
▁Ring	-11.3441
▁herum	-11.3443
▁gro	-11.3444
▁allocated	-11.3447
▁Hill	-11.3448
▁kontaktieren	-11.3449
▁integrate	-11.345
but	-11.3451
▁zugrunde	-11.3451
▁Spe	-11.3452
▁supervision	-11.3453
▁Koch	-11.3453
▁Ap	-11.3456
▁LateRooms	-11.3458
▁fehlende	-11.3461
▁Auditors	-11.3462
▁skiing	-11.3462
▁Micro	-11.3462
▁Log	-11.3464
Gegner	-11.3466
▁fr	-11.3467
lli	-11.3468
kat	-11.3468
mid	-11.3469
siedel	-11.3469
▁ecological	-11.3471
▁Sar	-11.3473
▁erhoben	-11.3474
▁enabled	-11.3475
oma	-11.3477
▁Modelle	-11.3478
▁hell	-11.3479
▁plays	-11.3482
▁könnt	-11.3482
▁Sir	-11.3483
küste	-11.3485
▁commission	-11.3487
cord	-11.3487
42	-11.3489
stoffen	-11.349
▁tree	-11.3491
▁MS	-11.3493
til	-11.3494
▁unzureichend	-11.3495
schätz	-11.3496
▁mitteilen	-11.3497
▁Schnee	-11.3498
▁directed	-11.35
▁Halb	-11.3502
holz	-11.3502
Vertrag	-11.3505
wer	-11.3506
▁parliament	-11.3506
▁equivalent	-11.3507
▁imports	-11.3509
▁fabric	-11.351
▁covering	-11.3514
▁Gal	-11.3514
▁everybody	-11.3516
▁combine	-11.3518
zio	-11.352
bli	-11.3522
check	-11.3523
alten	-11.3524
▁lie	-11.3525
▁Umsatz	-11.3527
▁Gespräch	-11.3527
▁Stability	-11.3528
▁looked	-11.3531
▁recognized	-11.3531
urteil	-11.3532
▁Through	-11.3533
▁attract	-11.3534
▁Vol	-11.3536
VE	-11.3536
frist	-11.3536
▁Bes	-11.3537
gestaltung	-11.3538
pen	-11.3538
try	-11.3539
bas	-11.3539
▁ceiling	-11.354
▁Joseph	-11.354
▁Hong	-11.3545
aufnahme	-11.3545
▁japanische	-11.3546
▁Bildschirm	-11.3547
▁Dor	-11.3547
▁verk	-11.3549
▁getragen	-11.3549
▁clarify	-11.3549
▁quote	-11.3552
chluß	-11.3554
▁barriers	-11.3554
té	-11.3555
▁Location	-11.3555
▁Alles	-11.3556
▁Passwort	-11.3556
▁Event	-11.3556
▁scheinen	-11.3558
▁blieb	-11.3559
▁Venice	-11.3562
▁Nachbarschaft	-11.3563
leg	-11.3563
▁forthcoming	-11.3568
▁Tan	-11.3575
▁refers	-11.3581
▁kleines	-11.3581
▁schlechte	-11.3582
▁ordinary	-11.3583
▁restore	-11.3584
▁angebracht	-11.3584
▁escape	-11.3584
▁Michel	-11.3584
▁geographical	-11.3586
ñ	-11.3587
▁Öffnung	-11.3589
▁tritt	-11.359
▁hospitality	-11.359
Zu	-11.359
TRA	-11.3591
▁disc	-11.3592
▁geregelt	-11.3592
▁amenities	-11.3592
▁ergibt	-11.3595
▁villa	-11.3595
wendung	-11.3596
▁Portal	-11.3596
▁gewähr	-11.3597
▁Kriminalität	-11.3598
▁angewendet	-11.36
▁earn	-11.36
▁Lang	-11.3603
▁firmly	-11.3603
ktiven	-11.3603
▁Berge	-11.3605
72	-11.3607
▁appointment	-11.3609
▁dispute	-11.361
▁VI	-11.361
▁momentan	-11.3613
▁ports	-11.3614
▁Akt	-11.3614
▁Nachbarn	-11.3615
▁kombiniert	-11.3616
▁Pflege	-11.3621
▁wirkt	-11.3622
▁Entfernung	-11.3625
oon	-11.3626
▁Schwer	-11.3626
ali	-11.3627
73	-11.3627
ökonomische	-11.3629
▁explained	-11.3629
zog	-11.363
76	-11.3631
zielen	-11.3631
▁Äußer	-11.3632
▁Opera	-11.3632
play	-11.3634
▁Seele	-11.3634
ista	-11.3635
▁compact	-11.3637
▁Eingang	-11.3637
▁native	-11.3637
98	-11.3638
schädlich	-11.3638
▁erteilt	-11.3639
ais	-11.3639
▁tower	-11.3641
ogen	-11.3643
frikan	-11.3645
▁Quote	-11.3646
▁sensor	-11.3649
scher	-11.365
69	-11.365
nbsp	-11.365
▁Temperatur	-11.365
▁anschließen	-11.3652
sid	-11.3652
▁39	-11.3654
▁investigation	-11.3656
▁Should	-11.3656
wegs	-11.366
orte	-11.3662
rá	-11.3663
▁Videos	-11.3665
▁introducing	-11.3666
▁chat	-11.3667
▁tag	-11.3667
pat	-11.3668
ò	-11.3669
▁UNESCO	-11.3669
▁preserve	-11.3669
▁originally	-11.367
freie	-11.3675
▁Nachhaltigkeit	-11.3675
▁wellness	-11.3676
▁Leiter	-11.3676
▁whereas	-11.3678
▁lock	-11.3678
▁vernünftig	-11.368
block	-11.368
enkung	-11.3681
▁fans	-11.3682
▁Emission	-11.3683
▁restructuring	-11.3684
▁ECB	-11.3684
▁programming	-11.3685
▁Serbia	-11.3685
tier	-11.3686
▁smooth	-11.3687
▁Luc	-11.3687
▁parameters	-11.3689
▁ser	-11.3689
▁westlich	-11.3689
adi	-11.369
▁verdienen	-11.369
fähige	-11.369
▁(*	-11.3691
wingen	-11.3691
▁billig	-11.3691
cas	-11.3691
▁Press	-11.3692
▁sustainability	-11.3694
▁personenbezogen	-11.3694
smoking	-11.3694
dom	-11.3695
med	-11.3696
}	-11.3697
▁Geneva	-11.3697
realistisch	-11.3698
rain	-11.37
pet	-11.37
srecht	-11.3702
▁fu	-11.3702
▁reflected	-11.3703
onsolidier	-11.3705
sage	-11.3705
lehne	-11.3708
IE	-11.3709
▁AS	-11.371
▁showed	-11.3711
54	-11.3712
ül	-11.3713
▁Schw	-11.3713
▁Civil	-11.3718
born	-11.3718
mpl	-11.3718
▁Textil	-11.372
▁heran	-11.3725
▁Pilot	-11.3726
▁turning	-11.3726
ALE	-11.3727
▁herunterladen	-11.3728
AU	-11.373
cle	-11.3731
sbe	-11.3731
▁dankbar	-11.3734
rank	-11.3735
▁ka	-11.3736
▁dein	-11.3737
▁Häuser	-11.3738
President	-11.3738
▁organic	-11.3738
RS	-11.3742
beziehen	-11.3745
▁44	-11.3746
▁accurate	-11.3746
▁internen	-11.3747
ICHT	-11.3747
▁stabil	-11.3752
▁universities	-11.3752
brenn	-11.3752
▁gefragt	-11.3753
▁kritisch	-11.3753
▁obstacles	-11.3753
wel	-11.3754
▁ergänzt	-11.3755
▁king	-11.3757
▁Abendessen	-11.3759
werten	-11.3761
▁teile	-11.3761
▁Fahrer	-11.3763
▁trips	-11.3763
▁anspruchsvolle	-11.3768
▁severe	-11.3769
UN	-11.3771
▁präsentieren	-11.3773
▁zit	-11.3773
▁Dokumentation	-11.3773
lov	-11.3776
iving	-11.3776
▁Parkplätze	-11.3777
!!!	-11.3779
▁Betten	-11.378
▁sight	-11.3781
bru	-11.3781
▁student	-11.3781
▁wert	-11.3781
▁NGOs	-11.3782
▁indirekt	-11.3782
▁characters	-11.3783
▁behoben	-11.3783
▁vessels	-11.3786
No	-11.3786
produktiv	-11.3787
▁teams	-11.3788
artikel	-11.3789
▁leaves	-11.3791
wan	-11.3791
ergebnisse	-11.3792
same	-11.3792
anspruch	-11.3792
▁zuzu	-11.3793
▁saved	-11.3795
▁Lohn	-11.3795
▁hilfreich	-11.3796
fenster	-11.3796
nic	-11.3797
▁collected	-11.3797
mächtig	-11.3798
▁cells	-11.3798
▁Ersatz	-11.3799
▁Corporate	-11.3802
▁Dritte	-11.3802
▁Alexander	-11.3805
▁Area	-11.3805
Staaten	-11.3807
▁Berliner	-11.3807
branche	-11.3807
rel	-11.3808
Mexiko	-11.3808
▁(3	-11.3811
▁ir	-11.3812
dar	-11.3815
▁considerably	-11.3816
zon	-11.3816
▁Lernen	-11.382
-4	-11.3825
▁Schlaf	-11.3826
400	-11.3827
▁absurd	-11.383
▁reward	-11.3831
▁clubs	-11.3836
▁aktualisiert	-11.3836
थ	-11.3836
▁43	-11.3838
▁Proze	-11.3842
ügel	-11.3846
▁Ägypten	-11.3846
▁Head	-11.3848
▁Euch	-11.3849
▁Wärme	-11.3851
▁assess	-11.3851
▁audience	-11.3852
▁soul	-11.3852
▁Does	-11.3852
stra	-11.3853
▁rain	-11.3856
▁Prof	-11.3857
▁leg	-11.3858
werfen	-11.3859
▁Börse	-11.386
▁classes	-11.386
▁1960	-11.386
▁Höchst	-11.3861
▁angekündigt	-11.3862
▁Fahrrad	-11.3862
▁Ali	-11.3863
▁remarks	-11.3864
▁Letzte	-11.3864
such	-11.3865
tlich	-11.3865
▁Photo	-11.3869
gor	-11.3869
▁functionality	-11.387
▁Tr	-11.3871
▁Block	-11.3872
▁genie	-11.3873
▁umgehen	-11.3873
▁museums	-11.3873
einigt	-11.3876
▁flag	-11.3876
▁irre	-11.3878
▁Modul	-11.388
▁undoubtedly	-11.388
▁cuts	-11.3881
7%	-11.3882
▁Wett	-11.3882
taten	-11.3883
▁enhanced	-11.3883
uren	-11.3883
inens	-11.3884
▁folder	-11.3884
water	-11.3885
▁withdraw	-11.3885
musik	-11.3885
▁Camping	-11.3886
leute	-11.3887
▁permission	-11.389
lk	-11.389
▁Faktor	-11.3891
▁MA	-11.3893
▁regardless	-11.3895
▁sc	-11.3897
museum	-11.3899
▁dignity	-11.3899
staatliche	-11.39
klasse	-11.3901
▁Verbrauch	-11.3901
▁lit	-11.3901
als	-11.3904
LO	-11.3905
▁rum	-11.3906
finanzierung	-11.3906
▁Vista	-11.3908
▁subjects	-11.3908
▁produzieren	-11.3909
▁Guide	-11.3911
▁Flu	-11.3911
imp	-11.3912
sprozesses	-11.3912
ierungen	-11.3912
▁zurückzuführen	-11.3913
TER	-11.3914
▁Transaktion	-11.3918
▁Kulturen	-11.392
▁Sudan	-11.3923
ias	-11.3926
▁mill	-11.3926
▁zukünftig	-11.3928
▁exact	-11.393
▁clause	-11.3932
▁Christmas	-11.3934
Auf	-11.3935
rechtliche	-11.3935
lio	-11.3936
▁worst	-11.3938
▁songs	-11.394
organisationen	-11.394
hard	-11.394
▁Präsentation	-11.3942
▁internationally	-11.3945
▁united	-11.3946
HO	-11.3946
▁schlagen	-11.3947
▁CAP	-11.3949
kom	-11.3951
▁31.	-11.3952
dringlich	-11.3953
▁Pr	-11.3953
boden	-11.3954
eta	-11.3954
stat	-11.3957
vil	-11.3957
OM	-11.3958
▁enorm	-11.3961
▁Reg	-11.3961
▁reaching	-11.3962
▁ministers	-11.3962
▁penalty	-11.3963
▁beabsichtigt	-11.3964
▁Muster	-11.3966
▁Märkten	-11.3966
▁formuliert	-11.3969
▁Syn	-11.3971
▁Programmen	-11.3971
weist	-11.3972
ô	-11.3972
Straßburg	-11.3975
▁fees	-11.3979
▁ehrlich	-11.398
gnis	-11.398
▁eignet	-11.398
▁acceptance	-11.3982
▁sounds	-11.3982
▁transform	-11.3983
-/	-11.3983
show	-11.3986
▁sovereignty	-11.3988
iro	-11.3993
▁horse	-11.3993
strom	-11.3993
▁Suiten	-11.3993
denkt	-11.3995
▁Revision	-11.3996
▁stärk	-11.3997
▁Son	-11.3997
▁dei	-11.3998
saal	-11.3998
▁layer	-11.4
▁kit	-11.4002
▁fan	-11.4004
PE	-11.4005
▁Einhalt	-11.4006
▁errors	-11.4006
front	-11.4007
schuldig	-11.4008
club	-11.4009
nia	-11.401
2,	-11.401
▁EX	-11.4013
turm	-11.4014
▁travelling	-11.4014
▁modules	-11.4016
▁Taxi	-11.4016
▁none	-11.4017
leger	-11.4018
▁losses	-11.4019
▁employ	-11.402
▁Betriebe	-11.4025
netze	-11.4025
▁Eintritt	-11.4026
▁Fang	-11.4029
lav	-11.4032
▁vernünftige	-11.4034
▁Sachen	-11.4035
geschlagen	-11.4037
▁Ursachen	-11.4037
▁adapted	-11.4037
▁exploitation	-11.4037
▁Visit	-11.4039
▁subsequent	-11.4039
ario	-11.404
cast	-11.4041
▁Pop	-11.4042
Ö	-11.4043
▁managing	-11.4043
▁Spring	-11.4044
▁Domain	-11.4046
▁Betreiber	-11.4046
▁pretty	-11.4048
▁Kirchen	-11.4049
termin	-11.4051
▁till	-11.4051
▁movements	-11.4052
rävention	-11.4052
▁labelling	-11.4053
▁Sh	-11.4054
▁Ausrüstung	-11.4055
zauber	-11.4056
geworfen	-11.4057
▁Weiteren	-11.4058
behandlung	-11.4061
▁Summe	-11.4062
Qu	-11.4062
▁optional	-11.4063
▁XP	-11.4067
▁detaillierte	-11.4068
▁sole	-11.407
▁CE	-11.407
▁Hauptbahnhof	-11.4071
▁Gen	-11.4073
läufig	-11.4073
▁CA	-11.4074
▁branch	-11.4075
ove	-11.4076
ford	-11.4079
pper	-11.4081
tliche	-11.4082
▁reflects	-11.4083
▁Parti	-11.4083
▁excluded	-11.4084
▁befasst	-11.4085
▁portal	-11.4087
▁Alm	-11.4087
stor	-11.4088
▁Territori	-11.409
▁Chef	-11.409
▁wahre	-11.4092
▁solar	-11.4098
Da	-11.4099
▁gültig	-11.4101
▁soil	-11.4102
▁applicant	-11.4103
kurse	-11.4103
▁с	-11.4104
▁lists	-11.4106
▁Bat	-11.4106
▁nachzu	-11.4109
▁erarbeitet	-11.411
▁2007,	-11.4111
center	-11.4112
▁Dokumenten	-11.4112
▁disasters	-11.4112
ject	-11.4113
ра	-11.4113
▁reagiert	-11.4113
aw	-11.4113
ire	-11.4114
schirm	-11.4115
▁Reisen	-11.4116
▁generations	-11.4118
messen	-11.4118
▁Universal	-11.4118
höhe	-11.412
▁verletzt	-11.4122
▁Designer	-11.4123
urteilen	-11.4123
Außenminister	-11.4126
▁Serbien	-11.4126
▁analog	-11.4126
▁reconstruction	-11.4127
ouverän	-11.4128
lla	-11.4128
ändert	-11.4129
▁panel	-11.4129
▁transferred	-11.413
▁ES	-11.413
tausch	-11.4132
▁filled	-11.4133
▁commit	-11.4134
▁restored	-11.4134
▁thermal	-11.4139
▁superb	-11.4139
liegen	-11.414
▁abend	-11.414
nal	-11.4142
▁Americans	-11.4142
▁consulting	-11.4144
▁Gemü	-11.4146
▁Safe	-11.4146
▁ruhige	-11.4146
▁violations	-11.415
▁Nero	-11.4151
▁Gewerkschaft	-11.4151
▁Innenstadt	-11.4152
▁freedoms	-11.4154
▁Sieg	-11.4154
verständnis	-11.4156
▁steigen	-11.4158
▁bedeut	-11.416
▁2006.	-11.4161
▁sentence	-11.4161
56	-11.4162
▁Mauer	-11.4162
▁Kal	-11.4165
▁Cat	-11.4165
▁shuttle	-11.4166
▁Befehl	-11.4167
vid	-11.4168
▁mehrfach	-11.4168
erie	-11.4169
tte	-11.417
▁Gay	-11.417
▁periods	-11.4173
ua	-11.4174
uv	-11.4175
▁Entwickler	-11.4175
▁College	-11.4177
▁mittlerwei	-11.4178
і	-11.418
arbeits	-11.4181
▁Alkohol	-11.4184
▁Industry	-11.4184
▁Zielen	-11.4184
▁frische	-11.4184
Wa	-11.4186
▁concentration	-11.4187
▁Protocol	-11.419
▁trends	-11.4192
▁Generationen	-11.4192
▁courage	-11.4193
▁Haft	-11.4194
zellen	-11.4195
▁Gor	-11.4197
▁selling	-11.4197
▁videos	-11.4197
under	-11.4198
▁erweitern	-11.42
58	-11.42
richtig	-11.42
▁learned	-11.4201
▁Marco	-11.4202
▁tested	-11.4203
▁Anmeldung	-11.4203
▁audit	-11.4205
graben	-11.4205
▁Hard	-11.4206
▁Valencia	-11.4207
cks	-11.4207
elli	-11.4207
▁Richter	-11.4209
lug	-11.421
▁licence	-11.421
▁Rechner	-11.4218
▁Maus	-11.4218
▁Kol	-11.4218
▁anywhere	-11.4218
74	-11.4219
▁stocks	-11.422
schwer	-11.422
ional	-11.4222
▁eliminate	-11.4222
▁bedanken	-11.4222
▁Arbeiter	-11.4224
▁endgültig	-11.4224
▁cre	-11.4224
▁Mol	-11.4225
▁Read	-11.4227
zweif	-11.4227
▁Kin	-11.4227
▁Staff	-11.4228
▁murder	-11.4228
faktor	-11.4228
▁lib	-11.4229
▁supplied	-11.4229
▁vis	-11.423
▁alcohol	-11.423
▁Anreise	-11.4232
▁Academy	-11.4232
▁Info	-11.4235
▁HIV	-11.4238
▁timetable	-11.424
▁ti	-11.424
setzungen	-11.4244
▁§	-11.4245
▁Cross	-11.4245
▁Formulierung	-11.4245
▁reputation	-11.4245
▁saving	-11.4246
▁verwende	-11.4248
▁Komplex	-11.4249
▁Captain	-11.4249
▁PS	-11.425
mie	-11.4251
▁speichern	-11.4253
▁gefährliche	-11.4253
ography	-11.4256
session	-11.4257
▁peak	-11.4257
▁compete	-11.4258
▁Aqua	-11.4258
▁Benutzung	-11.4258
▁bri	-11.4259
▁zunehmende	-11.4261
▁everywhere	-11.4263
▁Geschenk	-11.4263
cke	-11.4264
▁creature	-11.4265
strahl	-11.4265
▁vergleichbar	-11.4266
▁einzuführen	-11.4266
▁refuse	-11.4267
▁Slowak	-11.4268
▁pull	-11.4269
▁strengthened	-11.427
gefertigt	-11.427
▁Bezeichnung	-11.4271
ZE	-11.4274
▁Slovenia	-11.4275
▁Basel	-11.4276
satzes	-11.4276
▁san	-11.4277
▁korrigier	-11.4278
▁Jahrzehnte	-11.4279
▁schlimm	-11.428
▁minister	-11.4283
▁Erforder	-11.4285
lenk	-11.4288
▁Modernisierung	-11.4289
▁picturesque	-11.4289
▁Betreuung	-11.4291
standard	-11.4292
▁freely	-11.4296
▁column	-11.4298
aya	-11.4298
uro	-11.4302
▁Datum	-11.4306
▁Maschine	-11.4309
So	-11.431
place	-11.4311
▁reliability	-11.4311
geschichte	-11.4313
country	-11.4315
wund	-11.4315
▁Branche	-11.432
▁pain	-11.432
weiten	-11.4321
▁advise	-11.4323
▁deeply	-11.4323
uen	-11.4323
dio	-11.4324
▁überwinden	-11.4324
▁coordinated	-11.4324
▁restrict	-11.4325
ladung	-11.4325
▁Mechanism	-11.4325
▁varied	-11.4325
▁ambition	-11.4325
läne	-11.4332
▁pas	-11.4333
▁differ	-11.4333
▁Meinungs	-11.4335
▁Leit	-11.4338
▁Has	-11.4339
▁plain	-11.434
▁Rent	-11.4342
▁rechten	-11.4343
town	-11.4343
▁Bestätigung	-11.4344
▁adult	-11.4346
gebäude	-11.4347
▁stuff	-11.4352
ierter	-11.4352
SD	-11.4353
▁rating	-11.4353
▁harm	-11.4354
▁Branchen	-11.4355
MB	-11.4355
▁fishermen	-11.4357
ão	-11.4358
▁trat	-11.4358
▁Arena	-11.4358
▁Pie	-11.4358
▁Kreditkarte	-11.4359
▁Felder	-11.4359
▁genauer	-11.436
▁Bon	-11.436
BC	-11.436
personal	-11.436
▁Finnland	-11.4361
kor	-11.4362
▁sights	-11.4362
▁Publikum	-11.4364
größe	-11.4364
▁Konstruktion	-11.4364
▁undertaken	-11.4366
▁Anders	-11.4366
ved	-11.4367
stimmt	-11.4369
▁euros	-11.437
lex	-11.437
▁Versand	-11.437
▁Small	-11.437
▁Logo	-11.4372
▁poll	-11.4372
verarbeitung	-11.4372
▁promise	-11.4374
decision	-11.4376
stoßen	-11.4376
▁panoramic	-11.4377
▁mirror	-11.438
versammlung	-11.4382
▁zeichnet	-11.4383
▁Wolf	-11.4383
▁ansprechen	-11.4386
▁Meister	-11.4386
▁Performance	-11.4386
▁Ph	-11.4387
▁engage	-11.4389
▁partition	-11.4391
▁sections	-11.4392
▁Samstag	-11.4393
▁Tee	-11.4394
▁tele	-11.4394
▁è	-11.4394
▁Florenz	-11.4397
▁Schreiben	-11.4398
merken	-11.4399
▁Residence	-11.44
▁stattfindet	-11.44
programms	-11.44
▁Lin	-11.4401
▁Möbel	-11.4401
▁ensures	-11.4403
zufügen	-11.4404
rant	-11.4405
▁stars	-11.4406
▁liegende	-11.4406
▁tables	-11.4407
▁necessarily	-11.4407
örung	-11.4407
▁Rang	-11.4407
figur	-11.4407
atoren	-11.4408
▁gebrauch	-11.4408
▁Erwachsene	-11.4409
▁het	-11.4409
▁ME	-11.4409
▁Wartung	-11.4409
▁Beobachtung	-11.441
serie	-11.4411
▁Phänomen	-11.4413
ents	-11.4414
▁percentage	-11.4415
Commerce	-11.4417
erkunft	-11.4417
▁Lateinamerika	-11.442
л	-11.4421
DR	-11.4424
▁Communication	-11.4426
wächst	-11.4427
▁Order	-11.4428
okus	-11.4428
к	-11.4429
▁Versorgung	-11.4429
▁Send	-11.443
▁Belgian	-11.443
▁hill	-11.4431
bereichen	-11.4439
änge	-11.4444
▁Minute	-11.4444
▁Mill	-11.4445
▁Referenz	-11.4445
▁derzeitige	-11.4446
chwellen	-11.4447
▁bearing	-11.4447
▁wünsche	-11.4447
bung	-11.4449
▁kostenfrei	-11.445
▁technisch	-11.445
suche	-11.4451
gio	-11.4452
▁overlooking	-11.4454
▁30%	-11.4454
vorstehende	-11.4454
▁2006,	-11.4454
nik	-11.4455
▁kernel	-11.446
▁Doha	-11.446
▁Key	-11.4461
zuarbeiten	-11.4464
▁Mil	-11.4466
Wirtschaftskrise	-11.4466
▁Denken	-11.4467
▁zugelassen	-11.4468
geräumt	-11.4468
▁gek	-11.4468
▁fax	-11.4469
▁Appartement	-11.447
▁CHF	-11.4471
▁Allah	-11.4473
liches	-11.4476
▁Saddam	-11.4476
▁interne	-11.4477
▁underground	-11.4479
▁Labour	-11.448
▁Denmark	-11.4481
▁judgment	-11.4486
`	-11.4488
▁lived	-11.4488
nemark	-11.4489
verkauf	-11.4491
binden	-11.4492
▁Fan	-11.4494
ausgesetzt	-11.4494
beauftragten	-11.4495
ø	-11.4496
west	-11.4497
standards	-11.4498
▁Four	-11.4499
bio	-11.4501
lädt	-11.4502
▁Quelle	-11.4503
ough	-11.4503
▁sal	-11.4504
▁wave	-11.4505
▁Ausblick	-11.4506
▁anniversary	-11.4507
▁verständlich	-11.4507
▁Wikitravel	-11.451
geld	-11.4511
Ko	-11.4513
billig	-11.4517
▁briefly	-11.4519
▁tough	-11.452
▁Would	-11.452
lungen	-11.4522
▁neighbouring	-11.4523
▁Komplett	-11.4523
▁niederländische	-11.4523
С	-11.4527
▁Profit	-11.453
▁Ly	-11.453
fluss	-11.4531
▁Arbeitgeber	-11.4532
even	-11.4536
▁determination	-11.4536
▁targeted	-11.4539
▁checks	-11.454
▁vornehmen	-11.4542
dler	-11.4542
▁stunning	-11.4543
▁Grundlagen	-11.4546
▁Friendly	-11.4547
▁frühen	-11.4547
▁Überblick	-11.4547
▁Genf	-11.4548
▁gedacht	-11.4551
▁Nachfolge	-11.4553
▁Ombudsman	-11.4553
▁Warcraft	-11.4554
Ex	-11.4555
▁organisierte	-11.4555
screen	-11.4555
▁Emissions	-11.4556
▁Stimm	-11.4556
▁Bor	-11.4557
▁Daniel	-11.4559
▁magazine	-11.4559
▁jurisdiction	-11.456
▁Ferienwohnung	-11.4562
liebt	-11.4565
irische	-11.4566
▁honest	-11.4568
▁berechnet	-11.4572
tun	-11.4572
leitet	-11.4575
rig	-11.4576
▁Unterricht	-11.4576
▁Register	-11.4576
lf	-11.4576
gesammelt	-11.4577
det	-11.4578
▁Bru	-11.4578
ziehung	-11.458
▁bottle	-11.4581
▁Vertriebs	-11.4581
▁ni	-11.4582
▁23.	-11.4582
Kapazität	-11.4584
euger	-11.4585
▁meal	-11.4587
▁Objekte	-11.459
▁assembly	-11.4591
▁cancellation	-11.4594
▁smart	-11.4594
Fünf	-11.4595
▁überlassen	-11.4596
▁pod	-11.4598
schließt	-11.4598
FF	-11.4599
▁convey	-11.4601
▁semi	-11.4601
▁fairly	-11.4602
6%	-11.4605
▁Lind	-11.4605
▁22.	-11.4606
instrumente	-11.4607
lehnt	-11.4607
schl	-11.4607
▁indoor	-11.4608
Prozess	-11.4609
▁engaged	-11.4609
▁reich	-11.4612
▁Bühne	-11.4612
▁ausführlich	-11.4613
einfach	-11.4619
8%	-11.4619
▁usage	-11.4619
но	-11.4619
▁Ausbau	-11.4622
flächen	-11.4623
▁diplomatic	-11.4626
ios	-11.4627
▁kg	-11.4628
vertreter	-11.4628
kirche	-11.4629
tschen	-11.463
▁Fernsehen	-11.4631
▁bauen	-11.4633
▁individually	-11.4636
Car	-11.4637
aka	-11.4637
wölf	-11.464
verschmutz	-11.4641
▁hiking	-11.4642
▁vari	-11.4642
New	-11.4643
▁Persönlichkeit	-11.4644
▁egal	-11.4644
▁variable	-11.4644
▁Händler	-11.465
▁Process	-11.4652
▁selber	-11.4652
▁Mädchen	-11.4655
which	-11.4658
▁2010,	-11.4659
▁arising	-11.4659
Tra	-11.466
▁Vertrieb	-11.4661
ín	-11.4663
würfe	-11.4663
▁Übernahme	-11.4664
iers	-11.4664
▁ziel	-11.4664
▁complement	-11.4665
▁Million	-11.4665
gaben	-11.4665
fort	-11.4666
▁ter	-11.4668
▁portugiesische	-11.4669
▁twice	-11.4672
erstattung	-11.4679
▁examination	-11.4679
▁homes	-11.4682
gau	-11.4685
▁Niederlanden	-11.4685
MC	-11.4689
▁stabile	-11.4689
sinn	-11.469
br	-11.4691
▁listings	-11.4692
▁Olympic	-11.4692
▁kritische	-11.4693
▁terminal	-11.4694
wich	-11.4695
generation	-11.4697
▁promised	-11.4701
wünsche	-11.4701
▁angeblich	-11.4701
▁phenomenon	-11.4703
▁Cala	-11.4703
Ba	-11.4705
nah	-11.4705
durchschnittlich	-11.4705
▁Vier	-11.4706
▁Ten	-11.4706
▁prospects	-11.4706
▁Han	-11.4707
▁frisch	-11.4708
▁motorway	-11.4709
▁Hinweise	-11.4711
onic	-11.4714
ativ	-11.4714
▁Big	-11.4716
▁Filme	-11.4716
▁Department	-11.4716
lip	-11.4717
gr	-11.4718
personen	-11.4719
gründen	-11.4721
▁sky	-11.4721
▁Gall	-11.4722
▁gesetzliche	-11.4723
▁pot	-11.4724
▁25.	-11.4727
▁Ram	-11.4727
▁Galerie	-11.4727
▁facts	-11.4728
4%	-11.4729
▁Hel	-11.473
racht	-11.473
▁Haben	-11.473
▁Fac	-11.4733
II	-11.4733
▁Select	-11.4733
▁Consequently	-11.4733
stehende	-11.4735
bat	-11.4736
nissen	-11.4738
▁Fra	-11.4738
▁untersuchen	-11.474
▁appropriations	-11.4742
angebote	-11.4744
dding	-11.4745
▁Osteuropa	-11.4748
info	-11.4748
▁catalogue	-11.4751
▁dollar	-11.4752
stone	-11.4753
▁Fast	-11.4753
▁Leipzig	-11.4754
ehren	-11.4756
print	-11.4757
ont	-11.4757
▁factory	-11.4758
OP	-11.4759
▁ordered	-11.4759
▁bereitet	-11.476
▁Saudi	-11.4761
▁consequence	-11.4762
▁gu	-11.4763
▁row	-11.4763
▁besetzt	-11.4764
▁occurred	-11.4765
stecken	-11.4766
▁AL	-11.4769
kamera	-11.4773
▁processed	-11.4775
glas	-11.4776
▁profits	-11.4776
▁Sur	-11.4777
▁müsste	-11.4777
▁geschätzt	-11.4779
▁golden	-11.4781
▁spreche	-11.4781
▁entering	-11.4782
▁klassischen	-11.4785
▁Easy	-11.4785
▁Kara	-11.4786
▁ständige	-11.4787
mic	-11.4787
▁Laser	-11.4788
ROM	-11.4788
▁computers	-11.4789
aba	-11.4789
cies	-11.479
▁Leg	-11.4791
▁Erbe	-11.4792
5-00	-11.4793
▁normally	-11.4793
TR	-11.4794
rät	-11.4797
▁2-	-11.4798
täusch	-11.4798
mag	-11.4799
▁Fre	-11.4799
▁IMF	-11.4799
▁Sierra	-11.48
uda	-11.48
bevölkerung	-11.48
typ	-11.4803
▁unmittelbarer	-11.4804
trägt	-11.4805
geschwindigkeit	-11.4806
lets	-11.4807
▁frag	-11.4808
elemente	-11.4808
▁Poly	-11.4808
▁communicate	-11.4808
phone	-11.481
kra	-11.481
aja	-11.4812
61	-11.4815
▁Helsinki	-11.4816
ois	-11.4821
▁Bol	-11.4822
▁Kategorien	-11.4822
▁referring	-11.4824
▁Tonnen	-11.4825
▁Ergänzung	-11.4826
ressource	-11.483
städte	-11.4831
▁urgently	-11.4832
▁arch	-11.4834
produkt	-11.4834
2008	-11.4835
bestand	-11.4835
▁Society	-11.4837
▁spell	-11.4837
stellungen	-11.4838
▁gesichert	-11.4839
▁anzubieten	-11.4841
weiger	-11.4841
▁ended	-11.4841
tics	-11.4843
▁medicine	-11.4843
och	-11.4844
reicht	-11.4846
▁reserved	-11.4848
▁Var	-11.4849
ни	-11.4849
sprochen	-11.485
KOM	-11.485
Präsenz	-11.4851
älder	-11.4854
DC	-11.4855
dramatisch	-11.4855
▁bestellen	-11.4856
▁theme	-11.4857
▁presenting	-11.4857
▁publish	-11.4859
einandersetzung	-11.4859
96	-11.4861
verlust	-11.4861
▁URL	-11.4862
gekommen	-11.4862
94	-11.4862
power	-11.4863
pha	-11.4863
▁bonus	-11.4865
▁innere	-11.4867
ded	-11.4868
sko	-11.4869
apazitäten	-11.4869
▁discipline	-11.4871
ksamkeit	-11.4872
▁Tru	-11.4874
▁Yu	-11.4875
beug	-11.4876
▁Verfolg	-11.4878
▁Nikon	-11.4879
LU	-11.4881
▁entfern	-11.4881
schrei	-11.4881
▁grossen	-11.4882
▁Schicksal	-11.4882
▁feet	-11.4884
▁emerge	-11.4886
▁exploit	-11.4886
messe	-11.4886
gger	-11.4887
Bar	-11.4887
pping	-11.4888
nahmen	-11.4888
lager	-11.4889
▁evident	-11.4889
▁Empire	-11.4889
Find	-11.4891
▁ill	-11.4892
fully	-11.4894
▁Bewusstsein	-11.4896
▁IS	-11.4896
▁leichte	-11.4897
81	-11.4897
main	-11.4899
▁pump	-11.4899
etto	-11.4899
▁essentially	-11.4899
clu	-11.49
zwang	-11.49
anti	-11.4901
▁efficiently	-11.4901
lé	-11.4902
gehört	-11.4903
Ta	-11.4904
nov	-11.4906
▁gew	-11.4907
▁layout	-11.4907
▁eurozone	-11.4908
▁Doppelzimmer	-11.491
ruhig	-11.4912
start	-11.4912
ters	-11.4913
▁convenience	-11.4913
▁Kürz	-11.4914
▁Vorgehensweise	-11.4915
▁liable	-11.4916
▁Betriebssystem	-11.4917
▁hinein	-11.4917
▁printed	-11.4917
▁mobilis	-11.4918
▁Profil	-11.4919
lohnt	-11.4922
▁gene	-11.4922
kunft	-11.4923
▁deck	-11.4923
schmerz	-11.4927
▁revenue	-11.4928
▁erforderliche	-11.4928
chung	-11.493
▁argue	-11.493
▁Notes	-11.4931
▁30.	-11.4933
ängen	-11.4933
▁newsletter	-11.4934
ily	-11.4935
▁Vermögens	-11.4936
▁Internal	-11.4937
▁Laden	-11.4938
▁cancel	-11.4938
▁welcomes	-11.494
▁aufbauen	-11.4941
▁holds	-11.4941
fügen	-11.4942
▁Demokrat	-11.4943
▁Alters	-11.4943
▁Köln	-11.4945
▁causing	-11.4945
vollen	-11.4948
▁damages	-11.4948
▁erstklassige	-11.4948
57	-11.4948
▁Segel	-11.4948
▁scientists	-11.495
▁threats	-11.495
▁Pap	-11.4951
▁mögen	-11.4952
▁explanation	-11.4953
gangs	-11.4954
Bereich	-11.4955
▁fault	-11.4956
▁destroy	-11.4957
▁Dir	-11.496
▁verschiedenste	-11.4962
▁emotional	-11.4966
▁wirken	-11.4968
▁stages	-11.497
▁Französisch	-11.497
händler	-11.4973
SS	-11.4973
▁virtuelle	-11.4974
▁succeeded	-11.4975
▁highlights	-11.4975
▁widespread	-11.4976
▁Carl	-11.4977
stieg	-11.4978
▁schedule	-11.4982
server	-11.4983
▁winning	-11.4988
▁gradually	-11.499
▁Chr	-11.4991
pli	-11.4991
ui	-11.4993
▁Argumente	-11.4995
speed	-11.4995
ständig	-11.4996
▁lasting	-11.4997
▁Är	-11.4997
▁Saal	-11.5
▁Bosnia	-11.5
▁poly	-11.5001
▁Jerusalem	-11.5001
▁highlighted	-11.5003
▁exzellente	-11.5004
Bu	-11.5004
▁conventional	-11.5005
gehende	-11.5006
▁strictly	-11.5006
▁oldest	-11.5008
▁immense	-11.5008
▁kilometres	-11.5008
▁GPS	-11.5013
feindlich	-11.5014
verhältnisse	-11.5017
▁undertake	-11.5018
▁beinhalten	-11.5019
▁Theorie	-11.502
α	-11.5022
sum	-11.5024
6-0	-11.5024
▁operator	-11.5025
▁talent	-11.5025
▁sophisticated	-11.5025
▁formats	-11.5028
▁steigern	-11.5029
▁Lastly	-11.5034
▁Classic	-11.5035
▁Program	-11.5035
▁coherent	-11.5036
▁Zauber	-11.5036
▁Sant	-11.5037
▁plug	-11.5038
-3	-11.5038
aga	-11.5039
OC	-11.5039
▁ausreichende	-11.5039
größer	-11.5042
▁Journalisten	-11.5046
deration	-11.5047
▁virtually	-11.5048
▁spiegel	-11.5049
ट	-11.505
▁Representative	-11.505
▁resulted	-11.505
▁mouse	-11.5051
▁acquired	-11.5052
▁Brok	-11.5052
▁depth	-11.5053
wählen	-11.5053
▁sample	-11.5053
▁Dresden	-11.5055
▁Veranstaltungs	-11.5055
aussch	-11.5055
▁vereinbar	-11.5055
▁exceed	-11.5056
▁erzeug	-11.5056
yard	-11.5057
▁Frühjahr	-11.5057
▁Trend	-11.5058
lieferung	-11.5058
kundig	-11.506
[	-11.506
▁troops	-11.5061
▁verlie	-11.5064
▁aggressive	-11.5064
▁Borg	-11.5065
lamp	-11.5066
▁intends	-11.5066
▁ease	-11.5066
EP	-11.5067
mir	-11.5068
▁gewöhnlich	-11.5068
▁Aktual	-11.5069
gebühr	-11.5071
▁brother	-11.5071
▁admit	-11.5072
▁tracks	-11.5076
▁Jugendlichen	-11.5076
stehend	-11.5078
eizige	-11.5078
▁freut	-11.5078
▁Eröffnung	-11.508
asien	-11.5081
▁Linien	-11.5081
▁Anh	-11.5082
▁Jesus	-11.5086
zuheben	-11.5086
▁deutliche	-11.5088
▁combines	-11.5088
▁Ablauf	-11.5088
▁begründet	-11.5089
widmet	-11.5089
▁incorporated	-11.5092
▁Ansprüche	-11.5093
wände	-11.5093
▁Rhein	-11.5093
▁Haiti	-11.5094
MT	-11.5094
▁peoples	-11.5098
▁throw	-11.5098
versicherung	-11.5099
treifen	-11.5099
betracht	-11.51
▁Integr	-11.51
▁Kino	-11.5102
▁Mond	-11.5102
leihen	-11.5103
▁Por	-11.5106
zeitig	-11.5106
▁Product	-11.5107
llo	-11.5108
▁Nachmittag	-11.5109
gie	-11.5109
ison	-11.511
analyse	-11.5111
tting	-11.5114
▁künstlerische	-11.5114
▁Abteilung	-11.5115
sim	-11.5118
▁deserve	-11.5118
▁Syri	-11.5118
▁Beurteilung	-11.512
Gu	-11.5123
▁Auftrags	-11.5124
▁stem	-11.5124
ail	-11.5125
▁Spend	-11.5126
▁hinder	-11.5126
zentral	-11.5126
▁beliebte	-11.5127
▁Explorer	-11.5129
kämpft	-11.5132
▁Cooperation	-11.5136
▁floors	-11.5137
▁erworben	-11.5137
utter	-11.5139
▁Hunger	-11.5139
▁Children	-11.5139
anwendung	-11.514
mis	-11.5141
▁ratio	-11.5142
zulassen	-11.5142
▁circle	-11.5142
▁Mehrwertsteuer	-11.5143
▁Import	-11.5143
▁achievement	-11.5143
banken	-11.5143
▁cultures	-11.5147
ways	-11.5147
▁adjust	-11.5147
▁liquid	-11.5148
ungsvoll	-11.5149
▁engines	-11.515
▁bestand	-11.5151
▁appell	-11.5152
orientierte	-11.5156
city	-11.5157
▁Mechanismen	-11.5158
▁beliebt	-11.5159
▁Vertrages	-11.5159
▁producer	-11.516
gram	-11.5163
trans	-11.5163
▁gelangt	-11.5164
▁declare	-11.5167
▁46	-11.5173
▁2000,	-11.5174
▁kümmern	-11.5175
Stunden	-11.5176
▁trace	-11.5176
etten	-11.5176
▁Uni	-11.5177
▁verhe	-11.5177
▁Using	-11.5178
wit	-11.5178
▁Medikamente	-11.518
tron	-11.5181
▁modify	-11.5182
▁shot	-11.5184
▁bevorzugt	-11.5185
TION	-11.5188
▁beeinflussen	-11.5189
82	-11.5189
▁Fassung	-11.519
▁candidates	-11.519
▁occupation	-11.5191
▁coordinate	-11.5192
▁Further	-11.5192
gerichtet	-11.5194
▁wunderbare	-11.5195
▁Truppen	-11.5196
sorg	-11.5196
▁Früh	-11.5198
trat	-11.5198
ę	-11.52
▁Adria	-11.52
▁prisoners	-11.52
▁encouraged	-11.5202
▁Versicherungs	-11.5203
▁pillar	-11.5203
schreiten	-11.5203
zweig	-11.5203
Spiel	-11.5205
Ra	-11.5208
▁Del	-11.5209
schreck	-11.5212
werke	-11.5215
▁Fläche	-11.5218
▁Verkehrsmittel	-11.522
▁ausgestattete	-11.522
html	-11.5221
▁seats	-11.5221
▁saubere	-11.5224
1⁄4	-11.5225
▁calendar	-11.5225
owjet	-11.5226
▁DIE	-11.5226
▁Nokia	-11.5228
▁Bevor	-11.5231
UL	-11.5234
▁yes	-11.5237
▁Desktop	-11.5239
▁Airlines	-11.524
▁announce	-11.5242
▁attached	-11.5242
fre	-11.5245
Tag	-11.5245
ödi	-11.5245
▁Kunststoff	-11.5246
▁SQL	-11.5247
▁enthalt	-11.5247
▁optimier	-11.5248
▁environmentally	-11.5249
▁grammati	-11.525
asiatische	-11.525
nutzung	-11.5251
ret	-11.5252
▁Joint	-11.5253
▁Danish	-11.5254
▁großartige	-11.5254
▁thorough	-11.5255
lös	-11.5255
akte	-11.5257
▁Ungleichheit	-11.5257
▁fossil	-11.5257
▁beliebige	-11.5259
zeichnen	-11.5261
▁pack	-11.5265
▁genaue	-11.5267
▁Cho	-11.5267
phon	-11.5267
▁laufend	-11.5267
▁aviation	-11.5268
▁nah	-11.5269
▁Authority	-11.5269
▁VIP	-11.527
▁armed	-11.527
ural	-11.527
▁File	-11.5271
▁arrest	-11.5272
group	-11.5272
▁Reihen	-11.5272
▁Cookies	-11.5273
▁Steiger	-11.5273
▁Bier	-11.5273
▁attraktive	-11.5274
▁bathrooms	-11.5274
▁Source	-11.5274
▁prominent	-11.5275
▁participating	-11.5275
▁в	-11.5276
esse	-11.5279
▁ste	-11.5279
▁alongside	-11.5281
▁treatments	-11.5282
jan	-11.5282
rac	-11.5282
▁Cou	-11.5282
odo	-11.5283
▁begins	-11.5283
fra	-11.5284
▁zuverlässig	-11.5286
skosten	-11.5288
▁eindeutige	-11.5293
▁carte	-11.5293
dri	-11.5294
▁180	-11.5294
▁Ostsee	-11.5295
▁müssten	-11.5295
▁Tur	-11.5298
52	-11.5298
▁68	-11.53
▁restricted	-11.5302
▁detect	-11.5302
▁mere	-11.5302
▁observe	-11.5304
▁iPod	-11.5304
▁surprised	-11.5305
ährung	-11.5309
▁agents	-11.5309
▁Long	-11.5309
▁vierte	-11.531
▁victory	-11.5312
sie	-11.5314
▁Constitutional	-11.5315
▁premium	-11.5316
ière	-11.5319
▁endeavour	-11.5319
zession	-11.5319
▁serving	-11.5319
eutung	-11.532
izer	-11.532
▁chairman	-11.532
▁entdeck	-11.5324
ela	-11.5325
▁aufgestellt	-11.5325
wendet	-11.5325
▁Treaties	-11.5326
gesagt	-11.5326
87	-11.5326
enberg	-11.5327
▁specialists	-11.5329
rus	-11.5332
▁relates	-11.5332
▁niedrige	-11.5333
▁52	-11.5334
world	-11.5335
▁meals	-11.5335
▁Rein	-11.5336
Linux	-11.5339
▁observed	-11.5341
ça	-11.5344
Ho	-11.5345
▁vertraut	-11.5347
▁teachers	-11.5348
▁raising	-11.5348
▁fat	-11.5349
aging	-11.535
▁convention	-11.5353
▁prospect	-11.5354
▁Zuverlässigkeit	-11.5355
▁Venedig	-11.5355
▁Ji	-11.5355
▁dauerhafte	-11.5356
▁twin	-11.5357
▁Ros	-11.5357
kontroll	-11.5358
verhalten	-11.5358
▁Obst	-11.5358
▁convergence	-11.5359
rats	-11.5361
▁Albert	-11.5362
▁Cuba	-11.5362
▁Gebühren	-11.5362
horn	-11.5363
▁Spezialist	-11.5364
ürzt	-11.5366
▁Search	-11.5369
▁Marine	-11.5369
▁accommodate	-11.537
▁crises	-11.537
▁harmful	-11.537
▁Greens	-11.5371
äfen	-11.5373
▁baby	-11.5374
▁Tools	-11.5374
▁Luftfahrt	-11.5375
schädigt	-11.5376
▁KDE	-11.5379
▁capabilities	-11.5381
▁Oberfläche	-11.5381
LAF	-11.5384
It	-11.5386
CK	-11.5387
▁Kennzeichnung	-11.5388
▁stories	-11.5388
rott	-11.5389
therapie	-11.5391
▁Come	-11.5393
▁Wohnzimmer	-11.5393
▁Migration	-11.5395
▁Lithuania	-11.5395
▁einmalige	-11.5396
PM	-11.5397
▁reisen	-11.54
▁bug	-11.5402
▁hidden	-11.5403
EE	-11.5403
▁Adam	-11.5403
▁Change	-11.5404
Es	-11.5409
gewachsen	-11.5409
ador	-11.541
▁Language	-11.541
▁utmost	-11.541
▁affects	-11.541
FO	-11.541
reize	-11.5411
▁einst	-11.5412
▁Mass	-11.5412
▁Tarif	-11.5412
Gruppe	-11.5417
▁estimated	-11.5419
kraftwerk	-11.5419
▁Spitze	-11.5421
▁assurance	-11.5421
▁Immer	-11.5421
▁str	-11.5424
▁Instruments	-11.5425
▁purely	-11.5426
▁1950	-11.5426
▁Berechnung	-11.5431
▁Burma	-11.5431
ländische	-11.5432
ieß	-11.5433
▁47	-11.5433
▁Tsche	-11.5434
gute	-11.5435
4-0	-11.5436
▁Class	-11.5438
▁fly	-11.5439
▁Eti	-11.5439
▁Düsseldorf	-11.5439
▁flows	-11.544
▁spite	-11.544
pm	-11.5441
verbindung	-11.5442
▁Gewähr	-11.5443
▁einstimmig	-11.5444
▁Slovakia	-11.5446
▁Track	-11.5448
pakt	-11.5448
▁frequent	-11.5448
lev	-11.5448
▁stelle	-11.5449
ivity	-11.5449
software	-11.545
▁dialog	-11.5453
RT	-11.5453
▁Edinburgh	-11.5454
svertrag	-11.5456
▁marine	-11.5458
▁contextual	-11.5461
zia	-11.5462
▁expense	-11.5464
beruf	-11.5464
ielle	-11.5465
▁inadequate	-11.5465
▁85	-11.5466
62	-11.5468
▁breath	-11.5469
▁Konzentration	-11.5469
▁pin	-11.5469
nfalls	-11.5471
▁adding	-11.5471
zzo	-11.5472
▁seemed	-11.5474
▁vermittelt	-11.5477
▁versehen	-11.5477
dateien	-11.5477
▁associations	-11.5478
▁produces	-11.5481
▁electrical	-11.5481
▁Plenar	-11.5482
▁specialized	-11.5482
▁Spezialitäten	-11.5482
▁empty	-11.5485
▁Durchsetzung	-11.5486
Team	-11.5487
▁Florence	-11.5487
▁Bewohner	-11.5487
79	-11.5488
insel	-11.5489
oriented	-11.5491
▁integral	-11.5491
asi	-11.5492
▁Philosophie	-11.5492
halts	-11.5497
▁Appartements	-11.5503
ritt	-11.5503
▁Auflösung	-11.5503
▁records	-11.5504
▁subscribe	-11.5505
hebung	-11.5506
lian	-11.5507
▁Blair	-11.5507
▁Erd	-11.5509
▁Mad	-11.5509
▁Ford	-11.5509
▁rid	-11.551
▁editor	-11.551
▁Acht	-11.551
wä	-11.5512
esten	-11.5512
▁sweet	-11.5513
▁Suites	-11.5516
kali	-11.5516
▁await	-11.5516
▁implications	-11.5521
▁passion	-11.5521
formation	-11.5522
▁Wur	-11.5528
▁tre	-11.5529
▁Level	-11.5533
hafen	-11.5534
▁undermine	-11.5534
datum	-11.5535
utigen	-11.5535
▁Ufer	-11.554
▁Palette	-11.554
▁Referendum	-11.5544
▁41	-11.5544
▁quotas	-11.5548
▁ehe	-11.5548
▁inspired	-11.5548
BS	-11.555
DP	-11.5552
TEN	-11.5553
▁grown	-11.5554
▁Force	-11.5555
interesse	-11.5556
▁Keine	-11.5558
alle	-11.5558
▁Empfänger	-11.5559
inderung	-11.5561
wachsen	-11.5563
▁Lokal	-11.5564
▁gehe	-11.5567
▁Vin	-11.5567
prob	-11.5571
▁graphics	-11.5571
law	-11.5571
▁accidents	-11.5574
▁mat	-11.5574
▁übermittelt	-11.5574
ej	-11.5575
▁secondly	-11.5576
▁Aufzug	-11.5576
▁ratifi	-11.5577
col	-11.5578
▁dynamische	-11.5579
produkten	-11.5579
▁vorzunehmen	-11.5579
Ru	-11.558
▁blocks	-11.558
▁Three	-11.558
▁Tanz	-11.5583
0,00	-11.5586
▁Bug	-11.5587
▁Erfolge	-11.5588
▁split	-11.5591
▁Verh	-11.5591
▁Archiv	-11.5592
▁Nieder	-11.5592
▁fein	-11.5593
▁©	-11.5593
Wi	-11.5594
▁Franz	-11.5595
Th	-11.5595
▁splendid	-11.5595
schuld	-11.5596
mutlich	-11.5597
▁passing	-11.5598
Smoking	-11.5599
max	-11.5599
Enterprise	-11.56
tory	-11.56
▁stayed	-11.5602
▁europa	-11.5602
▁initially	-11.5603
assi	-11.5603
▁Sho	-11.5605
spar	-11.5605
cial	-11.5607
EX	-11.5607
Finde	-11.5608
▁Jazz	-11.5608
flüssig	-11.5609
▁Terms	-11.5609
kop	-11.561
long	-11.561
▁behavior	-11.5614
▁oppose	-11.5614
▁Jedo	-11.5615
reihe	-11.5615
▁Zwar	-11.5616
▁Copyright	-11.5617
onvent	-11.5618
▁vorliegen	-11.5619
▁thumbnail	-11.5625
▁längst	-11.5625
gedeckt	-11.5626
▁CEO	-11.5629
▁Pfeil	-11.563
▁medieval	-11.5632
wirkt	-11.5633
▁describe	-11.5634
▁objektiv	-11.5637
fälsch	-11.5637
Shop	-11.5638
▁unglaublich	-11.564
worten	-11.564
kator	-11.5642
▁Autos	-11.5642
▁pet	-11.5643
-10	-11.5643
,”	-11.5643
ground	-11.5644
▁seeks	-11.5645
▁angemessenen	-11.5648
▁Unterzeichn	-11.5649
saison	-11.565
▁abgegeben	-11.5652
▁SO	-11.5652
cover	-11.5653
▁Legislativ	-11.5655
▁advocate	-11.5655
rian	-11.5656
53	-11.566
▁negotiation	-11.566
▁Vers	-11.5661
б	-11.5661
fil	-11.5662
▁beantwortet	-11.5664
▁(1)	-11.5665
▁neo	-11.5665
▁profession	-11.5666
▁Lä	-11.5667
▁ruling	-11.5669
▁extending	-11.5669
▁plötzlich	-11.567
▁Lieferanten	-11.567
▁pose	-11.567
▁Quark	-11.5672
merkt	-11.5673
▁Schulz	-11.5673
▁scenario	-11.5674
▁Vertretung	-11.5674
lebt	-11.5675
▁promises	-11.5675
▁hills	-11.5677
äu	-11.5678
wertung	-11.5678
▁adds	-11.5679
▁realisier	-11.5684
▁violation	-11.5684
posi	-11.5685
vio	-11.5691
▁Kuba	-11.5692
tland	-11.5697
▁maximale	-11.5698
path	-11.5699
83	-11.57
▁designs	-11.57
▁Industrial	-11.57
ished	-11.57
▁Runde	-11.57
▁flu	-11.5702
▁Kenntnisse	-11.5703
▁socio	-11.5704
▁collapse	-11.5704
tür	-11.5705
▁Index	-11.5706
▁Seminar	-11.5707
▁mineral	-11.5707
▁Krebs	-11.5708
ander	-11.5709
▁marks	-11.571
▁kleinere	-11.571
quelle	-11.571
▁Subject	-11.5712
ode	-11.5713
▁hol	-11.5715
▁Cro	-11.5716
▁assigned	-11.5718
▁östlich	-11.572
spräsidenten	-11.572
afrika	-11.572
▁Events	-11.5721
▁sufficiently	-11.5721
▁1.5	-11.5722
▁moderate	-11.5722
▁verpflichte	-11.5725
▁wear	-11.5725
OK	-11.5726
▁Annehmlichkeit	-11.5727
▁Dynamik	-11.5727
tric	-11.5727
▁classical	-11.5727
▁zeitlich	-11.5727
▁asset	-11.5728
▁Drive	-11.5728
▁essen	-11.573
nennung	-11.573
fle	-11.5731
pla	-11.5734
kleidung	-11.5734
▁Siemens	-11.5735
bewegung	-11.5738
▁logic	-11.5739
▁ansehen	-11.5741
▁episode	-11.5742
inner	-11.5744
▁supplement	-11.5745
1.	-11.5747
▁busy	-11.5749
▁Zerstörung	-11.5749
script	-11.575
▁Vorstellungen	-11.575
▁kennt	-11.5751
▁Verb	-11.5751
▁academic	-11.5753
▁informal	-11.5755
▁angeschlossen	-11.5755
economic	-11.5755
ë	-11.5757
▁ges	-11.5761
isi	-11.5763
▁Host	-11.5763
▁Folgende	-11.5763
▁Fremd	-11.5763
verbot	-11.5765
▁negativ	-11.5765
cept	-11.5767
▁honor	-11.5768
▁Gru	-11.5768
▁blame	-11.5769
hour	-11.5771
▁fließ	-11.5772
künfte	-11.5772
▁entstand	-11.5772
ark	-11.5773
▁Fehl	-11.5774
komplex	-11.5774
“)	-11.5775
63	-11.5776
▁Engineering	-11.5776
▁sat	-11.5777
▁sammeln	-11.5777
▁Volke	-11.5777
gate	-11.5778
bestände	-11.5779
▁girls	-11.5779
▁Besonderheit	-11.5779
▁array	-11.578
▁Südafrika	-11.5785
▁Mah	-11.5785
84	-11.579
laut	-11.579
bag	-11.579
ime	-11.579
▁ignore	-11.5791
einheit	-11.5791
▁Kommentare	-11.5791
etti	-11.5792
▁infringement	-11.5793
RM	-11.5793
▁strike	-11.5794
atory	-11.5794
▁wooden	-11.5794
▁XML	-11.5795
vie	-11.5796
▁2015	-11.5796
▁Urheberrecht	-11.5797
kriteri	-11.5797
▁49	-11.5798
bietet	-11.5798
ßte	-11.5799
▁Chairman	-11.5799
tling	-11.5801
▁12.00	-11.5801
▁crystal	-11.5804
starke	-11.5805
▁retail	-11.5806
opfer	-11.5806
institutionelle	-11.5806
▁ratification	-11.5806
Energieeffizien	-11.5808
Technologie	-11.5809
▁airports	-11.5809
▁beseitigen	-11.581
WA	-11.5811
kling	-11.5811
▁airlines	-11.5811
▁versteht	-11.5814
nock	-11.5814
lässt	-11.5817
▁developers	-11.5818
öse	-11.5819
ounce	-11.582
▁tournament	-11.5822
Konjunktur	-11.5823
▁Tower	-11.5824
▁Übersicht	-11.5825
▁NEW	-11.5826
▁Firefox	-11.5829
hängt	-11.583
▁Eigentums	-11.583
▁approaches	-11.583
▁Versch	-11.5832
▁dä	-11.5832
▁Administration	-11.5833
▁unilateral	-11.5833
▁350	-11.5834
some	-11.5835
▁servers	-11.5836
▁studied	-11.5837
▁basierend	-11.5837
hop	-11.5837
▁Premium	-11.5838
▁Nation	-11.5839
▁breach	-11.584
bilder	-11.584
▁Gewiss	-11.5842
▁schriftliche	-11.5845
lib	-11.5846
char	-11.5847
▁Arbeitszeit	-11.5848
lis	-11.5848
änderungen	-11.5848
▁hinzugefügt	-11.5849
▁Siedlung	-11.5849
▁Emp	-11.5851
▁Map	-11.5851
▁Qualifikation	-11.5852
landes	-11.5853
▁reflection	-11.5853
zutreten	-11.5857
▁Lesen	-11.5857
▁biologische	-11.5858
▁Erwerb	-11.5859
▁incentives	-11.586
▁believed	-11.5861
▁specify	-11.5862
▁Sav	-11.5863
▁Night	-11.5865
▁130	-11.5865
parlamentarische	-11.5866
▁formation	-11.5866
lesen	-11.5867
sb	-11.5867
nutzt	-11.5867
▁strikt	-11.5868
Ri	-11.5869
▁guided	-11.5869
▁choices	-11.587
▁Montage	-11.5871
▁Run	-11.5871
▁Geschlechter	-11.5871
▁Tendenz	-11.5871
▁rechtfertig	-11.5872
▁Roll	-11.5876
zeile	-11.5877
▁navigation	-11.5877
▁poorest	-11.5878
▁Freu	-11.5878
alen	-11.5878
▁Flugh	-11.5878
übertrag	-11.5878
▁Zulassung	-11.5882
including	-11.5883
pflege	-11.5883
rü	-11.5884
▁bewerten	-11.5884
▁broken	-11.5886
▁meets	-11.5887
zykl	-11.5887
sgebiet	-11.5889
▁repeated	-11.5889
▁Trenn	-11.589
▁desktop	-11.5891
▁Age	-11.5891
▁Bonn	-11.5891
▁shortly	-11.5894
nannt	-11.5895
▁geblieben	-11.5896
person	-11.5896
▁Rec	-11.5898
▁acquisition	-11.5898
oy	-11.5898
ehmen	-11.5899
▁sponsor	-11.5902
▁schritt	-11.5904
▁Verhältnisse	-11.5904
▁Love	-11.5904
▁characteristic	-11.5904
▁Kit	-11.5907
illo	-11.5907
▁governing	-11.591
▁Beschäftig	-11.5912
▁incorporate	-11.5914
BI	-11.5915
▁ingredients	-11.5918
▁Dörf	-11.5918
▁Samsung	-11.5918
▁amended	-11.5918
GP	-11.5919
▁(4	-11.592
▁Lan	-11.592
merkenswert	-11.592
▁addressing	-11.5922
▁colors	-11.5922
800	-11.5924
▁Employment	-11.5925
▁enforcement	-11.5926
▁GAP	-11.5928
▁Ehre	-11.5928
itis	-11.5928
mente	-11.593
-5	-11.5932
klären	-11.5934
Benutzer	-11.5936
▁Dialogs	-11.5936
▁Rettung	-11.5937
▁Fed	-11.5939
▁gemein	-11.5939
▁technique	-11.5939
▁Chat	-11.5939
▁unusual	-11.5939
steuern	-11.594
▁Werden	-11.594
zahlung	-11.594
izi	-11.5941
zid	-11.5942
tet	-11.5944
▁Sy	-11.5945
▁Nizza	-11.5946
▁Sei	-11.5947
würdige	-11.5948
▁edited	-11.5948
ehlt	-11.5948
▁Montenegro	-11.5948
reisende	-11.5948
▁remarkable	-11.5949
▁ausführ	-11.595
▁whereby	-11.595
käufe	-11.5951
stal	-11.5954
▁Cur	-11.5954
▁Erkenntnis	-11.5954
ubventionen	-11.5956
▁definieren	-11.5956
ians	-11.5957
▁Australien	-11.596
non	-11.596
▁heads	-11.596
SM	-11.596
600	-11.5961
▁Terminal	-11.5963
▁tab	-11.5963
▁bought	-11.5964
▁Literatur	-11.5964
ère	-11.5964
cil	-11.5966
▁verarbeitet	-11.5967
▁sovereign	-11.5967
[...]
