<unk>	0
<s>	0
</s>	0
▁	-1.79776
,	-2.3941
▁Const	-2.50279
(	-2.81368
▁)	-2.81368
▁A	-2.83642
D	-3.06503
N	-3.17017
1	-3.20438
2	-3.72205
ance	-3.99957
▁Inst	-4.00844
3	-4.02897
▁the	-4.0894
▁Verb	-4.0907
djective	-4.27087
▁a	-4.59897
▁In	-4.72362
stance	-4.80582
▁Past	-5.00669
Tense	-5.0089
ed	-5.42067
▁Dog	-5.42558
d	-5.7592
H	-5.79302
y	-5.81687
e	-5.81973
▁z	-5.90205
▁x	-5.90964
7	-6.02563
▁y	-6.08334
▁S	-6.10484
ly	-6.13043
▁C	-6.26026
Link	-6.38149
er	-6.38302
▁P	-6.46341
W	-6.54081
▁did	-6.60633
s	-6.61089
▁Pred	-6.70807
▁Speaker	-6.71652
▁is	-6.7182
_	-6.71878
dverb	-6.72187
t	-6.74261
ing	-6.75401
▁M	-6.87515
?	-6.89341
r	-6.89998
▁I	-6.9296
▁B	-6.94315
▁T	-7.10392
▁F	-7.2042
▁Un	-7.22081
Const	-7.22444
A	-7.22478
n	-7.25104
a	-7.27405
o	-7.28615
c	-7.31099
▁The	-7.34584
▁E	-7.39007
rticle	-7.39313
▁Name	-7.3933
▁was	-7.39566
▁your	-7.40275
▁Own	-7.40599
▁my	-7.41611
▁R	-7.42462
▁G	-7.50457
▁L	-7.57466
m	-7.57663
▁O	-7.73649
ion	-7.80165
l	-7.80812
able	-7.82063
▁p	-7.84521
▁b	-7.93453
i	-7.95085
al	-7.96816
ness	-8.02663
or	-8.11413
h	-8.14726
▁V	-8.18161
in	-8.19496
▁W	-8.25136
▁f	-8.34177
▁w	-8.38218
▁Re	-8.38362
▁g	-8.43824
p	-8.45329
g	-8.45475
ation	-8.49286
u	-8.49557
ity	-8.52886
en	-8.54343
ce	-8.55524
on	-8.60013
k	-8.60425
out	-8.62369
st	-8.7134
b	-8.72338
ally	-8.73592
ic	-8.75762
it	-8.78279
le	-8.83484
v	-8.88384
less	-8.88651
eath	-8.89605
an	-8.97134
ist	-8.9825
us	-9.02117
man	-9.13198
el	-9.16997
ar	-9.18351
espite	-9.20263
ie	-9.2029
f	-9.23095
board	-9.24552
x	-9.27704
ive	-9.28344
w	-9.30117
▁Under	-9.36582
ism	-9.3904
▁Over	-9.39545
▁re	-9.44274
te	-9.45747
age	-9.46717
▁Near	-9.50677
top	-9.51063
est	-9.51917
▁near	-9.53017
z	-9.53723
ch	-9.54893
ill	-9.56032
ra	-9.5782
up	-9.57985
ngside	-9.58589
line	-9.60045
ng	-9.61609
ily	-9.62465
ma	-9.63196
withstand	-9.63324
is	-9.64263
▁under	-9.64431
j	-9.66617
▁like	-9.66932
re	-9.68177
▁Like	-9.68749
nce	-9.68879
▁over	-9.69709
ment	-9.70129
nt	-9.72801
se	-9.73011
ry	-9.73228
ve	-9.74255
ted	-9.77282
as	-9.78406
ant	-9.79236
ut	-9.81438
la	-9.81851
ur	-9.84417
back	-9.85094
▁Not	-9.85182
▁till	-9.862
▁Till	-9.86759
▁Inside	-9.90668
▁Be	-9.90688
ate	-9.91943
▁inside	-9.94218
um	-9.94352
na	-9.95188
oth	-9.95443
cross	-9.96103
at	-9.96268
foot	-9.96715
guard	-9.97173
pin	-9.983
os	-9.98869
land	-10.0052
ook	-10.0156
▁Up	-10.0234
time	-10.0315
▁de	-10.0357
ca	-10.0405
uz	-10.0602
set	-10.0644
box	-10.0716
off	-10.0856
▁not	-10.0919
ew	-10.0974
ll	-10.1076
ta	-10.1143
po	-10.122
▁Qu	-10.1226
crack	-10.1369
▁Out	-10.146
to	-10.1541
lot	-10.158
▁Ins	-10.1592
▁Whi	-10.1623
ol	-10.1717
▁Unlike	-10.1748
▁Ben	-10.1754
▁ben	-10.1834
ish	-10.1843
og	-10.1894
foul	-10.1943
▁alo	-10.2057
much	-10.211
▁Alo	-10.2126
ge	-10.2237
ba	-10.2267
▁Co	-10.227
▁sh	-10.2364
ped	-10.2404
head	-10.2408
vi	-10.2467
▁unlike	-10.2584
▁Con	-10.2587
ke	-10.2644
ogenesis	-10.2649
rew	-10.2654
lest	-10.2657
ia	-10.2745
inless	-10.2763
son	-10.2776
rotank	-10.2797
ingly	-10.2811
▁cuz	-10.2843
led	-10.2854
sunder	-10.2861
way	-10.2915
da	-10.293
ify	-10.2959
▁unto	-10.2998
▁Unto	-10.3019
▁bout	-10.302
ball	-10.3107
▁albe	-10.3115
▁Albe	-10.3116
▁Bout	-10.3117
iard	-10.3135
ı	-10.3265
rscore	-10.3325
ș	-10.3358
nstage	-10.337
chat	-10.3381
andry	-10.3511
lst	-10.361
midst	-10.3633
tr	-10.3668
int	-10.3671
whil	-10.3709
th	-10.3948
im	-10.3996
br	-10.4153
ied	-10.4173
sl	-10.4199
oc	-10.4259
bs	-10.4276
net	-10.4302
▁pro	-10.4393
down	-10.4509
red	-10.451
▁Hair	-10.4744
ow	-10.4798
am	-10.4868
▁Wear	-10.4888
bo	-10.4931
rm	-10.4946
sp	-10.495
em	-10.5049
aboard	-10.5115
over	-10.5133
▁Wi	-10.5199
ax	-10.5226
▁hair	-10.5298
▁wi	-10.5335
▁Work	-10.5379
▁wa	-10.5455
play	-10.5528
▁Old	-10.5567
▁Beat	-10.5643
log	-10.5695
oon	-10.5696
bu	-10.5723
imp	-10.5742
ck	-10.5877
▁En	-10.599
work	-10.6075
oil	-10.6077
med	-10.6082
ob	-10.6194
ps	-10.6261
▁un	-10.6276
▁Tight	-10.6292
▁til	-10.6314
ank	-10.6432
q	-10.6437
ling	-10.6454
lock	-10.6583
ure	-10.6622
▁Sub	-10.6655
ail	-10.6671
▁tight	-10.6707
side	-10.6711
ized	-10.6739
ize	-10.6785
efor	-10.6794
▁Til	-10.6847
▁beat	-10.6863
nd	-10.6888
▁fro	-10.6947
ability	-10.6949
rocs	-10.6956
bar	-10.6976
ous	-10.7001
coming	-10.7172
ga	-10.7192
▁Exact	-10.7249
one	-10.7279
hand	-10.7347
▁got	-10.736
bed	-10.7376
▁exact	-10.7379
house	-10.738
ph	-10.7394
light	-10.7419
▁Reach	-10.744
pi	-10.7478
▁Get	-10.7489
▁War	-10.75
ification	-10.7532
▁Shut	-10.7549
▁Break	-10.7584
▁hover	-10.7591
▁shut	-10.7609
ned	-10.7613
ard	-10.7666
▁Go	-10.7693
▁Forward	-10.7707
▁Hover	-10.7713
read	-10.7793
ore	-10.7807
take	-10.7829
▁ot	-10.784
▁Key	-10.7842
ender	-10.7909
sm	-10.7916
well	-10.7934
aft	-10.795
uff	-10.797
if	-10.7971
▁be	-10.7988
egat	-10.802
▁onion	-10.8043
▁Hard	-10.8043
▁Kick	-10.8111
load	-10.8151
ue	-10.8159
run	-10.8181
ub	-10.8193
▁Ass	-10.8193
let	-10.8211
ward	-10.8227
shot	-10.8268
sk	-10.8277
▁Fl	-10.8279
▁forward	-10.8282
▁Onion	-10.8283
ox	-10.8325
▁Ot	-10.8327
▁Play	-10.8334
mail	-10.8367
▁tiny	-10.8373
ash	-10.8376
▁Tiny	-10.8412
ep	-10.8451
our	-10.846
▁Wa	-10.8467
by	-10.8536
▁pawn	-10.8572
▁ass	-10.8621
▁Vers	-10.867
▁Outside	-10.8671
dress	-10.8696
▁Blow	-10.8702
▁Pawn	-10.871
▁bega	-10.8719
▁car	-10.8731
ole	-10.874
▁Poly	-10.8746
▁outside	-10.875
ron	-10.8785
ton	-10.8789
late	-10.8832
▁Hand	-10.8911
ian	-10.892
▁vers	-10.8972
rate	-10.8983
wind	-10.9004
▁ex	-10.9056
▁Man	-10.9082
stone	-10.9116
▁reach	-10.9132
bone	-10.9137
▁dug	-10.9137
sh	-10.9167
ink	-10.9182
▁Love	-10.922
▁Head	-10.9224
▁wear	-10.9224
tic	-10.928
▁abi	-10.9284
▁Abi	-10.9286
▁Sp	-10.9292
▁fron	-10.931
▁Correct	-10.9336
ass	-10.9402
▁vs	-10.9418
▁Ago	-10.9435
ark	-10.9455
▁alot	-10.9465
ft	-10.9475
ile	-10.9476
▁eg	-10.9494
▁End	-10.9505
▁Fron	-10.9529
▁oneplus	-10.9541
cut	-10.9543
space	-10.959
▁poly	-10.9601
▁running	-10.9616
▁Eg	-10.9631
▁Kind	-10.9682
▁ac	-10.9694
▁Running	-10.9706
▁az	-10.974
iff	-10.9742
neplus	-10.9747
▁Fro	-10.9763
▁ago	-10.9774
ixt	-10.9778
▁windows	-10.9796
▁Windows	-10.9797
twix	-10.9804
code	-10.9809
all	-10.9826
▁Ver	-10.9829
ship	-10.9841
▁sub	-10.9881
lash	-10.9883
betw	-10.9901
▁Fuck	-10.9903
▁Mo	-10.9906
▁mis	-10.9935
ride	-10.9951
▁Know	-10.9982
inas	-10.9984
of	-11.0006
▁Take	-11.0023
▁Lay	-11.0037
▁sans	-11.0039
▁Sans	-11.0039
▁thou	-11.004
utter	-11.0058
▁Vs	-11.0079
▁Write	-11.0085
▁hand	-11.0093
angle	-11.0106
▁Time	-11.0115
▁amid	-11.0128
day	-11.0138
▁Thou	-11.0143
▁Ma	-11.0151
▁kings	-11.0166
mission	-11.0169
▁Kings	-11.0169
▁Amid	-11.0198
cast	-11.021
ster	-11.0226
ated	-11.0249
born	-11.0284
live	-11.0292
▁Throw	-11.0296
▁Blood	-11.0299
▁Live	-11.0331
▁hot	-11.0341
lbs	-11.0349
▁schlo	-11.0352
▁Run	-11.0423
▁Back	-11.0472
▁Schlo	-11.0473
▁See	-11.0487
▁Sleep	-11.0517
▁proc	-11.0519
▁Fall	-11.0552
▁that	-11.058
▁That	-11.0582
ged	-11.0621
▁Fly	-11.0654
▁Tear	-11.0664
▁Red	-11.0721
▁Drop	-11.0753
tv	-11.0793
▁Us	-11.081
▁Hot	-11.0819
night	-11.0843
fall	-11.0843
ix	-11.0852
▁Speed	-11.0859
ten	-11.0859
aunt	-11.087
▁pre	-11.0871
▁Sound	-11.0873
rise	-11.0921
▁Tri	-11.0934
lead	-11.0939
ake	-11.0985
uck	-11.1029
▁Port	-11.1049
▁Com	-11.107
▁Land	-11.1079
▁Mis	-11.108
▁sound	-11.1116
▁Draw	-11.1127
▁Black	-11.1144
ack	-11.1201
mp	-11.1204
version	-11.1218
▁post	-11.1311
coat	-11.1322
▁Dug	-11.135
▁Close	-11.1358
▁Pay	-11.1382
▁Test	-11.1398
▁kick	-11.1435
ola	-11.1438
apper	-11.1444
▁Steal	-11.1468
▁short	-11.1476
▁waf	-11.1483
position	-11.1503
rose	-11.1577
▁Read	-11.1579
▁Post	-11.1586
ified	-11.16
ms	-11.162
▁Az	-11.1621
ram	-11.1624
▁Li	-11.1643
▁Ki	-11.1676
▁Pen	-11.1687
ver	-11.1698
▁Direct	-11.1704
▁Ur	-11.1705
▁Fore	-11.1709
rag	-11.1714
ask	-11.1722
tool	-11.1726
hill	-11.174
▁star	-11.1765
▁Give	-11.1813
ite	-11.1834
ham	-11.1841
▁Line	-11.1844
cy	-11.1852
▁Buy	-11.1855
wear	-11.1862
quire	-11.1867
tip	-11.1906
pack	-11.1925
▁Lap	-11.1932
▁Quick	-11.1958
▁Freak	-11.1976
rock	-11.1985
ade	-11.2003
▁Jump	-11.2027
arry	-11.2037
▁Catch	-11.2045
sleep	-11.2093
rench	-11.2099
▁Jack	-11.2131
▁Pass	-11.2131
▁Look	-11.2137
olo	-11.2147
▁ao	-11.2148
master	-11.2165
▁Fo	-11.2166
away	-11.2203
▁fore	-11.221
pen	-11.2213
▁ol	-11.2228
asked	-11.2265
war	-11.2293
game	-11.2294
ork	-11.2365
▁ski	-11.2381
ised	-11.2387
ippy	-11.2422
flow	-11.243
oming	-11.2434
roll	-11.2434
ane	-11.2442
▁clear	-11.2442
air	-11.2455
▁Kill	-11.2466
name	-11.2485
ss	-11.2517
fs	-11.2522
▁Lock	-11.2532
phone	-11.2567
right	-11.2582
rep	-11.2595
▁Total	-11.2597
spoke	-11.2611
▁com	-11.2614
row	-11.2643
gar	-11.2661
▁Hang	-11.2672
▁Real	-11.2729
▁Box	-11.2738
ui	-11.2747
▁fl	-11.2795
▁Ju	-11.2801
▁breath	-11.2812
▁Ex	-11.2824
ably	-11.2835
▁sw	-11.2849
udge	-11.2861
▁Slow	-11.2868
▁Shake	-11.2879
pc	-11.2892
▁Tr	-11.2918
▁Burn	-11.292
ros	-11.2936
▁Friend	-11.2952
sync	-11.2964
card	-11.2968
▁Eat	-11.2985
▁Clear	-11.2988
▁Wing	-11.3011
▁Ski	-11.3015
lc	-11.3023
▁fell	-11.3031
pg	-11.3033
▁Fire	-11.3054
▁Walk	-11.3056
▁score	-11.3067
rash	-11.3071
▁slow	-11.3088
field	-11.3091
iss	-11.3092
▁Stop	-11.3097
ory	-11.3147
book	-11.315
▁Pre	-11.3158
ept	-11.3172
▁power	-11.3206
spire	-11.3211
erry	-11.3236
▁Train	-11.3242
▁Foot	-11.3255
cs	-11.3258
▁Ho	-11.3267
her	-11.327
press	-11.3272
▁Mar	-11.3274
stand	-11.3276
▁Free	-11.3277
si	-11.3286
▁Sell	-11.3287
▁th	-11.3307
▁Complete	-11.3314
men	-11.3344
miss	-11.3371
▁Loose	-11.3386
pm	-11.3393
ound	-11.34
pt	-11.3407
atop	-11.3447
▁Touch	-11.345
▁sat	-11.3472
▁Cheap	-11.3492
▁Ring	-11.3504
▁Long	-11.3513
▁Grow	-11.3528
zone	-11.3544
▁Scar	-11.355
▁Build	-11.356
▁Spin	-11.3569
▁Sta	-11.357
▁Edit	-11.3573
▁stole	-11.3593
▁spa	-11.3599
ns	-11.3602
itter	-11.3622
▁par	-11.3627
▁Base	-11.3628
paid	-11.3638
▁pay	-11.3649
▁Log	-11.3666
act	-11.3684
ology	-11.3684
told	-11.3685
▁Win	-11.3687
eep	-11.3687
lip	-11.3701
▁happen	-11.3706
▁pass	-11.371
▁Water	-11.372
▁Fair	-11.3757
wide	-11.3758
▁tri	-11.3761
▁Chill	-11.3763
▁High	-11.3763
▁Di	-11.3765
thread	-11.3791
▁Open	-11.3797
▁Main	-11.3822
▁Weird	-11.3855
▁Luck	-11.3862
▁ear	-11.3877
▁Report	-11.3879
▁Park	-11.3889
▁Fish	-11.3894
oot	-11.3894
▁Pop	-11.3896
▁Skill	-11.3902
rk	-11.3907
▁print	-11.392
▁Hack	-11.3927
▁rom	-11.3932
▁Op	-11.3933
▁Happen	-11.3939
aint	-11.3967
▁show	-11.3969
ookie	-11.397
leak	-11.3971
▁Light	-11.3972
▁black	-11.3979
moral	-11.3986
bra	-11.3987
▁key	-11.3997
the	-11.4003
corn	-11.4008
▁Feel	-11.4011
ander	-11.4039
▁Score	-11.4042
ause	-11.4044
▁correct	-11.4049
gin	-11.4057
reach	-11.4067
cho	-11.4068
▁Vi	-11.4073
▁person	-11.4085
aff	-11.4085
rote	-11.4106
▁Dark	-11.4116
▁Low	-11.4122
▁Craft	-11.4125
▁Final	-11.4144
▁direct	-11.4144
▁Bon	-11.4163
▁Power	-11.4172
▁cheap	-11.4174
▁Push	-11.4192
lung	-11.4192
▁Sign	-11.4195
fraid	-11.4209
ush	-11.4227
▁stun	-11.4232
ever	-11.4235
▁Stand	-11.4245
▁col	-11.4247
▁fun	-11.4249
▁walk	-11.4257
frame	-11.4258
lan	-11.4268
▁Blind	-11.4291
group	-11.4295
ison	-11.432
▁main	-11.4332
▁Roll	-11.4357
piece	-11.4363
tone	-11.4373
▁Steam	-11.4403
▁Show	-11.4414
▁Strange	-11.4421
▁track	-11.4436
ojo	-11.4437
▁Cool	-11.4437
▁start	-11.4453
shed	-11.4463
▁Late	-11.4469
▁Choose	-11.4473
▁new	-11.4486
▁Point	-11.449
▁quick	-11.449
▁Fan	-11.4508
▁Drive	-11.4508
▁jerk	-11.4509
▁free	-11.451
mother	-11.4511
▁final	-11.4514
allet	-11.4522
wise	-11.4523
▁Watch	-11.4526
▁Boot	-11.4527
saw	-11.4531
ether	-11.4535
▁Bitch	-11.4571
▁solid	-11.4572
▁Imp	-11.4573
▁Mess	-11.4579
umble	-11.46
▁Wide	-11.4605
stable	-11.461
wash	-11.4625
eek	-11.4626
▁Bar	-11.463
▁Salt	-11.4635
▁Print	-11.4641
▁Perfect	-11.4653
▁New	-11.4654
▁Load	-11.4688
shift	-11.4695
▁Start	-11.4754
▁Sex	-11.476
obo	-11.4762
gain	-11.4767
▁Turn	-11.4775
▁befo	-11.4782
ble	-11.4786
▁Spa	-11.4798
fuse	-11.48
▁Ball	-11.4801
▁Limit	-11.4806
ama	-11.4847
▁Radi	-11.4882
▁Bat	-11.4882
ung	-11.489
▁Stink	-11.489
▁Bur	-11.49
ully	-11.4903
▁Smoke	-11.4911
▁Secret	-11.4926
ong	-11.4926
▁Ve	-11.4929
▁sky	-11.4935
hold	-11.494
gi	-11.4944
▁soft	-11.4946
ipped	-11.4956
▁Cross	-11.4962
▁Face	-11.4964
▁Trade	-11.4968
▁Fail	-11.4973
lapse	-11.4975
▁Come	-11.498
▁look	-11.4982
▁Que	-11.4991
▁hard	-11.4998
base	-11.4999
▁Decide	-11.5001
▁stuff	-11.5001
sport	-11.5009
▁Car	-11.5022
▁chill	-11.503
write	-11.5034
▁kne	-11.5039
▁suck	-11.5043
▁Wait	-11.5045
▁Step	-11.5051
ze	-11.5054
▁speed	-11.5056
▁Par	-11.5057
rs	-11.5066
▁Travel	-11.5068
▁fuck	-11.5082
said	-11.5094
did	-11.5106
state	-11.5107
atty	-11.5107
▁perfect	-11.5114
▁Click	-11.5114
ct	-11.5115
▁Weak	-11.5117
▁Rock	-11.5118
▁Pro	-11.5132
▁room	-11.5137
▁Elect	-11.5149
▁Good	-11.5151
▁Jail	-11.5151
▁Yu	-11.5153
iz	-11.5154
cp	-11.5154
rab	-11.5162
▁Wood	-11.5165
▁Suck	-11.5168
wood	-11.5175
▁fair	-11.5177
▁Bear	-11.518
little	-11.5183
▁Random	-11.5188
▁Buff	-11.5189
▁Camp	-11.5189
▁rec	-11.5192
▁sand	-11.5204
ust	-11.5208
▁Sc	-11.5214
wanted	-11.5227
▁Tap	-11.5227
▁Teach	-11.5247
rake	-11.5254
▁pit	-11.5256
▁Pick	-11.5264
▁Soft	-11.5281
▁Help	-11.5284
▁Cast	-11.5285
▁grin	-11.5293
▁Enchant	-11.5304
▁Spring	-11.5311
ittle	-11.5313
▁Warm	-11.5315
course	-11.5333
▁Rom	-11.5337
▁Messag	-11.534
tp	-11.5345
▁Stick	-11.5347
purchase	-11.5362
ugged	-11.5366
▁User	-11.5393
▁warm	-11.5395
▁Mat	-11.54
▁Quiet	-11.5401
train	-11.5403
class	-11.5405
tend	-11.5408
inner	-11.5413
▁Change	-11.542
▁record	-11.542
▁super	-11.5425
uel	-11.5445
rank	-11.545
▁Sort	-11.5452
▁Lie	-11.5467
wish	-11.5468
fire	-11.5474
▁Horn	-11.5478
▁Repeat	-11.5485
▁dark	-11.5502
limited	-11.5505
▁Far	-11.5514
claimed	-11.5516
▁Trick	-11.5516
▁fail	-11.5523
issue	-11.5527
sold	-11.553
▁quiet	-11.5538
▁Smell	-11.5539
▁Farm	-11.5541
vert	-11.5545
▁slim	-11.555
▁Cop	-11.555
▁Ton	-11.5551
▁jump	-11.5554
plug	-11.556
▁Act	-11.5561
▁Sting	-11.558
▁Try	-11.5588
aver	-11.561
lit	-11.5619
▁Speak	-11.5624
ula	-11.5633
▁Short	-11.5637
▁Joke	-11.5637
drift	-11.564
▁Say	-11.5641
▁part	-11.5651
ickle	-11.5657
▁For	-11.566
▁Flick	-11.5663
▁real	-11.5668
▁Solid	-11.5674
▁water	-11.568
fa	-11.5694
▁Cap	-11.5697
iction	-11.5701
▁Support	-11.5704
front	-11.5714
addle	-11.5717
▁Tool	-11.5717
▁overclock	-11.5717
▁land	-11.5731
pool	-11.5739
▁seed	-11.5747
▁Room	-11.5749
▁test	-11.575
▁Off	-11.5756
andy	-11.5761
▁cool	-11.5762
rugged	-11.5763
▁light	-11.5766
▁flat	-11.5773
stage	-11.5786
▁loose	-11.5788
▁On	-11.5789
structure	-11.5795
▁Present	-11.5796
▁Jerk	-11.5797
▁Shock	-11.5798
▁Minor	-11.5798
arrow	-11.5799
▁plan	-11.5806
phrase	-11.5817
▁second	-11.5817
▁steam	-11.5821
▁Down	-11.5822
lly	-11.584
▁Fix	-11.5843
dle	-11.5849
ith	-11.5863
amage	-11.5868
lump	-11.5874
▁Rain	-11.5878
earth	-11.5882
▁Listen	-11.5882
onger	-11.5887
▁Find	-11.5895
▁Prim	-11.5915
▁Sneak	-11.5919
▁grim	-11.5923
▁Murder	-11.5924
itty	-11.5929
▁Track	-11.5937
loud	-11.5939
▁Honest	-11.594
▁toast	-11.5946
▁Tell	-11.5947
clock	-11.5947
boot	-11.5952
ath	-11.5958
▁Wr	-11.5961
▁dropp	-11.5966
▁Boom	-11.5969
▁hook	-11.5973
igger	-11.5977
▁Sweat	-11.6003
done	-11.6004
active	-11.6005
nger	-11.6012
▁Star	-11.6023
icky	-11.6024
▁Wonder	-11.6024
▁Wind	-11.6025
immer	-11.6027
▁Realiz	-11.6033
▁Waf	-11.6034
▁Pull	-11.6034
▁Stuff	-11.6043
lush	-11.6049
▁Overclock	-11.6064
▁Sour	-11.607
▁Heart	-11.6076
screw	-11.6084
▁Hide	-11.6086
▁total	-11.6097
▁Heat	-11.6098
kin	-11.61
▁public	-11.6105
▁Obvious	-11.6105
shy	-11.611
▁Creep	-11.6118
▁drop	-11.6125
▁Specific	-11.6125
▁Huge	-11.6135
▁Rep	-11.6139
▁fat	-11.615
▁Ride	-11.615
▁Game	-11.6152
inch	-11.6154
▁cri	-11.6154
▁Public	-11.6154
▁Class	-11.6166
asp	-11.6179
▁liv	-11.6184
▁Talk	-11.6195
▁Stone	-11.6197
▁Sink	-11.6202
shirt	-11.6209
▁Right	-11.6213
ilt	-11.6222
▁Earth	-11.6233
▁Fast	-11.6234
▁bad	-11.6241
▁Market	-11.6243
▁Fresh	-11.6249
▁Orgasm	-11.6252
▁German	-11.6252
tore	-11.6254
▁punch	-11.6254
▁surf	-11.6255
▁Twist	-11.6261
▁Rat	-11.6263
ouch	-11.6267
▁Hunt	-11.6267
▁bill	-11.6269
▁Jet	-11.6273
ummy	-11.6282
▁Fund	-11.6287
lept	-11.6288
nb	-11.6294
▁specific	-11.63
not	-11.6305
▁Can	-11.6313
▁Plan	-11.6315
▁mod	-11.633
lucky	-11.6331
▁Wreck	-11.6343
lather	-11.6355
▁stopp	-11.6365
▁Block	-11.6375
hat	-11.6376
▁Equal	-11.6377
▁Second	-11.6378
▁import	-11.6381
▁Sad	-11.6382
▁Hop	-11.6394
pad	-11.6402
▁Quarter	-11.6408
plant	-11.6409
▁Awake	-11.6412
▁Shoot	-11.6429
check	-11.644
activity	-11.6442
▁popp	-11.6446
▁tub	-11.6449
▁talk	-11.6458
▁Local	-11.6459
▁Record	-11.6466
center	-11.6476
▁Goddamn	-11.6477
▁Band	-11.6481
▁Rust	-11.6481
▁weird	-11.6481
ought	-11.6483
haul	-11.6483
▁Super	-11.6485
▁Breath	-11.6485
skin	-11.6488
▁Knee	-11.6488
greed	-11.6491
▁Fat	-11.6493
float	-11.6494
▁Mi	-11.6495
▁Rent	-11.6508
▁swat	-11.6509
▁Home	-11.6511
▁Lad	-11.652
▁secret	-11.6522
▁cop	-11.6527
▁Design	-11.6533
rated	-11.6536
worked	-11.6541
▁Thin	-11.6543
▁met	-11.6545
▁Gun	-11.6545
▁Miss	-11.6546
▁Clean	-11.6547
▁Price	-11.6553
elt	-11.6555
▁pull	-11.656
mass	-11.6562
▁push	-11.6564
gun	-11.6564
▁Part	-11.6569
▁saw	-11.6571
▁Fit	-11.6574
▁complete	-11.6574
▁Great	-11.658
▁came	-11.6592
▁birth	-11.6594
rove	-11.6595
▁Sky	-11.6596
urface	-11.6599
▁dream	-11.6617
▁Girl	-11.6619
secure	-11.6624
atter	-11.6625
▁Slight	-11.6626
played	-11.6629
▁Wash	-11.6642
amper	-11.6643
ester	-11.6644
▁Th	-11.6649
▁Waste	-11.6649
▁Begin	-11.6658
▁Wake	-11.6663
▁Ask	-11.6668
mi	-11.6676
gent	-11.6678
▁Mix	-11.6682
umbo	-11.6696
▁Rape	-11.6715
▁Major	-11.673
▁Punch	-11.673
▁Bright	-11.6744
▁Gam	-11.6744
agger	-11.6744
▁Observ	-11.6744
▁past	-11.6748
▁State	-11.6751
▁Legal	-11.6751
▁Truck	-11.6755
▁Match	-11.677
▁update	-11.6779
ilo	-11.6789
▁object	-11.6789
mouth	-11.6789
▁Ghost	-11.6791
▁Wheel	-11.6796
sen	-11.6798
king	-11.68
▁Scal	-11.68
▁far	-11.6807
▁Original	-11.6811
▁counter	-11.6813
▁Stream	-11.6818
▁Vast	-11.6818
▁Color	-11.6829
▁Jar	-11.6841
▁hack	-11.6843
written	-11.6863
▁sad	-11.6864
▁request	-11.6871
ota	-11.6877
▁Master	-11.688
▁flak	-11.6884
▁Explain	-11.6886
political	-11.6887
▁Gift	-11.6888
▁Sit	-11.6892
ledge	-11.6897
▁Exi	-11.6903
▁Shift	-11.6908
▁Fault	-11.6912
▁Count	-11.6918
▁deliver	-11.6931
ley	-11.6934
sus	-11.6935
pub	-11.6937
ool	-11.6946
home	-11.695
▁Health	-11.6952
▁Seed	-11.6958
ctor	-11.6965
aced	-11.6974
arp	-11.6975
▁Vote	-11.6976
▁Cream	-11.6977
▁Wise	-11.7001
▁Treat	-11.7005
▁Move	-11.701
urden	-11.7013
size	-11.7019
▁storm	-11.7019
▁Brand	-11.7023
pathetic	-11.7024
uddle	-11.7037
▁Rap	-11.7037
▁Hear	-11.7038
▁Do	-11.7046
▁rich	-11.7047
ranged	-11.7051
▁text	-11.7054
▁slipp	-11.7055
▁select	-11.7063
▁Round	-11.7067
▁Toast	-11.7068
▁mag	-11.7069
▁Flat	-11.7077
▁Double	-11.7084
▁Strip	-11.7089
▁Spar	-11.7101
fraction	-11.7113
▁Range	-11.7115
▁local	-11.7127
verse	-11.7127
▁message	-11.7129
▁blu	-11.7132
▁battle	-11.7135
▁Coast	-11.7136
▁Ridiculous	-11.7137
▁Counter	-11.7142
▁normal	-11.7146
▁ref	-11.715
▁bitch	-11.7156
▁search	-11.7157
juice	-11.716
▁shape	-11.7169
▁chose	-11.717
▁dol	-11.7173
▁Space	-11.7181
▁sexual	-11.7193
▁Shad	-11.7205
▁Lean	-11.7206
rope	-11.7215
▁Model	-11.7215
▁gave	-11.7222
tell	-11.7222
gress	-11.7226
▁Group	-11.7227
▁Crack	-11.7233
fight	-11.7236
easy	-11.7237
funny	-11.7238
▁major	-11.7251
▁Joy	-11.7253
▁Goof	-11.7271
▁Bomb	-11.7272
▁Bad	-11.7276
▁Tail	-11.7276
▁pick	-11.7277
▁brain	-11.7278
▁park	-11.728
▁Add	-11.7285
▁Sing	-11.7291
▁File	-11.7293
tow	-11.7293
▁kind	-11.7294
▁blind	-11.7297
▁Dress	-11.73
▁Crush	-11.73
▁Average	-11.73
▁Fight	-11.7307
▁Realis	-11.7311
▁Host	-11.7312
▁present	-11.7314
▁fir	-11.7316
▁cough	-11.7316
▁high	-11.7322
▁whoop	-11.7324
▁wor	-11.733
isp	-11.7337
rmal	-11.7337
loved	-11.7337
▁Pure	-11.7342
▁Sin	-11.7347
▁Knock	-11.7347
▁cod	-11.7356
▁listen	-11.7358
mite	-11.7362
stood	-11.7367
ful	-11.7369
▁single	-11.7369
▁wreck	-11.737
▁Tempt	-11.7371
▁went	-11.7371
▁rocket	-11.7371
▁Whisk	-11.7372
▁wait	-11.7379
stream	-11.7382
▁Blur	-11.7384
▁Edg	-11.7387
▁fit	-11.7389
more	-11.7391
▁non	-11.7394
▁Draft	-11.7395
▁Flush	-11.7403
▁hunt	-11.741
▁close	-11.7415
▁calm	-11.7418
▁Kiss	-11.7419
▁grabb	-11.742
▁Cry	-11.7423
available	-11.7424
▁Ten	-11.7429
mount	-11.7431
▁Insane	-11.7443
▁finger	-11.7444
rink	-11.7449
▁pure	-11.7452
jin	-11.746
▁Useful	-11.7466
▁Bone	-11.7467
tort	-11.7472
▁Bowl	-11.7479
reddit	-11.7481
▁Birth	-11.7487
tag	-11.749
▁vast	-11.7491
▁Legislat	-11.7494
▁Sand	-11.7497
▁String	-11.7499
▁help	-11.7513
▁mirror	-11.7514
opper	-11.7516
▁Junk	-11.7516
▁steppe	-11.7518
bt	-11.752
▁Odd	-11.7525
▁Understand	-11.7526
rid	-11.7528
▁chuck	-11.7535
entry	-11.7536
▁Import	-11.7538
vocation	-11.7547
▁truck	-11.755
horn	-11.7551
▁Factor	-11.7556
▁Rich	-11.7556
style	-11.7559
▁cup	-11.7572
▁fac	-11.7574
▁Moral	-11.7576
▁Warrant	-11.7586
▁Calm	-11.7587
▁Pit	-11.7592
▁lol	-11.7594
▁Surf	-11.7596
scent	-11.7597
▁Spend	-11.7599
ait	-11.76
▁wrong	-11.761
den	-11.7612
▁Cover	-11.7613
lob	-11.762
▁thin	-11.763
▁Learn	-11.7635
▁average	-11.7635
urse	-11.7635
▁Visit	-11.7635
▁lay	-11.7638
appy	-11.7646
▁Want	-11.7648
▁Employ	-11.7654
ater	-11.7655
▁Ear	-11.7655
▁rain	-11.7658
▁half	-11.7659
▁Tank	-11.7659
▁natural	-11.766
turned	-11.7666
▁Flu	-11.7667
▁Bust	-11.767
▁store	-11.7671
reek	-11.7673
ht	-11.768
▁Book	-11.7681
orde	-11.7683
▁Regular	-11.7683
▁Mind	-11.769
▁Dream	-11.7693
▁Dead	-11.7693
ming	-11.7696
weight	-11.7697
▁Fake	-11.7698
dose	-11.7702
▁orgasm	-11.7706
▁tear	-11.7707
ocracy	-11.7707
▁end	-11.7708
▁Programm	-11.7719
▁Trash	-11.7721
▁death	-11.7727
ight	-11.7729
▁Enjoy	-11.7732
▁gross	-11.7732
▁Withdraw	-11.7732
▁Pa	-11.7733
▁demand	-11.7733
▁Keep	-11.7739
typical	-11.7742
▁smart	-11.7743
▁Bill	-11.7743
▁Cycl	-11.7753
▁Update	-11.7757
▁Cup	-11.7758
▁Orbit	-11.7771
▁Select	-11.7772
ipper	-11.7775
▁switch	-11.7781
broken	-11.7785
▁Die	-11.7788
▁murder	-11.7789
tw	-11.7791
▁Rag	-11.7796
▁Tow	-11.7797
▁fish	-11.78
▁boom	-11.7803
▁Whoop	-11.7806
▁Deliver	-11.7806
▁Spic	-11.7813
▁Mad	-11.7819
▁camp	-11.782
▁Charm	-11.7832
▁Sew	-11.7834
▁Shape	-11.784
▁Hook	-11.7854
elease	-11.7854
▁Multipl	-11.7854
▁Wack	-11.7857
blew	-11.7857
▁Normal	-11.7868
▁Row	-11.7879
▁rat	-11.7879
▁Finish	-11.7881
broad	-11.7882
educated	-11.7886
elay	-11.7891
dded	-11.7895
▁Def	-11.7898
attractive	-11.7904
▁simple	-11.7904
got	-11.7906
▁Shy	-11.7907
▁Pack	-11.7915
▁Possibl	-11.7926
▁Cock	-11.7934
▁taste	-11.7941
▁purpose	-11.7941
▁Private	-11.7941
dead	-11.7944
▁Spell	-11.7954
long	-11.7958
▁cage	-11.7958
▁Leak	-11.7961
▁Poop	-11.7964
▁market	-11.7969
mt	-11.7977
▁Guilt	-11.7981
▁Wrong	-11.7981
reak	-11.7987
▁double	-11.7991
▁Worth	-11.7992
ude	-11.8002
▁Gather	-11.8006
seen	-11.8008
▁coast	-11.8015
▁Ult	-11.8015
▁Proper	-11.802
▁Particular	-11.8031
▁Risk	-11.8031
▁Half	-11.8031
▁Process	-11.8032
social	-11.8034
law	-11.8035
▁Rise	-11.8041
bled	-11.8042
▁Bank	-11.8051
broadcast	-11.8055
▁regular	-11.8056
▁Yellow	-11.8059
▁Special	-11.8063
▁cab	-11.8066
▁Refus	-11.8069
▁Reform	-11.807
▁Personal	-11.8074
ference	-11.8075
▁Target	-11.8082
blaze	-11.8082
▁Call	-11.8087
▁Ram	-11.8089
▁Battle	-11.809
▁Continu	-11.8101
▁broke	-11.8103
▁Tub	-11.8103
▁Mean	-11.8103
▁Jealous	-11.8107
▁burst	-11.8107
ella	-11.8109
▁Charge	-11.8109
▁Glad	-11.8114
▁slight	-11.8114
urch	-11.8114
▁Taste	-11.8115
gn	-11.8116
▁long	-11.8119
▁seal	-11.8119
▁Gen	-11.8123
experienced	-11.8124
▁Brave	-11.8126
▁with	-11.8129
▁Riot	-11.8133
▁Gross	-11.8133
▁prick	-11.8133
▁Reserv	-11.8133
ock	-11.8134
▁Table	-11.814
electable	-11.8142
▁View	-11.8143
▁Request	-11.8144
▁Translat	-11.8147
▁Fruit	-11.8152
uzzle	-11.8154
▁Entire	-11.8155
scribe	-11.8157
▁Ugl	-11.8158
▁climb	-11.8158
▁lean	-11.8159
▁Bring	-11.8161
▁Effective	-11.8162
▁Rob	-11.8166
▁white	-11.817
▁Night	-11.817
uss	-11.8171
▁prim	-11.8176
mobile	-11.8177
urb	-11.8178
▁general	-11.8184
▁buck	-11.8198
▁random	-11.8203
▁decided	-11.8208
rode	-11.8208
sian	-11.8209
▁block	-11.8209
nk	-11.821
▁Thread	-11.821
▁Word	-11.821
▁Fluff	-11.8214
lare	-11.822
▁Natural	-11.8222
▁Patch	-11.8223
▁scam	-11.8223
hale	-11.8226
▁trade	-11.8228
▁Season	-11.823
▁project	-11.8231
▁clean	-11.8233
▁Creat	-11.8235
▁difficult	-11.8236
▁Offensive	-11.8236
▁Frost	-11.8237
cede	-11.824
▁Str	-11.8245
▁Fist	-11.8248
▁joke	-11.8251
▁continu	-11.8253
▁fist	-11.8255
▁mess	-11.8258
▁Smart	-11.8258
▁Quot	-11.8259
visible	-11.8259
uv	-11.8263
▁decrease	-11.8267
▁Result	-11.8271
▁freak	-11.8272
lone	-11.8273
▁Corn	-11.828
▁Ignor	-11.8287
▁Blast	-11.8287
▁Card	-11.8287
▁Single	-11.8287
▁grill	-11.8287
▁Careful	-11.8287
realized	-11.8288
▁Mel	-11.8292
▁Simple	-11.8298
oggy	-11.8302
▁Entertain	-11.8305
▁thick	-11.8307
walk	-11.8307
▁world	-11.8313
▁Cruise	-11.8313
▁Clever	-11.8313
▁Tax	-11.8314
ortic	-11.8315
dp	-11.8315
▁Fam	-11.8315
▁Wild	-11.8316
▁fast	-11.8316
liquid	-11.8317
▁Store	-11.8319
▁Thank	-11.832
▁good	-11.8321
mused	-11.8325
▁actual	-11.8326
orta	-11.8327
▁respond	-11.8331
▁Resist	-11.8334
▁Extend	-11.8334
▁minor	-11.8339
▁Transform	-11.8345
▁Object	-11.8351
▁comment	-11.8354
lop	-11.8355
▁Follow	-11.8356
▁Iron	-11.8359
▁Search	-11.836
▁plane	-11.8361
▁Broad	-11.8363
▁Should	-11.8366
▁crash	-11.8367
▁Bag	-11.8369
▁gran	-11.837
count	-11.8371
kill	-11.8374
▁protest	-11.8376
▁tall	-11.8377
▁World	-11.8379
lab	-11.8389
▁Stud	-11.839
▁bot	-11.8391
▁Mirror	-11.8392
▁Powerful	-11.8392
▁melt	-11.8392
ended	-11.8395
▁Boil	-11.8399
▁Excit	-11.8404
etus	-11.8405
▁accept	-11.8409
score	-11.8412
▁Poke	-11.8416
▁special	-11.8416
▁Cheat	-11.8418
▁Massive	-11.8419
▁task	-11.8425
▁Fill	-11.8432
▁triple	-11.8437
▁watch	-11.8439
▁bold	-11.8442
oul	-11.8442
▁Cloud	-11.8443
▁wild	-11.8444
▁Extreme	-11.8445
ependent	-11.8446
▁Surviv	-11.8457
umour	-11.8463
▁demo	-11.8464
▁unit	-11.8465
tf	-11.8469
▁Vari	-11.8469
forge	-11.847
▁sort	-11.847
parent	-11.8471
▁Laugh	-11.8471
▁rush	-11.8473
▁Sexual	-11.8474
▁twin	-11.8477
▁private	-11.8482
▁Ultra	-11.8487
ench	-11.8492
▁sweat	-11.8494
convenient	-11.8497
▁Current	-11.8497
▁odd	-11.8498
onic	-11.8499
▁rear	-11.8501
▁Ground	-11.8502
▁Prove	-11.8505
▁physical	-11.8508
▁duck	-11.8508
▁Finger	-11.8509
will	-11.851
▁Care	-11.8518
▁Rough	-11.852
▁Sweep	-11.8524
▁Bike	-11.8524
▁Rule	-11.8528
voice	-11.8529
oral	-11.8529
otto	-11.853
▁Stag	-11.8537
▁view	-11.8537
propos	-11.8538
▁plat	-11.8539
ode	-11.8543
▁Stupid	-11.8544
▁deck	-11.8549
▁luck	-11.8549
▁flow	-11.855
▁Prick	-11.8551
▁loot	-11.8551
▁wheel	-11.8552
eir	-11.8552
oom	-11.8553
▁Focus	-11.8553
blade	-11.8555
▁Weight	-11.8555
▁bust	-11.8556
▁Photograph	-11.8559
▁Moderate	-11.856
ubby	-11.8562
▁trust	-11.8566
▁Burst	-11.8569
▁Purpose	-11.8571
▁Switch	-11.8571
▁Ste	-11.8572
▁Snip	-11.8576
▁result	-11.8576
hump	-11.858
draw	-11.8592
▁target	-11.8593
rumble	-11.8594
▁Supp	-11.8603
▁jack	-11.8603
▁Rocket	-11.8606
▁troll	-11.8607
▁road	-11.8611
action	-11.8612
mber	-11.8614
anned	-11.8615
▁summ	-11.8616
vile	-11.8617
▁Similar	-11.8618
bly	-11.8621
▁Juke	-11.8631
▁Complain	-11.8638
▁Beard	-11.865
▁Milk	-11.8657
▁boss	-11.8657
ori	-11.8658
▁fool	-11.8669
touch	-11.867
historical	-11.8678
married	-11.8681
▁review	-11.8685
▁Respond	-11.8686
otten	-11.8694
roid	-11.8695
edding	-11.8701
▁Certain	-11.8702
stock	-11.8708
▁Common	-11.8709
▁exhaust	-11.871
▁research	-11.8711
▁smoke	-11.8711
ural	-11.8717
▁west	-11.8719
lang	-11.8724
▁strong	-11.8724
hire	-11.8731
▁country	-11.8737
supply	-11.8738
ingle	-11.8743
▁content	-11.8744
▁Bold	-11.8752
▁file	-11.8759
▁Literal	-11.8759
▁dumb	-11.876
ecrease	-11.8763
emale	-11.8763
▁Exploit	-11.8764
▁jaw	-11.8765
cooked	-11.8766
▁Strong	-11.8768
▁Sick	-11.8773
▁Brew	-11.8776
anity	-11.8778
▁stiff	-11.8784
▁bang	-11.8787
▁Lol	-11.8788
▁Sole	-11.879
▁twist	-11.879
▁click	-11.8791
▁Hold	-11.8803
▁Smok	-11.8805
▁Mod	-11.8805
▁Photo	-11.881
▁Paint	-11.881
▁Piss	-11.8811
▁Code	-11.8812
▁Sweet	-11.8814
▁Condition	-11.8818
▁Painful	-11.882
bound	-11.8821
crease	-11.8822
▁glow	-11.8822
▁Lose	-11.8825
▁Actual	-11.8827
▁tap	-11.8835
▁fake	-11.8843
hop	-11.8846
▁Destroy	-11.8847
arden	-11.8852
tonal	-11.8853
▁Bunch	-11.8858
▁open	-11.8858
af	-11.8859
▁Storm	-11.8862
umba	-11.8862
▁Valid	-11.8864
▁Twa	-11.8867
▁Jin	-11.8871
▁Last	-11.8873
▁Climb	-11.8875
root	-11.8881
button	-11.8886
▁Demand	-11.889
▁careful	-11.8902
▁stay	-11.8903
▁Stab	-11.8912
▁similar	-11.8912
eny	-11.8916
▁Phone	-11.8918
nus	-11.8919
▁Triple	-11.8927
▁chic	-11.8929
▁Accept	-11.893
▁Difficult	-11.893
▁clever	-11.893
▁Rig	-11.893
▁sense	-11.893
▁Brilliant	-11.8932
▁Rear	-11.8937
▁ran	-11.8943
▁butter	-11.8945
▁Beautiful	-11.8958
▁Toke	-11.8958
▁Bang	-11.896
▁friend	-11.8962
▁pal	-11.8963
▁eye	-11.8966
▁individual	-11.8966
▁surviv	-11.8974
▁Mark	-11.8977
▁spec	-11.8978
▁West	-11.8978
▁obvious	-11.8982
▁Nice	-11.8993
▁proper	-11.8995
▁Federal	-11.8998
▁Kit	-11.9002
ura	-11.9002
▁Rout	-11.9006
▁Rem	-11.901
▁Strike	-11.9012
▁round	-11.9012
▁resist	-11.9012
hm	-11.9013
▁entire	-11.9013
▁Wizard	-11.9015
▁Copy	-11.9016
▁bright	-11.9016
▁Physical	-11.902
logged	-11.9025
▁Mother	-11.9025
hai	-11.9033
▁stone	-11.9039
▁fart	-11.904
▁cheer	-11.904
▁Rambl	-11.9041
▁Approximate	-11.9041
▁Review	-11.9044
▁Locat	-11.9045
▁mind	-11.9051
▁team	-11.9053
constitutional	-11.9056
▁Promis	-11.9062
▁fad	-11.9064
coop	-11.9065
fold	-11.9068
▁Shrink	-11.9069
▁Level	-11.9069
▁Silence	-11.9069
▁Important	-11.907
▁clump	-11.9071
▁pitch	-11.9074
▁Oversee	-11.9075
▁White	-11.9078
articulate	-11.9079
▁dump	-11.9079
▁Melt	-11.9081
bridge	-11.9086
▁heart	-11.9095
▁Overhea	-11.9097
▁Ferment	-11.9098
▁Gl	-11.9102
ose	-11.9106
▁bear	-11.9108
▁bit	-11.9111
▁Cage	-11.9111
▁Env	-11.9111
▁Ideal	-11.9112
▁ideal	-11.9114
▁Curl	-11.9116
node	-11.9117
▁Additional	-11.9119
icked	-11.912
unnel	-11.9122
▁common	-11.9122
▁current	-11.9126
▁backpack	-11.9126
▁Oppress	-11.9126
▁Forget	-11.9127
poof	-11.9131
▁Drink	-11.9137
▁pod	-11.9144
▁rough	-11.9148
▁Demo	-11.9148
▁rape	-11.915
maneuver	-11.9154
▁Transport	-11.9154
▁nice	-11.9154
mut	-11.9155
▁flush	-11.9158
growth	-11.9167
▁jail	-11.918
▁fresh	-11.9181
▁Stock	-11.9182
▁perk	-11.9183
▁Meditat	-11.9184
▁Bread	-11.9184
▁farm	-11.919
wry	-11.9195
▁draft	-11.9196
xis	-11.9198
▁Flow	-11.9201
mmy	-11.9205
▁design	-11.921
▁figure	-11.921
righteous	-11.921
▁Manipulat	-11.9211
itrate	-11.9217
▁Project	-11.9217
▁Cab	-11.9221
uppy	-11.9225
▁equal	-11.9231
▁contract	-11.9236
▁host	-11.9237
proven	-11.9238
different	-11.9238
▁index	-11.9239
▁sober	-11.9239
▁Renew	-11.9239
▁beam	-11.924
rty	-11.924
inder	-11.9244
edited	-11.9244
▁Float	-11.9244
▁Tough	-11.9245
▁hat	-11.9245
type	-11.9247
▁Person	-11.9257
imbo	-11.9258
▁Protest	-11.9267
▁Pound	-11.9267
▁Jazz	-11.9268
▁Ocean	-11.9268
▁Poor	-11.9271
rub	-11.9272
▁Field	-11.9272
▁cash	-11.9274
▁Contract	-11.9274
▁Balance	-11.9276
▁pot	-11.9279
▁offensive	-11.9284
▁stat	-11.9287
▁Bass	-11.9287
▁mang	-11.9292
▁Bump	-11.9294
▁ticket	-11.9299
meal	-11.9299
▁Need	-11.9306
mir	-11.9312
romantic	-11.9315
▁smile	-11.9325
▁unique	-11.9325
▁Young	-11.9325
▁Extrem	-11.9326
addy	-11.9326
▁Leg	-11.9329
corporate	-11.9329
▁Lot	-11.9331
▁Seat	-11.9333
▁Ill	-11.934
▁Task	-11.9343
▁Favorit	-11.9346
▁Brain	-11.9351
▁cost	-11.9353
▁Coward	-11.9355
▁Ref	-11.936
mish	-11.936
▁Breed	-11.9366
▁Nerd	-11.9366
ative	-11.937
▁Flee	-11.9372
▁wot	-11.9374
▁raid	-11.9379
▁Troll	-11.9379
▁Conceal	-11.9379
▁Trail	-11.9382
▁burn	-11.9382
▁Grill	-11.9383
▁Graduat	-11.9383
▁cell	-11.9384
▁Undertake	-11.9386
▁Dry	-11.9387
called	-11.9388
▁Unique	-11.9389
▁bread	-11.9393
▁Haunt	-11.9395
▁Flash	-11.9395
▁chor	-11.9396
▁Esp	-11.9398
ij	-11.9406
▁Voice	-11.9408
▁beautiful	-11.9412
▁Broadcast	-11.9412
▁massive	-11.9412
▁cake	-11.9415
▁Claim	-11.942
▁laugh	-11.942
▁tired	-11.9422
flame	-11.9423
skilled	-11.9425
▁kiss	-11.9437
torrent	-11.9439
▁psych	-11.9439
ighty	-11.944
▁Rare	-11.9441
▁certain	-11.9441
▁german	-11.9442
▁Chat	-11.9443
▁Duck	-11.9443
dm	-11.9449
▁rule	-11.9452
odo	-11.9453
▁Hill	-11.946
▁extreme	-11.9461
▁particular	-11.947
▁Spoil	-11.9484
▁bus	-11.9487
▁brutal	-11.9491
▁Protect	-11.9492
stray	-11.9498
faithful	-11.9499
▁honest	-11.9499
▁Chain	-11.9501
▁Basic	-11.9503
▁ghost	-11.951
▁Confirm	-11.952
ondo	-11.952
▁transfer	-11.9521
▁Doubt	-11.9521
▁Cough	-11.9523
▁screen	-11.9524
▁Place	-11.9525
▁Scratch	-11.9529
▁Loath	-11.9529
▁Yog	-11.9529
▁Prefer	-11.9529
▁Pray	-11.9529
▁Fart	-11.953
▁rap	-11.9534
▁Thrill	-11.9535
▁Connect	-11.9538
▁Rush	-11.9538
▁complain	-11.9544
▁Tooth	-11.955
▁God	-11.9552
▁flick	-11.9555
▁bal	-11.9555
▁shadow	-11.9556
died	-11.9556
▁brave	-11.9558
▁Feature	-11.9558
▁Utter	-11.9558
▁revolt	-11.9558
▁woke	-11.9558
▁Freeze	-11.9559
▁Trust	-11.9563
pu	-11.9564
▁Cook	-11.9575
▁Orient	-11.9579
▁Agree	-11.9581
▁Interesting	-11.9583
▁modern	-11.9585
▁flood	-11.9587
▁massage	-11.9588
▁pan	-11.9588
▁Detect	-11.9593
▁Seal	-11.9593
▁shout	-11.9597
▁Horse	-11.96
▁stock	-11.9601
▁sing	-11.9603
rrive	-11.9604
spring	-11.961
oobie	-11.9611
professional	-11.9613
gnite	-11.9614
urmur	-11.9617
▁Foresee	-11.9617
▁Squeak	-11.9617
▁silly	-11.9617
▁fam	-11.9618
▁refuse	-11.962
▁Glow	-11.9623
paint	-11.9629
▁model	-11.9633
funded	-11.9635
theistic	-11.9636
▁Loud	-11.9636
▁Ruin	-11.9638
▁sick	-11.964
hrug	-11.9646
▁soup	-11.9647
▁Vague	-11.9647
▁rebound	-11.9648
▁Bra	-11.9648
lamp	-11.9649
▁Shout	-11.9653
▁Comp	-11.9655
erate	-11.9657
▁Sail	-11.9661
▁mat	-11.9661
place	-11.9663
▁Rant	-11.9664
▁safe	-11.9666
confirmed	-11.9672
▁Net	-11.9672
▁sweet	-11.9672
▁Hate	-11.9676
▁whack	-11.9676
▁Stray	-11.9676
▁painful	-11.9677
▁Helpful	-11.9677
▁Grab	-11.9677
▁Comment	-11.9678
ranked	-11.9679
finished	-11.9682
▁char	-11.9683
▁Death	-11.9683
▁Cub	-11.9683
▁Sober	-11.9684
▁adapt	-11.9685
▁collect	-11.9685
▁Boss	-11.9686
▁try	-11.9688
▁Fool	-11.9689
iving	-11.9694
rack	-11.9697
▁Liberal	-11.97
agon	-11.97
ourn	-11.97
▁Cancel	-11.9703
▁Talent	-11.9706
dj	-11.9708
▁din	-11.9708
alve	-11.9709
▁sup	-11.9709
▁felt	-11.971
▁Reward	-11.9714
▁literal	-11.9714
▁Engineer	-11.9715
▁severe	-11.9717
▁Prob	-11.972
▁stack	-11.972
▁Fatal	-11.9722
tumble	-11.9722
▁visit	-11.9733
▁Lone	-11.9733
raise	-11.9734
▁knock	-11.9735
decent	-11.9736
▁improv	-11.9739
▁couple	-11.9743
▁uber	-11.9745
▁Dig	-11.9748
▁sole	-11.9748
▁deal	-11.9758
▁Execut	-11.9762
▁Fuzz	-11.9765
▁Exhaust	-11.9765
▁Perform	-11.9766
▁sprawl	-11.9766
▁Usual	-11.9766
▁Clip	-11.9767
fw	-11.9771
etch	-11.9773
▁Hast	-11.9774
▁useful	-11.9776
▁comfort	-11.9778
▁Faint	-11.978
▁heat	-11.9781
▁Plant	-11.9788
built	-11.9796
▁Rejoi	-11.9796
▁bubble	-11.9796
▁constant	-11.9797
▁swirl	-11.9797
▁stem	-11.98
▁arrive	-11.981
▁wise	-11.9814
▁Occur	-11.9824
▁rang	-11.9824
▁rescue	-11.9827
▁Trigger	-11.9827
▁Active	-11.9828
▁human	-11.983
▁Mental	-11.9831
▁Cat	-11.9835
▁Stiff	-11.9835
▁Type	-11.9845
▁Obsess	-11.9856
patient	-11.9856
▁Cheer	-11.9857
breast	-11.9857
▁Sudden	-11.9857
▁religious	-11.9857
shell	-11.9865
▁Lead	-11.987
▁Snow	-11.9871
▁spamm	-11.9873
▁Air	-11.9877
▁mem	-11.9879
vg	-11.988
▁skill	-11.9881
aught	-11.9885
dict	-11.9885
▁Robot	-11.9887
▁respect	-11.9887
▁Enter	-11.9887
▁command	-11.9887
▁enter	-11.9887
▁flirt	-11.9894
fro	-11.9896
▁Mill	-11.9905
view	-11.9906
flux	-11.9906
▁institutional	-11.9912
marked	-11.9915
▁wonder	-11.9917
▁Progress	-11.9917
▁Enhance	-11.9917
▁Frequent	-11.9918
▁Interview	-11.9918
▁Dangerous	-11.9918
▁Annoying	-11.9918
▁Religious	-11.9918
▁Racis	-11.9922
▁Perk	-11.9922
▁math	-11.9923
yno	-11.9924
▁Comfort	-11.9929
aker	-11.9936
▁stage	-11.9938
productive	-11.9938
▁lad	-11.9944
sap	-11.9945
rigid	-11.9946
▁Sense	-11.9947
▁Frisk	-11.9948
▁Weld	-11.9949
▁streak	-11.9949
▁hole	-11.9951
bind	-11.9953
▁Brutal	-11.9953
arity	-11.9954
▁hast	-11.9955
▁Loot	-11.9958
▁atta	-11.9961
▁Twin	-11.9969
think	-11.9971
▁Drift	-11.9973
▁Command	-11.9975
moved	-11.9975
▁Sketch	-11.9976
▁Hustle	-11.9979
▁Large	-11.9979
▁beef	-11.9979
▁Gain	-11.9979
▁Lift	-11.9979
▁rare	-11.998
▁Terra	-11.9981
▁colon	-11.9982
▁Sport	-11.9983
▁gasp	-11.9983
▁grass	-11.9985
▁poor	-11.9988
▁Pal	-11.9992
▁Program	-11.9995
▁smooth	-11.9997
irc	-12.0002
▁Operat	-12.0003
▁Skin	-12.0004
▁dash	-12.0005
▁learn	-12.0006
control	-12.0009
▁Jaw	-12.001
▁Retaliat	-12.001
▁brilliant	-12.001
▁Smile	-12.001
▁Disable	-12.001
▁chatt	-12.0012
ez	-12.0014
▁Road	-12.0017
▁Bash	-12.0018
▁foil	-12.0019
▁arrest	-12.0024
▁Surge	-12.0029
▁cow	-12.0031
▁Popular	-12.0033
▁Check	-12.0034
▁Develop	-12.0037
▁cheese	-12.004
▁Err	-12.004
▁sugar	-12.004
▁Violat	-12.0041
▁report	-12.0042
evolution	-12.0042
▁Smooth	-12.0042
▁faint	-12.0045
▁Race	-12.0046
▁Interest	-12.0046
bc	-12.0046
cursion	-12.0047
▁Definite	-12.0048
ire	-12.0048
competitive	-12.005
▁Breez	-12.0051
itch	-12.0054
▁crush	-12.0055
▁Trap	-12.0056
aggy	-12.0059
eech	-12.0064
oose	-12.0068
eak	-12.007
▁quarter	-12.0071
glorious	-12.0071
▁Whisper	-12.0072
▁picture	-12.0072
▁useless	-12.0072
▁Index	-12.0072
▁mill	-12.0075
▁lift	-12.0076
▁Karma	-12.0079
▁Meat	-12.008
chy	-12.0084
▁Gas	-12.0087
factor	-12.0088
▁tough	-12.0089
▁Spot	-12.0091
▁cruise	-12.0093
modded	-12.0094
▁effective	-12.0095
rea	-12.0096
▁increas	-12.0097
▁Magical	-12.0098
pew	-12.0098
▁Elevat	-12.0103
▁Positive	-12.0103
▁contact	-12.0104
voluntary	-12.0104
▁book	-12.0105
fitting	-12.0108
▁cold	-12.0109
rool	-12.0109
▁Corrupt	-12.011
▁additional	-12.0111
print	-12.0114
▁Bull	-12.0118
▁Dumb	-12.0121
▁dial	-12.0121
▁Page	-12.0128
▁pride	-12.013
▁stupid	-12.0131
▁Mythic	-12.0132
▁Political	-12.0132
▁Clump	-12.0133
▁Fascinat	-12.0134
▁Leap	-12.0134
▁approximate	-12.0134
▁Tired	-12.0134
▁leap	-12.0134
ombination	-12.0135
▁blast	-12.0136
▁Provide	-12.0137
saturated	-12.0139
▁won	-12.0139
bomb	-12.014
aggle	-12.0145
▁Sure	-12.0146
▁crazy	-12.0148
▁old	-12.0149
▁mad	-12.0149
partment	-12.0151
▁Wors	-12.0156
▁scar	-12.0156
▁Letter	-12.0161
▁Whack	-12.0165
▁floor	-12.0165
▁Skate	-12.0166
▁last	-12.0168
▁Form	-12.017
▁Cre	-12.0171
▁Fiddle	-12.0172
ception	-12.0172
▁Press	-12.0182
▁personal	-12.0184
▁Safe	-12.0189
vr	-12.0192
▁great	-12.0193
▁junk	-12.0195
▁Uber	-12.0196
▁Harvest	-12.0196
▁steel	-12.0196
▁buzz	-12.0197
▁Note	-12.0198
▁lack	-12.0198
▁nib	-12.0198
▁naked	-12.0199
▁level	-12.02
▁return	-12.0205
▁Mail	-12.0209
▁Musical	-12.0209
▁shitty	-12.0212
rib	-12.0212
uster	-12.0213
▁Pip	-12.0216
▁Inspect	-12.0221
▁Professional	-12.0222
oggle	-12.0223
ement	-12.0224
hulk	-12.0226
▁stealth	-12.0228
▁Backpack	-12.0228
▁nose	-12.023
ifi	-12.023
▁Swirl	-12.0231
▁Technical	-12.0235
▁curse	-12.0236
eline	-12.0245
▁Window	-12.0247
▁Worship	-12.0252
mom	-12.0252
▁interesting	-12.0252
▁Human	-12.0253
▁Plat	-12.0258
▁Year	-12.0259
▁favorite	-12.026
▁Silly	-12.026
▁cave	-12.0265
▁important	-12.0266
▁huge	-12.0272
▁cam	-12.028
▁Cell	-12.0284
▁clip	-12.0284
▁Transfer	-12.0285
low	-12.0288
orem	-12.0288
▁Functional	-12.029
▁Entr	-12.0291
▁relevant	-12.0291
complicated	-12.0293
▁wage	-12.0293
▁bark	-12.0301
▁basic	-12.0307
▁Severe	-12.0312
▁auto	-12.0315
▁Endur	-12.0323
▁Research	-12.0323
▁circle	-12.0323
▁vague	-12.0323
▁labor	-12.0324
ical	-12.0325
shoot	-12.0333
▁Shine	-12.0334
▁image	-12.0337
▁riot	-12.0338
▁Conduct	-12.034
▁Accidental	-12.0342
ique	-12.0342
frozen	-12.0346
▁Mudd	-12.0349
emp	-12.035
▁masturbat	-12.0351
▁place	-12.0353
▁Filth	-12.0355
▁Flood	-12.0355
▁Jab	-12.0355
▁Kara	-12.0355
▁illegal	-12.0355
▁rout	-12.0356
rophy	-12.0356
▁Lump	-12.0357
▁willing	-12.0359
▁Escap	-12.036
▁civil	-12.0363
▁break	-12.0363
▁field	-12.0365
playable	-12.0368
▁magical	-12.0369
▁card	-12.037
illet	-12.0372
▁glad	-12.0373
▁Recess	-12.0375
▁spray	-12.0376
▁travel	-12.0377
▁Sha	-12.038
▁reform	-12.0383
▁Cam	-12.0384
gb	-12.0385
▁crisp	-12.0386
▁Stealth	-12.0387
▁Useless	-12.0388
▁Beam	-12.0389
▁fuel	-12.039
▁Pet	-12.0391
▁Rude	-12.0394
viable	-12.0396
possible	-12.0396
▁Shadow	-12.0407
helpful	-12.0408
▁Sharp	-12.0408
▁bass	-12.0416
▁Heartbreak	-12.0419
▁Automatic	-12.0419
▁Question	-12.0423
ime	-12.0423
▁Modern	-12.0424
▁mutual	-12.0426
▁Butter	-12.0429
▁snapp	-12.0432
ky	-12.0435
ulation	-12.0436
▁Cost	-12.0441
▁bike	-12.0441
▁def	-12.0441
▁Hell	-12.0444
▁Poll	-12.0448
▁Eye	-12.045
▁Massage	-12.0452
▁Purchase	-12.0453
▁Scrap	-12.0454
▁corner	-12.0456
▁inhuman	-12.0458
▁Flirt	-12.0459
▁Sur	-12.0463
swor	-12.0465
▁patch	-12.047
▁Mutual	-12.0471
▁silence	-12.0473
▁valid	-12.0474
ylon	-12.0476
▁deni	-12.0482
▁spark	-12.0482
▁Estimat	-12.0483
▁Revolt	-12.0483
▁cloak	-12.0483
▁Month	-12.0483
fficiency	-12.0483
▁spun	-12.0483
▁Immediate	-12.0486
▁Education	-12.0486
▁Slip	-12.0488
▁Loss	-12.0493
▁trans	-12.0494
▁Rave	-12.0494
▁Deco	-12.0497
▁Nap	-12.0497
▁rational	-12.0498
▁Rational	-12.05
install	-12.0502
laid	-12.0512
▁mental	-12.0514
▁Butt	-12.0515
▁Blame	-12.0515
▁thrift	-12.0515
▁letter	-12.0516
udder	-12.0516
▁rude	-12.0518
▁Impress	-12.0519
▁Notice	-12.052
▁Polite	-12.0521
osphere	-12.0527
▁sign	-12.0528
▁Flavor	-12.0536
deposit	-12.054
▁Cash	-12.0545
▁club	-12.0548
▁Especial	-12.0548
▁Publish	-12.0548
▁Sprawl	-12.0548
▁expand	-12.0548
avvy	-12.0548
▁criminal	-12.055
▁Mild	-12.0555
▁Itch	-12.0556
▁Suit	-12.0562
▁complet	-12.0564
▁Mouth	-12.0565
▁Spur	-12.0565
▁Cake	-12.0566
▁Bug	-12.0578
▁Lag	-12.0578
emotional	-12.058
▁force	-12.058
▁brief	-12.058
▁golf	-12.0581
hyme	-12.0581
▁program	-12.0583
▁Psych	-12.0584
▁Deep	-12.0585
▁Ban	-12.0585
minded	-12.0588
▁rim	-12.0589
utation	-12.0591
▁Gamble	-12.0591
▁ridiculous	-12.0591
stead	-12.0592
▁Remind	-12.0596
▁delicious	-12.0602
▁mist	-12.0608
credible	-12.0613
▁Recycl	-12.0613
developed	-12.0615
▁Save	-12.0618
▁bookmark	-12.0626
▁Col	-12.0626
▁scared	-12.0627
▁email	-12.063
▁change	-12.0632
▁Figure	-12.0634
known	-12.0635
istic	-12.0638
▁Awesome	-12.0639
▁Civil	-12.064
ipple	-12.0643
▁sharp	-12.0643
▁Fin	-12.0643
lurry	-12.0644
▁Crank	-12.0646
▁instant	-12.0646
▁Length	-12.0646
▁disappear	-12.0646
▁patent	-12.0646
▁Rebound	-12.0649
▁Gall	-12.0653
hank	-12.0653
▁tech	-12.0661
▁pun	-12.0664
▁Smash	-12.0664
▁Temper	-12.0666
▁strange	-12.0667
▁Plot	-12.0671
▁middle	-12.0677
geist	-12.0679
▁lazy	-12.0679
▁Suppose	-12.0679
▁Enforce	-12.0684
▁tank	-12.0688
▁Chunk	-12.0691
▁pace	-12.0693
pparently	-12.0695
▁gather	-12.0695
▁Gender	-12.0699
▁Bare	-12.0702
rapper	-12.0703
▁Shop	-12.0703
▁Egg	-12.0709
tide	-12.0709
▁federal	-12.071
cover	-12.071
▁frequent	-12.0712
▁powder	-12.0712
▁vibrat	-12.0712
▁Successful	-12.0712
▁annoying	-12.0712
rrest	-12.0712
▁Swing	-12.0713
▁busy	-12.0714
▁limp	-12.0715
▁Awful	-12.0718
released	-12.0718
▁awesome	-12.0719
▁Feed	-12.0719
tx	-12.0721
▁sin	-12.0724
▁functional	-12.0725
▁neck	-12.0727
▁appear	-12.0731
▁Meet	-12.0735
▁Willing	-12.0735
▁spel	-12.0735
saved	-12.0739
aute	-12.074
▁trouble	-12.0745
▁Blond	-12.0745
▁Picture	-12.0745
▁Responsibl	-12.0745
▁large	-12.0745
▁Evil	-12.0746
▁Toxic	-12.0746
▁service	-12.0748
▁sure	-12.0754
▁Crowd	-12.0754
▁turn	-12.0759
mc	-12.0759
▁national	-12.0759
▁Crawl	-12.0759
▁magnet	-12.0769
wl	-12.0778
▁Alternate	-12.0778
▁Rescue	-12.0778
▁dangerous	-12.0778
▁evil	-12.0779
▁Naked	-12.0779
▁share	-12.0781
▁exist	-12.0783
employment	-12.0784
▁Garden	-12.0785
▁consider	-12.0788
aboo	-12.0788
▁Hum	-12.0792
▁Overla	-12.0797
▁poop	-12.0801
tem	-12.0802
wig	-12.0802
▁mush	-12.0802
▁Trip	-12.0805
arrier	-12.0807
▁overt	-12.0809
▁judge	-12.0811
▁Escalat	-12.0812
▁plateau	-12.0812
▁void	-12.0812
▁Chew	-12.0812
▁leaf	-12.0814
nimation	-12.0819
▁Joint	-12.082
▁True	-12.0822
▁blink	-12.0824
▁Kid	-12.0824
▁butt	-12.0824
▁cheat	-12.0828
▁Pitch	-12.083
▁Board	-12.0831
pply	-12.0832
oar	-12.0834
▁Respect	-12.0837
▁Life	-12.0838
▁catch	-12.0841
ranny	-12.0844
exciting	-12.0845
▁Anecdotal	-12.0845
chained	-12.0846
▁Couple	-12.0846
▁section	-12.085
▁Lathe	-12.0852
▁joint	-12.0854
▁waste	-12.0856
▁Pink	-12.0859
▁spin	-12.0862
▁humm	-12.0866
reported	-12.087
▁Earn	-12.0875
▁liberal	-12.0878
udacity	-12.0879
▁mold	-12.0879
▁Relevant	-12.0879
locked	-12.0879
▁drive	-12.0884
▁Team	-12.0892
▁cap	-12.0893
▁Communist	-12.0897
oof	-12.0898
umber	-12.0898
▁blood	-12.0905
idget	-12.0907
▁horse	-12.0911
▁Raid	-12.0912
▁Challenge	-12.0912
▁Hilarious	-12.0912
▁worthless	-12.0913
▁Answer	-12.0915
theon	-12.0915
▁Scamm	-12.0916
▁milk	-12.0917
▁Pace	-12.0918
▁dart	-12.092
▁reasonable	-12.0923
▁arc	-12.0924
▁Disgusting	-12.0926
continent	-12.0932
▁Tru	-12.0932
▁Lack	-12.0932
athletic	-12.0938
▁musical	-12.0942
icycle	-12.0943
▁Shave	-12.0945
▁Militar	-12.0945
venue	-12.0946
call	-12.0946
vowed	-12.0946
▁positive	-12.0946
▁thank	-12.0947
▁Guarantee	-12.0948
▁Boring	-12.0948
▁soap	-12.0949
▁Significant	-12.0951
ironic	-12.0953
▁Chart	-12.0953
▁amp	-12.0955
belief	-12.096
▁Whistle	-12.0963
▁stump	-12.0964
▁plot	-12.0967
▁Ticket	-12.0967
▁matter	-12.0967
▁Scared	-12.0971
▁tail	-12.0976
▁Brief	-12.098
▁Return	-12.098
▁escape	-12.098
▁proof	-12.0981
ominate	-12.0981
▁Account	-12.0981
windle	-12.0983
▁technical	-12.099
▁captain	-12.0992
fact	-12.0999
impressive	-12.1001
▁Tip	-12.1002
▁town	-12.1003
▁race	-12.1004
blown	-12.1007
▁school	-12.1012
enig	-12.1013
▁Exclusive	-12.1014
▁Soup	-12.1014
▁Greed	-12.1014
▁unlimited	-12.1014
▁General	-12.1015
uede	-12.1015
▁Recommend	-12.1016
▁scroll	-12.1016
▁Blend	-12.1017
▁Wave	-12.1017
hammy	-12.1019
▁shock	-12.1019
matched	-12.1022
▁Pair	-12.1022
awl	-12.1024
▁Bind	-12.1024
▁deep	-12.1024
bb	-12.1025
gency	-12.1025
▁mani	-12.1026
▁Extract	-12.1028
▁hero	-12.1029
▁Fade	-12.1031
ough	-12.1032
tuck	-12.1034
ining	-12.1036
▁National	-12.1036
▁awful	-12.1038
gre	-12.1041
▁Individual	-12.1041
▁weather	-12.1041
authentic	-12.1042
evolutionary	-12.1047
▁perform	-12.1048
▁Cheese	-12.1048
▁Retarded	-12.1048
▁Surprise	-12.1048
▁coin	-12.1048
▁feather	-12.1048
▁bead	-12.1048
▁boring	-12.1048
eluded	-12.1049
▁clutch	-12.1049
enial	-12.1049
▁mop	-12.1051
▁lame	-12.1052
▁Coco	-12.1054
▁Pot	-12.1058
▁Dump	-12.1059
inse	-12.1064
▁Sedat	-12.1068
▁fond	-12.1069
sexy	-12.1082
▁Expand	-12.1082
▁Scoot	-12.1083
▁cringe	-12.1084
▁flu	-12.1086
▁horrible	-12.1088
▁match	-12.109
▁powerful	-12.1092
▁Corner	-12.1092
▁original	-12.1092
▁Pleas	-12.1097
▁motor	-12.1099
▁Stack	-12.11
▁Equip	-12.1109
▁meat	-12.1109
▁Global	-12.111
▁Pride	-12.1111
▁Bark	-12.1115
▁Cringe	-12.1116
▁Desperate	-12.1117
▁Experience	-12.1117
▁Secure	-12.1117
▁borrow	-12.1117
▁football	-12.1117
heard	-12.112
▁Registr	-12.1123
▁Dash	-12.1127
enile	-12.113
▁Deal	-12.1131
▁Mid	-12.1133
voted	-12.1137
defeated	-12.1137
▁Wit	-12.1141
▁mak	-12.1142
▁Wick	-12.1143
▁Mistake	-12.1145
▁Unlock	-12.1147
spouse	-12.1147
▁Labor	-12.1149
▁Wonderful	-12.115
▁Sugar	-12.1151
▁Jelly	-12.1151
▁exclusive	-12.1151
▁balloon	-12.1151
▁pump	-12.1153
▁Partie	-12.1155
▁Detail	-12.1156
▁Fond	-12.1161
▁Memor	-12.1161
sound	-12.1162
▁Soap	-12.1166
spirational	-12.1171
▁React	-12.1171
erve	-12.1172
▁Tune	-12.1177
▁Control	-12.1181
▁Club	-12.1183
▁Hole	-12.1183
▁moment	-12.1185
▁Buzz	-12.1185
▁successful	-12.1186
▁snowball	-12.1186
▁Snowball	-12.1186
▁abuse	-12.1187
▁Festiv	-12.1187
▁Service	-12.1189
▁Comm	-12.119
▁Well	-12.119
▁Endless	-12.119
▁Excellent	-12.1191
▁sting	-12.1191
▁slice	-12.1193
▁Void	-12.1194
▁Amazing	-12.1195
▁pain	-12.1196
▁Just	-12.1196
▁Gel	-12.1197
▁Lazy	-12.1198
▁wax	-12.1202
▁Shit	-12.1206
▁carbon	-12.1209
▁creat	-12.1209
▁remove	-12.1212
▁Rice	-12.1215
▁Vet	-12.1217
▁Leader	-12.1219
caused	-12.122
▁stomp	-12.122
▁Value	-12.122
▁Term	-12.1221
▁Shitt	-12.1229
▁Weep	-12.1231
ogan	-12.1235
asty	-12.1235
▁Loop	-12.1236
▁Prevent	-12.1237
▁Grind	-12.1238
▁Frame	-12.1238
▁Proce	-12.1241
▁Warn	-12.1246
▁bond	-12.1248
▁Zoo	-12.1249
aran	-12.1251
▁Preach	-12.1252
▁Retrea	-12.1256
loss	-12.1257
▁Bless	-12.1258
▁Recover	-12.1258
▁meant	-12.1259
understood	-12.126
▁spice	-12.126
▁fruit	-12.1261
▁snip	-12.1265
▁List	-12.1266
held	-12.1267
▁true	-12.1267
▁intentional	-12.1271
▁Screw	-12.1275
ontact	-12.1279
▁Puff	-12.1282
▁Counsel	-12.1287
▁feature	-12.1289
▁conduct	-12.1289
▁kid	-12.129
▁Judici	-12.129
▁circlejerk	-12.129
▁fabulous	-12.129
▁Streak	-12.129
▁volunteer	-12.129
▁bulk	-12.1291
vasive	-12.1293
▁Fundamental	-12.1295
▁definite	-12.1296
▁cream	-12.1296
▁socializ	-12.1297
▁Latin	-12.1297
▁web	-12.1298
▁collapse	-12.1307
▁potential	-12.1312
▁shake	-12.1315
▁Illegal	-12.1316
▁Math	-12.1316
▁Flame	-12.1319
▁Chip	-12.1323
▁Force	-12.1325
▁Fabulous	-12.1325
▁Privilege	-12.1325
▁Stomp	-12.1325
▁awoke	-12.1325
▁polite	-12.1325
▁Beef	-12.1325
▁Vibrat	-12.1325
edition	-12.1326
▁Position	-12.1326
ibble	-12.1327
▁endless	-12.1327
▁Vital	-12.1328
▁witch	-12.1328
▁wool	-12.1329
▁praise	-12.133
based	-12.1333
irbrush	-12.1334
▁retail	-12.1337
▁Rate	-12.1338
▁compact	-12.1344
▁Slut	-12.1345
▁Mass	-12.1349
▁Cold	-12.135
▁Forest	-12.1351
▁Week	-12.1352
fixed	-12.1352
pv	-12.1352
▁story	-12.1357
focused	-12.1358
▁communist	-12.1359
▁torture	-12.1361
▁Mature	-12.1361
▁unplug	-12.1361
ford	-12.1363
▁alien	-12.1363
▁Curious	-12.1366
▁sour	-12.1366
▁Traditional	-12.1367
▁initial	-12.1368
▁Occasional	-12.1369
▁Steel	-12.137
sume	-12.1371
▁price	-12.1372
▁Slide	-12.1374
▁lat	-12.1377
▁Pap	-12.1384
▁Busy	-12.1384
crunch	-12.1389
▁shi	-12.1393
▁buff	-12.1393
▁hilarious	-12.1396
▁Patent	-12.1396
▁hatch	-12.1397
▁Drip	-12.1398
▁path	-12.1402
▁paddle	-12.1402
▁wing	-12.1402
▁disgusting	-12.1408
▁Fur	-12.141
▁throw	-12.1414
▁Non	-12.1415
symmetrical	-12.1418
ionic	-12.1419
▁Grass	-12.142
atin	-12.1421
▁wall	-12.1424
▁Issue	-12.1425
▁intellectual	-12.1425
▁Trad	-12.1427
theism	-12.1429
▁Tv	-12.1429
▁strict	-12.1429
▁subject	-12.143
intelligent	-12.1431
query	-12.1431
▁Eternal	-12.1431
▁Separate	-12.1431
▁Disappear	-12.1431
▁Piece	-12.1431
▁Consol	-12.1432
▁pvp	-12.1432
▁Titani	-12.1435
▁geek	-12.1436
▁Grin	-12.1437
▁Lend	-12.1437
▁Rip	-12.1439
▁Strict	-12.1441
▁Discover	-12.1442
▁Potential	-12.1443
▁Bubble	-12.1448
▁suit	-12.1449
▁diss	-12.1449
ringe	-12.1449
▁Pump	-12.1452
▁Spy	-12.1453
bps	-12.146
▁film	-12.1467
▁bitcoin	-12.1467
▁Honour	-12.1467
▁alternate	-12.1467
▁retarded	-12.1467
▁disorder	-12.1467
▁Temporar	-12.1467
▁father	-12.1467
▁Subscribe	-12.1467
▁Roast	-12.1467
▁Convert	-12.1468
residential	-12.1468
▁Mega	-12.1468
▁excellent	-12.1469
▁spiral	-12.1469
▁Thrift	-12.1469
▁yaw	-12.1478
▁Absolute	-12.1485
hopper	-12.1485
▁traditional	-12.149
izzy	-12.1498
▁clue	-12.1501
▁juke	-12.1502
▁Circle	-12.1503
▁Order	-12.1503
▁intense	-12.1503
▁sudden	-12.1503
▁Floor	-12.1503
▁Giggl	-12.1503
▁coach	-12.1503
filled	-12.1503
together	-12.1504
▁Dust	-12.1507
▁jealous	-12.1509
▁Shin	-12.151
ulch	-12.1513
▁Spamm	-12.1513
▁awkward	-12.1515
▁spott	-12.1523
▁scrap	-12.153
▁Tall	-12.1533
fluence	-12.1536
▁eternal	-12.1538
▁Proud	-12.1539
troke	-12.1539
▁Delicious	-12.1539
liver	-12.1543
▁Rub	-12.1551
allow	-12.1551
▁flopp	-12.1554
scientific	-12.1555
▁Dim	-12.1555
▁Intense	-12.1556
▁curious	-12.1561
justice	-12.1574
▁Southern	-12.1574
▁Staff	-12.1575
racket	-12.1575
mendment	-12.1575
▁wonderful	-12.1581
▁peek	-12.1582
▁Middle	-12.1586
▁Awkward	-12.1586
rator	-12.1587
▁Reasonable	-12.1589
▁Cheek	-12.1589
▁harm	-12.1593
▁Blink	-12.1593
▁bump	-12.1594
▁Maneuver	-12.1598
tled	-12.16
▁Depend	-12.1604
▁doctor	-12.1607
▁thrill	-12.1607
roach	-12.1608
▁Guard	-12.1609
ffiliate	-12.161
▁Delete	-12.1611
▁Upper	-12.1611
▁ooze	-12.1612
▁slick	-12.1612
cooperative	-12.1613
▁delete	-12.1613
▁Mystic	-12.1614
▁pet	-12.1616
▁Refin	-12.1617
▁Hype	-12.1622
▁replay	-12.1623
▁wack	-12.1626
▁Solve	-12.1628
▁appeal	-12.1635
▁bunch	-12.1641
▁Attend	-12.1644
▁litter	-12.1645
▁Tast	-12.1645
▁False	-12.1647
determined	-12.1647
▁Conflict	-12.1647
▁Powder	-12.1647
▁anecdotal	-12.1647
▁Jewel	-12.1647
▁Reassur	-12.1647
▁proud	-12.1647
▁proceed	-12.1647
▁shade	-12.1648
▁Medi	-12.165
▁Emulat	-12.1651
▁flare	-12.1653
truthful	-12.1653
fc	-12.1654
▁Judge	-12.1654
▁popular	-12.1655
▁Lame	-12.1659
▁Nose	-12.166
lift	-12.1662
▁Download	-12.1667
hef	-12.1667
▁window	-12.1669
▁Express	-12.1675
urban	-12.1676
vailable	-12.1677
▁Numb	-12.1677
▁corrupt	-12.1679
▁Har	-12.1681
lutch	-12.1682
▁Optimis	-12.1683
▁Righteous	-12.1683
▁Borrow	-12.1683
▁usual	-12.1683
▁Ignorant	-12.1684
▁Pond	-12.1685
▁Modest	-12.1686
▁glare	-12.1687
▁terrible	-12.1689
▁pepper	-12.169
▁pearl	-12.1696
▁Leas	-12.1696
▁Hallow	-12.1707
▁Spirit	-12.1707
▁King	-12.1708
▁Converge	-12.1708
▁join	-12.171
▁Join	-12.171
alignment	-12.1714
nuff	-12.1715
▁worth	-12.1716
▁Frugal	-12.172
▁Liberat	-12.172
▁Melanchol	-12.172
▁Omnipoten	-12.172
▁Wealth	-12.172
grateful	-12.172
▁Typical	-12.172
▁Mold	-12.172
▁Impossibl	-12.1721
▁Bottle	-12.1723
▁Slice	-12.1728
▁Gem	-12.1732
▁Ship	-12.1733
▁Content	-12.1734
ridge	-12.1735
▁Deposit	-12.174
signed	-12.1745
▁refund	-12.1746
tc	-12.175
apture	-12.1751
▁audit	-12.1754
▁silver	-12.1755
olunteer	-12.1756
▁Mathematical	-12.1756
▁slack	-12.1756
▁Converse	-12.1757
▁Confuse	-12.1757
▁wet	-12.1758
lied	-12.1758
▁accidental	-12.1759
▁petition	-12.1759
▁grid	-12.176
▁crust	-12.176
pac	-12.1761
▁Philosophical	-12.1766
▁Crisp	-12.1769
▁Reflect	-12.1781
▁amazing	-12.1781
▁experiment	-12.1781
▁download	-12.1789
▁Insur	-12.179
▁Tack	-12.179
▁caution	-12.1793
▁Hopeful	-12.1793
refined	-12.1794
urgent	-12.1795
▁Spark	-12.1795
hubby	-12.1796
▁Different	-12.1797
▁word	-12.1799
related	-12.1799
▁Toy	-12.1801
▁Horrible	-12.1804
▁Motherfuckin	-12.1809
▁Grid	-12.1812
eff	-12.1814
loft	-12.1816
▁approach	-12.1817
▁shower	-12.1819
fx	-12.1821
▁mid	-12.1821
▁access	-12.1821
▁fiddle	-12.1821
aka	-12.1822
▁Guide	-12.1823
remarkable	-12.1825
▁Visual	-12.1829
▁Obscur	-12.183
▁institute	-12.183
▁Decent	-12.183
▁Father	-12.183
▁mature	-12.1831
▁Negative	-12.1831
▁Lucid	-12.1831
▁Worthless	-12.1832
named	-12.1833
▁repli	-12.1834
▁Predict	-12.1834
oise	-12.1839
▁wander	-12.1841
▁fatal	-12.1842
cope	-12.1845
▁Replace	-12.1846
▁Loon	-12.1852
anna	-12.1853
mple	-12.1857
huckle	-12.1857
▁Elaborate	-12.1867
▁Fatigu	-12.1867
▁ignorant	-12.1867
▁uniform	-12.1867
▁malt	-12.1867
▁automatic	-12.1868
▁dodge	-12.1868
▁gloss	-12.1869
crawl	-12.187
▁Rabble	-12.1871
▁Tea	-12.1877
▁Tam	-12.1878
hug	-12.1882
▁Criminal	-12.1882
▁Tumble	-12.1884
bility	-12.1885
▁comp	-12.1886
▁low	-12.1887
▁Modul	-12.1889
▁bow	-12.1889
▁Resonan	-12.1889
lic	-12.1893
▁Diver	-12.1893
▁Restor	-12.1899
▁Contribut	-12.19
▁bare	-12.1901
▁blame	-12.1903
▁effect	-12.1903
▁insult	-12.1904
▁Cloak	-12.1904
steroid	-12.1904
▁Balloon	-12.1905
▁manly	-12.1905
▁Share	-12.1905
▁humble	-12.1905
▁Thr	-12.1905
▁sku	-12.1905
▁fudge	-12.191
▁Humor	-12.1911
▁Carb	-12.1913
▁Mans	-12.1914
distinguishable	-12.1914
▁cloud	-12.1914
▁Intellectual	-12.1916
▁Hit	-12.1916
▁Auto	-12.1917
▁Country	-12.1919
▁profit	-12.192
▁Vocal	-12.1923
▁flipp	-12.1924
▁shin	-12.1925
▁Crazy	-12.1932
▁glitch	-12.1941
▁scream	-12.1941
epot	-12.1942
▁Famous	-12.1942
▁Feather	-12.1942
▁costume	-12.1942
▁Bow	-12.1942
▁Wish	-12.1945
etal	-12.1947
assy	-12.1948
▁Have	-12.1952
edible	-12.1953
aik	-12.1955
▁Supplement	-12.1955
creative	-12.1961
▁destroy	-12.1962
▁Fold	-12.1964
claim	-12.1965
quote	-12.197
▁Correspond	-12.197
▁callous	-12.197
▁Ston	-12.1975
▁Emotional	-12.1976
enounce	-12.1977
▁false	-12.1978
▁chicken	-12.1978
▁Plateau	-12.1979
▁consent	-12.1979
▁negative	-12.1979
▁upgrade	-12.1979
▁cycle	-12.1979
▁critical	-12.1979
fancy	-12.1979
▁Spook	-12.198
▁fuss	-12.1982
▁Clock	-12.1983
▁goof	-12.199
gie	-12.1994
▁toxic	-12.1995
ector	-12.2
hearted	-12.2002
▁Western	-12.2003
▁aware	-12.2003
▁Whip	-12.2004
▁Tho	-12.2005
▁practical	-12.2006
▁boob	-12.2009
fl	-12.2011
tty	-12.2011
▁Swat	-12.2013
errant	-12.2014
▁correspond	-12.2017
▁Inevitabl	-12.2017
▁Intimate	-12.2017
▁mould	-12.2017
▁Prude	-12.2017
▁Foreign	-12.2017
▁spread	-12.2017
▁Hoard	-12.2017
▁Title	-12.2018
nc	-12.2019
▁modest	-12.2019
▁mega	-12.2019
▁Motion	-12.202
efficient	-12.2021
▁yard	-12.2021
organic	-12.2022
▁Coin	-12.2023
▁bath	-12.203
▁Coincide	-12.2031
▁nervous	-12.2031
piral	-12.2034
▁Wicked	-12.2034
▁reel	-12.2036
▁life	-12.2037
▁Hero	-12.2041
och	-12.2043
▁Rank	-12.2045
▁downvote	-12.2046
▁Require	-12.2049
▁Cute	-12.205
▁Sun	-12.2051
▁weak	-12.2052
ouse	-12.2052
usk	-12.2053
▁Jur	-12.2054
cha	-12.2054
▁Erupt	-12.2054
▁elaborate	-12.2054
▁frugal	-12.2054
▁pointless	-12.2054
▁separate	-12.2054
selfish	-12.2055
▁Proof	-12.2055
▁spike	-12.2055
▁campaign	-12.2055
▁rabble	-12.2055
▁Bookmark	-12.2056
▁Set	-12.2056
▁worship	-12.2057
▁summon	-12.2057
▁wicked	-12.2057
▁Mash	-12.2058
▁Manage	-12.2061
▁Premier	-12.2063
▁Limb	-12.2065
confident	-12.2066
▁Shocking	-12.2072
▁Jungle	-12.2073
▁seat	-12.2075
▁cub	-12.2077
ollapse	-12.2078
▁dank	-12.2079
▁core	-12.2082
▁Eff	-12.2083
▁creep	-12.2084
▁Upset	-12.2087
▁Subject	-12.2091
▁Constitutional	-12.2091
dolescent	-12.2092
▁Perpetual	-12.2092
▁Yaw	-12.2092
▁breeze	-12.2092
▁neighbor	-12.2092
▁twitch	-12.2092
▁Psychological	-12.2092
▁gigantic	-12.2094
▁Pointless	-12.2095
▁female	-12.2095
▁esp	-12.2099
▁Upgrade	-12.21
▁thing	-12.2104
▁Cave	-12.2105
▁Narrow	-12.2109
▁Dodge	-12.2115
ache	-12.2122
▁spur	-12.2122
ddon	-12.2124
sv	-12.2124
▁Screen	-12.2125
▁careless	-12.2125
▁Virtual	-12.2125
ww	-12.2129
utton	-12.213
▁especial	-12.213
▁immediate	-12.213
▁bargain	-12.213
▁Bias	-12.213
▁holy	-12.213
▁retreat	-12.2132
election	-12.2133
▁ensu	-12.2133
▁Lime	-12.2136
schedule	-12.2136
▁brake	-12.2138
▁beep	-12.214
▁big	-12.214
▁trash	-12.2141
cb	-12.2144
▁Critical	-12.2149
incer	-12.215
umin	-12.2152
▁audition	-12.2153
inister	-12.2154
▁nav	-12.2154
▁drunk	-12.2156
fusion	-12.2157
▁Yard	-12.2159
▁Shitty	-12.2162
▁Lan	-12.2164
▁Fine	-12.2165
▁bough	-12.2166
▁Wet	-12.2167
▁hood	-12.2167
education	-12.2168
arrange	-12.2168
ncient	-12.2168
▁Redeem	-12.2168
▁Schedule	-12.2168
▁Stead	-12.2168
▁Twitch	-12.2168
▁Amusing	-12.2168
▁Eliminat	-12.2168
▁Quirk	-12.2168
▁Fortunate	-12.2168
▁Insert	-12.2169
▁famous	-12.2169
▁Steep	-12.2169
▁Hopeless	-12.2169
coup	-12.2173
ecessary	-12.2173
ffable	-12.2176
▁Partial	-12.2177
▁Wool	-12.2177
▁donger	-12.2178
▁Geek	-12.218
ppeal	-12.2184
avenous	-12.2186
▁advocate	-12.2188
ffix	-12.219
▁Tie	-12.2195
▁Profess	-12.2195
▁Rac	-12.2196
▁rice	-12.2197
▁peat	-12.2198
▁extra	-12.2201
▁Happ	-12.2201
▁sail	-12.2202
ghast	-12.2203
▁Inform	-12.2203
▁Fanc	-12.2204
democratic	-12.2206
▁Enormous	-12.2207
▁console	-12.2207
▁franchise	-12.2207
▁Glorious	-12.2207
raged	-12.2207
▁Bleach	-12.2207
▁Torture	-12.2207
▁Fear	-12.2207
▁Mort	-12.2207
iche	-12.2207
▁headline	-12.2208
▁Flex	-12.2208
▁narrow	-12.2209
▁tense	-12.221
spoken	-12.221
synchronous	-12.2211
▁gone	-12.2216
▁diver	-12.2217
▁Reli	-12.2217
▁wire	-12.2218
▁Grim	-12.2218
▁Beast	-12.2218
▁herd	-12.222
itted	-12.2231
eductive	-12.2232
added	-12.2237
▁Wax	-12.2238
empire	-12.2243
▁swamp	-12.2244
▁mild	-12.2245
redpill	-12.2245
▁perpetual	-12.2245
▁terrified	-12.2245
▁significant	-12.2246
▁claw	-12.2247
▁Abuse	-12.2248
▁sprint	-12.2248
arth	-12.2249
nkle	-12.2249
ungal	-12.2249
oze	-12.2254
▁tru	-12.2259
▁blow	-12.2262
rasp	-12.2263
▁pretend	-12.2263
▁follow	-12.2266
▁Hour	-12.2266
▁trail	-12.2267
▁Spill	-12.2268
▁function	-12.2269
▁tho	-12.227
▁Deck	-12.227
▁Cow	-12.2271
save	-12.2273
▁Casual	-12.2275
▁Max	-12.2276
▁question	-12.2278
legal	-12.2279
▁Bot	-12.2279
▁electr	-12.2281
▁gang	-12.2281
▁Logical	-12.2281
▁Spec	-12.2284
▁Keg	-12.2284
▁Terrible	-12.2284
▁Stump	-12.2286
▁kit	-12.2287
poopy	-12.229
▁Compact	-12.2293
▁School	-12.2295
▁Brown	-12.2296
▁cunt	-12.2298
amba	-12.2298
urry	-12.23
▁smug	-12.23
▁barrel	-12.2301
inky	-12.2304
▁Outgrow	-12.2306
▁buss	-12.2306
aday	-12.2307
ava	-12.2308
▁culminat	-12.2308
aring	-12.2309
▁Spray	-12.231
▁lunch	-12.2312
▁Confide	-12.2316
steady	-12.2318
▁delay	-12.232
▁goddamn	-12.2321
▁external	-12.2322
▁Previous	-12.2322
▁ugly	-12.2323
▁frown	-12.2323
▁Teenage	-12.2323
▁Behold	-12.2324
▁hopeless	-12.2324
▁city	-12.2324
▁Bid	-12.2325
▁touching	-12.2325
▁plastic	-12.2326
rought	-12.233
▁mob	-12.2331
▁fantastic	-12.2332
lag	-12.2337
▁shop	-12.2337
bate	-12.2339
▁Doctor	-12.2346
▁spy	-12.2349
▁moderate	-12.2351
▁budget	-12.2354
▁Remove	-12.2354
▁manic	-12.2356
▁row	-12.2358
▁global	-12.236
▁asian	-12.2361
▁whore	-12.2361
▁gray	-12.2361
▁defensive	-12.2361
▁Aesthetic	-12.2361
▁External	-12.2361
▁heretic	-12.2361
▁Golf	-12.2361
▁Stretch	-12.2361
▁Kink	-12.2362
▁Consider	-12.2363
▁Bulk	-12.2364
imble	-12.2364
▁Permanent	-12.2364
▁reign	-12.2364
▁door	-12.2366
volve	-12.2367
▁Gap	-12.2375
▁Practical	-12.2381
▁Gent	-12.2381
affirm	-12.2382
▁bat	-12.2389
▁weld	-12.2389
▁page	-12.239
reliable	-12.2393
▁Specialize	-12.2394
erial	-12.2396
▁Praise	-12.2397
ocaine	-12.2399
lumber	-12.24
▁Infamous	-12.24
▁Innocent	-12.24
▁Uniform	-12.24
▁enormous	-12.24
▁nature	-12.24
▁Slack	-12.24
▁Financial	-12.24
▁wife	-12.2401
ecognition	-12.2401
▁marginal	-12.2401
▁Tech	-12.2404
▁Careless	-12.2405
▁export	-12.2406
biased	-12.2407
conceivable	-12.2407
▁Found	-12.2408
▁Spinn	-12.2409
▁cubic	-12.2414
▁domestic	-12.2414
▁Gray	-12.2415
▁string	-12.2423
far	-12.2424
▁Size	-12.243
▁Initial	-12.2435
▁formal	-12.2436
lavic	-12.2437
llusion	-12.2438
ampaign	-12.2439
▁gentle	-12.2439
▁Film	-12.244
▁Produce	-12.244
▁innocent	-12.244
▁intimate	-12.244
▁eager	-12.244
▁Frown	-12.244
▁nap	-12.244
▁legit	-12.2441
moan	-12.2442
owl	-12.2445
pology	-12.2447
toked	-12.2448
▁Masturbat	-12.2449
▁Hood	-12.245
▁Funk	-12.2451
▁Humble	-12.2451
▁Wander	-12.2451
▁Dart	-12.2451
▁Traumati	-12.2456
ernt	-12.2458
▁mum	-12.246
▁case	-12.2463
▁flicker	-12.2464
▁waist	-12.2465
▁orangered	-12.2466
▁shiny	-12.247
▁station	-12.2476
▁Snap	-12.2477
▁Defend	-12.2478
jury	-12.2479
▁reserve	-12.2479
▁Insult	-12.2479
▁benefit	-12.2479
hamster	-12.2479
▁steep	-12.248
▁mighty	-12.248
▁Packag	-12.248
▁Ethnic	-12.2481
▁motherfucking	-12.2481
stringent	-12.2484
gape	-12.2486
▁Inhuman	-12.2486
▁prank	-12.2487
▁growl	-12.2487
adjust	-12.2488
asset	-12.2489
esse	-12.2491
▁Motor	-12.2492
▁poll	-12.2496
▁attempt	-12.25
▁Thing	-12.25
▁jar	-12.2505
▁yellow	-12.2506
grown	-12.2506
▁Extra	-12.2507
▁provide	-12.2509
▁hustle	-12.2509
▁creepy	-12.2509
▁Captain	-12.2512
▁drunken	-12.2513
atch	-12.2514
▁tint	-12.2514
▁Retire	-12.2516
igantic	-12.2516
bland	-12.2517
▁ocean	-12.2517
▁opera	-12.2518
▁ruthless	-12.2519
▁scramble	-12.2519
▁underperform	-12.2519
▁Restrict	-12.2519
▁Faithful	-12.2519
▁foolish	-12.2519
▁Tragic	-12.2519
▁motion	-12.2519
▁Bleed	-12.252
▁Glaci	-12.252
▁input	-12.252
▁Crust	-12.252
▁Door	-12.2521
▁Malt	-12.2522
▁blossom	-12.2522
▁Condo	-12.2522
▁yell	-12.2522
▁elbow	-12.2523
▁handy	-12.2524
▁beta	-12.2525
▁Gar	-12.2529
ntly	-12.2531
verb	-12.2533
▁insane	-12.2536
▁Heal	-12.2537
▁Poison	-12.2543
omit	-12.2544
▁dry	-12.2545
▁philosophical	-12.2546
▁hop	-12.2547
▁Wank	-12.255
▁Refresh	-12.2551
▁groom	-12.2555
▁Suspen	-12.2556
▁Big	-12.2558
sullied	-12.2558
▁Further	-12.2558
▁Recogniz	-12.2558
▁Square	-12.2558
▁oblivious	-12.2558
▁dispatch	-12.2558
ignity	-12.2558
▁fence	-12.2558
▁replace	-12.2559
▁jew	-12.2559
▁Warp	-12.2559
▁Spread	-12.2559
▁climax	-12.2559
▁distress	-12.256
connected	-12.2563
agged	-12.2563
▁dust	-12.2563
▁crowd	-12.2565
▁Urban	-12.2565
▁Unit	-12.2565
development	-12.2565
▁Genuine	-12.2565
▁objection	-12.2565
▁forg	-12.2566
▁Morbid	-12.2567
▁bitter	-12.2569
▁Intentional	-12.257
▁Fuss	-12.257
▁Pretend	-12.2572
patriotic	-12.2572
▁vocal	-12.2573
iking	-12.2575
▁Aware	-12.2576
▁Thick	-12.2576
▁Scroll	-12.2578
▁Aid	-12.2581
▁Fantastic	-12.2582
▁Wag	-12.2583
undle	-12.2583
anny	-12.2586
▁Bog	-12.2587
civilized	-12.2587
▁Ham	-12.2589
▁reason	-12.2589
conventional	-12.2591
ensitive	-12.2593
▁Genetic	-12.2594
▁Clue	-12.2597
▁Expect	-12.2598
▁sane	-12.2598
spent	-12.2598
▁Scream	-12.2598
▁Sentenc	-12.2598
▁prestige	-12.2598
▁persever	-12.2598
▁hopeful	-12.2598
▁damned	-12.2598
▁Bodi	-12.2599
▁morbid	-12.2599
▁channel	-12.2599
▁engineer	-12.2599
voke	-12.26
▁impossible	-12.2601
▁comb	-12.2602
▁Electric	-12.2605
nvil	-12.2606
▁plunge	-12.2607
▁Dial	-12.2607
▁copi	-12.2607
▁Holy	-12.2609
▁shocked	-12.261
ssignment	-12.2611
▁Twi	-12.2613
rass	-12.2616
▁Generat	-12.2617
▁Enlighten	-12.2619
▁Repair	-12.2619
▁harvest	-12.2621
▁Stride	-12.2623
▁Liquid	-12.2624
▁pulp	-12.2627
▁Profit	-12.2629
▁whistle	-12.2629
▁genetic	-12.2633
▁progress	-12.2634
▁proposition	-12.2634
▁dripp	-12.2636
▁stain	-12.2637
▁Suggest	-12.2637
▁Blatant	-12.2638
▁Malicious	-12.2638
▁desperate	-12.2638
▁marathon	-12.2638
▁Retail	-12.2638
▁pissed	-12.2638
▁woman	-12.2638
▁Biological	-12.2638
▁Shark	-12.2638
▁option	-12.2638
▁Bead	-12.2638
▁flock	-12.264
▁construct	-12.2641
▁brick	-12.2644
▁Cri	-12.2645
rchive	-12.2645
oster	-12.2649
▁Essential	-12.2651
ocal	-12.2651
▁Energiz	-12.2652
▁bail	-12.2656
▁Exterminat	-12.2657
rmite	-12.2657
▁Lust	-12.2658
▁absolute	-12.2658
▁whisper	-12.2661
▁Frustrat	-12.2663
▁childish	-12.2664
▁Groov	-12.2668
▁Ease	-12.2669
▁Credit	-12.2669
irman	-12.2675
▁surge	-12.2676
▁Patriarch	-12.2676
▁scrip	-12.2677
▁Circlejerk	-12.2678
▁infamous	-12.2678
▁malicious	-12.2678
▁suffice	-12.2678
▁jogg	-12.2678
▁Rigid	-12.2678
▁buddy	-12.2678
▁Allege	-12.2678
▁Dock	-12.2679
▁Commission	-12.2679
▁Football	-12.2679
▁rupture	-12.268
▁cock	-12.2682
▁Pepper	-12.2683
▁chip	-12.2683
▁Booz	-12.2684
▁Whine	-12.2686
▁whitelist	-12.2687
▁Revel	-12.2687
▁skate	-12.2687
▁gum	-12.2689
▁risk	-12.2689
▁Flip	-12.2694
▁Experiment	-12.2695
▁Existen	-12.2696
▁Ethical	-12.2696
▁palm	-12.2696
aggot	-12.2698
▁Wall	-12.2699
qualified	-12.27
gnosticism	-12.2703
▁Baby	-12.2706
▁Nervous	-12.2707
▁Crap	-12.2708
▁tier	-12.2708
▁dive	-12.2709
▁Forgive	-12.2711
spiration	-12.2713
▁subsid	-12.2713
▁Disagree	-12.2714
irplane	-12.2719
▁Euphori	-12.2719
▁Ghast	-12.2719
▁brother	-12.2719
▁dull	-12.2719
▁Manifest	-12.2719
▁Prison	-12.2719
▁Excus	-12.2719
valuable	-12.2719
▁chest	-12.2719
cky	-12.272
tk	-12.272
▁fourth	-12.2721
▁stubborn	-12.2723
▁iron	-12.2723
▁signal	-12.2725
▁Town	-12.2725
▁visual	-12.2726
▁occasional	-12.2727
hash	-12.273
▁Tar	-12.273
▁eng	-12.2732
▁Defeat	-12.2733
▁Reside	-12.2733
▁Carry	-12.2735
ttempt	-12.2738
▁Lev	-12.2739
▁Sea	-12.2743
thanol	-12.2744
▁craft	-12.2754
owel	-12.2755
▁Grav	-12.2757
spoiled	-12.2759
attle	-12.2759
▁Blaze	-12.2759
▁Concern	-12.2759
▁Introvert	-12.2759
▁Underperform	-12.2759
▁explosive	-12.2759
▁reveal	-12.2759
▁vertical	-12.2759
▁Truthful	-12.2759
▁Eager	-12.2759
▁homebrew	-12.276
▁mouse	-12.276
▁Interfere	-12.276
▁Function	-12.2761
▁paper	-12.2764
▁confidential	-12.2766
▁Defect	-12.2767
▁Fib	-12.2767
erse	-12.2768
▁Little	-12.277
▁fault	-12.2771
aison	-12.2773
▁Attractive	-12.2775
▁Relative	-12.2775
▁fear	-12.2778
dvocate	-12.2779
trapped	-12.278
▁Mush	-12.278
▁Slick	-12.2782
▁Batter	-12.2787
▁Reve	-12.2787
sort	-12.279
▁Center	-12.279
▁Terrifi	-12.2793
quash	-12.2798
▁pile	-12.2799
dministrative	-12.28
griculture	-12.28
▁Paranoi	-12.28
▁converse	-12.28
▁evidence	-12.28
▁dock	-12.28
▁Firefight	-12.28
▁Explosive	-12.28
▁Wrinkl	-12.2802
▁pattern	-12.2802
▁shoppe	-12.2805
auge	-12.2806
▁glove	-12.2807
bode	-12.2811
odin	-12.2815
▁Approach	-12.2816
▁Will	-12.2819
stuck	-12.2821
▁chalk	-12.2821
▁originat	-12.2823
▁loop	-12.2823
▁Bitter	-12.2824
▁Bond	-12.2828
▁alive	-12.2831
ignal	-12.2831
loat	-12.2831
▁Silver	-12.2832
▁Consent	-12.284
godly	-12.284
udition	-12.284
▁Indirect	-12.2841
▁Scramble	-12.2841
▁graduate	-12.2841
▁harsh	-12.2841
▁sentence	-12.2841
▁glass	-12.2841
▁vomit	-12.2841
▁Foolish	-12.2841
▁happy	-12.2841
▁Chicken	-12.2842
▁Transition	-12.2842
▁traffic	-12.2843
▁waltz	-12.2843
▁overflow	-12.2843
stairs	-12.2845
▁Scout	-12.2845
▁bowl	-12.2847
▁begg	-12.2847
▁lust	-12.2847
▁breach	-12.2848
▁Lug	-12.2853
▁annual	-12.2855
▁With	-12.2859
▁Plug	-12.286
otary	-12.2865
disputed	-12.2865
▁photo	-12.2865
▁Excited	-12.2869
▁Pain	-12.2873
▁Grip	-12.2873
oodle	-12.2874
▁Stain	-12.2878
▁multi	-12.2879
▁Mechanical	-12.2879
▁system	-12.288
▁Caution	-12.288
▁nuke	-12.288
▁Effect	-12.2881
▁blitz	-12.2881
▁Systematic	-12.2881
nomaly	-12.2882
▁Biblical	-12.2882
▁Legitimate	-12.2882
▁carpet	-12.2882
▁spoiler	-12.2882
▁Mould	-12.2882
▁Mood	-12.2882
▁chocolate	-12.2882
▁flesh	-12.2882
▁Disorder	-12.2882
obble	-12.2883
▁tea	-12.2883
▁blanket	-12.2885
▁Choi	-12.2885
▁male	-12.2885
▁rem	-12.2885
▁Use	-12.2886
▁victim	-12.2888
▁explain	-12.289
▁responsible	-12.289
▁Callous	-12.289
▁Social	-12.2893
▁smell	-12.2893
▁assault	-12.2894
▁epic	-12.2894
▁Anal	-12.2897
ecede	-12.2898
▁Shred	-12.2899
▁Pickle	-12.2901
▁Flake	-12.2902
▁fine	-12.2906
▁slave	-12.2909
▁Trace	-12.2913
mphetamine	-12.2923
▁Ruthless	-12.2923
▁Summon	-12.2923
▁Thirst	-12.2923
▁lecture	-12.2923
▁psychological	-12.2923
▁racist	-12.2923
▁Dull	-12.2923
▁Harsh	-12.2923
▁incredible	-12.2923
▁chinese	-12.2924
marr	-12.2927
▁confused	-12.2928
▁Gloss	-12.2929
▁Faci	-12.293
▁Reel	-12.2931
▁Prop	-12.2934
▁Plunge	-12.2934
▁Drunk	-12.2938
ellow	-12.2938
woosh	-12.2938
quest	-12.2941
▁Receive	-12.2942
▁healthy	-12.2948
noticed	-12.2951
▁axe	-12.2951
▁Shiny	-12.2957
rewarding	-12.2959
▁lamb	-12.2961
concerned	-12.2962
▁mountain	-12.2963
▁Elder	-12.2964
▁Hypothetical	-12.2964
▁Microwav	-12.2964
▁Refund	-12.2964
▁Silk	-12.2964
▁league	-12.2964
▁practice	-12.2964
▁throne	-12.2964
▁imperfect	-12.2964
▁pony	-12.2964
eagle	-12.2964
▁Damned	-12.2964
▁venture	-12.2964
▁Mock	-12.2965
▁resume	-12.2965
▁Leaf	-12.2966
▁couch	-12.2966
▁Legit	-12.2966
▁immortal	-12.2967
▁peer	-12.2968
▁Convenient	-12.297
▁peak	-12.297
alsa	-12.2974
▁grade	-12.2978
▁polar	-12.2981
itta	-12.2982
▁guilty	-12.2986
▁Narrat	-12.2986
▁gunn	-12.2987
rw	-12.2987
▁numb	-12.2988
▁Growl	-12.2992
▁Sprint	-12.2993
▁Send	-12.2993
▁Pearl	-12.2994
sustainable	-12.2996
etition	-12.2999
▁lane	-12.3003
▁Yell	-12.3005
▁snoop	-12.3005
mbulance	-12.3005
symmetry	-12.3005
▁fragment	-12.3005
▁galactic	-12.3005
▁marijuana	-12.3005
▁unfair	-12.3005
▁partition	-12.3005
▁Recent	-12.3006
ecency	-12.3006
▁Gentle	-12.3006
▁precede	-12.3006
▁Costume	-12.3006
▁preside	-12.3006
▁impact	-12.3007
▁punk	-12.3008
▁Bit	-12.3011
▁Appear	-12.3013
▁Grade	-12.3015
▁Accord	-12.3016
▁classic	-12.3018
▁whisk	-12.3018
enjoyable	-12.3019
nsure	-12.3019
▁Defensive	-12.3021
▁hear	-12.3021
▁Chuck	-12.3022
▁Prestig	-12.3023
nnouncer	-12.3023
▁cluster	-12.3023
▁heavy	-12.3024
▁Mention	-12.3027
asci	-12.3029
▁grant	-12.303
utility	-12.3033
▁enable	-12.3034
stated	-12.3035
▁sent	-12.3039
humanity	-12.3042
▁Swamp	-12.3043
▁Snoop	-12.3043
▁narrat	-12.3043
evolved	-12.3044
▁Plastic	-12.3044
aughter	-12.3045
ourth	-12.3046
ideshow	-12.3047
elegant	-12.3047
▁Unfair	-12.3047
▁Vertical	-12.3047
▁Sincere	-12.3047
▁Oblivious	-12.3048
▁Grump	-12.3048
▁champion	-12.3049
▁Reckless	-12.305
▁bullshit	-12.305
ffair	-12.305
▁gamble	-12.305
▁tie	-12.305
▁chopp	-12.3051
▁wav	-12.3051
▁multiple	-12.3053
▁weed	-12.3054
▁Unbelievabl	-12.3054
▁chain	-12.3055
▁author	-12.306
▁virtual	-12.306
▁Pose	-12.3062
▁cute	-12.3063
▁License	-12.3064
rbor	-12.3065
▁Wire	-12.3066
ttraction	-12.3071
▁alarm	-12.3071
▁trick	-12.3071
▁shocking	-12.3073
arily	-12.3074
▁lagg	-12.3077
▁sling	-12.3078
hatter	-12.3078
▁chance	-12.308
rbiter	-12.3081
animate	-12.3081
ussie	-12.3083
emonic	-12.3084
▁Maintain	-12.3086
otch	-12.3086
▁Swap	-12.3089
fterlife	-12.3089
▁mathematical	-12.3089
▁russian	-12.3089
▁amusing	-12.3089
▁Imperfect	-12.3089
▁Comparative	-12.3089
▁Muscl	-12.3089
▁laser	-12.3089
genda	-12.3089
▁Glitch	-12.3089
▁toy	-12.3089
equipped	-12.3089
▁Mere	-12.3089
▁Beaut	-12.3092
isuse	-12.3094
▁boa	-12.3096
▁Polic	-12.3098
checked	-12.31
▁stamp	-12.3102
▁Commercial	-12.3104
etter	-12.3107
▁irrational	-12.3108
▁Format	-12.311
▁Sore	-12.3114
▁Buss	-12.3117
▁snow	-12.312
▁Reject	-12.312
▁Expos	-12.312
▁hope	-12.3121
▁promis	-12.3121
estitution	-12.3122
▁fan	-12.3123
▁Epic	-12.3124
▁Left	-12.3125
▁finish	-12.3127
▁Propos	-12.3128
invent	-12.3129
▁retire	-12.313
lucid	-12.3131
thlete	-12.3131
▁Episod	-12.3131
▁heap	-12.3131
▁Persever	-12.3131
▁insinuat	-12.3131
veil	-12.3131
▁Vegan	-12.3132
▁catalog	-12.3132
▁nasty	-12.3133
▁snort	-12.3133
▁Collect	-12.3133
dio	-12.3134
▁hint	-12.3135
▁forgot	-12.3135
symptomatic	-12.3136
own	-12.3137
▁fork	-12.3137
▁belt	-12.3138
anine	-12.3138
▁dim	-12.3138
satisfied	-12.3139
▁Witch	-12.3139
uthenticator	-12.3139
▁pirate	-12.3139
▁Flop	-12.3141
vite	-12.3142
▁condemn	-12.3146
▁angry	-12.3146
▁Creepy	-12.3147
handler	-12.3149
▁supplement	-12.3151
▁Path	-12.3151
▁pri	-12.3152
▁Alien	-12.3153
▁toot	-12.3153
▁Minimal	-12.3159
▁Bath	-12.316
▁Pregnan	-12.3162
▁friendly	-12.3164
▁standard	-12.3165
lbow	-12.3168
▁Organize	-12.3169
aughty	-12.317
▁Bos	-12.317
▁Torrent	-12.3172
▁Buck	-12.3172
limax	-12.3172
▁Dynamic	-12.3173
▁permanent	-12.3173
mbition	-12.3173
▁grief	-12.3173
▁Raise	-12.3173
▁bisexual	-12.3173
▁Evaluat	-12.3173
▁Lamp	-12.3173
▁Defiant	-12.3174
▁reckless	-12.3174
argo	-12.3175
▁phase	-12.3177
▁ego	-12.3178
▁null	-12.3181
▁Squish	-12.3182
▁Ordinar	-12.3183
plenty	-12.3184
curvy	-12.3185
▁Unfortunate	-12.3186
▁Weather	-12.3187
▁stretch	-12.3187
▁site	-12.3188
▁Neck	-12.3191
dept	-12.3191
▁hell	-12.3193
▁Mul	-12.3195
orum	-12.3197
▁Gum	-12.3197
▁Theoretical	-12.3199
▁Institute	-12.32
uthority	-12.3201
▁fictional	-12.3202
▁Mode	-12.3203
▁Section	-12.3204
▁loath	-12.3204
▁Claw	-12.3205
▁rent	-12.3206
▁outg	-12.321
▁court	-12.3212
▁Primar	-12.3212
xtinguisher	-12.3213
answered	-12.3213
▁beach	-12.3213
nterior	-12.3215
uxiliary	-12.3216
▁Keen	-12.3216
▁Marathon	-12.3216
▁pregnant	-12.3216
▁sympathize	-12.3216
▁lawyer	-12.3216
▁official	-12.3216
▁previous	-12.3216
▁supposed	-12.3216
▁heel	-12.3216
▁Technological	-12.3216
▁lime	-12.3216
▁stroll	-12.3216
▁Unsupport	-12.3218
▁Ironic	-12.3219
▁precious	-12.3219
▁Unleash	-12.3223
▁Smug	-12.3223
▁leader	-12.3224
▁Timi	-12.3224
▁Reign	-12.3226
▁sore	-12.3226
▁Lung	-12.3228
▁nerd	-12.323
▁Appropriate	-12.3232
waddle	-12.3233
▁indent	-12.3236
▁Drill	-12.3238
▁mute	-12.3239
attention	-12.324
▁Oil	-12.324
copy	-12.3241
explained	-12.3244
▁Grit	-12.3246
▁crumb	-12.3249
▁Ventur	-12.3251
srs	-12.3252
licensed	-12.3253
▁Quas	-12.3255
▁motherfuckin	-12.3256
▁young	-12.3258
▁radio	-12.3258
lmanac	-12.3258
udience	-12.3258
▁Equivalent	-12.3258
▁staple	-12.3258
▁Trot	-12.3258
▁Pvp	-12.3258
leather	-12.3259
▁upload	-12.3259
▁husk	-12.3259
▁Family	-12.3259
dmitted	-12.326
nort	-12.326
▁shiver	-12.3261
▁Romantic	-12.3261
▁Leave	-12.3263
▁Coach	-12.3263
utomobile	-12.3264
▁adorable	-12.3269
▁Mag	-12.327
▁Predictabl	-12.327
▁salvage	-12.3273
raze	-12.3273
▁Equaliz	-12.3274
▁Dom	-12.3275
▁Heavy	-12.3276
▁punt	-12.3277
▁Access	-12.3277
cg	-12.3278
▁freaking	-12.3279
▁humanist	-12.3283
epressive	-12.3288
▁Forge	-12.329
▁badass	-12.3293
▁Virgin	-12.3293
▁gem	-12.3294
▁Wiggl	-12.3294
lossom	-12.3298
ounge	-12.3298
upture	-12.3299
cademia	-12.3301
llergy	-12.3301
▁Benefi	-12.3301
▁Recharge	-12.3301
▁financial	-12.3301
▁fortunate	-12.3301
▁repetitive	-12.3301
▁science	-12.3301
▁Fraction	-12.3301
▁erotic	-12.3301
▁ugg	-12.3301
▁Statistical	-12.3301
▁Cultural	-12.3301
mplifier	-12.3301
▁Rememb	-12.3301
▁Ultimate	-12.3301
▁Pleasant	-12.3301
▁slant	-12.3301
▁hungry	-12.3302
▁Russia	-12.3303
byssal	-12.3303
▁Cubic	-12.3304
▁accord	-12.3305
ateful	-12.3306
▁sack	-12.3308
▁Eventual	-12.3308
▁Palm	-12.3308
▁sparr	-12.331
breakable	-12.3312
▁business	-12.3315
▁Homosexual	-12.3318
▁abso	-12.332
▁Quant	-12.3321
▁party	-12.3323
▁Gang	-12.3325
▁polariz	-12.3325
▁Prank	-12.3325
▁drill	-12.3333
▁Unidentifi	-12.3337
▁moon	-12.3338
▁chipp	-12.334
▁distill	-12.3341
hinese	-12.3343
▁Tag	-12.3343
▁strain	-12.3343
invited	-12.3344
monad	-12.3344
cronym	-12.3344
▁Consistent	-12.3344
▁Tug	-12.3344
▁squint	-12.3344
▁cancell	-12.3344
▁Preside	-12.3344
▁Unacceptabl	-12.3345
▁Occupation	-12.3346
urian	-12.3346
iety	-12.3348
ssumption	-12.3351
▁Slim	-12.3351
atio	-12.3351
nalysis	-12.3355
killed	-12.3356
▁Root	-12.3359
talented	-12.3359
▁Adapt	-12.336
▁Fry	-12.3362
couse	-12.3362
▁Enable	-12.3366
▁ready	-12.3367
▁fluffy	-12.3367
▁adopt	-12.3372
▁Qui	-12.3374
rozen	-12.3377
▁immoral	-12.3377
ngry	-12.3379
▁Internal	-12.3381
ebut	-12.3381
▁Nurse	-12.3382
▁Mob	-12.3382
slander	-12.3383
▁Handy	-12.3385
▁Straight	-12.3385
omme	-12.3385
motivated	-12.3386
assisted	-12.3387
pparel	-12.3387
▁Unusual	-12.3387
▁Whitelist	-12.3387
▁octave	-12.3387
▁cosplay	-12.3387
▁Heres	-12.3387
▁Scragg	-12.3387
▁Justice	-12.3387
▁pressure	-12.3387
▁Nature	-12.3387
iki	-12.3387
▁googl	-12.3387
▁legendary	-12.3387
ixture	-12.3389
▁Success	-12.3392
▁tower	-12.3392
ejected	-12.3393
▁sight	-12.3394
rchitecture	-12.3395
▁Hire	-12.3397
▁Depart	-12.3399
▁Official	-12.3401
▁filthy	-12.3402
▁Beg	-12.3402
▁tender	-12.3402
▁raw	-12.3405
▁boat	-12.3406
▁casual	-12.3406
published	-12.3411
powered	-12.3412
ymore	-12.3413
▁slump	-12.3414
▁Historical	-12.3415
▁Voluntar	-12.3418
▁credit	-12.3418
uppet	-12.3424
reservation	-12.3427
altz	-12.3428
▁Rebel	-12.3428
▁Barg	-12.3428
frog	-12.3429
▁depart	-12.3429
▁Unblock	-12.343
mixed	-12.343
luminum	-12.343
pocalypse	-12.343
strology	-12.343
▁Bitcoin	-12.343
▁Subsequent	-12.343
▁bacon	-12.343
▁humiliat	-12.343
vatar	-12.343
▁Gravitational	-12.343
▁Label	-12.3431
▁Vanish	-12.3432
▁Replay	-12.3433
▁Originat	-12.3434
compatible	-12.3434
▁Swim	-12.3435
▁Headline	-12.3435
ocratic	-12.3437
destructible	-12.344
▁laud	-12.3442
▁decay	-12.3442
▁Slipper	-12.3443
▁maxim	-12.3445
▁appropriate	-12.3446
▁Classic	-12.3447
prepared	-12.3448
▁bun	-12.3448
ular	-12.3449
▁rattle	-12.345
▁radical	-12.345
▁Comb	-12.3457
ccountant	-12.3458
▁Allow	-12.3458
▁Imagin	-12.3459
eddit	-12.346
weighted	-12.3467
ooper	-12.3469
▁Emb	-12.3469
▁husband	-12.3469
responsive	-12.3473
▁extrem	-12.3473
lmond	-12.3474
▁Neat	-12.3474
ctivist	-12.3474
ccutane	-12.3474
ppetite	-12.3474
rtifact	-12.3474
valanche	-12.3474
▁Explicit	-12.3474
▁Refrigerat	-12.3474
▁biological	-12.3474
▁obscure	-12.3474
▁jug	-12.3474
▁Donate	-12.3474
▁Squint	-12.3474
attended	-12.3474
▁donate	-12.3474
▁Image	-12.3475
▁Impressive	-12.3475
pick	-12.3476
▁keen	-12.3476
▁whipp	-12.3477
▁Glass	-12.3483
▁checker	-12.3485
▁Bush	-12.3485
▁essential	-12.3486
▁treat	-12.3489
▁whin	-12.3489
▁Glar	-12.3493
▁clueless	-12.3494
▁Chance	-12.3494
▁Momm	-12.3497
▁Steer	-12.3499
llation	-12.3502
comparable	-12.3505
▁character	-12.3506
▁transgender	-12.3506
▁Competitive	-12.351
▁pimp	-12.3512
▁fundamental	-12.3515
▁Groom	-12.3516
▁Childish	-12.3516
damaged	-12.3517
nxiety	-12.3517
▁Neighbor	-12.3517
▁Premature	-12.3517
▁Unnatural	-12.3517
▁lovely	-12.3517
▁Wife	-12.3517
ridden	-12.3517
▁purge	-12.3517
▁Precede	-12.3518
▁Bargain	-12.3518
▁Medical	-12.3518
▁clunk	-12.3518
▁straighten	-12.3519
ennant	-12.3523
▁Moment	-12.3523
▁Herd	-12.3524
▁wound	-12.3524
▁debate	-12.3528
▁shave	-12.3531
itute	-12.3532
▁Core	-12.3533
ousing	-12.3535
▁Flesh	-12.3536
capable	-12.3539
▁hang	-12.3541
▁Soooooo	-12.3547
▁spit	-12.3551
▁Sane	-12.3553
▁Station	-12.3553
▁Fox	-12.3554
▁sensational	-12.3555
▁Reason	-12.3556
▁Outdo	-12.3558
▁convey	-12.356
▁Socializ	-12.356
verthrow	-12.356
ipstick	-12.3561
▁Zig	-12.3561
ftermarket	-12.3561
rchipelago	-12.3561
▁Hijack	-12.3561
▁fiscal	-12.3561
▁remember	-12.3561
▁sniff	-12.3561
▁treasure	-12.3561
ntenna	-12.3561
▁Grain	-12.3561
▁Stereotypical	-12.3561
▁Dominant	-12.3562
▁collar	-12.3562
▁giggle	-12.3563
▁Pleasur	-12.3563
▁struggle	-12.3563
▁gorgeous	-12.3563
▁Physic	-12.3565
▁truth	-12.3565
▁expensive	-12.3566
▁cur	-12.3566
▁Budget	-12.3567
▁pledge	-12.3568
ssociate	-12.3569
djustment	-12.357
▁puck	-12.3573
▁brewer	-12.3574
▁associate	-12.3575
▁Cord	-12.3576
▁terrorist	-12.3578
▁Homophobi	-12.3578
▁salty	-12.3585
▁Lob	-12.3585
▁Bell	-12.3585
lanket	-12.3588
▁sweep	-12.3589
▁Glu	-12.3589
▁spiritual	-12.3589
emotion	-12.3589
charted	-12.3591
▁Boost	-12.3593
evaluation	-12.3595
▁Occup	-12.3597
▁Eviden	-12.3598
omebody	-12.3603
▁bloody	-12.3603
▁aesthetic	-12.3605
ctivation	-12.3605
dministrator	-12.3605
▁Consensual	-12.3605
▁dynamic	-12.3605
▁estimate	-12.3605
▁fluid	-12.3605
▁constitute	-12.3605
▁Bumme	-12.3606
▁disagree	-12.3607
motionless	-12.3609
▁Eng	-12.361
▁Erran	-12.3611
▁putt	-12.3612
▁exit	-12.3612
▁Compress	-12.3613
ibs	-12.3613
coff	-12.3613
▁tab	-12.3614
listed	-12.3615
▁glut	-12.3616
▁Plain	-12.3616
▁Culminat	-12.3616
informative	-12.3617
orough	-12.3618
▁Barb	-12.3624
▁Wrestle	-12.3624
endi	-12.3625
lapsed	-12.3628
▁measure	-12.363
▁dirty	-12.3632
▁offer	-12.3632
▁pray	-12.3633
▁Divide	-12.3633
ssault	-12.3639
▁Tier	-12.3643
▁hut	-12.3644
ppe	-12.3646
▁scary	-12.3646
junction	-12.3649
▁Blitz	-12.3649
▁Scientific	-12.3649
eroplane	-12.3649
lchemy	-12.3649
nthology	-12.3649
quarium	-12.3649
rrogance	-12.3649
utobahn	-12.3649
▁Crucial	-12.3649
▁Fascist	-12.3649
▁Repetitive	-12.3649
▁Suffic	-12.3649
▁fleet	-12.3649
▁unusual	-12.3649
▁paraphras	-12.3649
pplication	-12.365
▁Stroll	-12.365
▁recent	-12.365
▁Sympathize	-12.365
uplex	-12.365
▁knife	-12.365
rchery	-12.365
▁reference	-12.365
defined	-12.3652
▁butcher	-12.3654
▁mere	-12.3654
▁fumble	-12.3655
▁Hea	-12.3656
▁curl	-12.3657
▁ramble	-12.3658
equality	-12.3658
▁Elit	-12.3659
▁rubber	-12.366
▁guaranteed	-12.3661
▁prem	-12.3661
▁Humanist	-12.3662
▁Wipe	-12.3664
▁Culture	-12.3665
diagnosed	-12.3666
▁Web	-12.3668
▁cartoon	-12.3669
attached	-12.3669
pork	-12.3672
▁wep	-12.3672
▁Downvote	-12.3673
vill	-12.3675
▁Experimental	-12.3676
▁shitt	-12.3676
▁Remarkabl	-12.3676
tuned	-12.3684
▁Distress	-12.3685
alter	-12.3687
huffle	-12.3692
▁partial	-12.3693
rthritis	-12.3694
▁Believe	-12.3694
▁Blunt	-12.3694
▁equivalent	-12.3694
▁restless	-12.3694
▁Filter	-12.3694
▁Willful	-12.3694
▁technological	-12.3694
drenaline	-12.3694
rtwork	-12.3696
compatibility	-12.3697
▁dope	-12.3697
introduction	-12.3697
▁glance	-12.3697
bsolution	-12.3698
tml	-12.3702
▁firm	-12.3704
▁theoretical	-12.3705
etta	-12.3708
▁Mum	-12.3711
▁Environmental	-12.3711
▁arab	-12.3715
▁parti	-12.3717
▁Trou	-12.372
▁Peer	-12.3721
▁found	-12.3728
▁Resurrect	-12.3728
▁depend	-12.373
▁season	-12.3731
ssent	-12.3732
▁Whin	-12.3732
arrel	-12.3733
ecurity	-12.3736
▁length	-12.3736
▁Audit	-12.3737
▁Reap	-12.3737
▁monarch	-12.3737
mmunity	-12.3738
▁central	-12.3738
rtosis	-12.3739
utumn	-12.3739
▁Extraordinar	-12.3739
▁Galactic	-12.3739
▁Lethal	-12.3739
▁Phras	-12.3739
▁excited	-12.3739
▁revenge	-12.3739
▁systematic	-12.3739
difference	-12.3739
▁Kom	-12.3739
▁tutor	-12.3739
▁gravitational	-12.3739
▁Easy	-12.3739
▁valve	-12.3739
▁edgy	-12.374
▁Drunken	-12.374
▁Upload	-12.3741
▁genuine	-12.3743
▁Funny	-12.3744
pressed	-12.3744
▁Breathe	-12.3744
ffin	-12.3745
▁Practi	-12.3745
▁goddamned	-12.3745
▁historic	-12.3748
▁Regulat	-12.3749
▁Fashion	-12.3749
iva	-12.375
▁Universalis	-12.3752
▁Sap	-12.3756
▁Spiritual	-12.3757
▁Micro	-12.3759
aptor	-12.3759
▁verbal	-12.3761
pillage	-12.3761
▁Rapid	-12.3761
azed	-12.3762
rgumentum	-12.3762
▁Assist	-12.3763
▁Raw	-12.3764
▁Winter	-12.3766
▁savage	-12.3769
▁Classical	-12.3769
▁crit	-12.377
▁Overcom	-12.3771
▁Descend	-12.3773
▁strap	-12.3773
▁Swoo	-12.3776
▁logo	-12.3776
tainted	-12.3778
▁Emerge	-12.3779
recious	-12.378
salted	-12.3783
ligible	-12.3783
ddendum	-12.3783
▁Relax	-12.3783
▁meaningless	-12.3783
▁Scaveng	-12.3783
▁Fluid	-12.3783
▁reiterat	-12.3783
▁Delightful	-12.3783
▁gravitat	-12.3783
▁Wobbl	-12.3785
▁suspect	-12.3786
▁Horrific	-12.3786
jure	-12.3787
▁wifi	-12.3787
▁rant	-12.3788
▁Tac	-12.3788
▁necessary	-12.3788
▁Shun	-12.3789
▁Impact	-12.379
▁Alternative	-12.379
▁Exist	-12.3792
▁Launch	-12.3793
utism	-12.3793
▁Rage	-12.3795
lope	-12.3796
adness	-12.3797
inny	-12.3798
changed	-12.3802
▁Macho	-12.3805
▁Poof	-12.3805
▁Understandabl	-12.3808
▁Penetrat	-12.3809
arguabl	-12.381
▁Adorable	-12.381
▁dribble	-12.381
bp	-12.3811
▁Confidential	-12.3812
▁Bus	-12.3813
▁step	-12.3814
processed	-12.3814
earful	-12.3816
▁topp	-12.3816
ragged	-12.3822
orporate	-12.3822
▁roof	-12.3824
compile	-12.3827
▁machine	-12.3828
▁deco	-12.3828
ftermath	-12.3828
▁Eminent	-12.3828
▁Franchise	-12.3828
▁Obnoxious	-12.3828
▁Unofficial	-12.3828
▁premature	-12.3828
▁Dope	-12.3828
▁conform	-12.3829
lligator	-12.3829
▁Realistic	-12.3829
▁Electronic	-12.3829
▁Shower	-12.383
▁sandwich	-12.383
dultery	-12.3831
▁Manufacture	-12.3831
▁painter	-12.3833
▁sun	-12.3834
protected	-12.3835
▁Objection	-12.3835
▁Authentic	-12.3836
▁Marbl	-12.3837
▁avenge	-12.3837
▁Tender	-12.384
▁Naive	-12.3844
▁exchange	-12.3844
▁repeated	-12.3844
▁bring	-12.3845
▁mechanical	-12.3849
▁Govern	-12.3849
▁charge	-12.3855
▁invalid	-12.3856
▁Tint	-12.3857
shamed	-12.386
fidelity	-12.386
▁politic	-12.3862
clear	-12.3866
▁escalat	-12.387
▁violat	-12.387
▁Peat	-12.3872
rsenic	-12.3874
lpaca	-12.3874
▁Laud	-12.3874
▁shallow	-12.3874
▁Excessive	-12.3874
▁rapid	-12.3874
▁Slay	-12.3875
modified	-12.3875
rmlet	-12.3875
▁Muslim	-12.3875
▁sipp	-12.3875
▁pocket	-12.3875
▁lament	-12.3876
▁Purg	-12.3876
corporation	-12.3876
nglophone	-12.3877
▁british	-12.3877
ungry	-12.3877
ssistant	-12.3878
ulf	-12.3881
ulate	-12.3881
▁Champion	-12.3881
washed	-12.3881
njutsu	-12.3883
like	-12.3883
cing	-12.3884
▁small	-12.3884
▁Belt	-12.3885
▁bench	-12.3886
blogged	-12.3886
▁Parl	-12.3887
▁stick	-12.3888
▁Pile	-12.3889
▁hail	-12.3892
▁Nail	-12.3894
ruffle	-12.3899
▁Neutral	-12.3899
▁Bite	-12.39
enlightened	-12.3901
▁blend	-12.3903
ftp	-12.3903
orbid	-12.3906
▁Psi	-12.3908
▁reload	-12.3908
▁Grant	-12.3909
▁Cunt	-12.391
▁mock	-12.3911
▁pound	-12.3911
▁Chest	-12.3913
▁Educat	-12.3915
▁Stubborn	-12.3916
ccessibility	-12.3919
ctivator	-12.3919
▁Bruise	-12.3919
▁Heretic	-12.3919
▁Humiliat	-12.3919
▁Hygien	-12.3919
▁Style	-12.3919
▁Surprising	-12.3919
▁bloom	-12.3919
▁repeal	-12.3919
▁unpopular	-12.3919
▁Sniff	-12.3919
▁tragic	-12.3919
iesta	-12.392
rop	-12.392
▁Firm	-12.3921
intuitive	-12.3922
▁outrage	-12.3923
sx	-12.3925
▁relative	-12.3927
▁Lane	-12.3928
dvancement	-12.3933
▁Respons	-12.3937
▁Sever	-12.3938
ssassination	-12.3938
epository	-12.3938
▁Think	-12.3938
avel	-12.3941
▁Relate	-12.3941
▁Text	-12.3944
lover	-12.3945
curry	-12.3949
▁Selfish	-12.3949
▁Grand	-12.3951
▁derp	-12.3951
aq	-12.3952
▁Compete	-12.3955
edium	-12.3956
▁honor	-12.3961
orgeous	-12.3963
raffic	-12.3963
▁doze	-12.3964
uspect	-12.3964
establish	-12.3965
▁Benevolen	-12.3965
▁Oscillat	-12.3965
grarian	-12.3965
irbender	-12.3965
irport	-12.3965
narchism	-12.3965
pplause	-12.3965
▁Efficient	-12.3965
▁Exorcis	-12.3965
▁alleged	-12.3965
▁biblical	-12.3965
▁potato	-12.3965
▁subsequent	-12.3965
cademy	-12.3965
▁reappear	-12.3965
▁Savage	-12.3965
▁Collective	-12.3966
▁Straighten	-12.3967
▁surrender	-12.3967
▁stereotype	-12.3968
ttachment	-12.3968
▁bribe	-12.3968
▁Convict	-12.397
▁dissociat	-12.3971
ccelerator	-12.3971
▁Gib	-12.3972
▁Unemploy	-12.3973
▁diffus	-12.3973
▁unfortunate	-12.3974
▁crap	-12.398
▁Disappointing	-12.398
▁sneak	-12.3982
▁stop	-12.3983
sell	-12.3984
▁Cling	-12.3986
▁Honor	-12.3986
bred	-12.3986
▁Soul	-12.399
ovie	-12.399
▁Juic	-12.3999
founded	-12.4
oooooo	-12.4003
▁meter	-12.4003
▁Qualifi	-12.4004
▁sang	-12.4006
affordable	-12.4007
▁Jugg	-12.4008
lost	-12.4008
▁care	-12.401
▁Fiscal	-12.4011
▁eminent	-12.4011
▁indirect	-12.4011
▁northern	-12.4011
lvl	-12.4011
▁Laser	-12.4011
▁Arch	-12.4011
▁combat	-12.4011
▁reinforce	-12.4011
▁Smuggl	-12.4012
▁Retrieve	-12.4012
▁Stagnat	-12.4012
unic	-12.4012
▁salute	-12.4013
controversial	-12.4015
ssessment	-12.4015
▁Orc	-12.4017
beaten	-12.4019
organized	-12.4019
▁Option	-12.402
▁Mortal	-12.402
▁ethical	-12.4021
▁Reload	-12.4022
▁photoshop	-12.4022
▁Brother	-12.4023
▁damm	-12.4025
▁Hound	-12.4025
▁Constant	-12.4026
▁Abso	-12.4027
lude	-12.4027
▁disconnect	-12.4029
▁proportional	-12.403
▁Badass	-12.4031
▁Clinical	-12.4031
gs	-12.4031
▁Ramp	-12.4032
▁behavior	-12.4032
ruff	-12.4033
▁information	-12.4033
▁yield	-12.4037
aternity	-12.4038
▁defect	-12.404
▁Bribe	-12.4042
▁optic	-12.4044
▁Dire	-12.4046
▁Rhetorical	-12.4049
▁Athletic	-12.4051
eral	-12.4055
▁Absent	-12.4056
llegiance	-12.4057
mmunition	-12.4057
varice	-12.4057
▁Dispatch	-12.4057
▁Vivid	-12.4057
▁exempt	-12.4057
▁youtuber	-12.4057
inux	-12.4057
▁Lawyer	-12.4057
▁Pattern	-12.4057
enotype	-12.4057
▁Paraphras	-12.4057
decision	-12.4057
▁Dreadful	-12.4057
▁term	-12.4057
▁Poetic	-12.4058
▁flail	-12.4058
▁caught	-12.4058
▁shuffle	-12.4059
▁Mindless	-12.4059
▁Scrapp	-12.406
tended	-12.406
▁gravel	-12.4061
▁Condescending	-12.4063
▁Subsid	-12.4064
▁Doll	-12.4064
▁blunt	-12.4065
▁Waist	-12.4065
inary	-12.4066
▁Bail	-12.4066
▁trip	-12.4072
▁pretentious	-12.4077
▁Tid	-12.4078
▁Clap	-12.4078
iphon	-12.4079
▁alert	-12.408
▁sensationalist	-12.4082
▁Rad	-12.4082
painted	-12.4084
possum	-12.4086
branded	-12.4087
usty	-12.4089
▁Pm	-12.4092
▁Certif	-12.4093
▁Remov	-12.4096
eacon	-12.41
viation	-12.41
▁Woman	-12.4102
hiver	-12.4103
limony	-12.4103
ppreciation	-12.4103
▁Arrogant	-12.4103
▁Comprehensive	-12.4103
▁Irreversibl	-12.4103
▁Unhealth	-12.4103
▁blatant	-12.4103
▁cliche	-12.4103
▁crucial	-12.4103
▁emphasis	-12.4103
▁hypothetical	-12.4103
▁obnoxious	-12.4103
▁unnatural	-12.4103
▁Generic	-12.4103
▁sincere	-12.4103
▁indian	-12.4103
hock	-12.4103
▁Passionate	-12.4103
▁Reiterat	-12.4103
▁Homebrew	-12.4107
▁exercise	-12.4107
classifi	-12.4108
▁Rattle	-12.411
▁Video	-12.411
greement	-12.411
▁role	-12.411
▁Reviv	-12.4114
▁Whore	-12.4114
umor	-12.4117
solved	-12.4119
▁yeast	-12.412
▁Nuke	-12.4123
occupied	-12.4127
eaten	-12.4128
ttacker	-12.4128
audible	-12.4128
▁statist	-12.4129
elief	-12.4131
chu	-12.4132
▁Fluctuat	-12.4133
▁Phon	-12.4134
▁repair	-12.4135
▁Rif	-12.4135
eduction	-12.4137
▁Job	-12.4137
▁Offer	-12.4141
▁sadden	-12.4143
▁peace	-12.4144
▁Court	-12.4144
▁Couch	-12.4145
▁gift	-12.4146
▁Detest	-12.4147
▁Stamp	-12.4147
▁leg	-12.4147
▁teen	-12.4148
hannel	-12.4149
pyro	-12.4149
▁scholar	-12.4149
ttorney	-12.415
▁Astounding	-12.415
▁Breathtaking	-12.415
▁Brick	-12.415
▁dominant	-12.415
▁sample	-12.415
▁soldier	-12.415
▁merit	-12.415
▁Monetar	-12.415
▁fret	-12.415
▁stereotypical	-12.415
▁vanish	-12.415
▁Cosplay	-12.415
lgae	-12.415
▁Artistic	-12.415
altered	-12.415
▁Intensive	-12.415
intended	-12.4153
egendary	-12.4154
tuition	-12.4154
▁Persistent	-12.4155
▁mint	-12.4157
▁extract	-12.4157
▁Terrific	-12.4157
formative	-12.416
▁Intercept	-12.4161
▁Reconstruct	-12.4163
▁Ray	-12.4164
▁experimental	-12.4164
▁descend	-12.4167
ican	-12.4168
bortion	-12.4169
daptability	-12.4169
▁Explor	-12.4171
pped	-12.4171
▁tripp	-12.4172
nicker	-12.4174
▁Dirt	-12.4174
▁Office	-12.4177
ooch	-12.4178
▁internal	-12.4178
tch	-12.4178
▁decline	-12.4179
placement	-12.4179
▁Nod	-12.4185
gony	-12.4186
▁Zipp	-12.4186
labeled	-12.4188
▁Pod	-12.4193
▁Drag	-12.4193
▁detest	-12.4194
▁House	-12.4194
▁Birthda	-12.4195
▁Electora	-12.4195
ayment	-12.4196
▁Swift	-12.4196
▁video	-12.4196
necdote	-12.4196
▁Insufficient	-12.4196
▁astounding	-12.4196
▁Solemn	-12.4196
▁comparative	-12.4196
▁vape	-12.4196
▁scale	-12.4196
▁ultimate	-12.4197
compressed	-12.4197
▁Slant	-12.4197
▁slender	-12.4197
▁mellow	-12.4197
▁Restless	-12.4198
▁Undo	-12.4198
usterity	-12.4199
▁Deist	-12.4201
▁dire	-12.4203
▁superpower	-12.4207
▁incomplete	-12.4212
▁abandon	-12.4213
grounded	-12.4217
▁Modif	-12.4218
▁Pat	-12.4219
▁penn	-12.422
▁Clothe	-12.4222
▁Proportional	-12.4224
▁Gui	-12.4224
▁Formal	-12.4227
▁sketch	-12.4227
ebuff	-12.4231
lp	-12.4233
▁brace	-12.4234
▁Upvote	-12.4234
▁Optional	-12.4236
▁Signif	-12.4237
▁Abandon	-12.4239
▁Disturb	-12.424
alute	-12.4241
nimator	-12.4242
▁regret	-12.4242
▁recruit	-12.4243
ockey	-12.4243
disturbed	-12.4243
▁Inappropriate	-12.4243
▁Lecture	-12.4243
▁Mysterious	-12.4243
▁Unintentional	-12.4243
▁consensual	-12.4243
▁legitimate	-12.4243
▁profile	-12.4243
▁thumb	-12.4243
▁Visibl	-12.4243
▁roam	-12.4243
▁delightful	-12.4243
▁lawless	-12.4244
▁Heel	-12.4244
▁Zep	-12.4244
▁swoon	-12.4244
▁Fragil	-12.4244
bjectivity	-12.4244
▁Obsessive	-12.4245
▁vol	-12.4245
▁Peg	-12.4246
latitude	-12.4247
▁flaming	-12.425
kept	-12.425
▁Bounce	-12.4251
rooted	-12.4257
▁wip	-12.4258
▁Diverge	-12.4259
▁Weave	-12.426
▁jazz	-12.4261
▁dwarf	-12.4262
▁Sickening	-12.4263
▁sim	-12.4263
▁mot	-12.4264
▁hid	-12.4264
▁cart	-12.4265
▁stubb	-12.4265
drafted	-12.4268
▁Small	-12.4268
▁should	-12.4273
▁Monarch	-12.4274
bbed	-12.4276
▁layer	-12.4276
▁Radical	-12.4279
▁Exceptional	-12.428
▁Overdo	-12.428
▁Futur	-12.4281
arf	-12.4282
▁Indulge	-12.4283
▁Machine	-12.4283
daptation	-12.4288
▁minimal	-12.4288
pathy	-12.4289
▁humor	-12.4289
nniversary	-12.429
scendancy	-12.429
▁Carpet	-12.429
▁Sensor	-12.429
▁scene	-12.429
▁unofficial	-12.429
▁Export	-12.429
▁Haul	-12.429
▁consistent	-12.429
▁further	-12.429
▁Chocolate	-12.4291
▁Crate	-12.4291
eepee	-12.4291
▁homeless	-12.4291
▁Fierce	-12.4292
▁gentleman	-12.4292
enthusiastic	-12.4294
flexible	-12.4296
robability	-12.4297
▁chronic	-12.43
▁Pacif	-12.43
▁Bizarre	-12.4301
▁Gravel	-12.4301
nchorman	-12.4303
▁shill	-12.4306
▁spare	-12.4309
▁signifi	-12.4312
ndpoint	-12.4312
cess	-12.4313
come	-12.4316
▁coward	-12.4316
▁senior	-12.4317
▁dread	-12.4318
uction	-12.4318
▁Meek	-12.4318
▁Spoiler	-12.4318
▁Vegetarian	-12.432
▁classical	-12.4324
▁Crumb	-12.4328
▁nut	-12.4329
▁Bounc	-12.433
▁Recruit	-12.4331
rawn	-12.4332
▁plum	-12.4333
▁exceptional	-12.4333
▁morph	-12.4334
▁Victim	-12.4334
▁conceal	-12.4336
urrender	-12.4336
▁winter	-12.4337
rmistice	-12.4338
stronaut	-12.4338
▁Fragment	-12.4338
▁Identical	-12.4338
▁Kryptoni	-12.4338
▁Technolog	-12.4338
▁Unconditional	-12.4338
▁pleasant	-12.4338
▁refuge	-12.4338
▁Reappear	-12.4338
▁Grateful	-12.4338
▁Licenc	-12.4338
▁dreadful	-12.4338
▁Heavi	-12.4338
▁Bisexual	-12.4338
credibly	-12.4339
uther	-12.4339
▁overstock	-12.434
▁mindless	-12.434
focus	-12.4346
feasible	-12.4347
▁Refreshing	-12.4347
▁collaborat	-12.4348
▁asexual	-12.4349
▁denial	-12.435
▁underage	-12.435
etting	-12.4351
▁drain	-12.4352
▁Punt	-12.4352
▁Gear	-12.4353
▁wink	-12.4355
unni	-12.4355
▁drown	-12.4357
utty	-12.4358
▁conversation	-12.4358
truggle	-12.4358
▁Avenge	-12.436
finity	-12.4362
▁Covert	-12.4362
antle	-12.4364
▁medical	-12.4368
▁Domin	-12.4369
▁Boa	-12.437
scendant	-12.437
ttractiveness	-12.4373
▁organ	-12.438
arrot	-12.4381
▁sigh	-12.4382
▁Retract	-12.4382
▁mugg	-12.4383
▁Wan	-12.4384
▁thought	-12.4384
huffed	-12.4384
▁Doze	-12.4385
injured	-12.4385
swear	-12.4385
▁Immaculate	-12.4385
▁Merciful	-12.4385
▁Octave	-12.4385
▁Succesful	-12.4385
▁explicit	-12.4385
▁fatigue	-12.4385
▁vulgar	-12.4385
tmosphere	-12.4385
▁Repuls	-12.4385
▁intensive	-12.4385
▁overreact	-12.4385
▁vault	-12.4386
▁Dense	-12.4386
▁Obstruct	-12.4386
▁excessive	-12.4386
▁Cooperative	-12.4386
tonement	-12.4387
▁glimpse	-12.4388
▁keyboard	-12.4388
▁noo	-12.4389
▁bald	-12.439
▁Skip	-12.4391
▁Male	-12.4394
▁Ribb	-12.4394
ssume	-12.4396
▁Snark	-12.4399
▁comic	-12.4402
▁Weed	-12.4402
▁Hash	-12.4404
▁driver	-12.4405
▁Wii	-12.441
▁Adopt	-12.4412
▁occur	-12.4417
▁twi	-12.442
▁rip	-12.4424
▁scalp	-12.4425
▁sew	-12.4425
▁Script	-12.4433
sophisticated	-12.4433
▁Hatch	-12.4433
nonymity	-12.4433
rtillery	-12.4433
sphalt	-12.4433
▁Exquisite	-12.4433
▁Ludicrous	-12.4433
▁Monstrous	-12.4433
▁Rabid	-12.4433
▁Seamless	-12.4433
▁fierce	-12.4433
▁ignore	-12.4433
▁vivid	-12.4433
ccompany	-12.4433
damantium	-12.4433
▁tweet	-12.4433
▁Lurk	-12.4433
arcraft	-12.4433
▁harmonic	-12.4433
▁uninstall	-12.4434
subscribed	-12.4434
▁consult	-12.4434
urable	-12.4435
▁Hulk	-12.4435
▁throttle	-12.4435
▁roar	-12.4436
▁exhibition	-12.4437
subbed	-12.4437
▁clash	-12.4438
▁diet	-12.444
▁Trouble	-12.444
▁health	-12.444
▁Banish	-12.444
▁empower	-12.444
avement	-12.4442
▁fetish	-12.4446
aster	-12.4454
▁Pun	-12.4455
▁Axe	-12.4456
▁wank	-12.4456
arring	-12.4457
neer	-12.4457
▁Irrational	-12.4467
▁Flag	-12.4469
▁Bullshit	-12.4472
ffliction	-12.4473
touched	-12.4475
flavored	-12.4475
▁Statist	-12.4475
▁Regional	-12.4476
▁Hormonal	-12.4479
bundance	-12.448
▁colour	-12.448
▁emerge	-12.4481
▁dawn	-12.4481
mmonia	-12.4481
nthrax	-12.4481
phromoo	-12.4481
▁Cluster	-12.4481
▁Marijuana	-12.4481
▁Pursue	-12.4481
▁Staple	-12.4481
▁defiant	-12.4481
▁fracture	-12.4481
▁identical	-12.4481
▁unintentional	-12.4481
▁Adamant	-12.4481
▁Gratuitous	-12.4481
▁cultural	-12.4481
▁Smog	-12.4481
▁Diplomatic	-12.4481
▁Scruff	-12.4481
▁Continuous	-12.4482
▁Would	-12.4482
▁poetic	-12.4482
▁naive	-12.4482
▁musk	-12.4482
▁Pirate	-12.4483
▁plain	-12.4484
▁disappointing	-12.4486
▁condescending	-12.4486
▁Dare	-12.4488
oist	-12.4489
hipper	-12.449
tari	-12.449
▁broker	-12.4491
▁desert	-12.4492
▁Strain	-12.4492
▁Flaw	-12.4494
▁eventual	-12.4494
ccountability	-12.4495
▁Conscious	-12.4496
osh	-12.4497
▁republican	-12.4497
▁stern	-12.45
▁Honorabl	-12.45
▁Frank	-12.45
▁commence	-12.4501
▁Lobby	-12.4501
ious	-12.4502
lunk	-12.4508
▁Trivial	-12.4509
▁penal	-12.451
sis	-12.4511
▁Muse	-12.4513
dible	-12.4513
arried	-12.4518
▁batt	-12.4521
▁neutral	-12.4522
▁soooooo	-12.4525
▁flex	-12.4527
ssociation	-12.4528
troversion	-12.4529
▁lemon	-12.4529
pproval	-12.453
tomizer	-12.453
viator	-12.453
▁Autonomous	-12.453
▁Concentrate	-12.453
▁Erotic	-12.453
▁Intermittent	-12.453
▁Outstanding	-12.453
▁horrific	-12.453
▁inherit	-12.453
▁obsessive	-12.453
dvertising	-12.453
▁loan	-12.453
▁solemn	-12.453
bsence	-12.453
▁wrinkle	-12.453
▁would	-12.453
▁pigment	-12.453
▁convertible	-12.4531
▁Organic	-12.4531
▁grasp	-12.4532
▁prop	-12.4533
▁divorce	-12.4534
▁Regress	-12.4534
leek	-12.4539
▁stake	-12.4542
uke	-12.4542
▁Evolutionar	-12.4543
▁Art	-12.4545
▁Runn	-12.4545
design	-12.4549
▁scratch	-12.4549
▁interject	-12.4555
▁detract	-12.4561
lteration	-12.4563
▁Excis	-12.4564
▁deviat	-12.4566
▁Linger	-12.4567
otted	-12.4568
launcher	-12.4569
▁Conventional	-12.457
▁Punk	-12.4571
▁Beach	-12.4573
rmory	-12.4573
reheat	-12.4575
▁Annual	-12.4575
▁Kidd	-12.4576
▁period	-12.4577
oem	-12.4578
ggression	-12.4578
oluble	-12.4578
▁Merciless	-12.4578
▁Objectivis	-12.4578
▁Science	-12.4578
▁arrogant	-12.4578
▁burrow	-12.4578
▁comprehensive	-12.4578
▁grapple	-12.4578
▁insufficient	-12.4578
▁bizarre	-12.4578
ikido	-12.4578
▁Cart	-12.4578
▁fray	-12.4578
▁Extensive	-12.4578
▁Earnest	-12.4579
hipping	-12.458
▁sidebar	-12.458
▁gauge	-12.4581
▁trot	-12.4582
▁scoop	-12.4582
eice	-12.4582
ceased	-12.4582
▁Mobil	-12.4582
▁Tour	-12.4582
▁Racial	-12.4583
▁Skeptical	-12.4584
▁Browse	-12.4587
▁Tend	-12.4587
▁assume	-12.4588
▁prepp	-12.4593
▁Perus	-12.4593
▁Tile	-12.4595
dvertisement	-12.4597
▁Absurd	-12.4599
ripper	-12.46
▁Torch	-12.4607
▁Radiat	-12.4607
▁principle	-12.4608
unfire	-12.4609
▁Suppress	-12.461
▁Stunning	-12.461
arin	-12.4611
▁Roof	-12.4611
orse	-12.4612
▁Abnormal	-12.4612
▁Devi	-12.4615
▁entertain	-12.4615
▁forest	-12.4616
▁barge	-12.4616
▁march	-12.4616
▁Wot	-12.4617
▁miscarri	-12.4618
▁knee	-12.4619
▁demonstrat	-12.4619
▁rev	-12.462
▁Spike	-12.4623
ssistance	-12.4626
▁orange	-12.4627
censored	-12.4627
▁Partition	-12.4627
▁Sentien	-12.4627
▁generic	-12.4627
▁gossip	-12.4627
▁merciful	-12.4627
▁sequence	-12.4627
▁Exceed	-12.4627
▁Unrealistic	-12.4627
▁statistical	-12.4627
visibility	-12.4627
▁Inexpensive	-12.4627
▁Definitive	-12.4627
▁realistic	-12.4628
▁Remedi	-12.4628
▁electronic	-12.4628
▁Fuk	-12.4628
nthropology	-12.4628
▁Idiotic	-12.4628
▁sabotage	-12.4629
jection	-12.4629
tact	-12.463
▁Rubber	-12.4631
onkey	-12.4631
▁bless	-12.4632
▁leverage	-12.4633
▁Immortal	-12.4633
ladder	-12.4636
▁Baffl	-12.4636
eddle	-12.4636
ustard	-12.4641
▁eve	-12.4647
depth	-12.4647
▁Oral	-12.4648
▁Sight	-12.4649
▁migrat	-12.4649
fill	-12.4649
ault	-12.4653
possessed	-12.4655
tim	-12.4655
▁Habit	-12.4656
▁tin	-12.4656
▁Fork	-12.4656
▁mea	-12.466
produced	-12.466
typed	-12.466
▁cue	-12.4661
▁Harass	-12.4662
▁conflict	-12.4664
▁Gut	-12.4666
▁Immoral	-12.4667
▁Sustainabl	-12.4668
model	-12.4669
▁reli	-12.4669
▁neat	-12.4669
educe	-12.4669
▁Extremis	-12.4672
nalyst	-12.4673
▁flower	-12.4673
▁Boob	-12.4674
▁squirt	-12.4675
▁money	-12.4676
▁Meaningless	-12.4676
▁breathtaking	-12.4676
▁mysterious	-12.4676
▁surprising	-12.4676
▁Bloom	-12.4676
▁Grief	-12.4676
▁persistent	-12.4676
▁Cliche	-12.4676
▁willful	-12.4676
▁grace	-12.4676
glaze	-12.4677
erpe	-12.4677
▁stonewall	-12.4678
▁Sleigh	-12.4679
▁shaft	-12.468
worthy	-12.4681
▁Lodg	-12.4681
▁Infect	-12.4683
ield	-12.4683
▁alternative	-12.4685
▁Vampir	-12.4685
▁Puss	-12.4685
▁reward	-12.4686
▁infest	-12.4686
▁Flatter	-12.4694
divided	-12.47
▁waver	-12.4703
rune	-12.4704
▁Fogg	-12.4704
taken	-12.4704
▁Tidal	-12.4705
▁Rot	-12.4705
▁Sip	-12.4711
▁aid	-12.4713
▁Plumb	-12.4713
▁Hostil	-12.4714
▁cloth	-12.4714
▁orchestra	-12.4717
▁Handle	-12.4718
▁Wav	-12.4718
▁assert	-12.4719
▁Skim	-12.4721
▁Drug	-12.4722
ritish	-12.4722
▁Tutor	-12.4724
▁debt	-12.4724
▁Network	-12.4724
vocado	-12.4725
▁Handsome	-12.4725
▁Immature	-12.4725
▁Plausibl	-12.4725
▁Sensibl	-12.4725
▁Tremendous	-12.4725
▁Utopia	-12.4725
▁Zin	-12.4725
▁pleasure	-12.4725
▁queue	-12.4725
▁rabid	-12.4725
▁succesful	-12.4725
▁technology	-12.4725
▁Generous	-12.4725
▁Robber	-12.4725
▁Conservative	-12.4725
▁Disrespectful	-12.4725
▁Crook	-12.4726
▁Texture	-12.4726
uger	-12.4726
▁artistic	-12.4726
▁Ledge	-12.4727
▁Pony	-12.4727
▁Flapp	-12.4729
▁Heroin	-12.4729
▁Parallel	-12.4729
ncestry	-12.4729
appreciated	-12.4731
▁Fantas	-12.4732
▁Manic	-12.4733
▁robe	-12.4733
▁sunburn	-12.4736
▁Fun	-12.4736
assemble	-12.4736
▁Tonal	-12.4737
▁Condemn	-12.4737
oogie	-12.4737
▁predator	-12.4738
▁gui	-12.4741
▁Stil	-12.4741
▁Fav	-12.4741
▁sickening	-12.4741
▁squeak	-12.4746
▁hacker	-12.4746
▁Marginal	-12.4747
▁number	-12.4747
▁Stern	-12.4748
▁Aggressive	-12.4749
▁lobby	-12.4753
▁Pressur	-12.4753
▁Gravitat	-12.4754
▁granula	-12.4754
▁Maxim	-12.4755
▁Wir	-12.4755
cluded	-12.4764
▁absent	-12.477
estine	-12.4771
ached	-12.4771
▁Apart	-12.4772
▁Character	-12.4772
wesomeness	-12.4774
▁Empower	-12.4775
▁Thumb	-12.4775
dministration	-12.4775
lchemist	-12.4775
ntichrist	-12.4775
▁Northern	-12.4775
▁Profound	-12.4775
▁Upscal	-12.4775
▁foam	-12.4775
▁ludicrous	-12.4775
▁platform	-12.4775
▁passionate	-12.4775
▁Throne	-12.4775
▁dense	-12.4775
▁continuous	-12.4775
▁mediat	-12.4775
▁Government	-12.4775
▁camouflage	-12.4776
▁idiotic	-12.4776
▁Creative	-12.4777
authorized	-12.4777
▁Butcher	-12.4779
ayside	-12.4781
▁grey	-12.4782
▁Refer	-12.4782
cquisition	-12.4783
▁doubt	-12.4786
▁Fiance	-12.4786
▁clinical	-12.4786
nippy	-12.4786
ssociative	-12.4792
▁Avid	-12.4792
covered	-12.4792
▁outdoor	-12.4793
xpensive	-12.48
▁burglar	-12.4801
ealty	-12.4803
▁Asexual	-12.4805
▁Vigilant	-12.4807
▁Geni	-12.4808
ecline	-12.4812
flationary	-12.4814
▁app	-12.4815
▁aggressive	-12.4816
▁weapon	-12.4816
▁Obes	-12.4817
▁skeptical	-12.4817
▁Date	-12.482
▁Polariz	-12.4821
limpse	-12.4822
▁info	-12.4824
▁Omniscien	-12.4825
eild	-12.4825
▁Inaccurate	-12.4825
▁Valiant	-12.4825
▁Vulgar	-12.4825
▁decree	-12.4825
▁hesitat	-12.4825
▁inappropriate	-12.4825
▁waterproof	-12.4825
▁Hegemon	-12.4825
▁heterosexual	-12.4825
▁Roam	-12.4825
▁Peaceful	-12.4825
▁stunning	-12.4825
▁Prompt	-12.4825
▁Precipitat	-12.4825
▁Hideous	-12.4825
▁Unpopular	-12.4825
ristocratic	-12.4825
atitude	-12.4825
▁cocaine	-12.4826
▁telegraph	-12.4826
abridged	-12.4826
▁reboot	-12.4827
▁Domestic	-12.4827
▁Needless	-12.4827
▁Tramp	-12.4828
▁hose	-12.4828
▁Rotation	-12.4829
▁Bak	-12.4831
▁spill	-12.4832
▁Wargam	-12.4839
▁Sanct	-12.4839
mentioned	-12.484
▁Historic	-12.4844
haft	-12.4845
▁rhetorical	-12.4846
▁sponsor	-12.4847
▁Make	-12.4851
▁refreshing	-12.4855
▁regional	-12.4857
ketchup	-12.4858
▁ground	-12.4859
▁Reus	-12.486
▁Pub	-12.486
▁infringe	-12.4861
▁upvote	-12.4861
▁remind	-12.4861
▁Chase	-12.4863
▁overs	-12.4865
▁Pulp	-12.4866
▁napp	-12.4867
▁Fundamentalis	-12.4868
▁optimis	-12.4869
titled	-12.4871
▁Humane	-12.4871
▁standardiz	-12.4871
acktrack	-12.4872
▁Chalk	-12.4872
eferral	-12.4873
atrox	-12.4875
ntisemitism	-12.4875
pprehend	-12.4875
scension	-12.4875
▁Crippling	-12.4875
▁Flaming	-12.4875
▁Sarcastic	-12.4875
▁Ugg	-12.4875
▁Uncomfortabl	-12.4875
▁exquisite	-12.4875
▁plague	-12.4875
▁silhouette	-12.4875
▁terrific	-12.4875
▁unconditional	-12.4875
▁disrespectful	-12.4875
▁given	-12.4875
▁Overreact	-12.4875
▁Sooth	-12.4875
vulnerability	-12.4875
▁Central	-12.4875
▁malfunction	-12.4875
▁Reinforce	-12.4876
▁hiss	-12.4876
▁Barre	-12.4877
▁gesture	-12.4877
▁meek	-12.4877
▁backtrack	-12.4878
▁Kitte	-12.4878
ngling	-12.4879
▁duplicate	-12.4879
▁Husk	-12.4881
▁atheist	-12.4884
▁Minimalist	-12.4886
▁Glove	-12.4886
▁programm	-12.4888
▁Mouse	-12.4889
utler	-12.4891
▁Overwhelming	-12.4891
▁Assert	-12.4891
chievement	-12.4892
▁absurd	-12.4894
▁Procedural	-12.4895
▁Alarm	-12.4895
▁Remark	-12.4895
▁Participat	-12.4896
closed	-12.4896
▁Leather	-12.49
▁commercial	-12.49
▁squ	-12.4902
▁Dive	-12.4903
▁dough	-12.4905
umpy	-12.4906
▁Grey	-12.4909
▁Legaliz	-12.491
▁dice	-12.4915
▁Nutritional	-12.4916
cured	-12.4917
▁Mint	-12.4918
▁Viole	-12.4919
etention	-12.492
▁ambush	-12.492
▁Prem	-12.492
▁restore	-12.4921
▁pair	-12.4921
▁Establish	-12.4921
lunder	-12.4922
▁feel	-12.4923
▁System	-12.4923
▁Wrap	-12.4924
▁humane	-12.4924
luminium	-12.4925
rmchair	-12.4925
ssembly	-12.4925
▁Pathetic	-12.4925
▁extensive	-12.4925
▁inexpensive	-12.4925
▁intermittent	-12.4925
▁pulse	-12.4925
▁Conserv	-12.4925
▁Buddy	-12.4925
▁Tamp	-12.4925
▁rivet	-12.4925
▁highlight	-12.4925
▁shutter	-12.4927
▁Unnecessar	-12.4927
▁stitch	-12.4927
▁optional	-12.4927
▁repost	-12.4927
▁Bald	-12.4928
▁sunk	-12.4928
▁lace	-12.4928
▁Remote	-12.4929
nome	-12.493
▁Hydrat	-12.4932
▁mole	-12.4933
▁Glaz	-12.4935
▁screenshot	-12.4942
▁Sala	-12.4942
guided	-12.4943
▁Abstract	-12.4943
▁writ	-12.4944
▁crime	-12.4948
▁Cos	-12.4948
uthentication	-12.4949
▁curb	-12.4951
ighth	-12.4953
▁prey	-12.4954
▁limit	-12.4955
▁Crew	-12.4956
▁Ensu	-12.4956
lounge	-12.4957
yclist	-12.4958
▁Mire	-12.496
▁Punish	-12.4961
trained	-12.4961
▁triggered	-12.4962
▁Squat	-12.4967
▁Sigh	-12.497
▁attribute	-12.497
corch	-12.4973
▁psychopath	-12.4974
egro	-12.4974
▁Intelligent	-12.4975
bstinence	-12.4975
▁Emphasis	-12.4975
▁Horrifying	-12.4975
▁League	-12.4975
▁Notorious	-12.4975
▁Ostensibl	-12.4975
▁episode	-12.4975
▁procedural	-12.4975
▁profound	-12.4975
▁caption	-12.4975
▁locate	-12.4975
▁diplomatic	-12.4975
▁Urin	-12.4976
▁Equat	-12.4976
▁seamless	-12.4976
▁redhead	-12.4976
lushie	-12.4976
▁flank	-12.4976
▁oddone	-12.4977
▁giant	-12.4977
▁mesh	-12.4977
▁Drain	-12.4977
▁native	-12.4977
discovered	-12.4977
▁nerf	-12.4977
▁scorch	-12.4977
▁Dissociat	-12.4978
▁Stereotype	-12.4978
▁password	-12.4978
▁March	-12.4979
▁Disturbing	-12.4979
▁Slender	-12.4979
▁encompass	-12.498
▁Island	-12.4981
▁Gag	-12.4991
▁relapse	-12.4993
▁Terrorist	-12.4995
airy	-12.4999
▁Parent	-12.5003
▁Motherfuck	-12.5004
▁Phenomenal	-12.5005
▁orbit	-12.5006
▁Pee	-12.5006
▁Painter	-12.5007
▁Comfortabl	-12.5007
▁grad	-12.5009
▁bleach	-12.5011
▁Pocket	-12.5013
▁Soon	-12.5013
▁slate	-12.5013
▁Trans	-12.5016
▁pag	-12.5019
▁Moon	-12.5021
▁Stoop	-12.5021
mbrace	-12.5021
▁Arrange	-12.5021
entai	-12.5023
tonewall	-12.5024
▁Deft	-12.5024
hrottle	-12.5024
▁behold	-12.5025
diquette	-12.5026
▁stoop	-12.5026
mnesty	-12.5026
perture	-12.5026
rchaeology	-12.5026
vailible	-12.5026
▁Exempt	-12.5026
▁Insomnia	-12.5026
▁autonomous	-12.5026
▁monstrous	-12.5026
▁observation	-12.5026
▁obsessed	-12.5026
▁outstanding	-12.5026
▁overwhelming	-12.5026
▁sarcastic	-12.5026
▁stomach	-12.5026
▁tidal	-12.5026
▁tailgate	-12.5026
▁conservative	-12.5026
▁Lawful	-12.5026
▁Hysterical	-12.5026
▁Brawl	-12.5026
▁dramatic	-12.5026
rtsy	-12.5026
▁Scam	-12.5026
▁regiment	-12.5027
▁earnest	-12.5027
▁copyright	-12.5027
lloy	-12.5027
▁overdose	-12.5027
▁tattoo	-12.5028
planned	-12.5028
▁Static	-12.5028
▁covert	-12.5029
▁scope	-12.5029
▁rumour	-12.5029
▁petty	-12.503
elegation	-12.503
ffinity	-12.503
▁embark	-12.5031
▁embrace	-12.5031
▁sock	-12.5031
▁preach	-12.5032
approved	-12.5032
▁wisp	-12.5033
dblock	-12.5034
▁Confident	-12.5034
▁pelt	-12.5035
▁Pierc	-12.5036
▁mic	-12.5038
espondent	-12.504
▁Recreational	-12.5041
variant	-12.5043
▁Wink	-12.5045
▁inferior	-12.5046
▁Collar	-12.505
▁Alert	-12.5052
▁Wedg	-12.5053
▁defense	-12.5054
▁demean	-12.5056
ending	-12.5058
etty	-12.5059
▁Singe	-12.506
rouse	-12.5061
aki	-12.5061
▁Embarrassing	-12.5063
▁Wil	-12.5064
▁enhance	-12.5067
▁robot	-12.5069
▁Witt	-12.5069
▁spot	-12.507
▁combo	-12.5071
▁bent	-12.5071
vm	-12.5072
andwich	-12.5075
ltitude	-12.5075
▁adamant	-12.5077
▁Canonical	-12.5077
▁Terrifying	-12.5077
▁canoe	-12.5077
▁gratuitous	-12.5077
▁suspend	-12.5077
▁lawful	-12.5077
▁definitive	-12.5077
▁Majestic	-12.5077
▁Regrettabl	-12.5078
▁Lawless	-12.5078
▁Lacto	-12.5079
▁awe	-12.5081
▁Opposit	-12.5081
▁anchor	-12.5083
▁Ego	-12.5085
▁prize	-12.5085
▁Bun	-12.5086
▁chrome	-12.5086
inus	-12.5088
▁loser	-12.5089
▁format	-12.5089
nie	-12.509
▁Native	-12.509
▁Tree	-12.5097
▁Party	-12.5098
▁iterat	-12.5098
▁Royal	-12.5099
▁Complet	-12.5099
▁Revers	-12.51
▁Bench	-12.5103
▁server	-12.5105
▁filter	-12.5108
older	-12.5111
▁Musta	-12.5111
▁Weekend	-12.5114
▁offend	-12.5115
▁modulat	-12.5121
ncompass	-12.5123
▁convict	-12.5124
odium	-12.5127
conspicuous	-12.5128
gricultural	-12.5128
sbestos	-12.5128
▁Exchange	-12.5128
▁Seperate	-12.5128
▁Youtube	-12.5128
▁hormonal	-12.5128
▁tongue	-12.5128
▁wholesale	-12.5128
▁Bacon	-12.5128
▁flair	-12.5129
▁Shameless	-12.5129
▁compound	-12.5129
nife	-12.5129
▁upset	-12.513
▁Institutional	-12.513
▁racial	-12.513
▁Indian	-12.513
▁traumatic	-12.513
▁whimper	-12.5131
▁Early	-12.5131
▁Burg	-12.5132
▁abnormal	-12.5132
▁Unexpected	-12.5133
▁wince	-12.5135
▁lax	-12.5135
▁ruin	-12.5135
ermination	-12.5137
▁Regard	-12.5137
akeup	-12.5138
▁Roar	-12.5138
▁Debate	-12.5138
▁industrial	-12.514
▁Comic	-12.514
▁Lush	-12.5143
▁Squirt	-12.5145
▁Plann	-12.5145
▁Peace	-12.5148
▁Commute	-12.5155
▁Outrage	-12.5155
▁Hug	-12.5156
▁Tun	-12.5161
▁scoot	-12.5163
▁Mange	-12.5166
▁Regulator	-12.5169
▁Brush	-12.517
llied	-12.517
▁baby	-12.5172
▁Sling	-12.5173
itting	-12.5174
xplode	-12.5175
ansexual	-12.5176
▁noble	-12.5177
▁Radioactiv	-12.5178
restricted	-12.518
▁Seasonal	-12.518
▁subtle	-12.518
methyst	-12.518
ntimatter	-12.518
ntipsychotic	-12.518
rrival	-12.518
uthorization	-12.518
▁Behaviour	-12.518
▁Extinct	-12.518
▁Heterosexual	-12.518
▁phenomenal	-12.518
▁strive	-12.518
▁Dawn	-12.518
▁display	-12.518
▁Dramatic	-12.518
▁Rope	-12.518
▁insidious	-12.518
▁Marxis	-12.518
▁Organization	-12.5181
lleviate	-12.5181
▁bloodlust	-12.5182
▁Assure	-12.5182
ctuary	-12.5183
▁avid	-12.5183
▁Mop	-12.5183
▁Passive	-12.5183
▁funnel	-12.5184
▁remark	-12.5184
▁explode	-12.5185
▁spi	-12.5185
▁Vaginal	-12.5185
▁gaff	-12.5187
ltimeter	-12.5187
▁Compar	-12.5188
▁balm	-12.5189
▁mention	-12.5189
mended	-12.5189
▁unlock	-12.519
▁Tit	-12.5191
▁tour	-12.5191
oadside	-12.5195
▁Hiss	-12.5197
▁Boat	-12.5203
▁Modde	-12.5203
▁success	-12.5206
▁Singular	-12.5208
▁contemplat	-12.5209
▁Graphical	-12.5209
▁Scholar	-12.521
shore	-12.5211
▁Colon	-12.5211
arriage	-12.5214
▁interview	-12.5215
▁prison	-12.5215
scribed	-12.5215
▁Fence	-12.5221
oten	-12.5222
▁Case	-12.5223
clamation	-12.5223
▁prevent	-12.5227
xercise	-12.5227
▁recess	-12.5228
▁Org	-12.5229
▁angular	-12.5229
▁refill	-12.5231
onvertible	-12.5231
eceptive	-12.5231
▁Mist	-12.5231
upa	-12.5231
▁fann	-12.5231
▁cruel	-12.5232
fternoon	-12.5232
ltruism	-12.5232
nnihilation	-12.5232
▁Artificial	-12.5232
▁Astonishing	-12.5232
▁Berserk	-12.5232
▁bandwagon	-12.5232
▁clique	-12.5232
▁hawt	-12.5232
▁merciless	-12.5232
▁notorious	-12.5232
ahoo	-12.5232
▁required	-12.5232
▁wrist	-12.5232
▁Thoughtful	-12.5232
▁Zealous	-12.5232
▁peel	-12.5232
ctivate	-12.5232
▁Lament	-12.5233
▁remote	-12.5233
▁collective	-12.5233
▁Height	-12.5234
▁Brace	-12.5234
▁Magnificent	-12.5234
tapped	-12.5235
▁stoked	-12.5235
▁shrunk	-12.5236
▁Meter	-12.5237
▁crep	-12.5237
▁Outdoors	-12.524
▁Sow	-12.524
▁jabb	-12.5241
▁Orphan	-12.5242
▁flag	-12.5243
▁stranger	-12.5248
▁Blank	-12.5248
▁Maya	-12.5248
▁Incidental	-12.5248
▁dew	-12.5249
▁Pimp	-12.525
▁Teen	-12.5252
▁oxygen	-12.5255
ullet	-12.5259
▁Victor	-12.5262
▁clappe	-12.5264
▁Cruel	-12.5266
▁buckle	-12.527
▁spru	-12.5273
▁teach	-12.5275
aim	-12.5276
▁gap	-12.5278
commerce	-12.5279
encil	-12.528
▁torch	-12.5282
morous	-12.5283
▁Academic	-12.5284
lbanian	-12.5284
symptotic	-12.5284
▁Fracture	-12.5284
▁Incorrect	-12.5284
▁Irresponsibl	-12.5284
▁Structural	-12.5284
▁Vicious	-12.5284
▁crippling	-12.5284
▁glitter	-12.5284
▁horrifying	-12.5284
▁hysterical	-12.5284
▁terrifying	-12.5284
▁valiant	-12.5284
▁disenchant	-12.5284
erospace	-12.5284
▁chamber	-12.5284
▁Thorough	-12.5284
ccentuate	-12.5284
▁unskilled	-12.5284
▁playoff	-12.5284
▁exile	-12.5285
▁tension	-12.5285
▁Unconscious	-12.5285
▁snapshot	-12.5286
▁foundation	-12.5286
pologize	-12.5286
▁trivial	-12.5286
▁panic	-12.5287
vailability	-12.5287
▁blasphemy	-12.5287
▁unacceptable	-12.5288
▁customer	-12.5289
▁Violent	-12.529
rray	-12.529
▁Mute	-12.5292
forum	-12.5294
▁halt	-12.5294
▁hugge	-12.5295
▁hydrogen	-12.5297
▁meteor	-12.5299
▁account	-12.53
▁dove	-12.5301
▁Prepare	-12.5302
▁shoulder	-12.5303
▁Clunk	-12.5305
▁Metaboli	-12.5307
▁Hut	-12.5307
▁scrubb	-12.5309
cquire	-12.5311
▁Secondar	-12.5311
nimalistic	-12.5314
▁Bullet	-12.5318
▁Catalog	-12.5319
woop	-12.5319
▁Subtle	-12.5321
mbark	-12.5321
▁swing	-12.5322
▁Even	-12.5324
▁Lemon	-12.5325
▁completion	-12.5328
▁ferment	-12.533
vasion	-12.5331
▁Pron	-12.5334
▁complex	-12.5334
▁gold	-12.5334
▁Regret	-12.5335
▁cd	-12.5336
▁vital	-12.5336
incorporated	-12.5336
grained	-12.5336
▁loyal	-12.5336
▁Confusing	-12.5336
▁Democratic	-12.5336
▁disturbing	-12.5336
▁handsome	-12.5336
▁immature	-12.5336
▁inaccurate	-12.5336
▁sacrifice	-12.5336
▁tremendous	-12.5336
▁Landscap	-12.5336
▁Ranch	-12.5336
▁glue	-12.5336
▁unrealistic	-12.5336
uthorial	-12.5336
▁needless	-12.5336
▁branch	-12.5337
▁influence	-12.5337
▁Lick	-12.5337
▁giveaway	-12.5338
▁Recit	-12.5338
▁Selective	-12.5338
▁nurse	-12.5338
▁crown	-12.5338
▁selective	-12.5338
▁Psychic	-12.5339
ssurance	-12.5339
ngular	-12.534
▁shone	-12.534
▁bundle	-12.5341
▁reality	-12.5341
oyalty	-12.5341
▁favor	-12.5344
▁owned	-12.5346
▁egg	-12.5346
▁Colour	-12.5348
▁Teleport	-12.535
▁heavi	-12.5351
▁psi	-12.5352
▁Prepp	-12.5353
cclaim	-12.5353
▁Underage	-12.5354
▁Wine	-12.5355
▁Silicon	-12.5356
▁incline	-12.5356
▁grain	-12.5356
tested	-12.5357
▁Laughabl	-12.5358
▁earn	-12.5359
▁Attack	-12.536
▁Sensational	-12.5362
nticipation	-12.5363
▁Sunburn	-12.5365
▁anybody	-12.5367
▁Rest	-12.5369
▁Flight	-12.5369
▁redi	-12.537
doption	-12.5371
armonger	-12.5373
▁Some	-12.5374
apal	-12.538
scheduled	-12.5383
▁Troop	-12.5384
▁Proposition	-12.5385
▁network	-12.5386
▁ethnic	-12.5387
cceleration	-12.5387
ationalization	-12.5388
cumbent	-12.5388
▁bigot	-12.5388
needed	-12.5389
près	-12.5389
▁Jamme	-12.5389
▁Semantic	-12.5389
▁Visceral	-12.5389
▁immaculate	-12.5389
▁magnificent	-12.5389
▁Excavat	-12.5389
▁Krog	-12.5389
nimus	-12.5389
▁Splendid	-12.5389
▁generous	-12.5389
▁Transparent	-12.5389
▁Temporal	-12.5389
▁skirt	-12.5389
bbreviate	-12.5389
▁helmet	-12.5389
▁birthday	-12.5389
verstep	-12.5389
▁Judgement	-12.539
▁Constructive	-12.539
▁overstep	-12.539
▁golden	-12.539
▁Molest	-12.5391
▁godlike	-12.5391
▁whiff	-12.5391
▁butthole	-12.5391
▁basketball	-12.5392
▁penalty	-12.5392
▁Homeless	-12.5392
▁beer	-12.5394
▁Reclus	-12.5394
▁diabetic	-12.5394
amine	-12.5395
▁bait	-12.5399
▁haze	-12.54
▁Superpower	-12.54
first	-12.5403
▁Ful	-12.5409
▁Fleet	-12.541
▁Presum	-12.5411
▁Orangered	-12.5412
▁frisk	-12.5413
▁Stat	-12.5413
▁Address	-12.5418
▁Repe	-12.5419
▁Rim	-12.5419
egregation	-12.542
▁knel	-12.5422
affle	-12.5422
▁Author	-12.5422
▁Combat	-12.5424
▁fizz	-12.5424
▁enjoy	-12.5424
drawn	-12.5424
▁smelt	-12.5425
▁transport	-12.5426
▁engine	-12.5427
lcoholism	-12.5429
▁poison	-12.543
▁Dam	-12.5432
▁Pale	-12.5435
▁acid	-12.5438
▁guide	-12.5438
▁activate	-12.544
▁Orange	-12.5441
▁strip	-12.5441
gility	-12.5441
▁martyr	-12.5442
▁Uninterest	-12.5442
▁artificial	-12.5442
▁opposite	-12.5442
▁substitute	-12.5442
▁Erect	-12.5442
moung	-12.5442
▁Sample	-12.5442
▁hike	-12.5442
▁disease	-12.5442
▁Vape	-12.5442
▁coke	-12.5442
▁Shameful	-12.5442
▁canonical	-12.5442
▁Transaction	-12.5442
▁labour	-12.5442
▁japanese	-12.5442
▁unexpected	-12.5442
▁Rivet	-12.5442
▁Freelance	-12.5442
▁Complicate	-12.5442
▁Optimistic	-12.5442
▁ukrainian	-12.5442
▁tenure	-12.5442
▁gloom	-12.5442
▁Dear	-12.5442
▁hardcore	-12.5442
▁interactive	-12.5443
▁catapult	-12.5443
▁Harmonic	-12.5443
▁portion	-12.5443
bomination	-12.5443
▁pip	-12.5444
▁splurge	-12.5444
▁boycott	-12.5445
▁Urgent	-12.5445
himper	-12.5445
▁Hesitat	-12.5446
▁photograph	-12.5447
▁daughter	-12.5448
▁Execution	-12.5449
▁Sustain	-12.5451
▁gaming	-12.5453
▁Dice	-12.5459
dvisory	-12.5462
ooby	-12.5464
▁Miscarr	-12.5467
▁Universal	-12.5468
stral	-12.547
▁argument	-12.547
▁Surreal	-12.547
▁anarchy	-12.5471
eign	-12.5474
▁dear	-12.5474
▁Vis	-12.5475
▁hoard	-12.5478
▁convert	-12.5478
nub	-12.5478
▁drum	-12.5483
▁Distil	-12.5483
▁compli	-12.5485
▁trace	-12.5485
ivorce	-12.549
▁dishonor	-12.5491
▁swift	-12.5492
▁apologize	-12.5492
▁acquire	-12.5493
▁brush	-12.5494
crobatic	-12.5494
sidious	-12.5494
rchetype	-12.5495
ttrition	-12.5495
xiomatic	-12.5495
▁Meaningful	-12.5495
▁Soldier	-12.5495
▁Structure	-12.5495
▁demographic	-12.5495
▁embarrassing	-12.5495
▁future	-12.5495
▁harness	-12.5495
▁syrup	-12.5495
▁vicious	-12.5495
▁legend	-12.5495
▁pleased	-12.5495
lmighty	-12.5495
▁Gradual	-12.5495
▁conscript	-12.5495
▁Gian	-12.5495
▁peaceful	-12.5495
▁Marvelous	-12.5495
▁Fret	-12.5495
utomation	-12.5495
▁Thankful	-12.5495
▁stagger	-12.5496
▁messianic	-12.5496
▁crochet	-12.5496
▁Magma	-12.5496
▁Subjective	-12.5496
▁Flawless	-12.5496
▁shroud	-12.5497
▁retort	-12.5497
▁slutty	-12.5497
uctioneer	-12.5497
▁heroic	-12.5497
▁Semit	-12.5498
▁generation	-12.5498
▁Spit	-12.5498
▁Dozen	-12.5499
▁Combin	-12.5499
▁degree	-12.5499
▁subtract	-12.5499
▁Merc	-12.55
novation	-12.55
▁Phase	-12.55
▁Hearted	-12.5501
▁cement	-12.5502
▁wrench	-12.5504
▁abstract	-12.5504
miable	-12.5506
▁Miner	-12.5506
wait	-12.5507
▁gank	-12.5509
outhful	-12.551
▁denominat	-12.5511
▁Reliabl	-12.5517
akeover	-12.5517
▁Truth	-12.5518
▁quo	-12.5518
▁sword	-12.5519
▁Indu	-12.552
▁Improve	-12.552
dapter	-12.5521
▁edge	-12.5523
ortex	-12.5523
hunk	-12.5523
make	-12.5524
▁Plum	-12.5525
▁Border	-12.5528
▁transform	-12.5529
▁magic	-12.553
▁Offend	-12.5531
▁risky	-12.5533
▁Xeno	-12.5534
▁Cloth	-12.5534
▁dps	-12.5538
ailor	-12.5539
▁overlay	-12.554
▁Municipal	-12.5543
▁self	-12.5544
▁intent	-12.5544
▁scum	-12.5546
▁damp	-12.5547
obility	-12.5548
registered	-12.5548
bsolutamente	-12.5548
ctuarial	-12.5548
ttitude	-12.5548
▁Accurate	-12.5548
▁Plague	-12.5548
▁Sequence	-12.5548
▁Spectacular	-12.5548
▁Spontaneous	-12.5548
▁Uter	-12.5548
▁Yeast	-12.5548
▁academic	-12.5548
▁flawless	-12.5548
▁meaningful	-12.5548
▁muscle	-12.5548
▁tulpa	-12.5548
▁zombie	-12.5548
▁hideous	-12.5548
▁unconscious	-12.5548
▁slippery	-12.5548
▁transparent	-12.5548
lbum	-12.5549
▁vietnamese	-12.5549
▁outrageous	-12.5549
▁unseen	-12.5549
itary	-12.5549
▁conference	-12.5549
▁tourist	-12.555
▁shameless	-12.555
▁hound	-12.555
▁torque	-12.555
▁revision	-12.555
▁Heroic	-12.5551
esture	-12.5551
▁psychic	-12.5551
▁remaster	-12.5552
▁extraordinary	-12.5553
▁elementary	-12.5553
mbush	-12.5554
ttribute	-12.5554
▁Juggle	-12.5554
▁Lake	-12.5555
▁riff	-12.5556
▁distance	-12.5557
▁Clueless	-12.5557
▁Acute	-12.5557
▁sake	-12.5558
▁horny	-12.5559
▁Complex	-12.5559
▁Infinite	-12.556
▁Merit	-12.5561
endo	-12.5561
▁Tick	-12.5562
ski	-12.5562
▁fax	-12.5566
▁lego	-12.5567
▁Frustrating	-12.5568
▁Pric	-12.5569
▁Saturat	-12.5569
▁interest	-12.557
favourable	-12.557
▁distribut	-12.5572
▁realise	-12.5573
▁Summer	-12.5574
competent	-12.5574
workable	-12.5575
▁parking	-12.5575
▁condition	-12.5581
▁warn	-12.5583
▁Urinat	-12.5583
▁Comparabl	-12.5585
urity	-12.5588
▁dish	-12.559
▁wizard	-12.5591
▁manufacture	-12.5592
▁Desire	-12.5592
▁office	-12.5592
▁Dab	-12.5593
▁Imperialist	-12.5595
▁Politic	-12.5596
▁lapp	-12.5598
▁Intent	-12.56
▁Misbehav	-12.5602
▁accent	-12.5602
▁drama	-12.5602
▁Retributi	-12.5602
crylic	-12.5602
veltal	-12.5602
▁Improper	-12.5602
▁Profile	-12.5602
▁Revenge	-12.5602
▁Scandinavia	-12.5602
▁Uncommon	-12.5602
▁Waterproof	-12.5602
▁fascinating	-12.5602
▁incorrect	-12.5602
▁intrigue	-12.5602
▁judgment	-12.5602
▁korean	-12.5602
▁misbehave	-12.5602
▁Hypocritical	-12.5602
▁exceed	-12.5602
▁zealous	-12.5602
▁Moisturize	-12.5602
▁Youth	-12.5602
istro	-12.5602
▁Outrageous	-12.5602
▁Disenchant	-12.5602
▁company	-12.5603
▁relevent	-12.5604
▁solution	-12.5604
▁faithless	-12.5605
▁Refill	-12.5606
▁mile	-12.5606
▁grumble	-12.5607
▁sheet	-12.5607
▁Wiki	-12.5608
▁Garnish	-12.5608
cetone	-12.5608
skmen	-12.561
▁drool	-12.5611
▁Sorcer	-12.5611
▁Sav	-12.5612
▁doom	-12.5612
▁notch	-12.5612
▁pinch	-12.5613
oozy	-12.5613
▁pause	-12.5613
▁Mountain	-12.5613
▁awake	-12.5615
llure	-12.5615
▁symbol	-12.5616
raught	-12.5617
▁envi	-12.5619
▁Char	-12.5621
▁Balla	-12.5624
▁Hump	-12.5624
▁Reput	-12.5625
mpathise	-12.5627
▁fuzz	-12.5627
▁Chor	-12.5629
▁skimme	-12.5631
eclassif	-12.5632
ackwater	-12.5632
▁Lat	-12.5633
▁tackle	-12.5633
▁Cred	-12.5634
▁Desolat	-12.5634
opened	-12.5635
▁whiny	-12.5638
ecant	-12.5638
▁Cynical	-12.5638
consequential	-12.5639
atu	-12.564
▁mire	-12.5641
▁Transgender	-12.5642
aaaay	-12.5645
▁Cooperat	-12.5647
▁patriot	-12.5649
▁Societal	-12.5651
isintegrate	-12.5651
isle	-12.5652
▁Basical	-12.5653
▁exploit	-12.5653
▁flight	-12.5653
▁mortal	-12.5655
▁crate	-12.5655
▁Demographic	-12.5656
nachronistic	-12.5656
▁Hawt	-12.5656
▁Inherent	-12.5656
▁Optimal	-12.5656
▁Rehabilitat	-12.5656
▁glycerin	-12.5656
▁seperate	-12.5656
▁splint	-12.5656
rsenal	-12.5656
▁Pyromanc	-12.5656
ladeen	-12.5656
▁Silent	-12.5656
▁marble	-12.5656
▁Inherit	-12.5656
▁woodwork	-12.5656
▁jquery	-12.5656
▁thorough	-12.5656
▁Linguistic	-12.5657
▁linguistic	-12.5657
▁Highlight	-12.5657
▁semite	-12.5657
▁crow	-12.5658
▁pig	-12.5658
▁lube	-12.5658
▁recoil	-12.5659
▁delight	-12.5659
▁Upside	-12.5659
▁tasty	-12.5659
▁disintegrate	-12.5661
▁council	-12.5664
▁trench	-12.5664
ccessable	-12.5664
▁Mom	-12.5664
retty	-12.5665
▁pale	-12.5666
menable	-12.567
ecoil	-12.5672
▁Overru	-12.5672
▁indicat	-12.5675
▁superficial	-12.5675
▁crappy	-12.5676
▁seo	-12.5676
loof	-12.5679
▁Seek	-12.5679
affy	-12.5681
undress	-12.5681
▁yesterday	-12.5681
▁choke	-12.5687
▁recreational	-12.5689
elastic	-12.5689
ective	-12.5693
▁spam	-12.5696
▁Embarass	-12.5696
▁Top	-12.5696
▁trashy	-12.5698
▁Drown	-12.5698
▁Determine	-12.5699
times	-12.57
▁chap	-12.57
▁Eeri	-12.57
arnish	-12.5701
ronunciation	-12.5701
hitbox	-12.5702
▁seasonal	-12.5704
▁Slash	-12.5704
▁Conform	-12.5706
▁gear	-12.5706
▁adult	-12.5708
▁Tart	-12.5708
▁recommend	-12.5709
▁inquir	-12.571
alfunction	-12.571
werve	-12.571
▁danger	-12.571
ocalize	-12.571
ggresive	-12.5711
lobber	-12.5711
▁Abrupt	-12.5711
▁Gossip	-12.5711
▁Obedien	-12.5711
▁Obtain	-12.5711
▁Pounce	-12.5711
▁astonishing	-12.5711
▁inherent	-12.5711
▁israeli	-12.5711
▁majestic	-12.5711
▁neckbeard	-12.5711
▁pounce	-12.5711
▁preemptive	-12.5711
▁resonant	-12.5711
▁visceral	-12.5711
▁jelly	-12.5711
▁suffer	-12.5711
▁shameful	-12.5711
▁thoughtful	-12.5711
▁shart	-12.5711
▁Predator	-12.5711
▁infernal	-12.5711
▁unsure	-12.5711
▁chaos	-12.5711
▁numerous	-12.5712
▁swerve	-12.5713
▁hue	-12.5714
▁passive	-12.5714
▁psychotic	-12.5714
▁soggy	-12.5715
▁Tot	-12.5715
▁Opposition	-12.5715
▁vaginal	-12.5716
▁Uninstalle	-12.5716
▁dazed	-12.5717
▁Marri	-12.572
▁Gnostic	-12.572
ecal	-12.5724
▁Slander	-12.5725
▁robb	-12.5725
▁salt	-12.5734
▁cowardly	-12.5736
▁blooded	-12.5736
▁fluff	-12.5737
▁unable	-12.5737
▁environmental	-12.5737
▁Concept	-12.5739
uspicious	-12.574
▁awaken	-12.5745
▁Alter	-12.5749
▁sow	-12.5752
▁logic	-12.5754
▁Shallow	-12.5754
▁shark	-12.5755
▁graphical	-12.576
▁Herb	-12.5761
anmade	-12.5762
▁Dishonor	-12.5763
plurge	-12.5763
▁straight	-12.5763
▁homosexual	-12.5763
▁moron	-12.5764
▁Debatabl	-12.5764
▁hydra	-12.5765
▁blank	-12.5765
▁Discrete	-12.5765
▁Dishonest	-12.5765
▁Korea	-12.5765
▁Preemptive	-12.5765
▁benchmark	-12.5765
▁jettison	-12.5765
▁karma	-12.5765
▁licence	-12.5765
▁religion	-12.5765
▁semantic	-12.5765
▁smoky	-12.5765
▁travers	-12.5765
▁violent	-12.5765
▁primary	-12.5765
▁Enterpris	-12.5765
▁moss	-12.5765
▁trend	-12.5765
xtraterrestrial	-12.5765
▁Expedit	-12.5765
▁Tangential	-12.5765
▁Distant	-12.5765
▁temporal	-12.5765
▁outfit	-12.5765
▁skimp	-12.5766
▁chaotic	-12.5766
▁cheesy	-12.5766
▁Harmless	-12.5766
▁purple	-12.5767
▁socket	-12.5767
▁smirk	-12.5767
▁gooey	-12.5767
▁fugitive	-12.5767
▁static	-12.5768
▁soar	-12.5769
▁shatter	-12.5769
▁disregard	-12.577
▁diagnostic	-12.577
▁wedge	-12.5771
▁training	-12.5771
▁relay	-12.5771
▁Mayor	-12.5772
▁Prosper	-12.5773
came	-12.5773
▁Elitis	-12.5774
pout	-12.5778
distinct	-12.5782
▁Dimensional	-12.5785
oneness	-12.5785
▁hyped	-12.5786
▁street	-12.5788
▁Serious	-12.5788
▁Suspicious	-12.5788
▁centre	-12.5789
▁Pretentious	-12.5793
▁breaker	-12.5794
eadership	-12.5799
asonic	-12.58
▁dri	-12.5801
▁vocalize	-12.5801
▁hospital	-12.5802
waken	-12.5802
▁southern	-12.5803
▁Suicid	-12.5809
▁bounce	-12.581
▁Grat	-12.5811
▁dehumaniz	-12.5814
▁Gramma	-12.5814
iabetic	-12.5815
▁support	-12.5819
▁cheek	-12.5819
▁vegetarian	-12.5819
▁regime	-12.5819
▁Decre	-12.582
dventurous	-12.582
morphous	-12.582
ntonym	-12.582
ssimilate	-12.582
▁Knack	-12.582
▁Potato	-12.582
▁Xpe	-12.582
▁accurate	-12.582
▁choice	-12.582
▁quarantine	-12.582
▁queen	-12.582
▁silent	-12.582
▁splendid	-12.582
▁Vacat	-12.582
▁siege	-12.582
▁Shutter	-12.582
▁optimistic	-12.582
▁Reef	-12.582
▁Elegant	-12.582
▁today	-12.582
▁Burrow	-12.582
▁Reincarnat	-12.5821
▁jacket	-12.5821
▁lateral	-12.5821
▁compromise	-12.5821
utocracy	-12.5821
▁Representation	-12.5822
▁Symbolic	-12.5822
ietnamese	-12.5822
▁Swagg	-12.5822
▁Sod	-12.5823
▁patrol	-12.5823
▁belgian	-12.5823
▁prevail	-12.5824
otaku	-12.5824
▁bravery	-12.5824
▁worry	-12.5824
▁combine	-12.5824
▁Blasphem	-12.5824
▁streaming	-12.5825
▁default	-12.5825
▁slope	-12.5826
▁harden	-12.5827
▁Centr	-12.5827
▁Likely	-12.5828
▁Leverage	-12.5829
▁novel	-12.5829
▁Electromagnet	-12.583
▁Bridge	-12.5835
isinformation	-12.5836
hiff	-12.584
▁premise	-12.584
earned	-12.584
▁cranky	-12.5843
▁mix	-12.5843
ndar	-12.5845
obster	-12.5845
lutty	-12.5847
▁temper	-12.5847
▁surprised	-12.5847
▁Patriot	-12.5847
▁Dread	-12.5848
iversity	-12.5848
▁Principle	-12.5851
▁Fate	-12.5851
utomate	-12.5852
▁readi	-12.5854
▁Substitut	-12.5854
▁Brewer	-12.5855
▁outer	-12.5856
▁alliance	-12.5857
▁elemental	-12.5858
▁commission	-12.5859
▁Imo	-12.5859
▁Quart	-12.586
▁news	-12.586
orry	-12.5862
▁Dribble	-12.5863
▁condo	-12.5863
lementary	-12.5864
▁abusive	-12.5864
▁nutritional	-12.5867
▁Chop	-12.5869
▁Tranquil	-12.5869
▁Boo	-12.5872
▁singular	-12.5874
▁animal	-12.5874
amouflage	-12.5874
essianic	-12.5875
▁orphan	-12.5875
▁vigil	-12.5875
ctress	-12.5875
rthritic	-12.5875
▁Gerrymander	-12.5875
▁citrus	-12.5875
▁discrete	-12.5875
▁frustrating	-12.5875
▁gnarly	-12.5875
▁hypocritical	-12.5875
▁optimal	-12.5875
▁spectacular	-12.5875
▁velvet	-12.5875
▁Empirical	-12.5875
▁Loan	-12.5875
▁username	-12.5875
ainstorm	-12.5875
▁Lateral	-12.5876
▁twas	-12.5876
▁roleplay	-12.5876
▁incendiary	-12.5876
▁unranked	-12.5876
▁Pigment	-12.5876
▁madam	-12.5876
▁Feas	-12.5876
▁Backward	-12.5876
▁Oat	-12.5876
▁constructive	-12.5877
▁Gentleman	-12.5877
▁nutty	-12.5877
▁subjective	-12.5877
▁swiftkey	-12.5877
▁Progressive	-12.5877
▁rowdy	-12.5877
▁tenacious	-12.5877
▁Easil	-12.5877
▁screech	-12.5878
▁clone	-12.5878
▁Surgical	-12.5878
▁sensitive	-12.5878
▁spectral	-12.5879
▁liar	-12.5879
▁stash	-12.5879
▁discussion	-12.5882
▁divisional	-12.5883
▁Gate	-12.5885
▁ponder	-12.5886
revail	-12.5887
▁Deserve	-12.5889
▁situation	-12.589
▁soil	-12.5891
▁Construct	-12.5891
▁Knowledge	-12.5892
▁source	-12.5895
▁Optic	-12.5896
▁sustain	-12.59
▁Trim	-12.59
▁Plumme	-12.5901
▁Frickin	-12.5901
▁tame	-12.5901
▁Lace	-12.5902
▁guilt	-12.5902
▁Sire	-12.5905
estle	-12.5905
▁Greas	-12.5905
▁label	-12.5905
▁Bigot	-12.5905
▁Subtract	-12.5913
▁firefight	-12.5914
▁cocky	-12.5915
arish	-12.5916
▁reject	-12.5919
▁deft	-12.592
▁Fell	-12.592
▁Liqu	-12.592
▁Empath	-12.5921
▁teenage	-12.5922
▁mud	-12.5924
teractive	-12.5924
▁mistake	-12.5925
▁sod	-12.5925
uplicate	-12.5926
▁Republican	-12.5926
▁Front	-12.5927
▁react	-12.5927
▁Fizz	-12.5927
▁macho	-12.5928
▁converge	-12.593
observant	-12.5931
▁opinion	-12.5931
▁brood	-12.5931
▁context	-12.5931
ntisemitic	-12.5931
stronomy	-12.5931
▁Compulsive	-12.5931
▁college	-12.5931
▁heresy	-12.5931
▁tiger	-12.5931
▁universe	-12.5931
▁Trespass	-12.5931
mulet	-12.5931
▁Utilitarian	-12.5931
▁coffee	-12.5931
▁Loft	-12.5931
▁entrance	-12.5931
▁Respectful	-12.5931
▁bolt	-12.5931
▁hypocrisy	-12.5931
▁Fray	-12.5931
▁pervert	-12.5931
▁hipster	-12.5931
▁unwanted	-12.5932
▁contrary	-12.5932
▁cinematic	-12.5932
▁Bunk	-12.5933
▁serbian	-12.5933
▁wiggle	-12.5933
▁overhaul	-12.5933
▁grammar	-12.5934
▁Vex	-12.5934
▁assure	-12.5935
▁discount	-12.5935
▁Bloodlust	-12.5936
▁everlasting	-12.5936
▁eighth	-12.5937
▁boo	-12.5937
▁Shed	-12.5939
▁Litter	-12.594
▁Sim	-12.5942
▁eater	-12.5944
▁gam	-12.5945
▁stab	-12.5945
▁Nerf	-12.5948
loppy	-12.5948
▁Cue	-12.5948
▁scrappy	-12.5951
▁oline	-12.5953
▁Untru	-12.5954
▁Stall	-12.5954
▁totall	-12.5955
wain	-12.5955
▁Loyal	-12.5955
▁fog	-12.5956
creech	-12.5958
▁wii	-12.5958
eanie	-12.5961
▁Replicat	-12.5962
▁stabb	-12.5967
▁week	-12.5972
▁Flower	-12.5972
▁Logo	-12.5972
▁apostolic	-12.5973
▁Toss	-12.5974
▁Familiar	-12.5974
▁amirite	-12.5975
▁wrestle	-12.5977
ump	-12.5978
isapprove	-12.5982
▁cynical	-12.5982
▁redeem	-12.5983
ubstantiation	-12.5985
fernal	-12.5986
supervised	-12.5987
rduous	-12.5987
ttunement	-12.5987
ucune	-12.5987
▁Cascad	-12.5987
▁Genocid	-12.5987
▁Infuriating	-12.5987
▁diamond	-12.5987
▁dishonest	-12.5987
▁freedom	-12.5987
▁offense	-12.5987
▁vibrant	-12.5987
▁voyage	-12.5987
▁plummet	-12.5987
ppalled	-12.5987
▁wine	-12.5987
▁unidentified	-12.5987
▁warped	-12.5987
▁unsullied	-12.5987
▁irrelevant	-12.5987
forth	-12.5987
▁honorary	-12.5987
▁imperative	-12.5987
▁soak	-12.5987
▁hockey	-12.5987
▁inconceivable	-12.5987
▁unpaid	-12.5988
▁bullet	-12.5988
▁Psychopath	-12.5988
▁moist	-12.5988
▁Bent	-12.5988
▁cryptic	-12.5988
▁insecure	-12.5988
▁neanderthal	-12.5988
▁idle	-12.5988
▁symbolic	-12.5989
▁torment	-12.5989
▁student	-12.5989
▁scuba	-12.5989
▁southwestern	-12.5989
▁hardline	-12.5989
ructor	-12.5989
▁rhyme	-12.599
▁machop	-12.599
▁feral	-12.599
▁Skimp	-12.599
▁description	-12.5991
▁Undeserv	-12.5992
▁bracket	-12.5992
▁disapprove	-12.5992
▁Secular	-12.5992
epression	-12.5994
▁brand	-12.5995
▁vein	-12.5995
▁Gotch	-12.5996
▁boner	-12.5996
▁heartbreaking	-12.5998
▁Putt	-12.5998
▁detail	-12.5998
▁Salvage	-12.5999
rcane	-12.5999
iagnostic	-12.6001
▁bitchy	-12.6001
orize	-12.6005
fashionable	-12.6008
▁Unsur	-12.6009
▁Persist	-12.601
▁military	-12.6011
▁fab	-12.6011
uffin	-12.6011
▁Transcendent	-12.6013
▁dirt	-12.6014
▁Role	-12.6019
xclaim	-12.6021
▁Summar	-12.6023
▁hour	-12.6024
populated	-12.6025
▁Mall	-12.6025
liable	-12.6025
▁Musk	-12.6025
▁Gank	-12.6026
▁annoyed	-12.6029
▁pose	-12.603
▁Grime	-12.603
▁headed	-12.6031
nimate	-12.6032
▁Humid	-12.6033
▁jungle	-12.6033
▁arcane	-12.6033
▁Sock	-12.6035
▁Atheist	-12.6036
▁sucker	-12.6038
vade	-12.6039
ugitive	-12.6041
▁strength	-12.6041
platter	-12.6041
▁titan	-12.6041
▁Philosoph	-12.6041
ooey	-12.6042
urround	-12.6042
▁toss	-12.6043
▁devil	-12.6043
▁Grace	-12.6043
▁Intuitive	-12.6043
▁Jeopard	-12.6043
▁bulgarian	-12.6043
▁excuse	-12.6043
▁improper	-12.6043
▁infuriating	-12.6043
▁inspiring	-12.6043
▁insurance	-12.6043
▁microwave	-12.6043
▁peanut	-12.6043
▁strand	-12.6043
▁suicide	-12.6043
▁enemy	-12.6043
▁surgical	-12.6043
▁widow	-12.6043
▁Tweet	-12.6043
▁Subliminal	-12.6043
▁fluctuate	-12.6043
ntagonize	-12.6043
▁marvelous	-12.6043
▁priest	-12.6043
▁uncharted	-12.6043
▁undisputed	-12.6043
▁uneducated	-12.6043
▁compliment	-12.6044
▁mutant	-12.6044
▁progressive	-12.6044
wareness	-12.6044
▁hush	-12.6044
▁Golden	-12.6045
▁capture	-12.6045
imaginative	-12.6045
▁endure	-12.6045
▁surround	-12.6045
▁fifth	-12.6045
▁suspicious	-12.6045
▁fistful	-12.6045
▁flourish	-12.6045
▁pizza	-12.6046
▁displace	-12.6046
▁squash	-12.6046
▁preposterous	-12.6046
▁morning	-12.6047
▁sapp	-12.6047
definition	-12.6047
▁monetary	-12.6048
▁Rival	-12.6048
▁frank	-12.605
▁madness	-12.605
▁Operation	-12.605
▁Friggin	-12.6051
▁Remaster	-12.6052
▁series	-12.6053
romatic	-12.6055
▁blacklist	-12.6056
▁shipping	-12.6057
▁semi	-12.6058
prompted	-12.6059
beast	-12.606
▁Tease	-12.606
titch	-12.6062
▁Glute	-12.6065
▁implant	-12.6066
savory	-12.6067
▁Business	-12.6069
▁Crunch	-12.607
▁argu	-12.6073
urf	-12.6075
▁disc	-12.6076
▁resign	-12.6079
▁anarchist	-12.6079
▁Shill	-12.608
▁technic	-12.6082
usable	-12.6083
▁apt	-12.6085
ider	-12.6086
ncaps	-12.609
countable	-12.6091
▁regard	-12.6091
▁Jug	-12.6092
▁Questionabl	-12.6094
▁interpret	-12.6097
elgian	-12.6097
▁surreal	-12.6097
iggy	-12.6098
▁latin	-12.6098
▁sleeve	-12.6098
▁child	-12.6098
isjudge	-12.6099
iteracy	-12.6099
equity	-12.6099
apanese	-12.6099
▁hurt	-12.6099
bsinthe	-12.6099
vaible	-12.6099
▁Israeli	-12.6099
▁Rebuild	-12.6099
▁confusing	-12.6099
▁contribute	-12.6099
▁knuckle	-12.6099
▁prejudice	-12.6099
▁spontaneous	-12.6099
▁structural	-12.6099
▁Tailgate	-12.6099
▁society	-12.6099
▁Glitter	-12.61
▁dumpster	-12.61
▁Vibran	-12.61
▁gig	-12.61
▁forecast	-12.61
▁misjudge	-12.61
▁gym	-12.61
▁contrast	-12.61
elevent	-12.6101
▁Foam	-12.6101
▁curve	-12.6101
▁hitch	-12.6101
mirk	-12.6101
▁tonight	-12.6101
napshot	-12.6102
▁magnetic	-12.6102
▁siphon	-12.6102
▁overload	-12.6104
▁dollar	-12.6104
▁Contest	-12.6104
▁item	-12.6104
▁Observation	-12.6104
tolerable	-12.6105
▁winner	-12.6106
dorn	-12.6106
ruggy	-12.6106
▁mentor	-12.6108
ccountable	-12.6108
▁ventilat	-12.611
▁Commence	-12.611
▁honorable	-12.611
▁dimensional	-12.6112
▁lease	-12.6114
▁Paper	-12.6114
▁beauty	-12.6115
allback	-12.6116
▁Psychiatr	-12.6118
▁lugg	-12.6123
vian	-12.6123
ddiction	-12.6124
▁Overpopulat	-12.6126
counterable	-12.6133
▁Affirm	-12.614
▁leve	-12.6142
▁idea	-12.6142
▁family	-12.6144
▁veg	-12.6145
▁Consult	-12.6146
illionaire	-12.6152
elegraph	-12.6154
ativa	-12.6155
verpower	-12.6155
haotic	-12.6155
heesy	-12.6155
rumple	-12.6155
rabby	-12.6156
ultry	-12.6156
▁hip	-12.6156
▁transition	-12.6156
▁Orchestra	-12.6156
krainian	-12.6156
▁Outla	-12.6156
▁Clarif	-12.6156
▁partner	-12.6156
▁Expend	-12.6156
▁Moist	-12.6156
dversarial	-12.6156
▁Occul	-12.6156
▁Pulse	-12.6156
▁cogent	-12.6156
▁confront	-12.6156
▁desolate	-12.6156
▁grandfather	-12.6156
▁history	-12.6156
▁rejoice	-12.6156
▁societal	-12.6156
▁Depressing	-12.6156
▁Horizontal	-12.6156
▁grease	-12.6157
▁flappy	-12.6157
▁guy	-12.6157
▁encod	-12.6157
▁massacre	-12.6157
▁bingo	-12.6157
▁mandatory	-12.6157
mg	-12.6157
▁comeback	-12.6157
▁inhale	-12.6157
▁collegiate	-12.6157
▁redditor	-12.6157
▁relentless	-12.6158
▁genius	-12.6158
▁tomorrow	-12.6158
▁soccer	-12.6158
▁Juni	-12.6158
▁freudian	-12.6158
elish	-12.6158
▁dissapear	-12.6159
▁boyfriend	-12.6159
▁Foundation	-12.6159
▁cred	-12.6159
▁error	-12.6159
competency	-12.6159
▁pioneer	-12.616
▁unnecessary	-12.616
▁elvish	-12.6161
edication	-12.6161
▁evade	-12.6161
▁tailor	-12.6164
▁Map	-12.6165
▁fot	-12.6167
busive	-12.6168
mirite	-12.6169
▁express	-12.6169
achievable	-12.6169
bmc	-12.617
▁Wisp	-12.6171
▁Libertarian	-12.6171
▁translat	-12.6173
omone	-12.6174
▁Moron	-12.6175
▁detonat	-12.6175
ttainment	-12.6175
▁linger	-12.6176
▁gritty	-12.6178
▁deform	-12.6179
▁adept	-12.6181
▁Replica	-12.6182
▁widen	-12.6186
▁fuzzy	-12.6187
▁tamp	-12.619
▁Defi	-12.619
▁Univers	-12.6192
▁Null	-12.6193
▁Grun	-12.6193
▁mangle	-12.6195
▁Grapple	-12.6196
▁Conceptual	-12.6198
▁counsel	-12.6199
trepid	-12.62
▁Conversation	-12.6202
▁adventure	-12.6204
american	-12.6206
▁Excel	-12.6206
▁Meteor	-12.6207
isavow	-12.6208
▁compar	-12.6211
abotage	-12.6211
attoo	-12.6212
▁squad	-12.6213
▁Engage	-12.6213
▁batter	-12.6213
bdominal	-12.6213
naphylactic	-12.6213
▁Oxymoron	-12.6213
▁Platform	-12.6213
▁fleece	-12.6213
▁jihad	-12.6213
▁radiant	-12.6213
▁sprinkle	-12.6213
▁timestamp	-12.6213
▁rift	-12.6213
▁tinker	-12.6213
▁foxy	-12.6213
▁Exalt	-12.6214
▁Gnar	-12.6214
▁village	-12.6214
▁Balm	-12.6214
▁unlucky	-12.6214
▁Flair	-12.6214
▁movie	-12.6214
▁iconic	-12.6215
▁islamist	-12.6215
▁Flank	-12.6215
▁website	-12.6215
▁unlikely	-12.6216
▁bypass	-12.6216
▁botrk	-12.6216
▁finance	-12.6216
▁Motivation	-12.6217
▁photogenic	-12.6217
▁democracy	-12.6218
▁enhancement	-12.6218
▁encounter	-12.6218
▁wedding	-12.6218
▁unhealthy	-12.6218
▁dickbutt	-12.6218
▁disavow	-12.6219
▁temp	-12.6219
uthorize	-12.622
atchmaker	-12.622
opposed	-12.622
▁daring	-12.6222
▁Committe	-12.6222
▁quirky	-12.6223
▁Mug	-12.6223
▁desi	-12.6223
▁render	-12.6224
nnouncement	-12.6225
▁inexperienced	-12.6226
▁economic	-12.6228
odlike	-12.6229
▁Scum	-12.6229
armored	-12.6229
▁Pino	-12.623
▁Cease	-12.6234
▁introverted	-12.6235
▁infantry	-12.6237
▁mode	-12.6238
▁Patroniz	-12.6239
▁Cartoon	-12.6239
▁automoderator	-12.6241
▁disabled	-12.6243
▁Waive	-12.6243
▁Semi	-12.6244
▁promote	-12.6244
ardine	-12.6245
▁cata	-12.6249
▁Crim	-12.6251
▁Refere	-12.6252
▁Tardi	-12.6253
ompression	-12.6257
▁Generalis	-12.6262
▁tee	-12.6263
▁capitalist	-12.6266
▁exhibit	-12.6267
sychotic	-12.6268
iggle	-12.6269
▁icy	-12.6269
▁universal	-12.6269
▁Period	-12.6269
eanderthal	-12.627
atapult	-12.627
efrain	-12.627
ontrary	-12.627
▁imperialist	-12.627
▁fizzle	-12.627
pectral	-12.627
cendiary	-12.627
ccommodate	-12.6271
eronautical	-12.6271
ttenuate	-12.6271
▁Bulldoze	-12.6271
▁Convince	-12.6271
▁Tongue	-12.6271
▁Wholesale	-12.6271
▁empirical	-12.6271
▁subliminal	-12.6271
▁uncommon	-12.6271
▁victory	-12.6271
▁loony	-12.6271
▁Bulgaria	-12.6271
▁distant	-12.6271
▁Hike	-12.6271
merish	-12.6271
▁volcanic	-12.6271
▁Money	-12.6271
dminister	-12.6271
▁invincible	-12.6271
▁thrash	-12.6272
▁mawile	-12.6272
▁mercenary	-12.6272
▁conspiracy	-12.6272
▁partisan	-12.6272
▁hedge	-12.6272
▁confidant	-12.6272
▁Redhead	-12.6273
▁warrior	-12.6273
▁harmless	-12.6273
▁wayward	-12.6273
▁shudder	-12.6274
hudder	-12.6274
▁focal	-12.6274
▁fungal	-12.6274
▁pretty	-12.6275
epressed	-12.6275
▁Oppos	-12.6275
forgettable	-12.6275
▁elven	-12.6275
▁pipe	-12.6276
▁discharge	-12.6276
▁distinguished	-12.6276
▁drug	-12.6276
▁Buckle	-12.6276
▁sear	-12.6277
▁outline	-12.6277
reliability	-12.6277
▁goodness	-12.6278
enforceable	-12.6279
▁Collaborat	-12.6279
▁papal	-12.6281
▁Treasure	-12.6281
lleyway	-12.6282
▁Measure	-12.6284
▁comet	-12.6284
▁Rail	-12.6285
▁booty	-12.6285
▁shovel	-12.6285
▁refrain	-12.6286
▁bug	-12.6286
wn	-12.6286
▁Stoic	-12.6286
▁Masculin	-12.6288
satisfactory	-12.6288
wipe	-12.6288
▁spooky	-12.629
▁culture	-12.6291
▁Juice	-12.6292
▁border	-12.6294
▁island	-12.6295
▁binge	-12.6296
▁Jib	-12.6298
▁girly	-12.6298
▁Interpret	-12.6299
cne	-12.63
▁brew	-12.6301
eactivate	-12.6301
▁fucking	-12.6307
▁month	-12.6307
▁overpower	-12.6311
▁western	-12.6311
▁user	-12.6312
umerous	-12.6314
▁Anchor	-12.6315
▁Mut	-12.6316
hanel	-12.6318
tomic	-12.632
▁maintain	-12.6322
▁Optical	-12.6322
rocessor	-12.6323
▁mingle	-12.6323
▁honour	-12.6325
▁Sear	-12.6325
rappy	-12.6326
eparable	-12.6327
quirrel	-12.6327
▁joy	-12.6327
oyo	-12.6327
▁gnostic	-12.6328
▁body	-12.6328
▁persist	-12.6328
otherhood	-12.6329
▁manager	-12.6329
▁Recognis	-12.6329
▁bronze	-12.6329
▁burger	-12.6329
▁stagnate	-12.6329
▁blacksmith	-12.6329
▁oriental	-12.6329
▁scammer	-12.6329
▁thrust	-12.6329
▁Gloom	-12.6329
▁uplift	-12.6329
▁budge	-12.6329
▁Suffer	-12.6329
outhwestern	-12.6329
▁parade	-12.6329
▁hungarian	-12.6329
▁unfinished	-12.6329
utocratic	-12.6329
▁educational	-12.633
▁sale	-12.633
▁caustic	-12.633
ardcore	-12.633
▁Magnetic	-12.633
▁railroad	-12.633
▁shame	-12.633
▁reproductive	-12.633
lourish	-12.6331
▁impal	-12.6331
▁Objective	-12.6331
▁rumor	-12.6331
▁widespread	-12.6331
▁outcast	-12.6331
▁background	-12.6331
▁resort	-12.6331
▁scoff	-12.6332
rgumentative	-12.6332
uper	-12.6334
scrupulous	-12.6334
▁Keyboard	-12.6335
▁saddle	-12.6336
▁fabricat	-12.6336
verted	-12.6337
spurr	-12.6338
▁unbelievable	-12.6338
▁disappointed	-12.6339
▁Panick	-12.6341
rabian	-12.6341
uration	-12.6342
▁Mesh	-12.6342
▁Lac	-12.6343
nnoyed	-12.6343
postolic	-12.6343
nise	-12.6348
▁Pad	-12.6351
▁bash	-12.6352
▁Conscript	-12.6352
rethought	-12.6352
▁Kilo	-12.6353
▁Weapon	-12.6353
▁aussie	-12.6354
▁Budge	-12.6355
terface	-12.6355
▁Utiliz	-12.6355
▁bottle	-12.6355
▁Goal	-12.6356
pologise	-12.6356
▁Prize	-12.6358
▁Lub	-12.6358
hinny	-12.6363
ertain	-12.6363
▁shipp	-12.6364
▁Turk	-12.6365
▁Tin	-12.6366
▁Xenophobi	-12.6368
▁attic	-12.6369
▁job	-12.6371
wrap	-12.6372
▁analytic	-12.6373
▁Emergenc	-12.6374
▁Ext	-12.6374
rusted	-12.6376
inematic	-12.6377
▁Detract	-12.6378
▁Sleeve	-12.6379
spirin	-12.6379
▁Formula	-12.638
▁repent	-12.6385
ssassinate	-12.6385
▁Chrome	-12.6387
azoo	-12.6387
▁unreal	-12.6387
mperative	-12.6387
oodoo	-12.6387
▁villain	-12.6387
▁conspir	-12.6387
ccesible	-12.6387
pparition	-12.6387
▁Deliberate	-12.6387
▁abrupt	-12.6387
▁benevolent	-12.6387
▁mexican	-12.6387
▁violence	-12.6387
▁volume	-12.6387
▁Janitor	-12.6387
▁Blogge	-12.6387
▁Display	-12.6387
ptitude	-12.6387
▁Approve	-12.6387
▁Reuni	-12.6387
▁Scene	-12.6387
▁worsen	-12.6387
▁peruse	-12.6387
▁hostile	-12.6387
▁Shart	-12.6387
▁Travers	-12.6387
▁internet	-12.6387
dobe	-12.6387
▁jewish	-12.6387
▁unavailable	-12.6387
▁luminous	-12.6387
▁Uplift	-12.6388
mboss	-12.6388
▁Relentless	-12.6388
lpine	-12.6388
▁portal	-12.6388
▁acute	-12.6389
▁sixth	-12.6389
▁windforce	-12.6389
▁westernized	-12.6389
▁Playoff	-12.6389
▁soul	-12.6389
▁swoop	-12.6389
▁periwinkle	-12.639
▁bipolar	-12.639
▁atheism	-12.639
▁pertain	-12.639
▁blackmail	-12.639
recognizable	-12.6391
▁Dissonan	-12.6392
▁destructive	-12.6392
▁music	-12.6393
▁Customiz	-12.6394
▁Contain	-12.6396
▁Tackle	-12.6396
▁ops	-12.6397
▁Splitt	-12.6397
▁daddy	-12.6397
▁solder	-12.6398
icate	-12.6398
▁miscalculat	-12.6399
▁temporary	-12.64
▁asleep	-12.64
▁laughable	-12.6401
pplaud	-12.6402
▁avoid	-12.6405
treated	-12.6405
▁blight	-12.6406
▁Bottom	-12.6407
▁lodge	-12.6407
▁blog	-12.6412
▁Freakin	-12.6413
ital	-12.6413
▁Repent	-12.6414
▁Define	-12.6415
▁Hos	-12.6418
▁Standardiz	-12.6419
▁stripe	-12.6426
▁impressed	-12.6426
xxxxxxxxxxxx	-12.6428
▁stalk	-12.6429
▁Behavior	-12.6429
▁Anarchist	-12.6432
▁Settle	-12.6434
▁enlist	-12.6435
▁interested	-12.6435
▁Gutte	-12.6436
▁Stalk	-12.6437
▁Capacit	-12.6438
verlasting	-12.644
reposterous	-12.6442
▁Favor	-12.6443
▁secular	-12.6443
▁Los	-12.6444
▁Intens	-12.6444
▁stoic	-12.6445
slamist	-12.6445
▁jet	-12.6445
▁Caption	-12.6445
narchic	-12.6445
ntimicrobial	-12.6445
nythign	-12.6445
▁Knot	-12.6445
▁Orthodox	-12.6445
▁Refuge	-12.6445
▁Silhouette	-12.6445
▁Syrup	-12.6445
▁bummed	-12.6445
▁compulsive	-12.6445
▁duct	-12.6445
▁gimmick	-12.6445
▁pokey	-12.6445
▁phony	-12.6445
▁stove	-12.6445
thiest	-12.6445
▁flawed	-12.6445
▁frosty	-12.6445
nemic	-12.6445
▁Tinker	-12.6445
▁arena	-12.6445
▁Scent	-12.6445
▁spawn	-12.6445
▁vacuum	-12.6446
▁sister	-12.6446
▁concert	-12.6446
▁prism	-12.6446
▁horror	-12.6446
▁unchained	-12.6446
▁humanitarian	-12.6446
▁specialized	-12.6446
laskan	-12.6446
▁Syndicat	-12.6446
▁nickname	-12.6446
▁limitless	-12.6447
▁reduce	-12.6447
▁southeastern	-12.6447
▁semitic	-12.6447
▁fullscreen	-12.6447
▁lawn	-12.6448
▁sinister	-12.6449
▁pubic	-12.6449
▁Dough	-12.6449
▁Disconnect	-12.645
▁involuntary	-12.645
▁computer	-12.645
▁stumble	-12.6451
▁Desi	-12.6451
▁messy	-12.6452
▁mans	-12.6453
▁charter	-12.6455
▁rematch	-12.6457
▁Entitle	-12.6458
▁Dwarf	-12.6458
▁appli	-12.6459
▁Reanimat	-12.6459
▁inso	-12.6461
▁charm	-12.6462
▁Analytic	-12.6463
▁Mediat	-12.6464
▁hallowed	-12.6465
▁Harm	-12.6466
▁Gritt	-12.6466
▁probable	-12.6467
reachable	-12.6471
tradeable	-12.6471
▁Newb	-12.6473
▁Emot	-12.6479
▁inject	-12.6479
latoon	-12.6484
erbian	-12.6485
▁Baker	-12.6485
▁amateur	-12.6486
▁Fact	-12.6486
▁Engine	-12.6487
crid	-12.6488
▁acidic	-12.6488
▁Karm	-12.6489
nag	-12.6491
▁selfless	-12.6491
▁Bugg	-12.6492
validation	-12.6492
▁Doom	-12.6493
andatory	-12.6494
▁Sync	-12.6494
ccounting	-12.6497
ompound	-12.6498
▁Underrate	-12.6499
▁grate	-12.6501
▁mythic	-12.6502
enacious	-12.6502
orque	-12.6502
▁Shirt	-12.6503
ollegiate	-12.6503
vincible	-12.6504
conclusive	-12.6504
ifth	-12.6504
insured	-12.6504
▁bulb	-12.6504
dmonish	-12.6504
ircraft	-12.6504
lgerian	-12.6504
nabolic	-12.6504
▁Facepalm	-12.6504
▁Martyr	-12.6504
▁disjoint	-12.6504
▁facepalm	-12.6504
▁fantasy	-12.6504
▁fragile	-12.6504
▁freight	-12.6504
▁oxidize	-12.6504
▁taco	-12.6504
▁zealot	-12.6504
scertain	-12.6504
dometer	-12.6504
▁insightful	-12.6504
ltough	-12.6504
▁Stress	-12.6504
▁jinx	-12.6504
▁Branch	-12.6505
▁Regiment	-12.6505
▁iranian	-12.6505
▁memory	-12.6505
▁Independent	-12.6505
hield	-12.6505
▁chromatic	-12.6505
▁outdated	-12.6505
runcate	-12.6505
▁underrated	-12.6506
▁nimble	-12.6506
▁robotic	-12.6506
▁software	-12.6506
▁twelfth	-12.6506
▁shelter	-12.6506
▁gaijin	-12.6506
▁scholastic	-12.6506
▁sleepless	-12.6507
▁Prox	-12.6507
▁botanical	-12.6507
▁Routine	-12.6507
▁wobble	-12.6507
▁pakistani	-12.6508
▁mythical	-12.6508
▁freakin	-12.6508
▁Helpless	-12.6508
bv	-12.6509
▁plausible	-12.6509
▁Plast	-12.651
peen	-12.651
sthmatic	-12.6511
▁concentrated	-12.6513
▁playful	-12.6514
capacitated	-12.6518
bstain	-12.652
▁habitat	-12.6521
apel	-12.6522
▁mutter	-12.6523
opyright	-12.6525
▁Leftis	-12.6526
warm	-12.6526
▁status	-12.6529
acht	-12.6531
▁Cleanse	-12.6531
▁chunky	-12.6531
▁Econom	-12.6532
▁Invent	-12.6533
▁rug	-12.6533
lasticity	-12.6535
▁Choke	-12.6536
▁falle	-12.6538
▁withdraw	-12.6538
▁segment	-12.6541
▁Render	-12.6543
▁Chronic	-12.6543
▁Psycholog	-12.6544
nther	-12.6546
▁Uninspir	-12.6547
▁Lunch	-12.6548
yrex	-12.6549
▁cancel	-12.6549
▁Economic	-12.6551
▁Displace	-12.6551
▁Nav	-12.6552
ocus	-12.6553
▁Unreal	-12.6554
you	-12.6554
▁Mediocr	-12.6555
polished	-12.6555
▁Existential	-12.6556
ispute	-12.6558
▁split	-12.6558
oycott	-12.656
▁conscious	-12.656
▁friggin	-12.6561
hroud	-12.6561
▁teleport	-12.6561
onfidant	-12.6562
▁Fuse	-12.6562
▁Sacrific	-12.6563
semination	-12.6563
inuate	-12.6563
poptosis	-12.6563
rmenian	-12.6563
ssortment	-12.6563
ugget	-12.6563
▁Intrigue	-12.6563
▁Promote	-12.6563
▁mmorpg	-12.6563
▁precipitate	-12.6563
▁sacred	-12.6563
▁syndicate	-12.6563
▁Chamber	-12.6563
▁Liturg	-12.6563
▁barter	-12.6563
▁Overprice	-12.6563
▁Unwelcom	-12.6563
▁horizontal	-12.6563
▁victorious	-12.6564
rterial	-12.6564
▁cockney	-12.6564
▁skateboard	-12.6565
▁outlaw	-12.6565
▁thanksgiving	-12.6565
▁Uncann	-12.6565
▁twitter	-12.6565
▁smoking	-12.6565
▁torrential	-12.6565
▁theory	-12.6565
▁sturdy	-12.6565
▁wishful	-12.6565
▁finnish	-12.6565
▁ravenous	-12.6566
▁goal	-12.6566
▁unbox	-12.6566
▁helpless	-12.6567
▁strategic	-12.6567
▁Slope	-12.6567
▁pilot	-12.6567
▁example	-12.6567
▁feline	-12.6568
fertility	-12.6568
hoppy	-12.6568
▁whale	-12.6569
▁invisible	-12.6569
▁Soak	-12.6569
▁brown	-12.657
▁witty	-12.657
▁wallet	-12.6571
▁soda	-12.6573
▁dwindle	-12.6573
dvantageous	-12.6575
▁shear	-12.6575
▁weigh	-12.6577
ivisional	-12.6577
▁carve	-12.6578
ickey	-12.658
▁mumble	-12.6582
▁optical	-12.6582
▁Coke	-12.6583
▁Version	-12.6584
submitte	-12.6587
▁moba	-12.6588
▁certifi	-12.6589
flattering	-12.6591
▁gay	-12.6591
managed	-12.6591
▁topic	-12.6593
profitable	-12.6595
▁Broker	-12.6596
▁Adjust	-12.6597
▁Tat	-12.66
▁twisted	-12.66
▁foreign	-12.6606
▁applaud	-12.6608
gestion	-12.6609
▁Reneg	-12.661
▁Weigh	-12.6611
▁heartbreak	-12.6611
ruction	-12.6612
untie	-12.6613
▁Legalis	-12.6614
▁catchy	-12.6614
▁goddam	-12.6615
▁feelin	-12.662
ranian	-12.6621
▁faith	-12.6621
aluable	-12.6622
ullaby	-12.6622
lphanumeric	-12.6623
partheid	-12.6623
reconceive	-12.6623
▁electoral	-12.6623
▁energy	-12.6623
▁glacial	-12.6623
▁landscape	-12.6623
▁vexing	-12.6623
▁depressing	-12.6623
▁Excommunicat	-12.6623
▁brigade	-12.6623
▁romanian	-12.6623
▁taser	-12.6623
▁radioactive	-12.6623
euter	-12.6623
▁Isolate	-12.6623
▁twat	-12.6623
▁reliant	-12.6623
▁nuclear	-12.6624
▁cozy	-12.6624
▁outperform	-12.6624
▁undert	-12.6624
▁merge	-12.6624
▁comedy	-12.6624
▁Tenure	-12.6624
ozy	-12.6625
▁newbie	-12.6625
▁muggle	-12.6625
▁baseball	-12.6626
▁banana	-12.6626
▁heartless	-12.6626
▁corrective	-12.6626
▁populous	-12.6626
urveyor	-12.6626
pposed	-12.6627
▁cookie	-12.6627
fallible	-12.6627
▁wiiu	-12.6627
▁everybody	-12.6627
▁evangelical	-12.6628
▁majority	-12.6628
palatable	-12.6628
▁Enlist	-12.6628
weful	-12.6628
▁ghastly	-12.6628
▁puppy	-12.663
▁Peel	-12.6632
rue	-12.6632
▁Skir	-12.6632
▁questionable	-12.6634
▁snarky	-12.6634
mputate	-12.6636
▁furry	-12.6637
lower	-12.6638
▁Hurt	-12.664
hippy	-12.664
▁preserve	-12.6642
▁study	-12.6644
▁Ordina	-12.6644
▁causal	-12.6645
▁Principal	-12.6646
▁wealthy	-12.6647
estructive	-12.6648
▁plead	-12.6648
ummi	-12.6652
ivilized	-12.6654
ryan	-12.6654
▁Every	-12.6656
▁impartial	-12.6657
disputable	-12.6659
▁cert	-12.6661
▁Commi	-12.6662
eadspace	-12.6663
elated	-12.6664
cidic	-12.6665
▁heal	-12.6665
▁gripp	-12.6667
▁Negat	-12.6674
▁ult	-12.6675
▁Decay	-12.6675
▁Rum	-12.6675
▁rave	-12.6676
ibus	-12.6676
▁deduc	-12.6676
ursuit	-12.6677
▁Ascend	-12.6677
bject	-12.6677
peach	-12.6679
hotogenic	-12.6679
remise	-12.6681
adiator	-12.6682
▁ascend	-12.6682
▁slaughter	-12.6683
▁Quadra	-12.6683
blative	-12.6683
▁Encrypt	-12.6683
▁Unpleasant	-12.6683
▁advice	-12.6683
▁exemplar	-12.6683
▁kitchen	-12.6683
▁unhappy	-12.6683
▁problem	-12.6683
mbient	-12.6683
▁Furious	-12.6683
▁surly	-12.6683
dorbs	-12.6683
▁thankful	-12.6683
▁Balk	-12.6683
▁duty	-12.6683
▁blurt	-12.6683
▁five	-12.6683
▁cerave	-12.6684
▁masonic	-12.6684
▁marriage	-12.6684
▁wooden	-12.6684
▁championship	-12.6684
▁veto	-12.6684
▁naughty	-12.6684
▁safety	-12.6685
egenerative	-12.6685
▁shitlord	-12.6685
▁willpower	-12.6685
▁supernatural	-12.6685
▁Overgrow	-12.6685
▁siamese	-12.6685
▁regain	-12.6686
▁property	-12.6686
▁balk	-12.6687
ermin	-12.6687
▁Tolera	-12.6688
▁smokey	-12.6688
▁foggy	-12.6688
▁Locus	-12.6688
▁Rightful	-12.6688
▁Simplif	-12.669
onorary	-12.6691
▁scruffy	-12.6693
▁Nag	-12.6693
▁earthly	-12.6693
suitable	-12.6694
lamor	-12.6695
▁absolut	-12.6696
▁pill	-12.6698
savoury	-12.6698
▁haunted	-12.6702
▁facet	-12.6702
bsurdist	-12.6704
▁monthly	-12.6705
▁Sensationalist	-12.6707
▁rally	-12.6708
▁spacey	-12.6709
▁First	-12.6709
▁sized	-12.6713
▁advantage	-12.6715
▁frisky	-12.6716
ecklist	-12.6716
▁addictive	-12.6723
▁atmospheric	-12.6724
▁Decade	-12.6724
▁abstain	-12.6727
▁Lax	-12.6727
▁experience	-12.6732
rmless	-12.6732
▁Regist	-12.6732
patter	-12.6733
▁receive	-12.6733
piring	-12.6733
▁puss	-12.6733
▁Implant	-12.6738
ickbutt	-12.6738
istinguished	-12.6738
lvish	-12.6738
▁Argue	-12.6739
▁column	-12.6739
olic	-12.674
▁Senior	-12.674
idespread	-12.6741
▁municipal	-12.6741
austic	-12.6742
ontrast	-12.6742
▁Regenerat	-12.6742
▁steal	-12.6743
ntisemite	-12.6743
utomotive	-12.6743
▁Sprinkle	-12.6743
▁conceit	-12.6743
▁glory	-12.6743
▁homophobic	-12.6743
▁honk	-12.6743
▁multicolor	-12.6743
▁omnipotent	-12.6743
▁tardis	-12.6743
▁upboat	-12.6743
▁stig	-12.6743
▁Zap	-12.6743
▁tweak	-12.6743
inpoint	-12.6743
vulnerable	-12.6743
▁Bolt	-12.6743
▁claus	-12.6743
▁deserved	-12.6743
▁extort	-12.6743
▁homemade	-12.6743
▁vegan	-12.6743
▁unbound	-12.6744
egged	-12.6744
▁offtopic	-12.6744
▁countless	-12.6744
▁Acro	-12.6745
▁sheeple	-12.6745
▁Convey	-12.6745
▁supernova	-12.6745
▁statutory	-12.6745
▁magick	-12.6745
▁facial	-12.6745
▁garbage	-12.6745
▁Preferabl	-12.6745
ioneer	-12.6746
▁peruvian	-12.6746
▁spotless	-12.6746
▁stutter	-12.6747
▁Swath	-12.6748
▁doubtful	-12.6748
▁Worry	-12.6749
▁refresh	-12.6749
▁predict	-12.675
▁berate	-12.675
▁Chic	-12.675
▁meth	-12.6751
ryptic	-12.6753
aturation	-12.6754
tradable	-12.6756
daptable	-12.6757
▁predictable	-12.6758
▁lumpy	-12.6758
▁Immers	-12.6758
▁woody	-12.6758
tmospheric	-12.6762
ntisocial	-12.6763
▁Mangle	-12.6764
▁Cater	-12.6767
ffective	-12.6768
▁sassy	-12.6768
▁bored	-12.6768
▁Mentor	-12.6769
▁Burden	-12.6769
hromatic	-12.677
ddressable	-12.677
▁windy	-12.6772
▁disable	-12.6772
voidant	-12.6773
▁Haze	-12.6776
ccelerate	-12.6781
▁angelic	-12.6781
▁Probable	-12.6782
▁alkaline	-12.6783
▁Absolut	-12.6785
▁spirit	-12.6786
onnet	-12.6786
▁Redo	-12.6787
utant	-12.6788
▁polymorph	-12.6788
▁goofy	-12.679
einer	-12.6792
▁Logic	-12.6792
▁Mini	-12.6793
idebar	-12.6793
▁Opportun	-12.6796
▁invest	-12.68
▁Goooo	-12.68
▁division	-12.68
owdy	-12.68
reudian	-12.6801
▁tempt	-12.6801
hriek	-12.6801
ambic	-12.6802
utperform	-12.6802
ercenary	-12.6803
gnition	-12.6803
ungarian	-12.6803
▁reneg	-12.6803
▁Geometr	-12.6803
forementioned	-12.6804
▁Citrus	-12.6804
▁Journey	-12.6804
▁Jumbo	-12.6804
▁Telephon	-12.6804
▁elitist	-12.6804
▁euphoric	-12.6804
▁mediocre	-12.6804
rchaic	-12.6804
▁faceless	-12.6804
▁Exponential	-12.6804
▁Homeopath	-12.6804
uminous	-12.6804
▁Definat	-12.6804
▁midfield	-12.6804
▁unstoppable	-12.6804
▁interracial	-12.6804
▁intrepid	-12.6804
tutter	-12.6804
▁bony	-12.6804
▁hateful	-12.6804
▁pagan	-12.6804
▁consummate	-12.6805
▁balanced	-12.6805
▁obligatory	-12.6805
▁river	-12.6805
▁uncut	-12.6805
▁crop	-12.6805
▁Outfi	-12.6805
▁seventh	-12.6806
▁shriek	-12.6806
rochet	-12.6806
▁witness	-12.6806
isposition	-12.6806
▁Demonstrat	-12.6807
▁effing	-12.6807
▁penis	-12.6807
▁planetary	-12.6807
▁portuguese	-12.6807
▁deviant	-12.6809
▁eleventh	-12.6809
▁divergent	-12.6809
reparation	-12.681
sanitary	-12.6811
▁irreversible	-12.6811
▁Sauce	-12.6811
▁neuter	-12.6811
▁gush	-12.6811
▁isolation	-12.6812
▁Typ	-12.6812
▁puzzle	-12.6812
▁depot	-12.6812
rerelease	-12.6816
skippable	-12.6817
▁crooked	-12.6818
nquiry	-12.6818
▁randomize	-12.682
▁Socket	-12.682
▁trigger	-12.682
▁corny	-12.6821
▁Gaff	-12.6823
lliance	-12.6824
▁deb	-12.6828
▁scurr	-12.683
▁Dupe	-12.6831
▁girl	-12.6834
▁Potter	-12.6835
larmist	-12.6836
▁Sociolog	-12.6837
habitable	-12.6837
▁Wrestl	-12.6838
▁Fog	-12.6839
▁slot	-12.684
▁Slot	-12.684
▁dam	-12.6842
acity	-12.6842
▁sketchy	-12.6842
▁alcoholic	-12.6844
▁Irk	-12.6845
▁antisocial	-12.6845
▁mini	-12.6848
▁Feelin	-12.6851
▁Elemental	-12.6855
▁ruined	-12.6856
▁Stabb	-12.6856
unblock	-12.6857
▁Legend	-12.6858
▁Inertia	-12.6858
eplete	-12.6859
▁veer	-12.6859
akistani	-12.6861
▁Amateur	-12.6862
▁stall	-12.6862
▁frickin	-12.6862
cholastic	-12.6862
iamese	-12.6862
▁relent	-12.6863
▁Relent	-12.6863
▁coincide	-12.6864
▁telecom	-12.6864
▁pseudo	-12.6864
fertile	-12.6864
dipose	-12.6865
ffffuuuuuuuuuuuu	-12.6865
ffluent	-12.6865
naerobic	-12.6865
trophied	-12.6865
▁mommy	-12.6865
▁smear	-12.6865
▁lightning	-12.6865
▁Romania	-12.6865
▁undergraduate	-12.6865
▁vagrant	-12.6865
▁capri	-12.6865
▁unknown	-12.6865
▁Manual	-12.6865
▁imaginary	-12.6865
▁martial	-12.6865
▁Confront	-12.6865
▁lightweight	-12.6866
▁cyan	-12.6866
▁inconvenient	-12.6866
▁congressional	-12.6866
▁ninth	-12.6866
▁intern	-12.6866
▁sandbox	-12.6866
▁undercover	-12.6866
▁constrict	-12.6866
▁Tourist	-12.6866
▁touchdown	-12.6866
itsu	-12.6866
▁Brag	-12.6866
▁turkish	-12.6866
▁snitch	-12.6867
▁breakfast	-12.6867
▁blizzard	-12.6867
▁security	-12.6868
▁remain	-12.6868
rchitectural	-12.6868
▁howl	-12.6868
lovable	-12.6868
▁runic	-12.6869
▁pedantic	-12.6869
hinged	-12.6869
▁spew	-12.687
▁Partisan	-12.687
▁Patient	-12.6871
istful	-12.6871
▁mow	-12.6872
▁Reduce	-12.6872
ntique	-12.6874
▁Vein	-12.6874
▁stress	-12.6874
▁sluts	-12.6877
ariso	-12.6877
▁Blackli	-12.6877
abble	-12.6878
▁Strategic	-12.6878
▁Evident	-12.6878
enalty	-12.6879
certainty	-12.688
▁fate	-12.6881
moderated	-12.6882
▁authoritarian	-12.6884
lkaline	-12.6885
▁sacrament	-12.6886
ttic	-12.6887
▁Sponsor	-12.6887
defended	-12.6888
▁indoor	-12.6888
▁Pagan	-12.689
▁serious	-12.689
▁anime	-12.6891
▁Howl	-12.6893
▁deprecat	-12.6894
ddictive	-12.6896
▁blond	-12.6896
otel	-12.6898
▁Geographical	-12.6901
▁Specula	-12.6902
▁Info	-12.6902
hortle	-12.6903
▁Protestant	-12.6909
▁Pedophil	-12.6909
▁honey	-12.6911
aternal	-12.6911
▁Bewilder	-12.6915
▁pint	-12.6918
▁resurrect	-12.6922
▁insert	-12.6922
ustere	-12.6922
assword	-12.6922
ipolar	-12.6923
ollywood	-12.6925
umanitarian	-12.6925
restrained	-12.6926
▁oval	-12.6926
▁Accent	-12.6926
ntivirus	-12.6926
pprehensive	-12.6926
▁Disjoint	-12.6926
▁Telescop	-12.6926
▁inconsistent	-12.6926
▁judeo	-12.6926
▁rogue	-12.6926
▁steadfast	-12.6926
▁wiccan	-12.6926
▁heathen	-12.6926
▁Clique	-12.6926
▁skinny	-12.6926
▁ballsy	-12.6926
▁recieve	-12.6926
turk	-12.6926
▁Roleplay	-12.6926
▁jumble	-12.6926
▁hispanic	-12.6926
outheastern	-12.6926
▁Disease	-12.6927
▁miracle	-12.6927
▁outpace	-12.6927
▁Jacket	-12.6927
▁reblogged	-12.6927
▁maximum	-12.6927
▁infuse	-12.6927
▁toilet	-12.6928
▁mourn	-12.6928
▁suicidal	-12.6928
▁galaxy	-12.6928
▁satanic	-12.6928
▁Noticabl	-12.6928
▁utopian	-12.6928
lexus	-12.693
▁borderline	-12.693
▁Resolut	-12.693
▁orbital	-12.693
▁exotic	-12.6931
▁uncomfortable	-12.6931
▁depressed	-12.6932
▁Generation	-12.6932
ffraid	-12.6932
efault	-12.6932
▁Shot	-12.6933
▁rpm	-12.6934
▁dizzy	-12.6934
▁Sieg	-12.6935
▁regulatory	-12.6935
▁Opera	-12.6936
▁Outpa	-12.6936
eventful	-12.694
▁entertaining	-12.6941
drinkable	-12.6941
▁Twinkl	-12.6941
ixth	-12.6941
▁dinner	-12.6942
▁Jobb	-12.6942
▁process	-12.6943
▁stalker	-12.6943
▁Sadden	-12.6944
▁grip	-12.6945
▁Spect	-12.6945
▁wasp	-12.6946
▁Body	-12.6948
▁tacky	-12.6948
ttention	-12.6952
egeneration	-12.6952
▁privileged	-12.6957
shaven	-12.6957
▁hardy	-12.6958
▁Idea	-12.696
▁Lego	-12.696
▁Beer	-12.6961
lven	-12.6962
▁Carve	-12.6963
▁albino	-12.6964
▁maximize	-12.6964
▁autistic	-12.6966
▁Looo	-12.6968
▁Slap	-12.6969
▁Biolog	-12.6971
▁pear	-12.6974
▁pricey	-12.6977
otanical	-12.6978
▁Pseudo	-12.6979
othead	-12.6979
▁monster	-12.6982
isobey	-12.6982
residency	-12.6984
atrol	-12.6984
ayward	-12.6985
ullscreen	-12.6985
▁uncle	-12.6985
queal	-12.6985
▁prosper	-12.6986
welfth	-12.6986
vangelical	-12.6986
▁idiot	-12.6986
▁sociopath	-12.6986
▁Compliment	-12.6986
onsummate	-12.6987
ockney	-12.6987
ppt	-12.6987
▁libertarian	-12.6987
alienable	-12.6987
doubted	-12.6987
involved	-12.6987
dhesive	-12.6988
▁Mitochondria	-12.6988
▁Neckbeard	-12.6988
▁Precise	-12.6988
▁Simultaneous	-12.6988
▁Stomach	-12.6988
▁aztec	-12.6988
▁monitor	-12.6988
▁timid	-12.6988
▁unpleasant	-12.6988
▁Sacr	-12.6988
▁Upboat	-12.6988
cclimate	-12.6988
▁Trend	-12.6988
▁Omeg	-12.6988
cuba	-12.6988
utopsy	-12.6988
▁lid	-12.6988
orrential	-12.6988
▁protestant	-12.6988
▁integral	-12.6988
▁Spong	-12.6988
htick	-12.6988
▁melodic	-12.6988
▁molecular	-12.6988
▁routine	-12.6989
▁colorful	-12.6989
▁contemporary	-12.6989
▁circular	-12.6989
▁consular	-12.6989
▁noisy	-12.6989
▁Dose	-12.6989
▁enchanting	-12.6989
▁titanic	-12.6989
▁Kidnapp	-12.6989
▁tropical	-12.699
▁funniest	-12.699
▁squeal	-12.699
▁reverse	-12.699
▁objective	-12.699
consistency	-12.699
▁gnome	-12.699
▁flunk	-12.6991
▁thug	-12.6991
▁butthurt	-12.6991
▁disobey	-12.6993
▁compelling	-12.6994
▁Beginn	-12.6997
▁Encod	-12.6997
▁Vale	-12.6999
▁tempting	-12.7
▁Superficial	-12.7002
ationalism	-12.7002
determinate	-12.7002
approachable	-12.7003
▁Unsettl	-12.7005
▁silky	-12.7007
▁Remain	-12.7007
▁mandate	-12.7009
▁Faith	-12.7009
assless	-12.7011
▁Avoid	-12.7011
▁crude	-12.7012
▁Plane	-12.7013
▁pluck	-12.7013
eadlock	-12.7015
troduce	-12.7016
▁Tether	-12.7017
▁Technic	-12.7018
▁Flak	-12.702
utistic	-12.7021
listenable	-12.7023
▁Feminin	-12.7023
▁Disc	-12.7024
▁Mutilat	-12.7024
▁aboriginal	-12.7026
▁jazzy	-12.7026
▁Examine	-12.7027
urvy	-12.7029
▁Specialis	-12.703
lcoholic	-12.7031
▁jam	-12.7035
▁Slave	-12.7036
nthropomorphic	-12.7036
scented	-12.7037
▁generat	-12.7043
isregard	-12.7044
▁Bant	-12.7045
▁launch	-12.7046
ncounter	-12.7046
aijin	-12.7048
▁Gold	-12.7048
innish	-12.7048
awile	-12.7049
nourished	-12.7049
▁Vigil	-12.7049
dependence	-12.7049
observable	-12.7049
▁Breast	-12.705
arantine	-12.705
erodynamic	-12.705
rcheological	-12.705
▁Homicid	-12.705
▁Third	-12.705
▁chewy	-12.705
▁exalted	-12.705
▁extrovert	-12.705
▁fedora	-12.705
▁metabolic	-12.705
▁overpriced	-12.705
▁pierce	-12.705
▁Sapien	-12.705
▁coal	-12.705
▁extended	-12.705
▁Dumpster	-12.705
▁compet	-12.705
▁Forecast	-12.705
▁regrettabl	-12.7051
▁Delight	-12.7051
▁islamic	-12.7051
▁statement	-12.7052
▁rican	-12.7052
▁mystical	-12.7053
▁instrumental	-12.7053
▁notable	-12.7055
▁bawl	-12.7056
▁debut	-12.7058
▁plop	-12.7058
▁goat	-12.706
▁itchy	-12.706
▁editorial	-12.706
▁curly	-12.7061
▁Hitch	-12.7061
▁officer	-12.7061
comprehensible	-12.7062
asement	-12.7064
▁understandable	-12.7065
▁mall	-12.7065
▁Embarrass	-12.7066
irhead	-12.7068
▁lively	-12.7069
▁moody	-12.707
▁Denominat	-12.7071
oun	-12.7071
dware	-12.7072
ngelic	-12.7073
▁conversational	-12.7074
▁Seren	-12.708
▁dabble	-12.7082
▁Goddam	-12.7082
▁Leve	-12.7084
▁introduc	-12.7084
▁pup	-12.7084
▁Riff	-12.7086
▁scratchy	-12.7087
applicable	-12.7088
acial	-12.7089
▁misty	-12.7093
▁smelly	-12.7094
gile	-12.7094
▁crafty	-12.7094
▁Shell	-12.7094
eventh	-12.7095
oodie	-12.7099
ffordable	-12.71
▁Panic	-12.7101
▁mtgo	-12.7102
orment	-12.7102
obstructed	-12.7103
▁fapp	-12.7104
ompatible	-12.7106
▁hyper	-12.7106
isband	-12.7107
orthodox	-12.7107
▁recline	-12.7108
▁Attach	-12.7108
agrant	-12.7108
eruvian	-12.7109
ortuguese	-12.7109
▁instrument	-12.7109
leventh	-12.7111
rnate	-12.7111
▁adrenal	-12.7112
solvable	-12.7112
encrypted	-12.7112
▁Knob	-12.7112
ccost	-12.7112
mbidextrous	-12.7112
rachnid	-12.7112
ttributable	-12.7112
▁Inconsistent	-12.7112
▁commie	-12.7112
▁kayak	-12.7112
▁leftist	-12.7112
▁racism	-12.7112
▁redundant	-12.7112
▁sexist	-12.7112
▁stabilize	-12.7112
uttfucke	-12.7112
▁undefeated	-12.7113
▁stinky	-12.7113
▁unedited	-12.7113
▁illusive	-12.7113
ebadge	-12.7113
▁unsecure	-12.7113
▁Exemplar	-12.7113
▁Thrash	-12.7113
▁medieval	-12.7113
idan	-12.7113
▁kickass	-12.7113
▁Merge	-12.7113
▁unstable	-12.7113
isown	-12.7113
▁culinary	-12.7113
repentant	-12.7114
▁softcore	-12.7114
▁swedish	-12.7114
▁keel	-12.7114
▁overweight	-12.7115
▁Pervert	-12.7115
congruent	-12.7115
▁keepin	-12.7116
mazonian	-12.7116
▁Insole	-12.7116
representative	-12.7116
▁oppression	-12.7116
▁owner	-12.7116
▁Pig	-12.7116
▁ethereal	-12.7117
▁disgraceful	-12.7117
▁priceless	-12.7117
▁disband	-12.7118
▁weave	-12.7119
▁sensible	-12.7119
▁demonic	-12.712
idactic	-12.712
▁Unexplain	-12.7121
▁Damp	-12.7122
▁Graf	-12.7125
▁preorder	-12.7126
ervo	-12.7128
▁ashamed	-12.7128
▁incidental	-12.713
▁patriarchy	-12.7133
charitable	-12.7133
▁Partner	-12.7133
▁area	-12.7133
bsolve	-12.7133
▁food	-12.7133
▁winged	-12.7133
▁Diagnos	-12.7135
▁uptoke	-12.7136
nnotate	-12.7136
while	-12.7139
▁Resign	-12.7139
beatable	-12.7139
▁Feudal	-12.714
▁instance	-12.714
ormalize	-12.7143
▁Prefa	-12.7145
esterday	-12.7147
opside	-12.7148
▁assorted	-12.7148
▁arabic	-12.7151
▁agile	-12.7152
▁Slime	-12.7156
eber	-12.7156
▁Fee	-12.7157
▁Husband	-12.716
▁ghostly	-12.7161
atisfied	-12.7162
ulture	-12.7163
appetizing	-12.7165
▁Frigg	-12.7166
▁oversize	-12.7168
▁Authoritarian	-12.7169
▁retaliat	-12.7171
opulous	-12.7172
ummel	-12.7172
arody	-12.7172
▁Circulat	-12.7173
▁Document	-12.7173
ropical	-12.7173
▁lethal	-12.7173
▁trap	-12.7174
ongressional	-12.7174
▁interfere	-12.7174
mplode	-12.7175
▁fig	-12.7175
excusable	-12.7175
sympathetic	-12.7175
▁clan	-12.7175
lchemical	-12.7175
wesomesauce	-12.7175
▁community	-12.7175
▁independent	-12.7175
▁legislative	-12.7175
▁melancholy	-12.7175
▁minute	-12.7175
▁tobacco	-12.7175
▁worried	-12.7175
▁Shib	-12.7175
▁swimming	-12.7175
asterrace	-12.7175
▁Wicca	-12.7175
▁Hedge	-12.7175
▁Spawn	-12.7175
▁Taser	-12.7175
▁unbreakable	-12.7175
▁Jude	-12.7176
▁intriguing	-12.7176
▁Zombie	-12.7176
▁implode	-12.7176
▁Perch	-12.7176
▁clinch	-12.7176
▁cerebral	-12.7176
▁untold	-12.7176
▁overgrown	-12.7176
istraught	-12.7176
▁Unhapp	-12.7177
postate	-12.7177
▁Stran	-12.7177
▁thirteenth	-12.7177
▁whoosh	-12.7177
▁gothic	-12.7177
tudent	-12.7177
▁favourite	-12.7177
hide	-12.7178
ccusative	-12.7178
testable	-12.7178
▁paleolithic	-12.7178
▁protean	-12.7178
▁pummel	-12.7179
▁Wrist	-12.7179
▁nation	-12.7179
▁baffle	-12.7179
eperation	-12.718
▁Devil	-12.718
▁despicable	-12.718
▁irresponsible	-12.718
nalogy	-12.718
▁Standard	-12.7181
▁wuss	-12.7181
considerate	-12.7181
▁Affect	-12.7181
▁Invest	-12.7182
lienate	-12.7182
▁Playful	-12.7183
▁freaky	-12.7183
yeliner	-12.7183
▁newb	-12.7185
accuracy	-12.7187
laden	-12.7188
▁reflect	-12.719
▁Fictional	-12.7195
dherent	-12.7197
▁Adventure	-12.7198
▁kinky	-12.7199
lbino	-12.72
boriginal	-12.7201
▁Sodom	-12.7201
lain	-12.7201
▁closet	-12.7202
ntagonistic	-12.7202
watchable	-12.7203
▁Controll	-12.7204
elmet	-12.7204
▁instate	-12.7205
etup	-12.7207
▁privilege	-12.7207
▁vote	-12.7207
▁Crime	-12.7207
▁extrude	-12.7207
▁Differ	-12.7209
▁amazed	-12.7212
▁Squad	-12.7214
characterization	-12.7214
▁Crow	-12.7214
▁eq	-12.7215
▁Invalid	-12.7215
rticulate	-12.7217
rained	-12.7218
▁Boast	-12.7219
▁Lyf	-12.7222
▁Child	-12.7223
▁Thorn	-12.7223
tash	-12.7226
tervene	-12.7226
▁scout	-12.7227
▁Snar	-12.7227
▁principal	-12.7227
▁contest	-12.7228
▁concede	-12.7228
imulation	-12.7232
turdy	-12.7236
ailroad	-12.7237
▁speech	-12.7237
ompromise	-12.7237
▁bet	-12.7238
▁rigg	-12.7238
noying	-12.7238
▁Smack	-12.7238
▁confid	-12.7238
fftopic	-12.7238
omemade	-12.7238
lveolar	-12.7238
ntioxidant	-12.7238
ntitheist	-12.7238
rgentinian	-12.7238
▁Diamond	-12.7238
▁Hunk	-12.7238
▁Multicolor	-12.7238
▁Steadfast	-12.7238
▁bouncy	-12.7238
▁groovy	-12.7238
▁hollow	-12.7238
▁metallic	-12.7238
▁ostensibl	-12.7238
▁untrue	-12.7238
ecimate	-12.7238
▁secondary	-12.7238
▁inflict	-12.7238
▁Jumble	-12.7238
▁observed	-12.7238
▁Oval	-12.7238
▁Judgment	-12.7239
▁heli	-12.7239
valiable	-12.7239
▁mammoth	-12.7239
▁miscellaneous	-12.7239
▁celestial	-12.7239
▁Bored	-12.7239
▁leech	-12.724
▁fundamentalist	-12.724
▁snake	-12.724
▁girlfriend	-12.724
▁fourteenth	-12.7241
▁banish	-12.7241
▁nutrition	-12.7241
▁somebody	-12.7242
▁forbid	-12.7242
▁platonic	-12.7242
▁Strength	-12.7242
▁fellow	-12.7243
▁everyday	-12.7243
▁Gig	-12.7244
▁fetal	-12.7244
asketball	-12.7244
▁strat	-12.7244
▁lookout	-12.7245
▁crowded	-12.7246
▁Brood	-12.7246
▁Badge	-12.7247
gave	-12.7248
▁Scol	-12.7249
▁Reveren	-12.725
▁interven	-12.7251
▁trademark	-12.7252
▁hobby	-12.7253
eviant	-12.7253
▁induc	-12.7254
answerable	-12.7254
▁Journalist	-12.7257
ewbie	-12.7257
▁rider	-12.7257
▁caste	-12.7258
▁discontinu	-12.7258
▁Rode	-12.7258
▁participat	-12.7259
▁Machini	-12.726
▁dapper	-12.7263
▁Hearth	-12.7264
▁dye	-12.7264
▁grav	-12.7266
▁Inhale	-12.7268
▁Traumatiz	-12.7269
▁Curve	-12.727
▁adjustable	-12.7271
tatutory	-12.7271
ictorious	-12.7273
▁chunk	-12.7274
▁Balls	-12.7275
▁enslave	-12.7275
▁Evolution	-12.7277
▁Situation	-12.728
▁purp	-12.728
▁Coup	-12.7281
▁ramm	-12.7285
▁relieve	-12.7288
▁Winn	-12.7289
▁Embarras	-12.7289
▁Terminat	-12.7289
▁Opinion	-12.7294
ivergent	-12.7295
▁hopp	-12.7296
▁irregular	-12.7296
▁oppress	-12.7297
utthurt	-12.7299
▁tranquil	-12.7299
neeze	-12.73
upernatural	-12.73
▁Tard	-12.73
hirteenth	-12.73
lanetary	-12.73
▁Strateg	-12.73
▁indulge	-12.7301
▁expansion	-12.7301
onsular	-12.7301
▁differ	-12.7301
divisible	-12.7302
▁Checker	-12.7302
▁logical	-12.7302
winnable	-12.7302
acuum	-12.7302
discretion	-12.7302
djunct	-12.7302
ntecedent	-12.7302
ppellate	-12.7302
ssumptive	-12.7302
▁chemical	-12.7302
▁disenfranchise	-12.7302
▁furious	-12.7302
▁location	-12.7302
▁murky	-12.7302
▁muscular	-12.7302
▁portable	-12.7302
▁preface	-12.7302
varage	-12.7302
▁international	-12.7302
▁gradual	-12.7302
▁Skew	-12.7302
bsorbent	-12.7302
attentive	-12.7302
▁helluva	-12.7303
▁unbroken	-12.7303
wesomest	-12.7303
▁lousy	-12.7303
▁latex	-12.7303
▁colossal	-12.7303
▁nocturnal	-12.7303
▁nordic	-12.7303
▁relationship	-12.7304
▁sarcasm	-12.7304
▁fractal	-12.7304
▁sunnah	-12.7304
▁feudal	-12.7304
▁sneeze	-12.7304
▁sloppy	-12.7305
▁wierd	-12.7305
▁boast	-12.7305
▁sleek	-12.7305
dum	-12.7305
▁inspirational	-12.7306
▁indonesian	-12.7306
▁decimal	-12.7307
▁disguise	-12.7307
▁Tension	-12.7307
▁Underhand	-12.7308
▁Meme	-12.7308
▁socialist	-12.7308
▁Heathe	-12.731
▁Tweak	-12.731
manageable	-12.7313
▁inevitable	-12.7317
▁Slaver	-12.7317
▁Better	-12.7317
rtisanal	-12.7317
▁Unthink	-12.7318
▁shaggy	-12.7318
▁postal	-12.732
oaf	-12.732
▁guild	-12.732
▁alcohol	-12.732
tangible	-12.732
▁Barn	-12.7321
▁Acid	-12.7324
▁Radio	-12.7324
ilot	-12.7327
fixable	-12.7328
nybody	-12.7328
zure	-12.7331
▁Tau	-12.7331
▁Grease	-12.7336
▁Unchang	-12.734
ympho	-12.734
slap	-12.7341
▁Beta	-12.7341
▁annotate	-12.7342
losh	-12.7343
▁regen	-12.7343
▁apart	-12.7344
▁value	-12.7345
▁sever	-12.735
▁Miscalculat	-12.735
▁Outli	-12.7352
▁pink	-12.7352
rapped	-12.7353
▁Forth	-12.7354
oax	-12.7354
gaint	-12.7355
▁retrieve	-12.7356
ischarge	-12.7361
admissible	-12.7362
iscount	-12.7363
utthole	-12.7363
▁Parad	-12.7363
▁government	-12.7363
▁fascist	-12.7365
ircular	-12.7365
▁Offens	-12.7365
tegral	-12.7366
stoppable	-12.7366
▁member	-12.7366
▁Priest	-12.7366
shortened	-12.7366
xial	-12.7366
coherence	-12.7366
dsense	-12.7366
epreciate	-12.7366
owngrade	-12.7366
▁Bandwagon	-12.7366
▁Concert	-12.7366
▁Engross	-12.7366
▁Grandfather	-12.7366
▁Mount	-12.7366
▁Stabilize	-12.7366
▁Timestamp	-12.7366
▁emergency	-12.7366
▁militant	-12.7366
▁pointed	-12.7366
▁pointy	-12.7366
▁rejoin	-12.7366
▁scold	-12.7366
▁sentient	-12.7366
matuer	-12.7366
ncircle	-12.7366
▁Conceit	-12.7366
▁grouch	-12.7366
dulterous	-12.7366
▁Preserve	-12.7366
▁quality	-12.7366
zubu	-12.7366
negotiate	-12.7366
▁Coincidental	-12.7366
▁Canoe	-12.7366
▁Unverifi	-12.7366
▁stony	-12.7366
▁complicit	-12.7366
▁Drama	-12.7367
▁indestructible	-12.7367
▁spank	-12.7367
▁mercurial	-12.7367
▁Redact	-12.7367
revenant	-12.7367
ustache	-12.7367
ismantle	-12.7367
▁universalist	-12.7368
oooong	-12.7368
▁scumbag	-12.7368
▁groan	-12.7368
▁oldie	-12.7368
▁guarentee	-12.7368
▁stellar	-12.7368
▁Shovel	-12.7369
ompany	-12.7369
▁bittersweet	-12.7369
▁auction	-12.7369
▁brunette	-12.7369
▁palestinian	-12.737
▁fearless	-12.737
▁cynic	-12.7371
▁dedicated	-12.7371
▁dupe	-12.7371
▁dredge	-12.7371
▁Reddit	-12.7372
▁presidential	-12.7373
bsolutist	-12.7374
istribute	-12.7375
▁primal	-12.7375
▁deepen	-12.7375
▁Server	-12.7376
▁redact	-12.7376
controlled	-12.7377
ompelling	-12.7377
▁ordinary	-12.7378
repackaged	-12.7381
▁Prom	-12.7381
▁What	-12.7382
▁deist	-12.7382
▁elderly	-12.7383
▁Unbound	-12.7383
▁grumpy	-12.7384
▁destiny	-12.7386
▁Crude	-12.7387
▁Infringe	-12.7387
▁prefer	-12.7388
▁dory	-12.7389
mbp	-12.7389
▁Hope	-12.7389
▁Waaaa	-12.7389
▁Situational	-12.739
▁Sword	-12.7391
▁Cynic	-12.7393
▁correction	-12.7394
▁challenge	-12.7394
▁Classif	-12.7394
▁watery	-12.7395
▁emigrat	-12.7395
razed	-12.7396
▁agnostic	-12.7397
olvent	-12.7398
rabic	-12.7398
rested	-12.7399
▁Linear	-12.7399
▁warrant	-12.7399
▁accomplish	-12.74
irth	-12.74
mazed	-12.74
▁Spli	-12.7401
▁Halt	-12.7402
▁nuts	-12.7405
▁chess	-12.7406
▁dismay	-12.7407
▁Overrate	-12.7408
cultured	-12.741
contested	-12.7411
▁entitle	-12.7412
▁Magic	-12.7414
▁slut	-12.7419
▁dusty	-12.742
▁Incomplete	-12.7421
omination	-12.7422
▁Simula	-12.7423
▁tanky	-12.7423
ivulge	-12.7425
▁suggest	-12.7426
▁Accomplish	-12.7426
xotic	-12.7427
ypass	-12.7427
omain	-12.7428
▁survey	-12.7428
lgorithmic	-12.7428
upernova	-12.7429
wedish	-12.7429
erebral	-12.743
assacre	-12.743
slamic	-12.743
▁insiste	-12.743
ispanic	-12.743
ypocrisy	-12.743
genious	-12.743
terracial	-12.743
coordinated	-12.743
cig	-12.7431
ffecient	-12.7431
namored	-12.7431
quatic	-12.7431
▁Chemical	-12.7431
▁Extrovert	-12.7431
▁Organisation	-12.7431
▁laptop	-12.7431
▁objectivist	-12.7431
▁radial	-12.7431
▁unholy	-12.7431
▁Widow	-12.7431
▁mayan	-12.7431
▁International	-12.7431
▁urinate	-12.7431
▁referee	-12.7431
▁Rematch	-12.7431
▁Unwilling	-12.7431
▁spicy	-12.7431
▁jagged	-12.7431
▁Humorous	-12.7431
▁intergalactic	-12.7431
etropolitan	-12.7431
eloped	-12.7431
▁het	-12.7431
▁elite	-12.7432
▁rainbow	-12.7432
▁cobble	-12.7432
▁rancid	-12.7432
westruck	-12.7433
▁scifi	-12.7433
itness	-12.7433
▁failure	-12.7433
▁indie	-12.7434
asura	-12.7434
▁Puppe	-12.7434
▁postulate	-12.7434
olution	-12.7435
rtistname	-12.7435
formación	-12.7435
▁Enslave	-12.7436
▁medal	-12.7436
▁divulge	-12.7436
▁pique	-12.7438
▁delusional	-12.7438
▁Existentialis	-12.7438
clusion	-12.7439
▁withdr	-12.7439
▁Ragged	-12.744
▁Gro	-12.7442
▁Ventilat	-12.7443
▁Persone	-12.7444
▁heav	-12.7446
iveaway	-12.7448
▁Economical	-12.7449
vast	-12.7449
oubtful	-12.7449
▁Scalp	-12.745
neccessary	-12.745
▁Stylis	-12.7451
▁roast	-12.7451
detected	-12.7453
▁Possess	-12.7454
ecession	-12.7457
▁probe	-12.7459
▁retract	-12.7461
▁blonde	-12.7462
capped	-12.7463
▁surprise	-12.7464
▁spider	-12.7464
▁Unbox	-12.7465
▁Polar	-12.7466
▁rifle	-12.7466
▁Mow	-12.7467
aided	-12.747
ssorted	-12.747
▁Ache	-12.7473
▁Censor	-12.7475
▁Memoriz	-12.7475
▁irony	-12.7477
▁acceptable	-12.7478
▁Officia	-12.7478
▁Broth	-12.7479
lenty	-12.748
▁Combo	-12.748
▁Uncle	-12.7481
▁Revis	-12.7483
▁goa	-12.7486
▁Driver	-12.7487
inth	-12.749
egree	-12.7491
▁apologis	-12.7491
indforce	-12.7493
ickname	-12.7494
elestial	-12.7495
ontemporary	-12.7495
concious	-12.7495
lluminate	-12.7495
hygienic	-12.7495
▁revel	-12.7495
▁Spam	-12.7496
eezus	-12.7496
mazeballs	-12.7496
ntitrust	-12.7496
rogenous	-12.7496
utonomic	-12.7496
▁Knuckle	-12.7496
▁Velvet	-12.7496
▁supervisor	-12.7496
▁bogus	-12.7496
scetic	-12.7496
▁Jig	-12.7496
trustworthy	-12.7496
▁unemployed	-12.7496
▁perv	-12.7496
▁vampiric	-12.7496
▁illuminate	-12.7496
▁lichbane	-12.7496
▁Madam	-12.7496
▁Woodwork	-12.7496
▁Ghe	-12.7496
▁Warehous	-12.7497
▁cosmopolitan	-12.7497
▁Tors	-12.7497
▁toothless	-12.7497
impeded	-12.7497
▁thief	-12.7497
▁superhero	-12.7498
▁Cyan	-12.7498
▁fiendish	-12.7498
corruptible	-12.7498
isgraceful	-12.7499
oisy	-12.7499
▁stainless	-12.75
▁dispense	-12.75
▁eastbound	-12.75
▁binary	-12.75
▁disclaimer	-12.75
▁Restrain	-12.7501
happiness	-12.7502
▁spinal	-12.7502
avourite	-12.7505
▁Revolve	-12.7505
▁Taco	-12.7505
calculate	-12.7506
▁premier	-12.7507
▁Dine	-12.7507
istrustful	-12.7507
▁fishy	-12.7507
kward	-12.7508
eviate	-12.7508
▁Fabricat	-12.7509
▁charming	-12.7509
▁Redundan	-12.7513
▁whip	-12.7514
▁Enemy	-12.7514
▁capital	-12.7516
ercurial	-12.7516
ishful	-12.7519
crying	-12.7519
othic	-12.752
▁wail	-12.7521
mpress	-12.7522
▁Tee	-12.7527
▁Modular	-12.7528
conic	-12.753
▁affirmative	-12.7532
tilted	-12.7532
▁designat	-12.7534
aithless	-12.7536
▁reconsider	-12.7537
iu	-12.754
▁Inner	-12.7542
▁tatt	-12.7543
▁fetishiz	-12.7543
▁Stunt	-12.7544
▁Sophisticat	-12.7544
▁Interject	-12.7547
▁tempered	-12.7548
▁hijack	-12.7549
▁Sake	-12.7553
olorful	-12.7553
▁Input	-12.7554
ostulate	-12.7554
▁Sucker	-12.7555
sourced	-12.7559
freeze	-12.756
▁Religio	-12.756
▁Morph	-12.756
▁Frightening	-12.756
triguing	-12.7561
▁Adult	-12.7561
bominable	-12.7561
cuadorian	-12.7561
eplorable	-12.7561
lectrostatic	-12.7561
▁Brigad	-12.7561
▁Hollow	-12.7561
▁Rehost	-12.7561
▁Tiger	-12.7561
▁marxist	-12.7561
▁masculine	-12.7561
▁rehost	-12.7561
▁scraggy	-12.7561
▁scuff	-12.7561
▁serene	-12.7561
▁Delicate	-12.7561
▁Monitor	-12.7561
▁festive	-12.7561
▁lubricat	-12.7561
micable	-12.7561
▁Oxidize	-12.7561
tammer	-12.7561
▁Mexican	-12.7561
▁iraqi	-12.7562
▁midwestern	-12.7562
▁mundane	-12.7562
▁Randomize	-12.7562
▁impish	-12.7562
▁oldschool	-12.7562
▁Moss	-12.7562
▁murderous	-12.7562
▁civilian	-12.7562
▁overrated	-12.7563
▁stammer	-12.7563
▁finite	-12.7563
▁wireless	-12.7563
▁Gym	-12.7564
▁cuss	-12.7564
▁brazillian	-12.7564
▁prismatic	-12.7564
▁paranormal	-12.7564
▁practise	-12.7564
▁speechless	-12.7564
maginary	-12.7565
▁belong	-12.7565
▁tenth	-12.7565
▁sharpen	-12.7565
▁Wail	-12.7566
▁Mistreat	-12.7566
rdy	-12.7566
▁Genom	-12.7566
▁better	-12.7566
itchiness	-12.7567
▁cancer	-12.7567
▁Canar	-12.7567
▁armed	-12.7568
▁Guid	-12.7568
▁Saddle	-12.7569
issile	-12.7571
arguable	-12.7571
asket	-12.7571
▁ditch	-12.7572
▁presum	-12.7574
lippin	-12.7575
▁classy	-12.7576
▁Seo	-12.7576
traceable	-12.7576
▁Magnet	-12.7576
skinned	-12.7577
rovoke	-12.7578
▁impress	-12.7579
▁ascendant	-12.7579
▁Clinch	-12.7579
▁Purpl	-12.758
▁Extrude	-12.7581
aven	-12.7581
▁teacher	-12.7582
▁Skinny	-12.7583
▁Scrub	-12.7584
▁Histor	-12.7587
▁Rpg	-12.7588
▁Opportunist	-12.759
▁Readi	-12.7591
ffirmative	-12.7592
▁Foo	-12.7592
loth	-12.7592
▁buffer	-12.7593
desirable	-12.7594
approve	-12.7594
▁pap	-12.7596
▁Deb	-12.7598
▁Uptoke	-12.7599
▁Inferior	-12.76
▁advisor	-12.76
bh	-12.7603
ovable	-12.7604
▁Infest	-12.7607
ignificance	-12.7608
▁cooperat	-12.762
iscipline	-12.7622
runette	-12.7624
arrior	-12.7625
unnah	-12.7625
▁existential	-12.7625
ulinary	-12.7626
iscellaneous	-12.7626
▁Ultima	-12.7626
ffront	-12.7626
▁Danger	-12.7627
▁corp	-12.7627
isrepair	-12.7627
lienblue	-12.7627
phemeral	-12.7627
rchival	-12.7627
soteric	-12.7627
stonished	-12.7627
udacious	-12.7627
utoimmune	-12.7627
xterior	-12.7627
xtrajudicial	-12.7627
▁Aztec	-12.7627
▁Prejudice	-12.7627
▁Underwhelm	-12.7627
▁Unnerv	-12.7627
▁Worri	-12.7627
▁launder	-12.7627
▁obese	-12.7627
▁reassure	-12.7627
▁relaxed	-12.7627
▁robust	-12.7627
▁sanitize	-12.7627
▁shady	-12.7627
▁sublime	-12.7627
▁thrive	-12.7627
inige	-12.7627
▁Contextual	-12.7627
▁colored	-12.7627
xagerated	-12.7627
ornstar	-12.7627
▁snare	-12.7627
▁vengeful	-12.7627
▁Rebalanc	-12.7627
trimmed	-12.7627
▁backward	-12.7627
▁lebanese	-12.7627
ifferentiable	-12.7627
▁lifelong	-12.7628
▁cutthroat	-12.7628
▁nameless	-12.7628
▁misunderstood	-12.7628
rotean	-12.7628
▁flamenco	-12.7629
▁sinful	-12.7629
▁sunny	-12.7629
▁federalist	-12.7629
▁swarm	-12.7629
▁sneer	-12.763
oosh	-12.763
falsifiable	-12.763
▁symphonic	-12.763
▁parliamentary	-12.763
▁Shear	-12.763
ubric	-12.763
▁nigger	-12.7631
▁reactive	-12.7631
▁cork	-12.7631
narchy	-12.7632
▁posh	-12.7632
rumental	-12.7632
▁hairy	-12.7633
thereal	-12.7633
haggy	-12.7633
▁Societ	-12.7634
▁plow	-12.7634
▁Lighten	-12.7634
▁Scarce	-12.7635
▁repo	-12.7636
▁preferable	-12.7637
linky	-12.7638
fazed	-12.7639
ollection	-12.7639
nitch	-12.764
▁Wuss	-12.764
bhorrent	-12.764
▁Mandat	-12.7641
▁revis	-12.7642
▁Geolog	-12.7642
isheartening	-12.7643
▁Feminis	-12.7644
▁ice	-12.7646
esternized	-12.7648
have	-12.7649
urkish	-12.765
▁augment	-12.7653
▁decorat	-12.7654
latonic	-12.7655
unny	-12.7656
▁ambitious	-12.7659
egging	-12.7661
▁Sympath	-12.7662
▁Federalis	-12.7663
▁Sheet	-12.7665
ramped	-12.7665
▁Day	-12.7666
issen	-12.7668
▁arbitrary	-12.7668
elegate	-12.7668
mout	-12.7673
▁cloudy	-12.7678
▁Scan	-12.7679
▁detailed	-12.7679
▁advanced	-12.7681
▁Facet	-12.7685
hibs	-12.7686
▁Survey	-12.7687
▁Heave	-12.7687
espicable	-12.7688
isguise	-12.7688
▁Exhibit	-12.7689
anel	-12.7689
ensitivity	-12.769
aval	-12.7691
oftcore	-12.7691
ancid	-12.7691
onspiracy	-12.7692
osmopolitan	-12.7692
▁circumvent	-12.7692
ammoth	-12.7692
edieval	-12.7692
▁excess	-12.7692
▁Regime	-12.7692
tergalactic	-12.7693
optimized	-12.7693
circumcised	-12.7693
▁Context	-12.7693
▁Peanut	-12.7693
ccustomed	-12.7693
ispassionate	-12.7693
ivät	-12.7693
ppropiate	-12.7693
▁Gimmick	-12.7693
▁Recieve	-12.7693
▁Tulpa	-12.7693
▁jiggly	-12.7693
▁paranoid	-12.7693
▁redirect	-12.7693
▁respirator	-12.7693
▁unarmed	-12.7693
▁greasy	-12.7693
▁wretch	-12.7693
▁Metallic	-12.7693
▁banal	-12.7693
licorn	-12.7693
▁Heft	-12.7693
▁tangential	-12.7693
eadpan	-12.7693
▁Maximize	-12.7693
▁bearded	-12.7693
▁intermediate	-12.7693
▁investigative	-12.7693
▁Murk	-12.7693
▁Gay	-12.7694
▁chromecast	-12.7694
▁extremist	-12.7695
▁Militan	-12.7695
▁Respawn	-12.7695
▁suave	-12.7695
▁Wireless	-12.7695
▁moronic	-12.7696
▁oceanic	-12.7696
▁renewable	-12.7696
▁proprietary	-12.7696
escription	-12.7697
▁slavic	-12.7697
▁campus	-12.7697
emetic	-12.7697
accounted	-12.7697
▁Action	-12.7699
▁Meal	-12.77
oncho	-12.7701
tellar	-12.7701
▁Mission	-12.7702
▁infinite	-12.7703
▁Material	-12.7703
▁Defense	-12.7704
udding	-12.7705
▁hit	-12.7705
spect	-12.7705
egenerate	-12.7707
▁matte	-12.7707
▁greedy	-12.7708
▁Extort	-12.7708
▁parallel	-12.7708
defensible	-12.7708
▁revolution	-12.771
▁chas	-12.7712
▁Toda	-12.7713
▁Webca	-12.7717
▁Desert	-12.7718
▁Lyrical	-12.7718
▁diverge	-12.7719
nf	-12.7721
tethered	-12.7722
▁Unho	-12.7724
▁Rpm	-12.7724
▁conceptual	-12.7724
noticeable	-12.7725
▁Fab	-12.7726
▁Now	-12.7727
▁apocalyptic	-12.7728
▁Rack	-12.7728
aximum	-12.7729
iability	-12.773
▁daft	-12.773
ricket	-12.7732
identified	-12.7734
▁Story	-12.7737
ewage	-12.7737
amber	-12.7737
bligatory	-12.7738
▁nerdy	-12.7739
▁primer	-12.7739
▁Argument	-12.7739
▁Gimp	-12.7742
tolerant	-12.7743
accessible	-12.7744
▁Augment	-12.7744
▁Perv	-12.7745
ightweight	-12.7746
▁Mov	-12.775
tripper	-12.7754
alestinian	-12.7756
▁refrigerat	-12.7757
helter	-12.7758
tentive	-12.7758
haos	-12.7759
▁purifi	-12.7759
ordic	-12.7759
▁stale	-12.7759
▁diploma	-12.7759
elluva	-12.7759
dergraduate	-12.776
asygoing	-12.776
queous	-12.776
rchetypal	-12.776
rithmetic	-12.776
▁outlier	-12.776
▁retain	-12.776
▁samhälle	-12.776
fterall	-12.776
erisive	-12.776
stounded	-12.776
▁baked	-12.776
▁Swimming	-12.776
▁Abhor	-12.776
▁Blight	-12.776
▁steamroll	-12.776
mbittered	-12.776
▁lonesome	-12.776
▁millennial	-12.776
elery	-12.7761
▁upcoming	-12.7761
▁chiropractic	-12.7761
▁compulsory	-12.7761
▁challenging	-12.7761
▁norwegian	-12.7761
▁roblox	-12.7761
▁unread	-12.7761
erivative	-12.7762
▁constrain	-12.7762
onference	-12.7762
▁flinch	-12.7762
appreciative	-12.7762
▁Redditor	-12.7763
▁primordial	-12.7763
▁recede	-12.7763
berrant	-12.7763
llusive	-12.7763
▁recant	-12.7764
▁differential	-12.7764
▁wreak	-12.7766
▁Damm	-12.7766
▁soften	-12.7768
represented	-12.7768
ctuation	-12.7769
▁brink	-12.7769
▁deadly	-12.7769
amboozle	-12.777
atriotic	-12.777
▁Self	-12.7772
▁bleak	-12.7773
eparation	-12.7773
▁dual	-12.7774
▁deflect	-12.7776
▁pve	-12.7778
▁Evo	-12.7778
▁Thump	-12.7781
▁Gravit	-12.7782
efacto	-12.7784
▁feed	-12.7786
▁conc	-12.7786
▁Eater	-12.7788
utdated	-12.7788
▁Glutton	-12.7789
▁Glob	-12.779
pocalyptic	-12.7792
▁Irrelevan	-12.7794
arley	-12.7795
▁australian	-12.7796
▁donn	-12.7798
▁squeaky	-12.7799
▁Symbol	-12.78
▁Hare	-12.7805
undown	-12.7805
▁Superior	-12.7806
▁Blade	-12.7808
inco	-12.781
addening	-12.7816
lusive	-12.7817
▁heady	-12.7817
▁Submit	-12.7817
flipper	-12.7818
▁linear	-12.7821
credited	-12.7821
▁Nib	-12.7821
▁Agnostic	-12.7822
▁disadvantage	-12.7822
▁Unaccount	-12.7823
é	-12.7823
izza	-12.7824
▁sire	-12.7825
▁bottom	-12.7825
ebanese	-12.7826
redge	-12.7826
▁Crucif	-12.7827
▁Electrocut	-12.7827
▁Hallucinat	-12.7827
ffeminate	-12.7827
nomalous	-12.7827
rtifical	-12.7827
xpecial	-12.7827
▁Hallmark	-12.7827
▁Keel	-12.7827
▁Optimize	-12.7827
▁Voyage	-12.7827
▁embarrassed	-12.7827
▁junior	-12.7827
▁pedophile	-12.7827
urocentric	-12.7827
▁Tactical	-12.7827
▁yearly	-12.7827
iscernible	-12.7827
lluring	-12.7827
▁Purport	-12.7827
eepthroat	-12.7827
▁Seminar	-12.7827
met	-12.7827
▁italian	-12.7827
▁canadian	-12.7828
▁comfy	-12.7828
▁cellular	-12.7828
▁Animal	-12.7828
reary	-12.7828
layed	-12.7828
▁dared	-12.7828
▁tagpro	-12.7829
▁reception	-12.7829
▁bloodseeker	-12.783
▁blogspam	-12.783
mnesiac	-12.783
▁Upward	-12.783
aptive	-12.783
▁provincial	-12.783
operable	-12.7831
▁secede	-12.7831
▁Grudg	-12.7831
▁drizzle	-12.7832
▁worst	-12.7833
bsolutley	-12.7833
▁Shorten	-12.7833
▁graphic	-12.7834
▁Course	-12.7834
▁retcon	-12.7834
▁license	-12.7835
amning	-12.7836
recoverable	-12.7836
ebian	-12.7836
iscriminatory	-12.7836
onation	-12.784
nvious	-12.7841
doptable	-12.7841
ddone	-12.7844
▁guitar	-12.7845
▁horned	-12.7848
▁Unsecure	-12.7849
ightful	-12.7851
asis	-12.7854
▁career	-12.7854
▁abzan	-12.7854
▁Manager	-12.7855
▁Noble	-12.7855
announced	-12.7856
▁recharge	-12.7857
explored	-12.7858
▁Socialist	-12.7859
changeable	-12.786
meditated	-12.786
▁allergic	-12.7861
▁Tab	-12.7864
▁militar	-12.7865
boiled	-12.7866
verday	-12.787
eepen	-12.7872
▁Corps	-12.7873
▁Reciproc	-12.7876
▁Relieve	-12.7877
llowable	-12.7877
▁hung	-12.7878
▁situational	-12.7879
advisable	-12.7881
▁fruity	-12.7883
▁Eco	-12.7885
▁Unarm	-12.7887
▁Way	-12.7887
▁profess	-12.7888
exus	-12.7889
aleolithic	-12.7891
aranormal	-12.7891
ourteenth	-12.7892
roprietary	-12.7892
omorrow	-12.7892
rez	-12.7892
vestigative	-12.7892
▁modular	-12.7893
ppreciate	-12.7893
octurnal	-12.7893
talian	-12.7894
valued	-12.7894
▁Volume	-12.7894
disclosed	-12.7894
▁Colleg	-12.7894
cclesiastical	-12.7894
ecentralized	-12.7894
naesthetic	-12.7894
ownscale	-12.7894
ssholish	-12.7894
xperiential	-12.7894
▁Benchmark	-12.7894
▁Exasperat	-12.7894
▁Figurative	-12.7894
▁cunning	-12.7894
▁jamaican	-12.7894
▁karmic	-12.7894
▁unfriend	-12.7894
vergreen	-12.7894
▁Pathfind	-12.7894
▁resonat	-12.7894
▁Junct	-12.7894
▁Veil	-12.7894
▁minimalist	-12.7894
▁Labour	-12.7895
▁unbeknownst	-12.7895
▁Lesso	-12.7895
▁eerie	-12.7895
▁Prism	-12.7895
▁hostess	-12.7895
▁protective	-12.7895
▁lunatic	-12.7895
alvanize	-12.7895
▁nationalist	-12.7895
▁corrosive	-12.7895
imple	-12.7895
▁conclude	-12.7896
▁Enthusiastic	-12.7896
uclear	-12.7896
ohan	-12.7896
▁revisit	-12.7896
▁fee	-12.7896
▁Spank	-12.7896
▁seismic	-12.7896
▁addicted	-12.7896
▁stylish	-12.7896
▁sanguine	-12.7896
▁rotary	-12.7897
▁jos	-12.7897
▁Theme	-12.7898
▁germanic	-12.7898
▁Oversize	-12.7898
▁foreman	-12.79
elected	-12.79
▁nudge	-12.79
edantic	-12.79
▁jailbroke	-12.79
▁Stale	-12.7901
iscussion	-12.7901
▁durable	-12.7902
opulation	-12.7902
▁crunchy	-12.7903
▁Sale	-12.7906
▁overhear	-12.7907
▁Guess	-12.7909
▁Google	-12.7911
unniest	-12.7912
ousy	-12.7913
documented	-12.7914
▁comfortable	-12.7914
arforge	-12.7915
▁yummy	-12.7917
▁Tabb	-12.7917
▁Genit	-12.7918
▁Sociopath	-12.7919
▁apex	-12.7923
bugger	-12.7925
▁Sof	-12.7927
▁Radian	-12.7928
llergic	-12.7928
▁Scant	-12.7929
▁Sob	-12.793
▁Relian	-12.793
▁sunderer	-12.7931
dependant	-12.7933
djustable	-12.7936
rbitrary	-12.7937
▁inform	-12.7938
▁Superb	-12.794
ddicting	-12.794
aseline	-12.7941
airway	-12.7943
▁Venge	-12.7943
analyze	-12.7944
▁gutt	-12.7946
dag	-12.7951
edicated	-12.7952
oyfriend	-12.7959
olossal	-12.7961
undane	-12.7962
anana	-12.7962
raqi	-12.7962
fterthought	-12.7962
iscouraging	-12.7962
isheveled	-12.7962
strological	-12.7962
ustrian	-12.7962
▁Conspicuous	-12.7962
▁Devout	-12.7962
▁Egregious	-12.7962
▁Ejaculat	-12.7962
▁Morning	-12.7962
▁Preorder	-12.7962
▁Unabashed	-12.7962
▁fiery	-12.7962
▁peeve	-12.7962
▁saliva	-12.7962
▁fluoridat	-12.7962
▁splitter	-12.7962
▁usurp	-12.7962
▁Yak	-12.7963
itzy	-12.7963
▁muddy	-12.7963
▁funky	-12.7963
▁prone	-12.7963
andbag	-12.7963
▁broil	-12.7963
▁jade	-12.7963
isoriented	-12.7963
▁Reconsider	-12.7963
▁incredibly	-12.7963
warranted	-12.7963
bitabl	-12.7963
▁childhood	-12.7963
▁caucasian	-12.7963
▁Sandbox	-12.7964
▁icelandic	-12.7964
▁Inflict	-12.7964
▁Emigrat	-12.7964
▁Iso	-12.7964
▁garnish	-12.7965
▁blockchain	-12.7965
▁goop	-12.7965
itiate	-12.7965
▁snub	-12.7965
▁pitbull	-12.7966
curable	-12.7966
▁disposable	-12.7967
▁tasteless	-12.7967
ustralian	-12.7968
▁trove	-12.7968
arched	-12.797
ipster	-12.797
▁legally	-12.7971
▁trad	-12.7974
▁wrappe	-12.7974
uditory	-12.7975
wc	-12.7976
▁darn	-12.7977
▁gunpla	-12.7978
▁sank	-12.7981
▁squishy	-12.7981
▁shredde	-12.7983
▁Selfless	-12.7985
▁Fut	-12.7986
mateurish	-12.7987
▁Ordinat	-12.7992
▁conceptualiz	-12.7992
▁Oft	-12.7992
dvanced	-12.7997
▁froze	-12.7999
rayon	-12.7999
▁Explore	-12.7999
▁Relativ	-12.7999
▁Collide	-12.8
▁Coh	-12.8003
▁Malign	-12.8004
emitic	-12.8004
▁Jagg	-12.8005
▁concoct	-12.8007
▁News	-12.8008
▁Division	-12.8009
▁poo	-12.8009
▁roasted	-12.8009
▁tricky	-12.801
▁Tenan	-12.8011
▁rebell	-12.8017
ushi	-12.8018
▁Bulb	-12.8023
▁refinish	-12.8024
▁Coat	-12.8024
emocracy	-12.8026
anache	-12.8027
illpower	-12.8029
uarentee	-12.8029
hitlord	-12.8029
uave	-12.8029
oftware	-12.8029
omesticated	-12.803
▁dismiss	-12.803
onesome	-12.803
▁Smear	-12.8031
▁Maybe	-12.8031
▁ritual	-12.8031
▁Coffee	-12.8031
brasive	-12.8031
djacent	-12.8031
nthropogenic	-12.8031
▁cisgender	-12.8031
▁frustrated	-12.8031
▁judicial	-12.8031
▁krogan	-12.8031
▁thaw	-12.8031
▁untucked	-12.8031
narcho	-12.8031
▁dutch	-12.8031
elhi	-12.8031
▁Mtgo	-12.8031
▁resourceful	-12.8031
▁Residu	-12.8031
uolingo	-12.8031
▁urgot	-12.8031
oarse	-12.8031
▁skank	-12.8031
ntwine	-12.8031
xtortionate	-12.8031
▁resident	-12.8031
▁interstellar	-12.8031
▁unrelated	-12.8031
▁summary	-12.8031
▁leftover	-12.8032
▁literary	-12.8032
▁ministry	-12.8032
ngrish	-12.8032
hospitable	-12.8032
▁Proced	-12.8032
harmed	-12.8033
▁narcissistic	-12.8033
▁rampant	-12.8033
▁Drum	-12.8033
▁syrian	-12.8033
configure	-12.8033
▁wily	-12.8033
▁feudalism	-12.8033
▁bathroom	-12.8034
▁Outward	-12.8034
▁headless	-12.8034
▁chock	-12.8034
▁herbal	-12.8034
▁cuddle	-12.8034
▁timeless	-12.8034
▁cooperation	-12.8036
▁shadowban	-12.8036
greeable	-12.8039
▁paleo	-12.8039
tangled	-12.804
▁mph	-12.804
▁impli	-12.804
cceptable	-12.8041
dated	-12.8041
vaccinated	-12.8043
ncase	-12.8044
▁Uninhabit	-12.8044
▁fave	-12.8045
▁airplay	-12.8047
▁infected	-12.8048
tagged	-12.805
examined	-12.8052
▁sedate	-12.8053
wordplay	-12.8054
▁sleepy	-12.8055
▁Gul	-12.8055
onclude	-12.8057
▁autograph	-12.8058
▁address	-12.8058
▁Wad	-12.806
▁african	-12.8063
mbitious	-12.8067
utomoderator	-12.8067
▁amnesia	-12.8069
▁appease	-12.8073
▁Street	-12.8074
▁Intern	-12.8075
▁skipp	-12.8076
▁Cannon	-12.8077
inful	-12.8078
voidable	-12.8086
▁wacky	-12.8086
▁premiere	-12.8088
▁Intrest	-12.8089
▁Sauc	-12.8091
bleist	-12.8093
▁plural	-12.8095
▁intrest	-12.8096
anhandle	-12.8096
▁champ	-12.8096
illionth	-12.8096
▁Propagand	-12.8097
occer	-12.8098
▁superior	-12.8098
▁effort	-12.8098
ldschool	-12.8099
aucasian	-12.8099
erave	-12.8099
unatic	-12.8099
mitten	-12.8099
▁crim	-12.8099
▁womb	-12.8099
termediate	-12.8099
brahamic	-12.81
ccusatory	-12.81
cstatic	-12.81
norexic	-12.81
▁Computational	-12.81
▁Cosmetic	-12.81
▁Encyclopedi	-12.81
▁Obliterat	-12.81
▁Oligarch	-12.81
▁Resembl	-12.81
▁Resolve	-12.81
▁conven	-12.81
▁cosmetic	-12.81
▁Implicit	-12.81
▁Methodical	-12.81
▁Bronze	-12.81
▁Retina	-12.81
ecentralised	-12.81
▁Joyful	-12.81
▁unbranded	-12.81
▁Muffle	-12.81
▁undead	-12.8101
▁unattractive	-12.8101
▁Jailbroke	-12.8101
orized	-12.8101
▁exert	-12.8101
▁Scuff	-12.8101
▁cosmic	-12.8101
▁corporal	-12.8101
ggrieved	-12.8101
▁neural	-12.8101
▁Grizzl	-12.8102
▁transplant	-12.8102
▁grievous	-12.8102
▁instructor	-12.8102
▁solitary	-12.8102
▁grubby	-12.8102
obtrusive	-12.8103
▁familiar	-12.8103
▁psychedelic	-12.8103
▁Belligerent	-12.8103
▁opt	-12.8104
olecular	-12.8104
▁dietary	-12.8105
▁Heaven	-12.8107
▁Chime	-12.8108
obtainable	-12.8109
ubic	-12.8111
donesian	-12.8111
▁survival	-12.8113
▁Hacker	-12.8115
elusional	-12.8115
nnihilated	-12.8119
▁Gild	-12.812
ombat	-12.812
manned	-12.8121
▁Computer	-12.8122
crafted	-12.8122
▁weirdo	-12.8122
▁Mud	-12.8124
▁Sunny	-12.8124
dicate	-12.8127
ession	-12.8127
▁Blue	-12.8128
▁Theory	-12.813
▁Upmo	-12.8131
ithstand	-12.8136
nuck	-12.8136
mbolism	-12.8137
▁portrait	-12.8137
▁cheeky	-12.8138
▁digest	-12.8139
▁Arc	-12.8143
▁Friction	-12.8143
▁Energ	-12.8145
▁craze	-12.8147
ivilian	-12.8147
▁hugely	-12.8148
▁Inverse	-12.815
ialectical	-12.815
▁Modulat	-12.8151
ractise	-12.8153
▁Strap	-12.8156
addressed	-12.8156
▁creamy	-12.8157
▁bruise	-12.8159
sung	-12.8161
hampionship	-12.8161
llude	-12.8162
▁Marin	-12.8162
▁accident	-12.8164
utthroat	-12.8168
eware	-12.8169
ationality	-12.8169
▁Arrow	-12.8169
▁Adrenal	-12.8169
adruple	-12.8169
compensate	-12.8169
fficent	-12.8169
gitated	-12.8169
irtight	-12.8169
isparate	-12.8169
ltruistic	-12.8169
maciated	-12.8169
ntibacterial	-12.8169
ntithetical	-12.8169
▁Anonymous	-12.8169
▁Dutiful	-12.8169
▁Freight	-12.8169
▁Illegitimate	-12.8169
▁Intricate	-12.8169
▁Kitchen	-12.8169
▁Redirect	-12.8169
▁Regurgitat	-12.8169
▁Sanitize	-12.8169
▁Stig	-12.8169
▁Unfathomabl	-12.8169
▁cliché	-12.8169
▁queer	-12.8169
▁upscale	-12.8169
▁Disenfranchise	-12.8169
▁ocelot	-12.8169
vaiable	-12.8169
▁implicit	-12.8169
▁contextual	-12.8169
▁Obit	-12.8169
▁greet	-12.8169
▁electrical	-12.8169
ctopic	-12.817
▁Pala	-12.817
▁respectful	-12.817
▁inequality	-12.817
▁sheer	-12.817
▁chief	-12.817
intelligible	-12.817
▁Rhythmic	-12.8171
inite	-12.8171
▁Ovulat	-12.8171
▁resell	-12.8171
etroth	-12.8171
▁thrall	-12.8171
▁ironman	-12.8172
▁obit	-12.8172
▁Village	-12.8172
▁primeval	-12.8173
idwestern	-12.8173
▁wad	-12.8173
▁Sharpen	-12.8173
▁prolong	-12.8174
hereabouts	-12.8174
▁stew	-12.8174
▁mimic	-12.8174
▁pixel	-12.8174
▁Lawn	-12.8174
▁demoman	-12.8176
▁suburban	-12.8177
▁Recline	-12.8178
natch	-12.8181
izzle	-12.8182
anliness	-12.8185
▁decode	-12.8188
discover	-12.8189
apping	-12.8191
raved	-12.8194
▁Jag	-12.8196
ngorge	-12.8198
iendish	-12.82
▁eyed	-12.8201
elong	-12.8201
▁Liar	-12.8202
▁overthr	-12.8203
irty	-12.8204
▁Configur	-12.8206
orderline	-12.8207
▁serial	-12.8207
frican	-12.8207
▁Lash	-12.8207
▁Crunchy	-12.8209
legitimize	-12.821
▁Lab	-12.8211
▁Financ	-12.8214
▁travelle	-12.8216
▁Heli	-12.8217
▁Goa	-12.8218
▁faulty	-12.8219
▁permaban	-12.8225
▁commute	-12.8229
▁cull	-12.823
▁Villain	-12.8231
leveled	-12.8232
iquity	-12.8234
ugger	-12.8235
eriwinkle	-12.8236
arliamentary	-12.8237
▁friction	-12.8238
android	-12.8238
orrosive	-12.8238
illennial	-12.8238
botu	-12.8239
▁Schem	-12.8239
▁Kern	-12.8239
bdomen	-12.8239
eclarative	-12.8239
eliberation	-12.8239
mphibious	-12.8239
ntiseptic	-12.8239
stigmatism	-12.8239
valible	-12.8239
▁Concrete	-12.8239
▁Mmorpg	-12.8239
▁Redpill	-12.8239
▁Reorganiz	-12.8239
▁bohemian	-12.8239
▁condense	-12.8239
▁heckle	-12.8239
▁mankind	-12.8239
▁overrule	-12.8239
▁recycle	-12.8239
▁Jiggly	-12.8239
▁Sublim	-12.8239
▁Grouch	-12.8239
▁Smelt	-12.8239
quatorial	-12.8239
▁Raze	-12.8239
▁Midfield	-12.8239
eclare	-12.824
▁Proportionate	-12.824
▁jitter	-12.824
▁cherry	-12.824
▁Muscula	-12.824
▁Offhand	-12.824
▁multiverse	-12.824
▁Aimless	-12.824
▁nigerian	-12.824
▁inverse	-12.8241
witter	-12.8242
▁reforge	-12.8242
▁chubby	-12.8242
▁occupational	-12.8242
▁sativa	-12.8242
▁brazilian	-12.8242
▁primitive	-12.8243
▁foster	-12.8243
▁forex	-12.8244
▁danish	-12.8244
▁sweaty	-12.8246
ixie	-12.8247
eritable	-12.8247
▁Paleo	-12.8248
killable	-12.825
ollar	-12.825
▁permit	-12.8251
▁Supervisor	-12.8256
▁squat	-12.8257
▁brutalize	-12.8259
▁Cobble	-12.8259
veryday	-12.826
ctiony	-12.826
▁Liver	-12.8264
▁Veg	-12.8265
▁Food	-12.8267
▁Purif	-12.8269
eased	-12.827
ratty	-12.8271
isruptive	-12.8271
▁Glor	-12.8273
▁prefix	-12.8275
▁Fetishiz	-12.8278
▁spra	-12.8279
▁defence	-12.8283
▁sneaky	-12.8284
▁sticky	-12.8285
rdent	-12.8286
yrian	-12.8294
▁Ove	-12.8296
▁Tempe	-12.83
regulated	-12.8301
umbling	-12.8306
ittersweet	-12.8306
razillian	-12.8306
▁preferr	-12.8307
▁mystic	-12.8307
anguine	-12.8307
orwegian	-12.8308
anadian	-12.8309
▁fled	-12.8309
▁guess	-12.8309
hindered	-12.8309
▁bankrupt	-12.831
▁Enig	-12.831
▁Frantic	-12.831
ggravated	-12.831
ispleased	-12.831
mbivalent	-12.831
redulity	-12.831
ssimilation	-12.831
▁Compartmentaliz	-12.831
▁Glycerin	-12.831
▁Indefinite	-12.831
▁Misandri	-12.831
▁Revitaliz	-12.831
▁Unfriend	-12.831
▁Unsuccessful	-12.831
▁Volatil	-12.831
▁cualquier	-12.831
▁deliberate	-12.831
▁jailbait	-12.831
▁kickstart	-12.831
▁occult	-12.831
▁paywall	-12.831
▁Transphobi	-12.831
▁linked	-12.831
▁Exaggerat	-12.831
▁Duct	-12.831
▁justified	-12.831
ecommission	-12.831
▁ketogenic	-12.831
▁humorous	-12.831
▁weightless	-12.831
▁malaria	-12.831
▁Refinish	-12.831
▁outbreak	-12.8311
▁cursive	-12.8311
▁yoke	-12.8311
▁tiara	-12.8311
▁orphanage	-12.8312
corporeal	-12.8312
busable	-12.8312
▁sideline	-12.8313
▁beloved	-12.8313
▁paganism	-12.8313
▁rural	-12.8314
▁parental	-12.8314
▁elongate	-12.8314
hoosh	-12.8314
▁deluge	-12.8314
▁cockblock	-12.8315
▁Bet	-12.8316
▁Topic	-12.8318
▁latina	-12.8318
▁Botan	-12.832
▁Stoke	-12.8322
▁Untucke	-12.8323
▁arceus	-12.8325
orror	-12.8325
▁unlearn	-12.8327
▁loathing	-12.8329
udible	-12.833
▁Prod	-12.833
llowance	-12.833
▁Causal	-12.8333
▁airborne	-12.8335
▁Convo	-12.8339
erforate	-12.8339
▁pickled	-12.8341
▁shaman	-12.8342
lackmail	-12.8342
▁annex	-12.8344
▁incense	-12.8344
cceptability	-12.8345
trop	-12.8347
tamed	-12.8351
▁malign	-12.8353
▁Rash	-12.8354
▁patron	-12.8355
▁Ritual	-12.8356
▁Marina	-12.8356
shielded	-12.8357
▁Cho	-12.8357
▁Griev	-12.8358
▁Deform	-12.836
▁Coordinat	-12.8361
▁computational	-12.8363
▁Unsurprising	-12.8364
▁replica	-12.8364
▁privat	-12.8365
▁crank	-12.8365
▁visualize	-12.8366
▁Unread	-12.8367
roperty	-12.8368
▁Hip	-12.8368
▁Bankrupt	-12.837
▁Colonis	-12.8373
▁Seiz	-12.8375
ecimal	-12.8375
▁Nationalist	-12.8376
▁dabb	-12.8377
uperhero	-12.8379
rolong	-12.8379
▁repuls	-12.838
opportune	-12.838
efunct	-12.8381
arwinian	-12.8381
nthropological	-12.8381
sinine	-12.8381
udiologist	-12.8381
ó	-12.8381
▁Horrendous	-12.8381
▁Jamaica	-12.8381
▁Unanimous	-12.8381
▁Unconvinc	-12.8381
▁contributor	-12.8381
▁exterminate	-12.8381
▁smidge	-12.8381
▁Advice	-12.8381
▁Enumerat	-12.8381
▁Juxtapos	-12.8381
xtracurricular	-12.8381
▁exponential	-12.8381
▁Facetious	-12.8381
▁unbalance	-12.8381
▁automat	-12.8381
▁Decision	-12.8381
▁puffy	-12.8381
▁Robust	-12.8381
▁Compile	-12.8381
▁Organise	-12.8381
▁Lubricat	-12.8381
▁celsius	-12.8382
▁opium	-12.8382
▁ongoing	-12.8382
affiliated	-12.8382
▁standby	-12.8383
verflow	-12.8383
▁psychiatric	-12.8383
▁pepperoni	-12.8383
▁scandinavian	-12.8384
▁placid	-12.8384
etachable	-12.8384
▁Repos	-12.8385
▁dwarven	-12.8385
▁patt	-12.8386
merald	-12.8386
▁detector	-12.8386
omfy	-12.8388
▁Banal	-12.8388
▁Queen	-12.8388
aedra	-12.8389
ynch	-12.839
armin	-12.8392
ritz	-12.8393
▁lod	-12.8394
dignified	-12.8396
▁material	-12.8397
provable	-12.8404
ttuned	-12.8406
▁Pear	-12.8409
▁Stimulat	-12.841
▁Spat	-12.8411
▁Insist	-12.8412
▁illustrat	-12.8412
▁perm	-12.8413
iddle	-12.8414
▁pussy	-12.8415
▁outsourc	-12.8416
▁canon	-12.8419
▁aspect	-12.8419
pex	-12.8422
▁Awe	-12.8422
ncestral	-12.8423
▁capitalis	-12.8424
potless	-12.8426
▁Serie	-12.8427
▁barb	-12.8428
▁Vil	-12.843
▁hunter	-12.8432
▁Tann	-12.8436
nime	-12.8437
▁kite	-12.8439
▁geographical	-12.8441
▁cry	-12.8444
▁limb	-12.8444
ontroversial	-12.8446
▁materialize	-12.8447
▁ancestral	-12.8447
▁Appease	-12.8448
▁Split	-12.8448
rimordial	-12.8449
ismount	-12.8449
▁Honey	-12.845
wiftkey	-12.8451
burnt	-12.8451
hallenging	-12.8451
ucous	-12.8451
▁Metal	-12.8451
vamp	-12.8452
▁Minut	-12.8452
▁gifted	-12.8452
molested	-12.8452
▁Problem	-12.8452
▁Satisfactor	-12.8452
ctualization	-12.8452
emotivational	-12.8452
isconcerting	-12.8452
ndocrinologist	-12.8452
pocryphal	-12.8452
roopy	-12.8452
terdisciplinary	-12.8452
viscerate	-12.8452
▁Concious	-12.8452
▁Launder	-12.8452
▁feminine	-12.8452
▁godless	-12.8452
▁mindfuck	-12.8452
▁precise	-12.8452
▁recluse	-12.8452
▁simultaneous	-12.8452
▁xenophobia	-12.8452
igression	-12.8452
▁Retain	-12.8452
eleterious	-12.8452
▁Broil	-12.8452
zreal	-12.8452
▁justification	-12.8452
noint	-12.8452
▁ketosis	-12.8452
▁Theological	-12.8452
oodwink	-12.8452
▁Steamroll	-12.8453
▁inverted	-12.8453
▁boson	-12.8453
▁electromagnetic	-12.8453
▁Devour	-12.8453
▁Freeload	-12.8453
▁skywrath	-12.8454
▁rightful	-12.8454
▁Magick	-12.8454
▁falter	-12.8454
▁surefire	-12.8454
▁primetime	-12.8455
▁incoming	-12.8456
astbound	-12.8456
▁were	-12.8457
onight	-12.8457
▁spirituality	-12.8457
▁Detonat	-12.8457
▁dismount	-12.8457
▁multipli	-12.8459
▁miserable	-12.8459
▁Item	-12.8463
▁overtime	-12.8463
▁fright	-12.8463
▁Procrastinat	-12.8466
▁Lesbian	-12.847
▁Soften	-12.8471
▁retina	-12.8472
▁echo	-12.8474
otrk	-12.8474
▁adventurer	-12.8474
▁Site	-12.8475
▁Rasp	-12.8476
▁devastat	-12.8476
commend	-12.8477
trident	-12.8478
▁Bann	-12.8478
▁aggregate	-12.8479
ortified	-12.8479
▁citizen	-12.8479
filtered	-12.8481
ssload	-12.8482
imwitted	-12.8484
ymphonic	-12.8484
▁cohesive	-12.8486
▁arcade	-12.8488
▁Texte	-12.8489
useum	-12.8489
hazi	-12.8491
▁insanely	-12.8492
geless	-12.8492
▁wealth	-12.8495
▁keg	-12.8496
efile	-12.8501
▁Slaughter	-12.8502
▁Improv	-12.8504
remade	-12.8505
▁Tract	-12.8507
▁charmed	-12.8508
wanky	-12.8508
▁Butterf	-12.8511
▁Justif	-12.8512
▁kidnapp	-12.8512
▁Roni	-12.8512
▁manifest	-12.8512
emote	-12.8516
ddicted	-12.8518
▁smot	-12.8519
isclaimer	-12.8519
verybody	-12.8519
▁mala	-12.852
rovincial	-12.852
rismatic	-12.8521
▁humid	-12.8521
egrade	-12.8521
ractal	-12.8522
rademark	-12.8522
olitary	-12.8523
etogenic	-12.8524
▁Magnif	-12.8524
declared	-12.8524
isclose	-12.8524
Disproportionate	-12.8524
ndometriosis	-12.8524
nesthesia	-12.8524
ysplasia	-12.8524
▁Equestria	-12.8524
▁Forcibl	-12.8524
▁Freedom	-12.8524
▁Gracious	-12.8524
▁Lasagn	-12.8524
▁Recursive	-12.8524
▁Unlawful	-12.8524
▁conjure	-12.8524
▁freckle	-12.8524
▁juicy	-12.8524
▁marsh	-12.8524
▁reccomend	-12.8524
▁renown	-12.8524
▁Diagonal	-12.8524
▁Greet	-12.8524
▁Rogue	-12.8524
▁Zealot	-12.8524
mbankment	-12.8524
xtramarital	-12.8524
▁Monopoliz	-12.8524
▁gruel	-12.8524
chimed	-12.8524
▁Bizzar	-12.8524
▁Skull	-12.8524
▁gmo	-12.8524
▁Literate	-12.8524
▁interstate	-12.8524
▁Filename	-12.8524
▁indigenous	-12.8524
rtery	-12.8525
▁Reinterpret	-12.8525
▁Stipulat	-12.8525
▁midrange	-12.8525
▁couture	-12.8525
alaxy	-12.8525
▁celcius	-12.8525
▁Stevi	-12.8525
▁novice	-12.8525
▁outweigh	-12.8525
isunderstood	-12.8525
▁innovative	-12.8525
▁ingress	-12.8525
▁runaway	-12.8526
▁knight	-12.8526
▁summertime	-12.8526
▁whirlwind	-12.8526
▁welcome	-12.8526
▁Permit	-12.8527
▁bulwark	-12.8527
▁Consequent	-12.8527
▁Lens	-12.8528
▁dafuq	-12.8529
▁muck	-12.8529
medicated	-12.8529
▁wielde	-12.8529
▁processor	-12.8532
▁convinced	-12.8532
peechless	-12.8533
▁projection	-12.8535
▁shifter	-12.8535
▁Ink	-12.8539
linch	-12.8542
▁Tribal	-12.8544
engeful	-12.8544
▁Pervers	-12.8544
flamed	-12.8549
▁Eyed	-12.8552
▁vaporize	-12.8552
ravel	-12.8553
challenged	-12.8554
▁accus	-12.8554
▁Headsho	-12.8555
exposed	-12.8557
▁Implement	-12.8559
▁Vert	-12.8561
▁Orangere	-12.8566
▁toke	-12.8566
oda	-12.8566
elodic	-12.8566
▁Privat	-12.8569
▁spirited	-12.8577
▁Evangeli	-12.8585
▁mutt	-12.8585
▁Flipp	-12.8586
▁radiat	-12.8589
lizzard	-12.859
▁Topical	-12.859
▁Symmetrical	-12.8592
sychedelic	-12.8593
rimitive	-12.8593
▁buri	-12.8594
itric	-12.8594
oilet	-12.8595
igerian	-12.8595
ursive	-12.8595
ompulsory	-12.8595
▁Excess	-12.8596
▁manner	-12.8596
ichbane	-12.8596
oign	-12.8596
beknownst	-12.8596
initiated	-12.8596
▁otter	-12.8596
▁Scientis	-12.8596
▁libel	-12.8596
isheartened	-12.8596
nimatronic	-12.8596
rchaeological	-12.8596
xhilarating	-12.8596
xplanatory	-12.8596
▁Abundant	-12.8596
▁Atrocious	-12.8596
▁Believabl	-12.8596
▁Evacuat	-12.8596
▁Inordinate	-12.8596
▁Omelet	-12.8596
▁Pitiful	-12.8596
▁Rewatch	-12.8596
▁Samhälle	-12.8596
▁Unaware	-12.8596
▁Unwitting	-12.8596
▁bodily	-12.8596
▁malware	-12.8596
▁response	-12.8596
omineering	-12.8596
▁preform	-12.8596
▁delicate	-12.8596
▁Felon	-12.8596
▁Barter	-12.8596
▁Multithread	-12.8596
▁Exert	-12.8597
▁barrack	-12.8597
▁rewatch	-12.8597
▁Complicit	-12.8597
▁Dutch	-12.8597
▁Cordial	-12.8597
▁Fertilize	-12.8597
[...]
