<unk>	0
<s>	0
</s>	0
▁	-0.319181
onst	-3.00958
I	-3.91725
nstance	-4.01338
erb	-4.09548
▁the	-4.14328
ast	-4.97794
ense	-5.00473
y	-5.51575
ed	-5.63971
s	-5.90302
d	-5.99977
▁x	-6.01488
▁z	-6.03487
a	-6.04993
e	-6.1842
ink	-6.36586
ly	-6.39534
c	-6.50302
peaker	-6.51388
dverb	-6.51693
djective	-6.51707
r	-6.54898
▁did	-6.63904
t	-6.6405
p	-6.68331
▁is	-6.82605
b	-6.86378
er	-6.87976
?	-6.92267
m	-6.92344
red	-7.02217
n	-7.03774
ame	-7.10645
wn	-7.1796
▁my	-7.18953
f	-7.19536
▁was	-7.20722
ing	-7.20817
▁your	-7.21144
i	-7.27119
h	-7.27838
o	-7.37309
is	-7.38291
l	-7.47291
g	-7.47543
z	-7.75983
w	-7.84275
in	-7.90671
x	-7.95616
ness	-8.00446
k	-8.01442
en	-8.03453
re	-8.04445
v	-8.0823
u	-8.11457
un	-8.32623
al	-8.42661
an	-8.44539
out	-8.44699
or	-8.47758
ar	-8.49829
on	-8.50053
man	-8.50516
ally	-8.54432
ation	-8.58696
et	-8.70488
ism	-8.71913
ie	-8.75713
ion	-8.76963
st	-8.77848
de	-8.79964
ist	-8.81219
j	-8.8853
ment	-8.90766
at	-8.95585
el	-8.95635
ot	-8.96682
ity	-8.9882
up	-8.99144
le	-9.00321
us	-9.01782
able	-9.01853
over	-9.04058
ut	-9.0463
ver	-9.08236
th	-9.10751
as	-9.11135
ir	-9.1281
co	-9.13732
ry	-9.14743
ic	-9.15059
it	-9.17398
age	-9.18957
less	-9.19006
ch	-9.23275
ant	-9.25505
iness	-9.26442
um	-9.2656
os	-9.27059
land	-9.28565
ingly	-9.28878
am	-9.29106
ro	-9.30576
ig	-9.32238
be	-9.33601
ra	-9.33639
te	-9.34422
ically	-9.34793
and	-9.35045
ol	-9.361
back	-9.38225
es	-9.39536
ia	-9.39608
est	-9.40122
il	-9.40429
sh	-9.4294
id	-9.43245
ine	-9.43787
ish	-9.45135
ate	-9.45783
ne	-9.47714
ent	-9.48172
op	-9.48198
ball	-9.48577
ad	-9.48918
ag	-9.50223
all	-9.52309
line	-9.53876
ex	-9.55272
ily	-9.55437
q	-9.55682
ill	-9.55761
se	-9.57044
og	-9.57787
ear	-9.58177
ap	-9.58295
na	-9.58377
ability	-9.60701
nt	-9.60964
od	-9.6122
sp	-9.61255
head	-9.61294
ub	-9.62532
ard	-9.63159
air	-9.63455
light	-9.63629
ling	-9.63865
ma	-9.65238
om	-9.65244
box	-9.65508
board	-9.65747
lock	-9.66502
ive	-9.66857
ip	-9.67988
sc	-9.69818
ind	-9.69927
hat	-9.71178
em	-9.71372
ee	-9.71467
top	-9.71908
ab	-9.71918
ail	-9.7271
ow	-9.72985
con	-9.73053
ay	-9.73695
ang	-9.74067
house	-9.74324
ur	-9.7433
ack	-9.75288
ass	-9.75348
é	-9.75409
ell	-9.76396
side	-9.77489
ob	-9.78506
ted	-9.79008
are	-9.80677
ely	-9.80694
ance	-9.81734
ka	-9.81975
off	-9.82069
ul	-9.82417
me	-9.82869
per	-9.83247
ide	-9.84024
led	-9.84357
ike	-9.84684
ash	-9.86174
ick	-9.86432
no	-9.86884
go	-9.8769
fire	-9.88391
ac	-9.88784
ably	-9.88958
eg	-9.90118
bar	-9.90326
▁pre	-9.90409
ian	-9.9082
im	-9.91664
set	-9.92349
to	-9.92376
ight	-9.92553
ome	-9.92838
time	-9.93671
room	-9.93794
ize	-9.93944
down	-9.9425
ork	-9.94386
old	-9.94719
way	-9.94726
ong	-9.95432
br	-9.96285
ock	-9.96312
mo	-9.96453
wood	-9.97385
nd	-9.97673
ence	-9.97826
ite	-9.98351
gr	-9.98548
ound	-9.98832
ore	-9.99973
ha	-10.004
po	-10.0062
su	-10.0069
ba	-10.0109
ah	-10.0114
uck	-10.0153
ge	-10.016
fully	-10.0192
car	-10.0196
ire	-10.0207
ug	-10.0266
under	-10.0268
ox	-10.0321
ess	-10.0393
tr	-10.0396
ec	-10.041
arm	-10.0442
ado	-10.0478
pro	-10.0485
atch	-10.0489
star	-10.0503
art	-10.0543
ure	-10.0544
ake	-10.0575
our	-10.0607
com	-10.0656
ron	-10.071
end	-10.0739
sk	-10.0771
ta	-10.0778
bi	-10.0828
lay	-10.0843
game	-10.0916
ep	-10.0931
low	-10.1003
eath	-10.1069
ise	-10.1079
ead	-10.1084
son	-10.1116
ile	-10.1125
eb	-10.1141
ost	-10.1188
pe	-10.1298
ev	-10.1309
vi	-10.1337
play	-10.1338
bo	-10.1346
he	-10.1364
▁mis	-10.144
one	-10.1469
pr	-10.1484
ull	-10.1487
oo	-10.1564
war	-10.1586
ty	-10.178
jo	-10.1798
nc	-10.1815
inter	-10.1861
book	-10.188
la	-10.1884
master	-10.1925
ns	-10.1957
ce	-10.1982
face	-10.209
tar	-10.2117
water	-10.2154
aw	-10.2172
ner	-10.2185
und	-10.2186
ib	-10.2244
do	-10.227
ary	-10.2271
ga	-10.2288
ave	-10.2313
io	-10.2324
ä	-10.2343
min	-10.2369
di	-10.2415
gu	-10.2416
ler	-10.2435
so	-10.2448
ax	-10.2522
oot	-10.2541
ter	-10.2591
ve	-10.26
sm	-10.2651
chat	-10.2698
ice	-10.2755
ond	-10.2761
ery	-10.2788
day	-10.2812
kin	-10.2814
hi	-10.2827
oon	-10.2873
int	-10.2913
ley	-10.2921
lot	-10.2922
nder	-10.2946
core	-10.2948
ever	-10.3006
net	-10.3013
eat	-10.3026
ten	-10.3031
ale	-10.3049
ik	-10.3064
ark	-10.307
ud	-10.31
eal	-10.3109
ace	-10.3115
ater	-10.3119
ade	-10.3123
ng	-10.3127
pin	-10.3148
row	-10.3149
list	-10.3159
ized	-10.319
ew	-10.3206
ak	-10.3207
iv	-10.325
rop	-10.3295
tor	-10.3323
power	-10.3324
ort	-10.3378
da	-10.3409
oll	-10.3427
mar	-10.3434
log	-10.3436
gen	-10.3456
ana	-10.3467
lo	-10.3516
ator	-10.3538
guard	-10.3601
lip	-10.3606
ata	-10.362
ively	-10.3656
li	-10.3737
world	-10.3747
era	-10.3748
nter	-10.3778
sa	-10.3791
port	-10.3857
ph	-10.3858
cat	-10.3861
fall	-10.3872
fish	-10.3893
let	-10.3898
hand	-10.3906
ov	-10.3922
show	-10.3945
ss	-10.396
lan	-10.3968
ey	-10.3972
post	-10.4
kill	-10.4094
ung	-10.4105
read	-10.4159
imp	-10.4186
fa	-10.4191
ously	-10.4239
craft	-10.4242
tone	-10.4242
amp	-10.4277
ho	-10.4285
ped	-10.4291
ain	-10.4293
▁sub	-10.4326
ton	-10.4327
rag	-10.4334
ru	-10.4346
hip	-10.4348
ane	-10.4372
ier	-10.4376
pa	-10.4384
ook	-10.4391
for	-10.4416
ada	-10.4416
if	-10.4448
ff	-10.4473
ri	-10.4482
rim	-10.4511
az	-10.4534
ano	-10.4538
oc	-10.4551
iz	-10.4553
ump	-10.4659
pi	-10.4681
ower	-10.47
pen	-10.4712
win	-10.4714
ous	-10.4717
rade	-10.4748
ido	-10.4792
ently	-10.4794
ree	-10.4801
cha	-10.4825
cap	-10.484
rain	-10.4872
pl	-10.4882
ran	-10.4898
rate	-10.4925
oom	-10.4964
mp	-10.4986
qu	-10.5002
ied	-10.5027
ole	-10.5027
ware	-10.5032
ue	-10.5034
itch	-10.507
ath	-10.5077
ix	-10.5077
point	-10.5081
rip	-10.513
che	-10.5163
ust	-10.5194
ful	-10.5195
alt	-10.5208
unt	-10.5219
lit	-10.5251
rew	-10.5263
mi	-10.5308
card	-10.534
har	-10.5349
lat	-10.5363
res	-10.5379
ok	-10.5409
lin	-10.542
uff	-10.5457
night	-10.5468
long	-10.548
fl	-10.548
fuck	-10.5488
ju	-10.5511
fr	-10.5517
ps	-10.5518
ke	-10.5552
her	-10.556
not	-10.5586
mid	-10.5588
rec	-10.559
ni	-10.561
lack	-10.5637
can	-10.564
ja	-10.5665
eep	-10.5688
ca	-10.5696
more	-10.5716
act	-10.5788
bl	-10.5807
ose	-10.5814
antly	-10.5822
key	-10.5825
wa	-10.5837
with	-10.5862
ord	-10.5892
reak	-10.5921
ira	-10.593
mod	-10.5956
▁super	-10.5962
lly	-10.5964
mer	-10.5994
ood	-10.6021
cion	-10.6034
fore	-10.6064
si	-10.6072
del	-10.6083
lu	-10.6113
ring	-10.6121
pass	-10.6157
ou	-10.6159
link	-10.617
pot	-10.6182
ouse	-10.6203
bag	-10.6203
▁auto	-10.6205
space	-10.6205
ette	-10.6209
ase	-10.6235
ek	-10.6236
mat	-10.626
par	-10.6261
uto	-10.6345
ech	-10.6416
av	-10.6451
ret	-10.6454
now	-10.6483
cl	-10.6484
hy	-10.6486
oil	-10.6489
ll	-10.65
ually	-10.6532
lood	-10.6585
hole	-10.6612
ina	-10.6625
gun	-10.6629
eth	-10.6645
omp	-10.6651
ush	-10.6652
af	-10.6692
oul	-10.6702
boy	-10.6741
ove	-10.6745
ko	-10.6756
inger	-10.68
ef	-10.68
watch	-10.6815
▁dis	-10.6824
check	-10.6831
oke	-10.684
arch	-10.6841
ify	-10.6853
ella	-10.69
wi	-10.6917
till	-10.6938
hard	-10.6942
ement	-10.6962
uper	-10.7014
que	-10.7039
lam	-10.7054
eh	-10.7065
shot	-10.7074
home	-10.7079
ned	-10.708
ank	-10.7105
ara	-10.7109
ino	-10.7117
walk	-10.7124
ere	-10.7128
unk	-10.7177
rick	-10.7187
bit	-10.7214
hit	-10.7235
uit	-10.7254
ando	-10.7262
omb	-10.7288
rit	-10.7289
ero	-10.7315
ram	-10.7369
own	-10.7383
fly	-10.7388
olo	-10.7393
hot	-10.7397
ui	-10.7401
field	-10.7413
mail	-10.7417
fi	-10.7424
urn	-10.7435
fe	-10.7442
ean	-10.7444
ea	-10.7462
iff	-10.7471
wear	-10.7502
sl	-10.7517
rap	-10.753
den	-10.7541
rot	-10.7548
ated	-10.7548
alk	-10.7559
rock	-10.7584
web	-10.7598
ool	-10.7608
ti	-10.7619
lessness	-10.762
var	-10.7627
espite	-10.7663
bus	-10.767
wing	-10.7678
law	-10.7723
mate	-10.7727
wise	-10.7748
au	-10.7753
use	-10.7776
men	-10.7796
ial	-10.7801
bed	-10.7814
tion	-10.7818
fo	-10.7847
rig	-10.7901
vo	-10.7926
ime	-10.7991
lag	-10.8
rash	-10.8012
cal	-10.8035
oe	-10.807
run	-10.8077
iss	-10.8077
ó	-10.8116
str	-10.8131
hin	-10.8157
lane	-10.8157
ray	-10.8171
mu	-10.8172
lue	-10.8184
olf	-10.8195
pit	-10.8207
ö	-10.8233
uz	-10.8236
raw	-10.8269
oy	-10.8276
inc	-10.8285
cut	-10.8297
ai	-10.8297
orm	-10.8301
the	-10.8328
root	-10.8339
roll	-10.8362
gar	-10.8364
yness	-10.8391
ky	-10.8407
eek	-10.8411
lap	-10.842
sy	-10.8442
sky	-10.846
far	-10.8465
bs	-10.8533
ander	-10.8538
wh	-10.8544
ric	-10.8593
like	-10.8624
itter	-10.8631
tic	-10.8637
uc	-10.8651
we	-10.8655
form	-10.8658
ster	-10.8659
ft	-10.8696
lig	-10.8714
ender	-10.8715
elt	-10.8723
cr	-10.8726
state	-10.8732
cor	-10.8734
ode	-10.8736
horn	-10.875
bout	-10.8754
mon	-10.8765
ala	-10.8777
ham	-10.8798
pan	-10.883
break	-10.8889
ani	-10.892
▁near	-10.894
pad	-10.8952
talk	-10.8955
did	-10.8968
ser	-10.8993
gi	-10.9002
free	-10.9002
ari	-10.9023
hop	-10.9037
ros	-10.9038
tin	-10.9051
ised	-10.9094
ali	-10.9145
saw	-10.9161
ci	-10.9163
foot	-10.9183
tv	-10.9194
rep	-10.9201
ult	-10.923
tel	-10.9293
cc	-10.9313
ont	-10.9314
ress	-10.9371
oin	-10.9401
rum	-10.9403
utter	-10.9412
tra	-10.9423
uss	-10.9441
beit	-10.9452
eye	-10.9474
ys	-10.9492
å	-10.9504
hor	-10.951
unch	-10.9519
eddit	-10.9543
mc	-10.9555
ii	-10.9557
rab	-10.9593
ura	-10.9604
crack	-10.9632
wall	-10.9634
speed	-10.9697
urt	-10.9697
pt	-10.9703
life	-10.973
hood	-10.9733
lick	-10.9734
oth	-10.9754
dog	-10.9759
ger	-10.9774
ign	-10.9793
code	-10.9798
hill	-10.9807
of	-10.9812
rem	-10.9818
sw	-10.9834
dr	-10.9858
bone	-10.9904
ny	-10.991
cam	-10.9943
unc	-10.9966
rand	-10.997
ross	-10.9973
nar	-10.9973
put	-10.9973
fu	-10.9976
pon	-10.9976
eck	-10.9985
une	-10.9995
tip	-11.002
ative	-11.0037
ragon	-11.0038
bet	-11.0058
dom	-11.0059
phone	-11.0067
ker	-11.007
cross	-11.0079
uch	-11.0094
each	-11.0101
lash	-11.0101
pop	-11.0102
stand	-11.0119
skin	-11.0132
shoot	-11.0132
orn	-11.0136
rat	-11.0164
ule	-11.0169
evel	-11.0171
print	-11.0201
tech	-11.0221
ope	-11.0235
▁ben	-11.0242
pack	-11.0245
fs	-11.0248
hell	-11.0252
ld	-11.0253
body	-11.0268
what	-11.0303
oat	-11.0308
erk	-11.0325
storm	-11.0335
well	-11.0345
gl	-11.035
how	-11.036
class	-11.0367
aus	-11.0368
hair	-11.0377
rom	-11.038
fight	-11.0383
burn	-11.0385
eel	-11.0408
lac	-11.0409
ouch	-11.0415
sen	-11.0417
chi	-11.0421
una	-11.043
mag	-11.0443
witch	-11.0445
fer	-11.0456
wave	-11.0468
reg	-11.0472
val	-11.0483
from	-11.05
med	-11.0505
eer	-11.051
ulti	-11.0529
gg	-11.0549
inder	-11.0577
reen	-11.0585
cu	-11.0587
fest	-11.0591
sat	-11.0629
lex	-11.0645
▁black	-11.0645
eam	-11.0666
ins	-11.0668
base	-11.0672
▁multi	-11.0673
town	-11.0676
lum	-11.0688
ola	-11.0688
rack	-11.069
pring	-11.0706
ki	-11.0723
ward	-11.0729
bat	-11.073
pay	-11.0731
lib	-11.0774
ting	-11.0781
ical	-11.0782
tom	-11.0789
ula	-11.0796
person	-11.0799
gate	-11.0804
zone	-11.084
ele	-11.0851
oss	-11.0856
by	-11.0858
step	-11.086
raft	-11.0871
ota	-11.0885
attle	-11.0885
girl	-11.0887
iste	-11.0897
oop	-11.0906
reddit	-11.0944
ava	-11.0962
lar	-11.0967
ach	-11.0973
ause	-11.0984
heat	-11.0984
part	-11.0986
uy	-11.101
dec	-11.1015
flow	-11.1021
va	-11.103
jet	-11.1038
rad	-11.1041
ough	-11.1041
▁wind	-11.1052
rest	-11.1087
arn	-11.1088
ini	-11.1095
rob	-11.1108
nf	-11.111
aka	-11.1113
ester	-11.1126
hut	-11.1128
ith	-11.113
ø	-11.1139
ven	-11.1144
born	-11.1153
ene	-11.1162
aint	-11.1162
tight	-11.1165
pal	-11.1166
path	-11.1166
ă	-11.1174
race	-11.1181
rt	-11.1183
bound	-11.1188
stick	-11.1204
rass	-11.121
qui	-11.1212
eng	-11.1243
rite	-11.1248
ease	-11.1256
leg	-11.1258
mark	-11.1274
ich	-11.1275
ris	-11.1297
arb	-11.1317
scape	-11.1324
stock	-11.1349
peak	-11.1351
aze	-11.1383
score	-11.1387
ius	-11.1389
lad	-11.1397
ski	-11.1397
ku	-11.1421
ount	-11.1436
sha	-11.1437
ez	-11.1465
rive	-11.1467
front	-11.1471
ially	-11.1487
name	-11.1505
liner	-11.1513
hu	-11.1514
withstand	-11.1546
ified	-11.1555
aj	-11.1562
emo	-11.157
rel	-11.1577
▁comp	-11.1585
ancy	-11.1604
gown	-11.161
ans	-11.1633
reach	-11.1634
trip	-11.1642
train	-11.1664
arse	-11.1694
oli	-11.1695
▁like	-11.1712
away	-11.1723
sea	-11.1737
king	-11.1739
lass	-11.1761
isk	-11.1778
tt	-11.1787
rank	-11.1802
ör	-11.182
app	-11.182
shit	-11.1821
ote	-11.1834
uk	-11.1862
trap	-11.1873
lub	-11.1874
sn	-11.1875
owl	-11.1889
oid	-11.1898
ude	-11.19
mage	-11.1918
ration	-11.1936
mic	-11.194
han	-11.1944
weed	-11.1953
het	-11.1982
bird	-11.1996
hal	-11.2005
jack	-11.2005
ct	-11.2008
ift	-11.2014
arc	-11.2035
ito	-11.2039
force	-11.2045
rush	-11.2048
oad	-11.2071
live	-11.2079
yplace	-11.209
aron	-11.2098
stream	-11.2099
uv	-11.2107
rm	-11.2111
ked	-11.2116
▁non	-11.2121
fix	-11.2123
shop	-11.2129
eon	-11.2132
blade	-11.2133
alm	-11.2136
nto	-11.2138
ext	-11.214
sis	-11.2141
nderneat	-11.2157
▁work	-11.2159
▁underneat	-11.2161
orth	-11.2178
nic	-11.218
ville	-11.2199
rill	-11.2214
sta	-11.2215
ij	-11.2222
map	-11.2224
ange	-11.2237
hack	-11.2238
aker	-11.2239
ride	-11.2242
loud	-11.2248
ugout	-11.2263
aku	-11.2264
mine	-11.228
za	-11.2284
▁whil	-11.2286
▁til	-11.229
rail	-11.2297
etto	-11.2302
sin	-11.2312
where	-11.2314
rog	-11.2315
eld	-11.2315
zpi	-11.2345
wheel	-11.2345
ongside	-11.2355
gra	-11.2397
type	-11.2437
bank	-11.2443
chan	-11.2449
ber	-11.2505
word	-11.2513
umble	-11.2523
lander	-11.2535
tal	-11.2539
ait	-11.2543
▁got	-11.2545
ios	-11.2553
udge	-11.2557
illy	-11.2565
ann	-11.2577
icle	-11.2584
ife	-11.2603
verse	-11.2631
rost	-11.2632
utt	-11.2635
rc	-11.2636
here	-11.2639
lab	-11.2651
load	-11.2653
rist	-11.2658
leep	-11.2671
pool	-11.2679
nos	-11.2695
don	-11.2698
sed	-11.2698
mal	-11.2703
gon	-11.2709
ual	-11.272
hol	-11.2728
att	-11.2731
rid	-11.2741
uf	-11.2755
high	-11.2761
lang	-11.2762
ocket	-11.277
nce	-11.2785
ux	-11.2789
oma	-11.2799
bb	-11.2807
nit	-11.2807
piece	-11.2808
hold	-11.282
nap	-11.2826
road	-11.2828
vent	-11.2836
een	-11.2837
tan	-11.284
uild	-11.2851
rose	-11.2867
mt	-11.2868
je	-11.2878
igh	-11.2881
cho	-11.2892
rise	-11.2898
onk	-11.2913
lop	-11.2915
ago	-11.2935
ms	-11.294
ground	-11.2942
olt	-11.295
oof	-11.2953
hen	-11.2956
ami	-11.2961
tie	-11.2983
aff	-11.2987
ager	-11.2988
care	-11.3005
mash	-11.3007
some	-11.3012
blast	-11.3042
uel	-11.3052
ein	-11.306
ible	-11.306
evo	-11.3061
trick	-11.3068
iver	-11.3095
tate	-11.3103
elp	-11.3116
rown	-11.3121
weight	-11.3122
rage	-11.3125
aster	-11.3131
seed	-11.3143
ren	-11.3152
new	-11.3153
rod	-11.3164
olor	-11.317
url	-11.3195
ether	-11.3214
uu	-11.3214
wild	-11.3231
ica	-11.3235
ient	-11.3237
bol	-11.3246
urr	-11.3255
pu	-11.3257
peed	-11.3258
acc	-11.3261
ged	-11.3266
atter	-11.3281
ache	-11.3282
lank	-11.3284
eme	-11.3287
py	-11.3287
nti	-11.3302
wen	-11.3333
ati	-11.3365
nation	-11.3389
style	-11.3394
uke	-11.3399
ato	-11.3401
gh	-11.3412
opp	-11.3434
oz	-11.3435
qua	-11.3435
team	-11.344
mus	-11.3441
host	-11.3447
other	-11.3453
nside	-11.3458
oor	-11.3468
etta	-11.3473
etch	-11.3491
roth	-11.3529
rea	-11.3533
wo	-11.3545
ama	-11.3548
eed	-11.3562
ré	-11.3581
anger	-11.3592
lide	-11.3597
tu	-11.36
tore	-11.3621
chool	-11.3632
ravel	-11.3643
rider	-11.3645
gram	-11.3653
ilt	-11.3653
ept	-11.3671
tande	-11.3684
ework	-11.3685
mph	-11.3695
round	-11.3699
table	-11.3703
eta	-11.3709
ens	-11.3743
len	-11.3752
dale	-11.377
illa	-11.3799
tag	-11.3801
ream	-11.3837
lic	-11.3839
hon	-11.3855
ora	-11.3858
är	-11.3869
sum	-11.3874
kit	-11.3876
arth	-11.3877
ppan	-11.3877
wrote	-11.388
hlong	-11.3894
▁short	-11.39
hir	-11.3904
lift	-11.3905
boat	-11.3907
drive	-11.3908
plate	-11.3913
rust	-11.3929
erson	-11.3933
etter	-11.3936
▁shut	-11.3957
server	-11.3958
alf	-11.3964
tly	-11.4004
tur	-11.401
hough	-11.402
aba	-11.4024
open	-11.4033
stop	-11.4041
ory	-11.4046
reeze	-11.4051
creen	-11.4063
reed	-11.4076
nn	-11.4085
ken	-11.409
center	-11.4094
onder	-11.4095
ask	-11.4098
orld	-11.4099
▁inside	-11.41
ipped	-11.4113
mil	-11.4113
stat	-11.4119
eter	-11.4121
▁sound	-11.4135
rug	-11.4136
frame	-11.4136
look	-11.4139
rib	-11.4148
ega	-11.4155
tank	-11.4156
du	-11.4158
ild	-11.4189
rub	-11.419
än	-11.4195
vr	-11.421
uni	-11.4213
cially	-11.4225
uzz	-11.4229
ls	-11.4229
avi	-11.4238
ingle	-11.4253
ck	-11.4254
wait	-11.4287
track	-11.4288
pell	-11.4302
▁trans	-11.4305
sport	-11.4315
van	-11.432
urer	-11.4321
aby	-11.4321
fit	-11.4326
nut	-11.433
hunt	-11.4332
lord	-11.4335
mb	-11.4341
iti	-11.4349
ico	-11.438
sing	-11.4388
emon	-11.4391
rant	-11.4395
was	-11.4411
cool	-11.4414
▁unlike	-11.4423
sync	-11.4425
í	-11.4428
mite	-11.443
uo	-11.4431
▁met	-11.4442
rang	-11.4452
oh	-11.4467
ett	-11.4468
aboard	-11.4469
loom	-11.4471
nlike	-11.4494
case	-11.45
rd	-11.4502
mega	-11.4524
reat	-11.4536
isc	-11.4542
arry	-11.4552
wakka	-11.4555
dor	-11.4561
rans	-11.4572
view	-11.4575
file	-11.4582
about	-11.4584
beat	-11.4585
ully	-11.4608
cro	-11.4615
bear	-11.4617
lee	-11.4619
pat	-11.4629
iat	-11.4632
ende	-11.4636
layer	-11.4642
pac	-11.4654
apper	-11.4672
group	-11.4704
sv	-11.471
ute	-11.4711
cock	-11.4717
efer	-11.4741
uar	-11.4753
forge	-11.4755
arily	-11.4755
bridge	-11.4781
lare	-11.4784
pel	-11.4789
emp	-11.4799
eak	-11.48
aft	-11.4813
ighty	-11.4817
iner	-11.4826
▁lest	-11.4848
foul	-11.4873
iw	-11.4882
ique	-11.4893
cent	-11.4894
tep	-11.49
ht	-11.4906
ulk	-11.491
spot	-11.4922
aper	-11.4935
breaker	-11.4957
action	-11.496
troll	-11.496
rana	-11.4965
olog	-11.4969
▁unto	-11.4977
right	-11.4981
earer	-11.4982
rine	-11.4993
ua	-11.4993
kr	-11.5011
mix	-11.5016
orward	-11.5019
soft	-11.502
weet	-11.5039
esc	-11.5072
bu	-11.5076
á	-11.5076
rin	-11.5083
mac	-11.5088
luck	-11.5092
ador	-11.5103
arp	-11.5107
ube	-11.5118
jerk	-11.5122
ilder	-11.5123
boot	-11.5128
anna	-11.5138
shift	-11.5144
ita	-11.5146
ätt	-11.5146
ria	-11.5148
tart	-11.5148
tap	-11.5155
lut	-11.5173
oud	-11.5202
gt	-11.5204
itte	-11.5208
ologically	-11.5217
▁compar	-11.5218
tool	-11.5225
ody	-11.5229
olit	-11.5245
iendo	-11.5249
esign	-11.5255
camp	-11.5257
max	-11.5265
mak	-11.5271
aid	-11.5274
spread	-11.5302
istic	-11.5306
ounce	-11.5307
lor	-11.5309
aaa	-11.5313
lept	-11.5319
oob	-11.532
park	-11.5324
egat	-11.5338
hou	-11.5338
def	-11.5341
cry	-11.5375
hr	-11.538
treet	-11.538
hils	-11.5381
shield	-11.5382
lite	-11.5387
iot	-11.5388
ons	-11.5397
oft	-11.5404
iki	-11.5412
ía	-11.5423
uffer	-11.5425
aunt	-11.5427
site	-11.5429
gree	-11.5439
rey	-11.5442
battle	-11.5459
ye	-11.5483
cre	-11.5503
rmo	-11.5526
lunk	-11.5541
lt	-11.5542
wat	-11.5548
elf	-11.5554
ifi	-11.5563
rev	-11.5566
ince	-11.5569
corn	-11.5583
ision	-11.5585
ı	-11.5593
share	-11.5598
▁green	-11.5604
agged	-11.5616
eap	-11.5617
▁dark	-11.5618
lug	-11.562
iddle	-11.5639
cer	-11.5656
cream	-11.5666
love	-11.5686
ther	-11.5692
otto	-11.5704
mesis	-11.5714
odge	-11.5716
text	-11.5718
enne	-11.5732
rr	-11.5734
agger	-11.5735
sim	-11.5736
ern	-11.5737
iter	-11.574
oman	-11.5745
andy	-11.5757
elly	-11.5762
nk	-11.5768
urf	-11.5772
vm	-11.5773
hort	-11.5792
osa	-11.5793
lant	-11.5795
oose	-11.5803
thing	-11.5811
ister	-11.5815
lim	-11.5822
mog	-11.5829
▁god	-11.5831
just	-11.5838
hang	-11.584
ection	-11.5844
eli	-11.5861
rek	-11.5869
alise	-11.5876
ometer	-11.5882
burg	-11.5889
have	-11.589
ucked	-11.5898
market	-11.5902
apped	-11.5937
get	-11.5942
meter	-11.5944
▁forward	-11.5946
addle	-11.5951
atively	-11.5952
istically	-11.5971
mm	-11.5972
afe	-11.5976
jer	-11.5977
build	-11.5982
▁col	-11.5993
retard	-11.5995
erve	-11.5996
lather	-11.5998
level	-11.6003
bid	-11.6006
edge	-11.6007
rance	-11.601
ald	-11.6013
mart	-11.6017
esp	-11.6019
rie	-11.6029
iggle	-11.6035
itz	-11.6049
ón	-11.6054
cloth	-11.6064
tf	-11.6068
eas	-11.6074
urd	-11.6076
thout	-11.6077
urge	-11.6082
tress	-11.6091
eo	-11.6101
ismo	-11.6103
ș	-11.6105
tand	-11.6112
holder	-11.6118
resent	-11.6129
wash	-11.6138
▁cont	-11.614
haste	-11.6141
vert	-11.6144
aught	-11.6166
scale	-11.6168
mode	-11.6168
kt	-11.619
rape	-11.6201
loc	-11.6205
ney	-11.621
augh	-11.6218
cus	-11.6228
ocus	-11.6233
add	-11.6239
late	-11.6241
bon	-11.6246
ripped	-11.6247
ledge	-11.6251
wick	-11.626
haracter	-11.6267
amb	-11.627
tron	-11.6272
ão	-11.6274
iken	-11.6277
hoo	-11.6286
lance	-11.6292
mel	-11.6294
ori	-11.6297
orse	-11.6309
bow	-11.6309
uped	-11.631
inch	-11.6312
hone	-11.6313
eport	-11.6322
earth	-11.6326
mass	-11.6327
ather	-11.6336
tp	-11.6339
rice	-11.6339
▁bull	-11.6349
wrong	-11.636
icker	-11.6362
uri	-11.6367
aki	-11.6367
eave	-11.6377
ille	-11.6382
lob	-11.6385
ais	-11.6393
had	-11.6395
place	-11.6418
ao	-11.6419
very	-11.6419
ze	-11.642
porn	-11.642
spec	-11.6421
angle	-11.6428
lie	-11.6437
hex	-11.6442
mir	-11.6447
ät	-11.6449
uid	-11.645
help	-11.6451
lead	-11.646
atta	-11.6469
eem	-11.6473
hed	-11.6479
appe	-11.6483
ulp	-11.6483
axe	-11.649
adi	-11.6491
uddle	-11.6492
urse	-11.6506
mouth	-11.6507
sit	-11.6512
iu	-11.6521
ended	-11.6527
nv	-11.6537
iga	-11.6539
▁moon	-11.6546
otor	-11.6555
eke	-11.6556
pic	-11.6565
aza	-11.6577
ilk	-11.6582
glass	-11.6591
osphere	-11.6594
cos	-11.6594
take	-11.6613
ologist	-11.6614
nu	-11.6616
illion	-11.6618
orb	-11.6621
enter	-11.6625
nb	-11.6627
▁prob	-11.6632
hake	-11.6639
ante	-11.6643
ras	-11.6651
igger	-11.6651
elle	-11.6655
hear	-11.6657
loss	-11.6657
ipline	-11.6664
tem	-11.6672
psycho	-11.6677
gor	-11.6678
horse	-11.6679
shirt	-11.6683
erd	-11.6698
itation	-11.67
rave	-11.6708
hine	-11.6708
aro	-11.6719
rak	-11.6735
gn	-11.6737
hem	-11.6747
reep	-11.6747
oede	-11.675
sunder	-11.6754
arma	-11.6755
ringe	-11.6761
san	-11.6765
ucker	-11.6767
arity	-11.6776
pc	-11.6776
mor	-11.6781
onnect	-11.6789
fund	-11.6793
rus	-11.68
took	-11.6802
ately	-11.6803
rench	-11.6807
oto	-11.6808
rio	-11.6814
pear	-11.6819
emin	-11.6824
hout	-11.6827
iden	-11.6832
xpress	-11.6847
sil	-11.6848
izz	-11.6848
river	-11.686
spin	-11.687
openopenope	-11.6875
rar	-11.6876
eve	-11.6881
scar	-11.6888
vid	-11.689
mit	-11.6902
exp	-11.6904
ellow	-11.6908
rac	-11.6912
obble	-11.6928
otta	-11.6931
clock	-11.6931
ular	-11.6932
rift	-11.6933
ttend	-11.6936
ert	-11.694
lean	-11.6953
aver	-11.6956
isp	-11.6956
pp	-11.6956
bell	-11.6969
bend	-11.6975
ego	-11.6976
mission	-11.6981
ened	-11.6983
poke	-11.6992
▁counter	-11.6993
quat	-11.6996
ridge	-11.7003
pill	-11.7012
anda	-11.7029
vel	-11.7029
los	-11.703
hrow	-11.703
tat	-11.7032
rpg	-11.7032
imag	-11.704
ector	-11.7041
asi	-11.7047
▁prop	-11.705
ela	-11.7054
throw	-11.7066
listen	-11.7071
vis	-11.7074
rk	-11.7075
aul	-11.7075
onic	-11.7087
mother	-11.7096
pos	-11.7102
raid	-11.7106
version	-11.7118
aut	-11.7122
safe	-11.7125
imo	-11.7126
affe	-11.7136
tage	-11.7141
otch	-11.7149
loop	-11.7153
shadow	-11.7156
order	-11.7164
stor	-11.7169
▁shi	-11.7175
inem	-11.7179
sign	-11.7183
anner	-11.7183
slide	-11.7188
though	-11.7188
tih	-11.7192
onsensus	-11.7194
wit	-11.7202
lame	-11.7203
logged	-11.7204
zu	-11.7204
vs	-11.7204
ping	-11.7206
reck	-11.7215
bly	-11.722
ând	-11.7223
tw	-11.7225
▁waft	-11.7231
ards	-11.724
brand	-11.7252
arrow	-11.7254
vt	-11.7258
clear	-11.7265
heel	-11.7267
quick	-11.7269
metal	-11.727
etal	-11.7307
rogh	-11.7311
ieltä	-11.7312
oster	-11.7314
wire	-11.7325
rend	-11.7328
tube	-11.733
ruck	-11.7359
oba	-11.737
hew	-11.7388
eft	-11.7396
ete	-11.7399
eign	-11.7401
cd	-11.7401
esse	-11.7416
plat	-11.7416
pur	-11.7417
pipe	-11.7418
imm	-11.742
hunder	-11.7429
alad	-11.743
ived	-11.7432
raise	-11.7443
teal	-11.7447
range	-11.7447
tab	-11.7448
gold	-11.7454
ouble	-11.7459
▁test	-11.746
make	-11.7467
otter	-11.7468
omm	-11.7476
æ	-11.7482
warm	-11.7482
course	-11.7485
parrot	-11.7485
iber	-11.7496
user	-11.7497
ould	-11.7502
efre	-11.7507
asa	-11.751
ompar	-11.7513
hase	-11.7522
reon	-11.7544
press	-11.7545
olic	-11.7558
ener	-11.7562
lä	-11.757
mount	-11.7573
layout	-11.7583
lace	-11.759
vv	-11.7602
laze	-11.7607
court	-11.7612
ese	-11.7614
runner	-11.7614
ume	-11.7618
hoe	-11.7622
hom	-11.7622
ično	-11.7624
paper	-11.7627
iger	-11.763
ibe	-11.7653
arl	-11.7663
erry	-11.7666
human	-11.7671
kid	-11.7674
eform	-11.7677
player	-11.768
elled	-11.7692
ammer	-11.7705
dé	-11.7707
ege	-11.7709
awn	-11.7711
ofre	-11.7718
obut	-11.7719
ril	-11.7722
ima	-11.7723
obi	-11.7738
ipper	-11.7739
hide	-11.7748
perm	-11.7751
arg	-11.7753
any	-11.7756
wan	-11.7763
ious	-11.7767
ounter	-11.7773
▁hab	-11.7778
oi	-11.7785
icked	-11.7786
neck	-11.7798
mg	-11.7799
drew	-11.7805
abit	-11.7807
apon	-11.7807
brain	-11.7824
arge	-11.7828
midst	-11.7831
ono	-11.784
affle	-11.7844
hereon	-11.7844
isten	-11.7846
oner	-11.7851
wer	-11.7853
eason	-11.7857
atten	-11.7858
lake	-11.7862
once	-11.7863
ony	-11.7877
hank	-11.7888
ts	-11.7898
ribe	-11.7909
inner	-11.7914
asis	-11.7915
etic	-11.7919
ograph	-11.7921
▁cuz	-11.7932
ffect	-11.7941
ogen	-11.7952
quit	-11.7954
irt	-11.7956
wig	-11.7958
idad	-11.7961
udo	-11.7976
sample	-11.7981
berg	-11.7983
flame	-11.7983
smith	-11.7987
gin	-11.7991
eca	-11.7991
ucke	-11.7993
ända	-11.7996
tk	-11.801
▁demo	-11.8019
eff	-11.8029
ej	-11.8036
erm	-11.8042
orship	-11.8055
▁polit	-11.8062
appen	-11.8065
cum	-11.8071
luster	-11.8088
sion	-11.8089
west	-11.809
ykol	-11.8094
aya	-11.8097
hoop	-11.8104
ault	-11.8106
ape	-11.8113
sort	-11.8113
roc	-11.8114
shore	-11.8124
oceros	-11.8134
nat	-11.8134
oney	-11.8135
medel	-11.8136
atguy	-11.8137
oze	-11.8141
efire	-11.8144
rained	-11.8145
wide	-11.8146
▁full	-11.8146
hí	-11.8148
lose	-11.8151
sor	-11.8167
uction	-11.8169
eau	-11.8176
aga	-11.8181
nderfoot	-11.8182
ushan	-11.8184
iya	-11.8185
oar	-11.8189
omer	-11.8192
iro	-11.8194
buy	-11.82
uro	-11.8205
ench	-11.8209
cg	-11.8217
és	-11.8217
refer	-11.8217
gang	-11.8219
rue	-11.8234
gle	-11.8237
nim	-11.8253
ự	-11.8257
edel	-11.8259
unning	-11.826
hoot	-11.826
tim	-11.8264
xp	-11.8269
eeper	-11.8271
offer	-11.8282
oven	-11.8282
ligt	-11.8283
emi	-11.8284
edit	-11.8286
inus	-11.8288
cometh	-11.829
▁wonder	-11.8295
gunnit	-11.8295
ating	-11.8296
earn	-11.8302
ettle	-11.8304
voice	-11.8311
wot	-11.8312
eto	-11.8313
herefor	-11.8314
tter	-11.8315
eller	-11.8317
tre	-11.8319
leaf	-11.832
heck	-11.8322
iva	-11.8325
econd	-11.8326
lem	-11.8343
eblie	-11.8345
pine	-11.8348
strike	-11.8351
▁nirn	-11.8354
gre	-11.8354
fort	-11.836
erse	-11.836
oco	-11.8361
izer	-11.8372
rs	-11.8376
mplement	-11.8381
robe	-11.8385
ison	-11.8387
▁amidst	-11.839
pegasus	-11.8399
acked	-11.8403
oak	-11.8405
rstellen	-11.841
nroot	-11.8414
oj	-11.8421
obb	-11.8423
inda	-11.8424
loat	-11.8429
assa	-11.8429
ought	-11.8435
arlo	-11.8436
unf	-11.8441
older	-11.8445
ozole	-11.8448
tree	-11.8451
hik	-11.8453
oooo	-11.8459
times	-11.8463
azz	-11.8471
ect	-11.849
▁hyper	-11.8491
lsj	-11.8496
ainist	-11.8497
dress	-11.8498
ilm	-11.8498
usse	-11.8501
ried	-11.8512
write	-11.8515
▁deb	-11.852
sg	-11.8532
vout	-11.8534
uer	-11.8535
▁aș	-11.8543
rch	-11.8548
usion	-11.855
atly	-11.8558
hawk	-11.8565
las	-11.8565
▁that	-11.8567
erie	-11.8571
cab	-11.8574
atz	-11.8574
▁butt	-11.8575
tation	-11.8581
hil	-11.8586
eur	-11.859
umi	-11.8592
num	-11.8596
▁fell	-11.8602
cas	-11.8616
fter	-11.8617
asp	-11.8617
mut	-11.8623
aru	-11.8623
ente	-11.8633
ockhead	-11.8635
will	-11.8638
tack	-11.864
urneth	-11.8643
heer	-11.8648
kel	-11.8649
adate	-11.8661
tide	-11.8661
▁smash	-11.8662
mile	-11.8663
ressl	-11.8665
ckbreaker	-11.8666
ober	-11.8666
wr	-11.8674
rough	-11.8674
amble	-11.8679
umba	-11.868
din	-11.8686
eva	-11.8686
rov	-11.8695
helm	-11.8695
hron	-11.8698
endido	-11.8699
vre	-11.8703
ivi	-11.8708
ppear	-11.8708
▁fail	-11.8708
rode	-11.8711
bill	-11.8713
tune	-11.8724
emand	-11.8736
lc	-11.8737
ging	-11.8745
omen	-11.875
▁came	-11.8753
tävä	-11.8755
uber	-11.8757
xact	-11.877
ding	-11.8774
last	-11.8779
nor	-11.8782
lint	-11.8783
▁bug	-11.8786
▁slow	-11.8787
yanl	-11.8788
punk	-11.8791
mente	-11.8805
ntly	-11.8808
iser	-11.8814
atic	-11.8815
hall	-11.8821
roof	-11.8823
coming	-11.8832
olin	-11.8835
▁sand	-11.8835
cow	-11.8836
good	-11.8845
underfoot	-11.8846
hither	-11.8855
addy	-11.8856
ford	-11.8857
xe	-11.886
ollow	-11.8864
nethack	-11.8875
ambo	-11.8876
eelc	-11.8876
ojo	-11.8887
oam	-11.889
unny	-11.8892
▁uevo	-11.8895
amper	-11.8895
rotank	-11.8897
iera	-11.8901
jecu	-11.8907
bay	-11.8916
egin	-11.8921
efuse	-11.8933
▁miss	-11.8943
tray	-11.8946
▁drop	-11.8947
wake	-11.8949
hug	-11.8951
ihin	-11.8956
athe	-11.8966
nip	-11.8967
egg	-11.8969
through	-11.8971
raz	-11.8982
eween	-11.8983
hordes	-11.8987
yr	-11.8989
uka	-11.899
ỹ	-11.8995
rule	-11.8999
grams	-11.9001
youknowwhatimean	-11.9002
lur	-11.9003
tub	-11.9009
ensor	-11.9011
tock	-11.9012
arra	-11.9014
▁atop	-11.9023
crap	-11.9025
uzzle	-11.9026
ament	-11.9032
tam	-11.9036
mas	-11.9038
ombo	-11.9046
vil	-11.9046
ury	-11.9054
ieve	-11.9055
▁start	-11.9059
thefuck	-11.9059
lore	-11.9062
urul	-11.9072
ažem	-11.9081
rb	-11.9082
vith	-11.9086
dhom	-11.9091
fwporn	-11.9093
sword	-11.9095
▁betw	-11.9105
limb	-11.9108
▁sfwporn	-11.9109
andle	-11.9113
alc	-11.9114
felle	-11.9115
wards	-11.9119
dad	-11.9123
spy	-11.9133
lear	-11.9136
uchan	-11.9137
eet	-11.9141
ntent	-11.9147
atto	-11.9149
arscore	-11.915
ooth	-11.9156
▁gran	-11.9158
färdig	-11.9164
rent	-11.9166
▁mono	-11.9168
▁woth	-11.917
unhan	-11.917
redj	-11.9173
määrin	-11.9173
paint	-11.9175
hore	-11.9175
oder	-11.9182
np	-11.9189
ession	-11.9191
itloop	-11.9191
matically	-11.9199
zaak	-11.9202
raction	-11.9208
throne	-11.9209
omhus	-11.9214
eja	-11.9215
lump	-11.9216
oal	-11.9218
rado	-11.922
photo	-11.9222
ŭ	-11.9224
stein	-11.9225
ndo	-11.9225
rrom	-11.9225
were	-11.9227
hammer	-11.9233
apo	-11.9239
lopp	-11.9239
▁main	-11.9245
inx	-11.9253
uster	-11.9259
urb	-11.9264
eather	-11.927
obo	-11.9271
esh	-11.9271
tit	-11.9274
▁tri	-11.9277
oard	-11.9279
titch	-11.9281
she	-11.9289
mot	-11.9292
fc	-11.9296
sphere	-11.9301
izzle	-11.9316
orrow	-11.9319
lude	-11.9327
ée	-11.933
ource	-11.933
umbo	-11.9331
aise	-11.9333
lty	-11.9336
torm	-11.9338
week	-11.934
earing	-11.9341
lower	-11.9352
gresiva	-11.9353
rawl	-11.9353
ks	-11.9353
idd	-11.9361
ble	-11.9361
outh	-11.9366
ember	-11.9368
▁snow	-11.9378
dent	-11.9378
rifting	-11.9385
urp	-11.9386
staff	-11.9391
gem	-11.9394
steppe	-11.9396
ih	-11.9405
rous	-11.9409
ightly	-11.9413
abel	-11.9422
ipe	-11.9424
exte	-11.9427
uest	-11.9435
▁half	-11.9436
▁flat	-11.9444
nderstand	-11.9449
uick	-11.9454
esult	-11.9455
avour	-11.9463
pite	-11.9464
oint	-11.9472
nite	-11.9473
roup	-11.9475
ji	-11.9478
tch	-11.9478
folk	-11.9479
ccur	-11.9482
mann	-11.9485
ecide	-11.949
sus	-11.9495
lipping	-11.9497
flip	-11.9501
rez	-11.9502
▁shout	-11.9506
lade	-11.951
osh	-11.9515
▁woke	-11.9519
nychan	-11.952
iest	-11.952
atu	-11.9521
hump	-11.9523
▁whit	-11.9523
oda	-11.9531
atin	-11.9535
tz	-11.9536
opper	-11.9539
rated	-11.954
ooch	-11.9541
evolution	-11.9541
aunch	-11.9553
itis	-11.9558
hash	-11.9562
ealth	-11.9563
▁amid	-11.9565
harm	-11.9568
upp	-11.9568
uki	-11.9571
uct	-11.9573
adden	-11.9577
hite	-11.9577
pv	-11.9585
▁death	-11.9591
rg	-11.9594
omit	-11.9609
actor	-11.9621
mopan	-11.9622
▁mem	-11.9633
talked	-11.9635
aggle	-11.9638
pik	-11.9647
otal	-11.9651
ature	-11.9653
sto	-11.9656
oller	-11.9661
ontact	-11.9663
fw	-11.9676
cart	-11.9676
raged	-11.968
white	-11.9682
ental	-11.9689
forth	-11.9696
pray	-11.9697
oa	-11.9699
oggle	-11.971
xplain	-11.9719
endo	-11.9719
pend	-11.9719
lux	-11.972
linger	-11.9728
wipe	-11.9734
▁iron	-11.9735
ubby	-11.9737
tretch	-11.9744
quad	-11.9744
lind	-11.9746
xist	-11.9751
linked	-11.9752
kara	-11.9755
mint	-11.9759
fruit	-11.9769
eguide	-11.9786
spray	-11.9791
uin	-11.9799
aout	-11.98
wish	-11.9804
▁result	-11.9806
erra	-11.981
irth	-11.9813
yo	-11.983
amente	-11.9831
deal	-11.9833
ulling	-11.9836
father	-11.9849
unge	-11.9862
tul	-11.9864
ocal	-11.9865
aud	-11.9865
tall	-11.9866
edia	-11.9866
hog	-11.9872
lamp	-11.9879
parent	-11.9887
ustle	-11.989
itta	-11.989
rex	-11.9892
tick	-11.9914
edo	-11.9917
acker	-11.9918
agi	-11.9921
risk	-11.9924
stage	-11.9927
inal	-11.9931
ittle	-11.9935
ummon	-11.9936
hadow	-11.9941
▁hover	-11.9946
arr	-11.9951
went	-11.9958
ollar	-11.9961
och	-11.9976
iker	-11.998
runk	-11.9982
hath	-11.9987
gency	-11.9988
▁thunder	-11.9996
evil	-12.0003
omin	-12.0003
jin	-12.0012
note	-12.0021
obot	-12.0023
looo	-12.0024
cid	-12.0026
orph	-12.0032
spell	-12.005
kl	-12.0055
froot	-12.006
nom	-12.0064
idly	-12.0065
▁exist	-12.0065
rude	-12.0067
ramp	-12.0071
lave	-12.0077
ral	-12.0099
oist	-12.0104
espond	-12.0114
achi	-12.0115
bur	-12.0117
ickle	-12.0119
usk	-12.0121
burst	-12.0124
inless	-12.0128
mell	-12.0139
cup	-12.0143
ourn	-12.0152
crew	-12.0153
lax	-12.0155
bark	-12.0166
position	-12.0167
ved	-12.0176
oope	-12.018
▁continu	-12.0183
hape	-12.0188
otw	-12.0194
rently	-12.0197
tow	-12.0198
azi	-12.0199
script	-12.0201
alve	-12.0202
much	-12.0205
iel	-12.0208
elect	-12.0221
ype	-12.0224
firm	-12.0228
gave	-12.0233
▁hung	-12.0234
urg	-12.0238
fie	-12.024
▁prim	-12.024
pproach	-12.0246
cel	-12.0251
dm	-12.0252
rind	-12.0258
moke	-12.0259
layed	-12.0262
imura	-12.0263
climb	-12.0263
yte	-12.0271
hatter	-12.0286
lia	-12.0301
▁mad	-12.0305
weep	-12.031
sti	-12.0312
awk	-12.0316
amine	-12.0321
tun	-12.0329
ecline	-12.0352
ighten	-12.0352
nus	-12.036
liquid	-12.0362
umper	-12.0365
gene	-12.0373
ooooo	-12.0374
erge	-12.0391
aller	-12.0398
left	-12.0409
eart	-12.041
rink	-12.0413
etz	-12.0417
epend	-12.0417
pologize	-12.0419
mask	-12.042
▁disappear	-12.042
obby	-12.0428
aser	-12.0431
spect	-12.0432
arly	-12.0443
rich	-12.0446
umber	-12.0448
vac	-12.0451
eration	-12.046
qual	-12.046
itty	-12.0462
rna	-12.0468
rait	-12.0472
▁affirm	-12.0473
▁motor	-12.0475
lod	-12.0486
▁inv	-12.0488
dive	-12.0499
igged	-12.0499
isappear	-12.0506
▁intent	-12.0509
arf	-12.0517
▁laugh	-12.0519
arian	-12.0525
bt	-12.0528
error	-12.0528
eight	-12.0532
iance	-12.0532
riend	-12.0536
esto	-12.0554
tric	-12.0555
tumble	-12.0556
import	-12.0557
org	-12.0558
iction	-12.056
heet	-12.0562
ooze	-12.0568
pg	-12.0569
litter	-12.0578
les	-12.0579
motion	-12.0583
▁overs	-12.0585
ippe	-12.059
▁flash	-12.0591
anta	-12.0591
rove	-12.0595
ccess	-12.0597
aim	-12.0603
eget	-12.0606
ension	-12.0607
▁dead	-12.0609
aría	-12.0609
owel	-12.0612
tay	-12.0616
rugh	-12.0618
rane	-12.0618
hl	-12.0618
onion	-12.0623
wamp	-12.0629
odium	-12.0641
ila	-12.0657
ummer	-12.0662
pas	-12.0667
elic	-12.0667
arden	-12.067
▁exact	-12.0671
trace	-12.0672
anish	-12.0673
there	-12.0674
eco	-12.0676
lope	-12.0676
▁kee	-12.068
tomp	-12.0681
dict	-12.0682
▁flopp	-12.0682
ackle	-12.0686
oral	-12.0688
hud	-12.0689
abor	-12.0694
gan	-12.0695
▁disp	-12.0698
rally	-12.07
▁buzz	-12.0705
ista	-12.0707
hille	-12.071
ontrol	-12.0713
uger	-12.0717
▁ghost	-12.0725
oko	-12.0729
organ	-12.0736
upper	-12.0739
nas	-12.0742
erf	-12.0744
▁dream	-12.0746
▁cri	-12.0747
▁vot	-12.0756
ublic	-12.0764
agon	-12.0766
touch	-12.0767
dic	-12.0768
vic	-12.0774
limp	-12.0781
raph	-12.0784
leed	-12.0785
reb	-12.0789
▁thou	-12.0798
oming	-12.0799
oph	-12.08
scribe	-12.0804
igo	-12.0804
euro	-12.0805
▁plan	-12.0805
otd	-12.0806
egged	-12.0806
tility	-12.081
rgument	-12.081
osis	-12.0815
edicate	-12.0823
ugged	-12.0823
ubble	-12.0827
mh	-12.0828
urk	-12.0833
erv	-12.0836
▁blow	-12.0837
thread	-12.084
scription	-12.0843
▁broke	-12.0846
cept	-12.085
rake	-12.0854
inned	-12.0855
opy	-12.0859
oxi	-12.0864
så	-12.087
erate	-12.0876
atron	-12.0876
▁funk	-12.0882
rian	-12.0883
shock	-12.0885
disk	-12.0885
boss	-12.0886
pace	-12.0888
killer	-12.089
lush	-12.0893
ibly	-12.0906
▁supp	-12.0911
avage	-12.0913
rune	-12.0913
laid	-12.0922
uh	-12.0923
igt	-12.0923
earch	-12.0924
kan	-12.0925
anne	-12.0925
pawn	-12.0926
▁pol	-12.0928
oise	-12.0933
orch	-12.0941
dol	-12.0947
fold	-12.095
pirit	-12.095
sell	-12.0951
money	-12.0959
iii	-12.0965
asse	-12.0966
dit	-12.0972
efin	-12.0976
lined	-12.0976
iko	-12.0976
nr	-12.0981
anza	-12.0994
▁four	-12.1005
▁complain	-12.1016
▁try	-12.1016
wd	-12.1021
erman	-12.1021
axx	-12.1024
lus	-12.1027
omplain	-12.1032
rumble	-12.1045
para	-12.1047
lime	-12.1056
haul	-12.1069
emb	-12.1072
ugger	-12.1074
factor	-12.1074
pul	-12.1075
essage	-12.1082
bla	-12.1083
cta	-12.1085
hile	-12.1088
omment	-12.109
otation	-12.1092
split	-12.1103
xplode	-12.1113
woo	-12.1115
este	-12.1116
ogs	-12.112
avel	-12.1124
reform	-12.1124
akt	-12.1126
pec	-12.1127
allow	-12.113
onsider	-12.1136
ebo	-12.1155
metric	-12.1155
ici	-12.116
ynth	-12.1161
ww	-12.1161
uth	-12.1162
ias	-12.1172
ilo	-12.1173
apping	-12.119
▁anti	-12.12
posed	-12.1204
reason	-12.1205
mall	-12.1215
mos	-12.1217
uma	-12.1219
orr	-12.1221
mote	-12.1223
ancer	-12.1228
rud	-12.1231
printed	-12.1232
mn	-12.1245
rient	-12.1245
special	-12.1247
via	-12.1248
byte	-12.1252
asked	-12.126
hain	-12.127
ocker	-12.1271
oro	-12.1275
tent	-12.1275
▁appear	-12.1275
nclus	-12.1289
haw	-12.1291
ention	-12.1292
ield	-12.1292
▁fro	-12.1297
erit	-12.1299
otion	-12.13
tos	-12.1305
peration	-12.1307
escent	-12.1312
anker	-12.1316
lav	-12.1316
locked	-12.1318
onvenient	-12.1319
olk	-12.1321
dition	-12.1325
lement	-12.1325
hee	-12.1332
emper	-12.1337
eater	-12.1338
aybe	-12.1338
▁vee	-12.1348
utte	-12.1349
azzle	-12.135
kor	-12.1368
illo	-12.1369
acted	-12.1369
ü	-12.1369
lm	-12.1374
igi	-12.1378
▁plant	-12.1398
anu	-12.1404
▁scream	-12.1405
eze	-12.1407
sho	-12.1408
zz	-12.1409
vat	-12.1411
salta	-12.1414
nship	-12.1425
urious	-12.1427
ämn	-12.1434
muran	-12.1434
random	-12.1438
lived	-12.1442
unit	-12.1449
urst	-12.1452
rán	-12.1457
terra	-12.1457
hd	-12.1458
rolled	-12.1458
unker	-12.1459
arken	-12.1465
ming	-12.1466
amma	-12.1466
price	-12.1469
handed	-12.1471
uge	-12.1473
auge	-12.1475
omi	-12.1477
parked	-12.148
lend	-12.1481
ação	-12.1482
oust	-12.1486
void	-12.1488
ifie	-12.1488
sou	-12.149
oach	-12.1498
oodle	-12.1498
assure	-12.1498
cru	-12.1508
inge	-12.1509
tell	-12.151
fen	-12.1522
asion	-12.1523
sym	-12.1524
sketch	-12.1524
oker	-12.1531
iety	-12.1531
target	-12.1532
ruk	-12.1532
merican	-12.1536
lich	-12.1538
edal	-12.1538
cors	-12.1543
rotect	-12.1543
hos	-12.1548
xx	-12.155
cular	-12.1555
apa	-12.1555
olve	-12.1556
cub	-12.1557
etro	-12.156
ande	-12.1561
nw	-12.1564
orge	-12.1566
▁stole	-12.1568
yth	-12.1569
freeze	-12.1572
ondition	-12.1572
▁pet	-12.1575
rif	-12.1577
insta	-12.1585
yre	-12.1595
▁pull	-12.1606
has	-12.161
uffle	-12.1612
pake	-12.1617
hatch	-12.162
efine	-12.1623
heal	-12.1626
tare	-12.1631
aco	-12.1632
zed	-12.1646
prec	-12.1647
pout	-12.1648
jump	-12.1649
ival	-12.165
apture	-12.1653
adio	-12.1655
▁swamp	-12.1656
dira	-12.1658
omo	-12.1659
ål	-12.1665
leak	-12.1665
voted	-12.1667
ildly	-12.1669
ossa	-12.1673
redit	-12.1673
olly	-12.1674
utor	-12.1677
hib	-12.1677
ithdraw	-12.1683
anny	-12.1685
nake	-12.169
radi	-12.1694
tamp	-12.1698
ecker	-12.17
nsist	-12.1705
child	-12.1721
▁breath	-12.1725
spa	-12.1726
crunch	-12.1726
oan	-12.1728
▁drift	-12.173
tc	-12.1732
ilence	-12.1736
umor	-12.174
cone	-12.1743
▁argumente	-12.1745
ssemble	-12.1747
event	-12.1754
shed	-12.1756
scope	-12.1758
atcher	-12.1759
auce	-12.1761
nnounce	-12.1764
kat	-12.1765
proof	-12.1771
esist	-12.1781
ways	-12.1781
arter	-12.1784
uestion	-12.1786
matic	-12.1795
rik	-12.1806
neak	-12.1811
oost	-12.1811
imb	-12.1819
early	-12.1819
onne	-12.1832
nik	-12.1835
eger	-12.1836
wt	-12.1838
coll	-12.184
▁dial	-12.1841
iq	-12.1842
eedout	-12.1844
por	-12.185
lect	-12.186
sold	-12.1862
ania	-12.1863
change	-12.1866
lott	-12.1867
▁submitt	-12.1877
lastic	-12.1882
▁vomit	-12.1882
▁proc	-12.1886
yno	-12.1886
finity	-12.1893
elve	-12.1911
aken	-12.1921
mr	-12.1921
merge	-12.1923
icket	-12.1925
evelop	-12.1927
▁disc	-12.1927
push	-12.1929
elay	-12.1934
oubt	-12.1937
ewel	-12.1937
teen	-12.1939
ml	-12.1945
avor	-12.1946
▁mess	-12.1946
educe	-12.195
aking	-12.1961
acer	-12.1963
olunteer	-12.1964
oper	-12.1966
▁volunteer	-12.1968
tain	-12.1975
laim	-12.1984
erator	-12.1985
nly	-12.1988
limit	-12.1991
anana	-12.1994
rach	-12.2005
dub	-12.2012
▁lol	-12.2013
pis	-12.2032
tti	-12.2035
onia	-12.2035
▁won	-12.2037
aje	-12.204
bc	-12.204
ignite	-12.2041
▁tru	-12.2045
oog	-12.2046
▁whoop	-12.2049
ullet	-12.205
hav	-12.206
▁stitch	-12.2064
yro	-12.2069
▁creep	-12.2071
ountain	-12.2072
rime	-12.2073
rowl	-12.2076
▁octa	-12.2081
anifest	-12.2084
nock	-12.2085
sage	-12.2094
avo	-12.2096
conf	-12.2097
uan	-12.21
ilter	-12.2102
ominate	-12.2104
nforce	-12.2105
alized	-12.2107
hark	-12.2108
gender	-12.2126
idge	-12.2128
ugg	-12.2136
fm	-12.2137
racer	-12.2147
brake	-12.2147
▁steam	-12.2151
urden	-12.2154
hortl	-12.2155
info	-12.2157
ovo	-12.2158
antic	-12.2159
eeed	-12.2172
loot	-12.2173
lain	-12.2179
tas	-12.218
ayto	-12.2181
ejer	-12.2181
vocation	-12.2186
rão	-12.2189
etail	-12.2191
ummy	-12.2193
onsole	-12.2199
ews	-12.2205
▁schl	-12.2206
roceed	-12.2208
rei	-12.2208
isagree	-12.2209
isposition	-12.2209
▁cheer	-12.2212
oooooo	-12.2215
teel	-12.2217
ecc	-12.222
mont	-12.2223
buster	-12.2225
anga	-12.2225
wag	-12.2226
▁proceed	-12.2226
yst	-12.2228
rrive	-12.2233
nte	-12.2245
ados	-12.2251
anal	-12.2254
swear	-12.2255
carry	-12.2255
ierce	-12.2259
loader	-12.2268
owner	-12.2269
locker	-12.2273
aging	-12.2276
chance	-12.2281
▁kings	-12.2282
jen	-12.2291
stood	-12.2296
nia	-12.2306
weak	-12.2309
melt	-12.2313
arrel	-12.2323
inson	-12.2324
anter	-12.2327
struck	-12.233
marked	-12.233
orget	-12.234
agt	-12.234
machine	-12.234
ccount	-12.2343
itting	-12.2343
nal	-12.2345
▁american	-12.2349
illing	-12.235
eteen	-12.2354
pole	-12.2356
hoose	-12.2357
torrent	-12.2363
enn	-12.2371
ommit	-12.2376
init	-12.2377
ider	-12.2379
aux	-12.2379
rudge	-12.2379
▁dim	-12.2381
▁disagree	-12.2382
hus	-12.2383
ird	-12.2388
xt	-12.2392
fine	-12.2394
▁arriv	-12.2396
▁finger	-12.2398
essen	-12.2409
▁favor	-12.2413
tera	-12.2413
▁wor	-12.2426
otton	-12.2426
close	-12.2431
nswer	-12.2437
ova	-12.244
nclude	-12.2441
ør	-12.2443
adly	-12.2443
irh	-12.2448
alter	-12.2465
▁freak	-12.247
ebra	-12.2472
ington	-12.2478
eply	-12.2478
▁spite	-12.2481
warf	-12.2483
luff	-12.2484
cold	-12.249
xcommunicate	-12.2491
▁grabb	-12.2493
mol	-12.2493
anic	-12.2497
rax	-12.2502
mport	-12.2502
lion	-12.2504
uli	-12.2504
arna	-12.2504
sap	-12.2514
abble	-12.2514
▁excommunicate	-12.2522
itar	-12.2522
irclejerk	-12.2524
atal	-12.2526
silver	-12.2528
oug	-12.2533
▁pretend	-12.2536
nde	-12.2547
theist	-12.2549
oca	-12.2554
leave	-12.2556
aig	-12.2562
epeat	-12.2567
gent	-12.2571
ooper	-12.2573
corp	-12.2578
mmed	-12.2578
erna	-12.2582
hief	-12.2582
ær	-12.2583
▁thank	-12.2583
aca	-12.2585
emote	-12.2586
eef	-12.2586
oga	-12.2595
ationer	-12.2602
ancing	-12.2603
encia	-12.2604
qed	-12.2605
unction	-12.2606
him	-12.2616
▁kick	-12.2617
▁second	-12.2619
hock	-12.2623
wap	-12.2626
reset	-12.2628
nsta	-12.2634
ntern	-12.2635
eaf	-12.2636
ulture	-12.2638
vale	-12.2642
hart	-12.2644
▁sleep	-12.2649
stfor	-12.2651
trike	-12.2653
litz	-12.2657
elch	-12.266
nduce	-12.2665
atural	-12.2665
rion	-12.2677
▁masturbat	-12.2678
indi	-12.2681
ccept	-12.2689
nion	-12.2695
▁turn	-12.2697
clean	-12.2701
uuuuuu	-12.2702
tuff	-12.2706
iffle	-12.271
retend	-12.271
▁dry	-12.271
ardo	-12.2711
▁grap	-12.2715
onsume	-12.2718
oogle	-12.272
overt	-12.272
▁vag	-12.2722
levi	-12.2728
izing	-12.2734
empt	-12.2736
iving	-12.2737
kus	-12.274
omfort	-12.2744
iller	-12.2747
▁boo	-12.2751
▁mud	-12.2757
onation	-12.2758
hift	-12.2762
pose	-12.2779
hacker	-12.2784
räv	-12.2788
omme	-12.2789
rgan	-12.2791
annon	-12.2792
ancel	-12.2795
written	-12.2799
worthy	-12.28
outine	-12.2807
ological	-12.2808
▁insist	-12.2813
cad	-12.2813
▁transfer	-12.2815
▁double	-12.2817
roop	-12.2819
ption	-12.2819
egi	-12.2825
atherer	-12.2825
smart	-12.2831
sguard	-12.2838
spiration	-12.2847
iler	-12.2849
uman	-12.285
mack	-12.2851
rekt	-12.2852
lew	-12.2853
itness	-12.2853
eir	-12.2859
▁grav	-12.2868
wee	-12.2871
pn	-12.2872
ecieve	-12.2873
igg	-12.2873
arnish	-12.2877
ourse	-12.2879
date	-12.288
▁spoke	-12.2886
worked	-12.2896
arcas	-12.2896
ockey	-12.2897
latter	-12.29
▁contribut	-12.2912
egister	-12.2917
rogram	-12.2918
adge	-12.2921
api	-12.2925
▁buck	-12.2927
▁kö	-12.2928
ends	-12.2928
process	-12.293
ida	-12.2934
hrug	-12.2937
▁died	-12.2945
ransfer	-12.2951
channel	-12.2952
▁direct	-12.2952
aran	-12.2958
allied	-12.2959
tale	-12.296
nout	-12.2961
understood	-12.2967
broad	-12.297
hag	-12.297
tir	-12.2973
cycle	-12.2976
igar	-12.2976
rout	-12.2978
ital	-12.298
rattle	-12.2981
odd	-12.2982
eptic	-12.2982
nail	-12.2983
▁console	-12.2985
▁derp	-12.2986
ubber	-12.2988
rief	-12.2991
raped	-12.2992
eology	-12.2999
urder	-12.2999
▁contact	-12.3001
agg	-12.3011
esk	-12.3013
alone	-12.3014
eech	-12.3017
lesh	-12.3026
kon	-12.3033
orp	-12.3034
udd	-12.3036
pare	-12.3037
rone	-12.3038
eact	-12.3048
adapt	-12.3049
cience	-12.3049
amar	-12.3049
hun	-12.3051
filled	-12.3051
tory	-12.3051
▁violat	-12.3052
major	-12.3052
ackage	-12.3057
▁thugh	-12.3063
worth	-12.3068
utton	-12.3072
vit	-12.3075
inish	-12.3075
ahl	-12.3076
gm	-12.3084
dose	-12.3085
dl	-12.3086
oice	-12.3091
▁bringe	-12.3093
werk	-12.3094
▁include	-12.3095
rav	-12.3103
onate	-12.3109
illow	-12.3109
atsu	-12.3116
▁stay	-12.3117
eload	-12.3118
stuff	-12.3126
inning	-12.3128
elieve	-12.3133
wim	-12.3147
lair	-12.3148
rint	-12.3152
lever	-12.3152
ior	-12.3152
etw	-12.3154
align	-12.3155
aaaaat	-12.3155
▁squ	-12.3159
tik	-12.316
arin	-12.3162
hoto	-12.3163
brow	-12.3167
jur	-12.3167
eil	-12.3167
ubb	-12.3171
cuff	-12.3176
mang	-12.3181
loved	-12.3183
odo	-12.3189
ickery	-12.3189
ample	-12.3196
▁cheat	-12.3197
prove	-12.3201
▁declin	-12.3203
▁maybe	-12.3206
orce	-12.3208
firmé	-12.3209
uude	-12.3214
maj	-12.3218
enna	-12.3219
åt	-12.3223
▁refus	-12.3224
▁public	-12.3225
pub	-12.3227
unnel	-12.3229
roper	-12.323
inna	-12.3245
ggs	-12.3245
ogo	-12.3248
tely	-12.3251
itus	-12.3255
kratt	-12.3255
urve	-12.3256
ación	-12.3257
▁hero	-12.3257
correr	-12.326
ligen	-12.326
chuck	-12.3262
alo	-12.3263
licker	-12.3263
dler	-12.3264
after	-12.3268
isa	-12.3274
rook	-12.328
exchange	-12.3281
nort	-12.3282
ptop	-12.3288
▁smil	-12.3294
ecret	-12.3294
andidate	-12.3295
guide	-12.3301
orde	-12.3301
sure	-12.3304
ats	-12.3309
ithe	-12.3315
bliga	-12.3317
▁focus	-12.3323
eeker	-12.3326
rier	-12.3327
actic	-12.3328
▁inclus	-12.3332
lier	-12.3339
chem	-12.3348
elm	-12.335
nee	-12.335
▁depend	-12.335
uther	-12.3354
rony	-12.3361
ooooooo	-12.3362
louse	-12.3364
▁moo	-12.3365
imit	-12.3368
ruise	-12.3369
▁pant	-12.3369
▁apologize	-12.3375
tance	-12.3375
sic	-12.3376
hai	-12.3376
mooch	-12.3378
phobia	-12.3383
hap	-12.3384
eats	-12.3394
acia	-12.3398
utside	-12.3399
irect	-12.3399
ooker	-12.34
▁join	-12.3406
ggro	-12.3409
▁bounc	-12.3411
arked	-12.3412
oup	-12.342
abo	-12.342
esi	-12.342
▁radio	-12.3421
tta	-12.3424
rison	-12.3424
ipple	-12.3425
hum	-12.343
reathe	-12.3431
▁batt	-12.3444
epper	-12.3445
isit	-12.3447
bis	-12.3447
umin	-12.3449
ooke	-12.3454
eploy	-12.3456
adium	-12.3458
sse	-12.3461
nquire	-12.3463
▁flick	-12.3463
chen	-12.3467
uadra	-12.347
ubmit	-12.347
infoil	-12.3475
ttack	-12.3484
▁demand	-12.3485
amba	-12.3494
atia	-12.3495
kim	-12.3502
bject	-12.3505
imbo	-12.3506
etain	-12.3507
mom	-12.3508
cke	-12.3509
urm	-12.3512
rocs	-12.3514
eward	-12.3519
gur	-12.3519
dio	-12.3519
rein	-12.3521
ornicate	-12.3523
hest	-12.3525
union	-12.3529
▁snapp	-12.3529
▁fornicate	-12.3534
▁shook	-12.3534
hist	-12.3537
posted	-12.3537
imple	-12.3538
asket	-12.354
grade	-12.3546
lute	-12.3557
dropped	-12.3557
ien	-12.3558
hange	-12.3562
poon	-12.3563
vd	-12.3564
oring	-12.3568
prox	-12.3568
oiler	-12.3574
eview	-12.3575
ruth	-12.3575
panel	-12.3576
▁cring	-12.3583
hp	-12.3584
▁convenient	-12.3585
abi	-12.3587
akka	-12.359
iper	-12.3595
▁bitch	-12.3596
▁compet	-12.3596
urch	-12.3598
oric	-12.36
asia	-12.3602
renda	-12.3603
owed	-12.3604
ucket	-12.3604
ccord	-12.3608
alia	-12.3614
iling	-12.3618
tream	-12.3619
russ	-12.362
iol	-12.3624
elo	-12.3625
wp	-12.3633
uture	-12.3633
chieve	-12.3635
verage	-12.364
evelopment	-12.3641
efor	-12.3648
▁dist	-12.3652
▁alot	-12.3653
atti	-12.3657
lak	-12.3659
eliver	-12.366
rought	-12.3663
banne	-12.3664
arket	-12.3664
rgumente	-12.3668
oment	-12.3668
orrect	-12.3669
twist	-12.3669
sla	-12.3671
andal	-12.3672
ission	-12.3673
aggot	-12.3674
hitin	-12.3679
move	-12.3681
ario	-12.3687
party	-12.3692
trat	-12.3694
lagg	-12.3697
olite	-12.3698
egain	-12.37
amage	-12.3705
▁boom	-12.3705
oute	-12.3706
anity	-12.3709
lurp	-12.3712
ög	-12.3712
eko	-12.3713
eflect	-12.3715
▁exc	-12.3721
▁tinfoil	-12.3724
onfirm	-12.3727
etus	-12.3727
amo	-12.3729
volve	-12.3731
blind	-12.3734
uria	-12.3738
olarize	-12.3741
▁quadra	-12.3741
nställd	-12.3748
acha	-12.3748
nag	-12.3748
ogger	-12.3749
▁sans	-12.3755
ookie	-12.3756
fax	-12.3763
cf	-12.3773
▁aggro	-12.3786
roud	-12.3787
dge	-12.3789
ssa	-12.379
loth	-12.3792
made	-12.3801
hokeslam	-12.3804
aine	-12.3806
efect	-12.3811
ublish	-12.3817
hysic	-12.3817
inn	-12.3819
kept	-12.382
trum	-12.3821
▁chokeslam	-12.3826
rp	-12.3826
▁outscor	-12.3832
eserve	-12.3835
ranger	-12.3838
ural	-12.3839
eut	-12.3841
floor	-12.3842
atisfy	-12.3846
lv	-12.385
▁outside	-12.3854
hrink	-12.3856
▁wsg	-12.3857
▁eq	-12.3859
hub	-12.3862
render	-12.3862
urger	-12.3862
▁consider	-12.3863
axi	-12.3865
escend	-12.3868
sexuality	-12.3868
▁nämn	-12.3868
inse	-12.3868
rope	-12.3873
rize	-12.3873
joy	-12.388
uppet	-12.3888
hare	-12.3893
eson	-12.3893
atte	-12.39
▁banana	-12.3901
eren	-12.3903
apple	-12.3903
utch	-12.3903
ugar	-12.3905
ubbed	-12.3906
float	-12.3906
stro	-12.3908
trive	-12.3909
catch	-12.3912
omplete	-12.3913
heap	-12.3914
lunt	-12.3917
▁carb	-12.392
lipper	-12.3928
elete	-12.393
slam	-12.3931
▁prefer	-12.3932
▁leap	-12.3933
▁solo	-12.3934
uckle	-12.3935
utscor	-12.3938
oria	-12.3938
ecie	-12.3943
rh	-12.3944
pecif	-12.3946
maw	-12.3951
▁slipp	-12.3953
uake	-12.3955
▁bike	-12.3958
gay	-12.3959
ezahl	-12.3961
opia	-12.3963
enial	-12.3966
rath	-12.3968
knew	-12.3974
clip	-12.3974
gli	-12.3977
abe	-12.3979
ppe	-12.3983
rect	-12.3984
ulate	-12.3984
uppose	-12.3988
eopard	-12.3989
ilver	-12.399
ushy	-12.3991
eaten	-12.3994
heme	-12.3995
strom	-12.3998
ouver	-12.3999
ining	-12.4005
ealise	-12.4005
nack	-12.4011
opi	-12.4014
ubi	-12.4017
lumber	-12.4019
istribute	-12.402
ocument	-12.4022
ribble	-12.4023
loak	-12.4025
bate	-12.4028
enture	-12.4028
piral	-12.4037
enu	-12.4038
erma	-12.4039
olate	-12.4041
bg	-12.4048
lea	-12.405
▁weekend	-12.4053
aph	-12.4054
arted	-12.4056
umour	-12.4056
pron	-12.4067
mportance	-12.407
hopper	-12.4077
▁ignor	-12.4079
▁winter	-12.4081
amus	-12.4082
lasted	-12.4084
pag	-12.4084
š	-12.4085
▁geo	-12.4088
ertain	-12.4091
ecess	-12.4094
eekend	-12.4097
neeze	-12.4103
eriod	-12.4103
ppo	-12.4104
▁along	-12.4106
tuned	-12.4107
hick	-12.4115
acor	-12.4116
nboard	-12.4116
▁neuro	-12.4123
immer	-12.4124
toll	-12.4128
etly	-12.413
story	-12.4131
▁cover	-12.4133
riva	-12.4135
ommercial	-12.4137
▁skratt	-12.4139
pew	-12.414
▁tour	-12.4141
erpe	-12.4146
amen	-12.4146
harp	-12.4149
oddle	-12.415
orgo	-12.4153
▁grind	-12.4153
azer	-12.4162
ounge	-12.4163
chose	-12.4168
quisition	-12.4169
arvel	-12.4171
ffer	-12.4172
gb	-12.4175
▁sweat	-12.4177
mobile	-12.4178
rgue	-12.4187
▁drove	-12.4187
iktat	-12.4189
wearing	-12.4191
ength	-12.4193
aven	-12.4194
ske	-12.4195
emia	-12.4195
▁total	-12.4195
orça	-12.4197
▁barb	-12.4198
iberal	-12.4198
evise	-12.4199
ş	-12.4205
ollo	-12.4212
halt	-12.4212
lory	-12.4217
franchise	-12.4217
quip	-12.4218
lvl	-12.4219
echo	-12.422
arrier	-12.4223
ommand	-12.4232
▁sever	-12.4234
liv	-12.4235
ois	-12.4236
rol	-12.4239
ither	-12.4252
ownload	-12.4256
obber	-12.4256
cour	-12.4257
nable	-12.4257
ssh	-12.4258
ranslate	-12.4258
aval	-12.4259
ratt	-12.4259
egulate	-12.4262
asher	-12.4264
crawl	-12.4267
ished	-12.4268
gore	-12.4271
treat	-12.4273
olar	-12.4274
tilt	-12.4277
iri	-12.4277
ropping	-12.4281
▁flew	-12.4283
rater	-12.4285
rugged	-12.4285
izar	-12.4285
isser	-12.4286
exploded	-12.4288
active	-12.4295
fx	-12.4295
alloon	-12.43
▁attack	-12.43
asturbate	-12.4301
azes	-12.4301
idget	-12.4302
nnnndddd	-12.4311
itrate	-12.4313
iology	-12.4315
cenhancer	-12.4316
efend	-12.4319
▁diss	-12.4319
iche	-12.4322
allo	-12.4324
▁icenhancer	-12.4326
hallenge	-12.4328
abbed	-12.4329
è	-12.4331
conceive	-12.4334
unna	-12.4335
cologist	-12.4335
video	-12.4342
asic	-12.4348
mino	-12.4351
ecure	-12.4353
eiko	-12.4353
nda	-12.4353
▁convers	-12.436
lice	-12.4361
ocation	-12.4361
nä	-12.4362
unhaus	-12.4363
biogenesis	-12.4364
iscount	-12.4369
▁funhaus	-12.4374
proaches	-12.4379
yama	-12.4383
egal	-12.4392
coded	-12.4401
obs	-12.4404
pain	-12.4404
issa	-12.4409
urally	-12.441
erminate	-12.441
taple	-12.4411
blew	-12.4411
▁every	-12.4411
oiled	-12.4414
estore	-12.4417
iousness	-12.4417
ccup	-12.4422
yster	-12.4422
oods	-12.4423
scored	-12.4424
uda	-12.4426
▁wou	-12.4426
roject	-12.4429
rome	-12.4433
▁frown	-12.4434
scalate	-12.4435
copy	-12.444
ortex	-12.4442
▁teh	-12.4443
imba	-12.4443
tex	-12.4445
uko	-12.4447
etti	-12.4447
uld	-12.4448
▁satisfy	-12.445
played	-12.445
emeber	-12.4451
▁told	-12.4452
bury	-12.446
sys	-12.4463
lter	-12.4464
wirl	-12.4464
acht	-12.4464
▁redfor	-12.4466
truggle	-12.4468
aton	-12.447
▁punch	-12.4473
restle	-12.448
rl	-12.4483
xpand	-12.4484
neplus	-12.4485
ritic	-12.4486
▁knock	-12.4494
▁oneplus	-12.4494
ending	-12.4494
weat	-12.45
ripper	-12.45
iggy	-12.45
orcer	-12.4506
ombat	-12.4515
poo	-12.4518
▁strat	-12.4518
ermit	-12.4524
▁murder	-12.4525
reate	-12.4526
jan	-12.4527
ambi	-12.4528
rotest	-12.4532
hirl	-12.4534
esent	-12.4537
quest	-12.4539
ouge	-12.454
responded	-12.4541
kicked	-12.4546
oosh	-12.4547
▁beteen	-12.4547
esolve	-12.4548
rushed	-12.4553
rites	-12.4556
humb	-12.4556
sley	-12.4557
allet	-12.4557
rested	-12.4566
itive	-12.4567
uton	-12.4568
stomped	-12.4572
▁participat	-12.4574
bz	-12.4581
ctive	-12.4581
cheese	-12.4582
oku	-12.4584
▁sober	-12.4584
queira	-12.4585
beg	-12.4586
aming	-12.4587
tped	-12.459
acro	-12.4597
hiz	-12.4598
uly	-12.4601
▁brick	-12.4603
warned	-12.4604
onor	-12.4604
else	-12.4606
mug	-12.4609
ritisera	-12.4609
scroll	-12.461
illet	-12.4613
eveal	-12.4613
versus	-12.4613
niard	-12.4614
▁kritisera	-12.4614
ahe	-12.4614
cally	-12.4617
▁skatte	-12.4624
reedom	-12.4633
cess	-12.4634
avors	-12.464
wow	-12.4642
urrican	-12.4648
edfor	-12.4649
nst	-12.465
ellem	-12.4652
onsent	-12.4653
rever	-12.4655
wc	-12.4655
efi	-12.4656
eaaall	-12.4658
ubmitt	-12.466
srs	-12.4663
njoy	-12.4665
jumped	-12.4666
scend	-12.4667
▁switch	-12.4669
orro	-12.4672
oƃ	-12.4678
replied	-12.4682
killed	-12.4683
kom	-12.4684
unni	-12.4691
iet	-12.4693
iffer	-12.4694
iscuss	-12.4695
nek	-12.4696
ransmit	-12.4699
▁began	-12.47
lf	-12.47
happened	-12.4702
rse	-12.4705
curl	-12.4709
emen	-12.4711
roduce	-12.4713
▁running	-12.4714
etest	-12.4716
arty	-12.4717
picked	-12.472
spreading	-12.4725
ccom	-12.4726
banned	-12.4729
itsu	-12.473
agna	-12.473
ntr	-12.4732
izard	-12.4735
tively	-12.4737
tile	-12.4737
monkey	-12.4739
▁hurrican	-12.4741
icar	-12.4742
epth	-12.4744
evaluate	-12.4745
ludge	-12.4745
unst	-12.4746
haz	-12.4748
ewrite	-12.475
idle	-12.4759
mend	-12.4761
huckle	-12.4761
pper	-12.4766
poste	-12.4767
▁nahe	-12.4768
eski	-12.4768
tang	-12.4771
efresh	-12.4772
ddress	-12.4782
oken	-12.4782
loo	-12.4783
lk	-12.4785
lau	-12.4785
ungle	-12.4788
ithou	-12.4797
ajor	-12.48
▁sitte	-12.4801
ocs	-12.4801
▁flirt	-12.4805
lady	-12.4806
ilate	-12.4807
▁milk	-12.4807
sec	-12.4809
▁trash	-12.481
▁depth	-12.481
reboot	-12.4813
nub	-12.4814
▁dodg	-12.4815
eria	-12.4816
aulk	-12.4816
▁tø	-12.4816
ulfil	-12.4819
alley	-12.482
stalker	-12.482
ranked	-12.4821
ogue	-12.4822
▁throu	-12.4823
wallow	-12.4824
▁tot	-12.4824
sad	-12.4825
hink	-12.4826
ott	-12.4827
ptil	-12.483
andi	-12.4834
arion	-12.4834
stray	-12.4835
apt	-12.4835
▁voo	-12.4835
atio	-12.4836
ringer	-12.4837
arco	-12.4842
äng	-12.4843
ecrease	-12.4844
▁occurr	-12.4849
kol	-12.4862
utta	-12.4864
elling	-12.4867
▁butter	-12.4867
claimed	-12.487
▁arpg	-12.4871
▁kräv	-12.4872
ikki	-12.4873
ormod	-12.4876
nions	-12.4879
wile	-12.4879
dmit	-12.488
▁tormod	-12.4881
mock	-12.4881
leach	-12.4884
bore	-12.4884
equal	-12.4888
oste	-12.4889
▁birth	-12.489
slinging	-12.4891
▁bă	-12.4891
isse	-12.4894
term	-12.4895
listed	-12.4896
wept	-12.4904
▁escalat	-12.4909
ripple	-12.4909
ynch	-12.491
eless	-12.491
icate	-12.4913
▁program	-12.4913
▁ascend	-12.4915
drama	-12.4916
nob	-12.4918
agle	-12.4924
ichi	-12.4924
sac	-12.4926
tealth	-12.4928
solation	-12.493
wine	-12.4931
assage	-12.4935
itten	-12.4936
▁fron	-12.4939
hrou	-12.4939
lugg	-12.4941
cout	-12.4942
▁anställd	-12.4944
▁dash	-12.4949
enetic	-12.4951
awl	-12.4952
liter	-12.4954
hudda	-12.4955
ecover	-12.4955
katte	-12.4956
enge	-12.4959
eeeell	-12.4959
acke	-12.4959
▁força	-12.4959
eild	-12.496
rimot	-12.4961
▁bezahl	-12.4962
ontribute	-12.4964
agh	-12.4966
orbid	-12.4969
▁pedal	-12.4971
iffe	-12.4973
allop	-12.4974
wl	-12.4976
wage	-12.498
▁cyber	-12.498
lirt	-12.4984
mv	-12.4984
▁bullsha	-12.4987
review	-12.4988
ullsha	-12.4991
utmatch	-12.4991
capped	-12.4994
järta	-12.4998
pple	-12.4999
mply	-12.5
allot	-12.5005
▁hjärta	-12.5008
abt	-12.501
denne	-12.5011
▁awoke	-12.5014
econ	-12.5018
▁outmatch	-12.5022
▁latterlig	-12.5023
▁wiki	-12.5025
inne	-12.5025
▁argu	-12.5027
loaded	-12.503
windle	-12.503
▁withou	-12.503
aterial	-12.5034
rica	-12.5039
role	-12.504
▁minus	-12.5041
ketch	-12.5041
abilty	-12.5042
olyandry	-12.5044
aat	-12.5053
▁said	-12.5056
▁korka	-12.5058
utted	-12.5059
nterpret	-12.5059
bonnem	-12.506
▁kush	-12.5061
ömd	-12.5061
rij	-12.5062
▁polyandry	-12.5062
loft	-12.5064
egexp	-12.5065
reader	-12.5067
atterlig	-12.5068
epresent	-12.5068
rogue	-12.5068
▁jew	-12.5076
ailer	-12.5079
ugly	-12.5081
nvest	-12.5081
ayo	-12.5083
▁onboard	-12.5083
▁regexp	-12.5085
latcore	-12.5086
lek	-12.5087
▁symbol	-12.5087
etwork	-12.5088
▁khe	-12.5091
▁abonnem	-12.5092
iscover	-12.5093
▁flatcore	-12.5095
apid	-12.5096
ustain	-12.5098
▁protest	-12.5099
▁eotw	-12.51
▁serv	-12.5101
ipchat	-12.5104
ippo	-12.5105
▁hipchat	-12.511
▁south	-12.5114
haum	-12.5119
agent	-12.512
ooter	-12.5122
peg	-12.5123
otl	-12.5125
▁paus	-12.5126
ento	-12.5128
lakazam	-12.5129
ån	-12.5129
▁thaum	-12.5134
ssume	-12.5137
▁lät	-12.5137
rder	-12.5138
▁ovre	-12.5139
ntl	-12.5143
ingside	-12.5146
ocking	-12.5153
liver	-12.5155
kip	-12.5159
▁slid	-12.516
entry	-12.5161
▁alakazam	-12.5164
sibly	-12.5165
vap	-12.5165
holster	-12.5169
anel	-12.5172
ebel	-12.5172
niv	-12.5176
cology	-12.5178
alar	-12.518
hugh	-12.5181
▁wreck	-12.5184
asil	-12.5186
▁fak	-12.5187
elce	-12.5189
ulla	-12.519
uzzcut	-12.5197
▁kicker	-12.5201
erfect	-12.5201
iolate	-12.5202
ingsroad	-12.5202
rial	-12.5203
▁vari	-12.5205
scramble	-12.5205
ccurr	-12.5207
▁kingsroad	-12.5207
irc	-12.5209
htout	-12.5209
▁buzzcut	-12.5212
evolved	-12.5213
nasmuch	-12.5214
uiet	-12.5215
▁project	-12.5216
ational	-12.5216
rou	-12.5216
ötte	-12.5218
estate	-12.5223
▁inasmuch	-12.5224
▁enjoy	-12.5224
itle	-12.5225
inde	-12.5229
▁kelce	-12.5229
▁goof	-12.5231
isch	-12.5231
▁diktat	-12.5232
roma	-12.5233
irk	-12.5235
lassic	-12.5235
dj	-12.5236
ucco	-12.524
igue	-12.5241
ethyl	-12.5242
▁cheap	-12.5243
sher	-12.5246
hs	-12.5247
▁command	-12.5249
etting	-12.5249
popped	-12.525
▁bech	-12.5251
▁friend	-12.5251
urtle	-12.5252
ibble	-12.5252
ieren	-12.5254
nform	-12.5255
egion	-12.5257
ompe	-12.5257
hannel	-12.5261
etard	-12.5261
▁importance	-12.5262
▁bas	-12.5266
lutter	-12.5273
oska	-12.5274
dventure	-12.5277
afts	-12.5278
dvise	-12.528
acism	-12.528
anvas	-12.528
iege	-12.5281
▁sneez	-12.5282
quee	-12.5284
dex	-12.5284
genesis	-12.5287
cause	-12.5288
confirmed	-12.529
▁obliga	-12.529
etwixt	-12.5292
lov	-12.5293
bstruct	-12.5294
▁crit	-12.5297
huck	-12.5299
▁jontron	-12.53
▁liber	-12.5303
ontron	-12.5306
hm	-12.5306
bake	-12.5307
▁betwixt	-12.5307
deológica	-12.5309
▁tradec	-12.531
inychat	-12.5312
poof	-12.5314
most	-12.5315
ría	-12.5318
▁ideológica	-12.5319
anite	-12.5323
▁kiiind	-12.5324
uku	-12.5324
ypo	-12.5326
ounder	-12.5326
▁tinychat	-12.5331
robot	-12.5333
osing	-12.5334
urity	-12.5334
pam	-12.5337
theism	-12.5338
ammenligne	-12.5338
nger	-12.5339
troke	-12.5341
obuffet	-12.5341
▁sammenligne	-12.5341
hinge	-12.5342
ponsor	-12.5344
istrust	-12.5346
▁wobuffet	-12.5346
ationalize	-12.5348
ohiba	-12.5348
hasten	-12.5348
atory	-12.5348
ijack	-12.5351
verlo	-12.5351
dapt	-12.5352
zar	-12.5353
▁swor	-12.5354
▁annnndddd	-12.5355
eron	-12.5356
queue	-12.536
itto	-12.536
ebut	-12.5361
ngel	-12.5362
nuckle	-12.5365
amon	-12.5366
▁cohiba	-12.5369
ourjo	-12.5371
▁definit	-12.5371
▁decided	-12.5373
stab	-12.5374
▁kauka	-12.5378
▁bourjo	-12.5381
kull	-12.5382
▁parti	-12.5384
▁fond	-12.5384
ecant	-12.5386
elektrik	-12.5387
▁dance	-12.5387
mprove	-12.5387
entre	-12.539
arsh	-12.5391
osse	-12.5394
belly	-12.5394
▁feed	-12.54
urrow	-12.5401
ayer	-12.5406
landed	-12.5412
iscut	-12.5413
lektrik	-12.5413
rogress	-12.5415
▁kvinde	-12.542
ague	-12.5421
▁imponer	-12.5423
olest	-12.5425
obe	-12.5427
odif	-12.5427
epulchre	-12.5427
pse	-12.5428
jama	-12.5429
urdle	-12.543
▁biodegrade	-12.5433
▁grim	-12.5434
ucci	-12.5446
▁wtih	-12.5448
iru	-12.5449
snt	-12.5452
arbon	-12.5452
▁agreed	-12.5456
azon	-12.5459
tring	-12.546
vc	-12.5462
enom	-12.5465
vinde	-12.5467
watched	-12.5467
▁sepulchre	-12.5467
olour	-12.5468
▁quake	-12.5469
tard	-12.547
bw	-12.547
artic	-12.5473
▁anout	-12.5474
izardchan	-12.5474
lique	-12.5475
uppe	-12.5476
iodegrade	-12.5477
eeeeee	-12.5478
ormal	-12.5478
iiind	-12.5479
hoc	-12.5479
ueira	-12.5479
▁wizardchan	-12.548
leat	-12.5483
▁begg	-12.5487
nid	-12.5489
illgänglig	-12.549
ako	-12.5492
held	-12.5493
kil	-12.5495
gather	-12.5497
akh	-12.5499
anboy	-12.55
onquer	-12.5501
ycle	-12.5504
witchin	-12.5507
▁cav	-12.5507
▁tillgänglig	-12.5509
▁affär	-12.551
▁omfa	-12.5512
egge	-12.5512
kkhan	-12.5512
lli	-12.5513
crim	-12.5513
▁tayto	-12.5515
▁puss	-12.5515
poyo	-12.5516
ader	-12.5517
drafted	-12.5518
evist	-12.5518
▁march	-12.5519
▁switchin	-12.552
hamber	-12.5522
udio	-12.5523
reorder	-12.5524
oron	-12.5524
angel	-12.5529
hilli	-12.5529
adder	-12.553
estrict	-12.553
lobbe	-12.5531
mponer	-12.5533
ereon	-12.5534
▁dropping	-12.5535
andom	-12.5536
rf	-12.5537
ncourage	-12.5538
▁taig	-12.5539
pression	-12.5539
▁prevent	-12.5539
▁gover	-12.5539
▁tråkig	-12.5539
▁klä	-12.554
efile	-12.5541
iend	-12.5541
▁decreas	-12.5542
▁guude	-12.5543
▁akkhan	-12.5547
normal	-12.5548
▁apoyo	-12.555
empo	-12.5552
▁reproache	-12.5555
flipped	-12.5556
pressed	-12.5557
uat	-12.5558
thic	-12.5559
▁krider	-12.556
ealize	-12.5563
▁abiogenesis	-12.5564
igner	-12.5569
ortælle	-12.5569
neel	-12.5571
orrupt	-12.5573
hamp	-12.5573
xpect	-12.5575
lone	-12.5575
ritt	-12.5575
volution	-12.5575
▁fortælle	-12.558
acon	-12.5582
trop	-12.5585
▁faze	-12.5586
▁rhat	-12.5587
fired	-12.5588
rticolul	-12.5588
rocess	-12.5588
fect	-12.5589
råkig	-12.5589
scr	-12.5591
taste	-12.5593
▁unterschiedlich	-12.5595
▁dout	-12.5595
ffäre	-12.5596
▁control	-12.5596
▁access	-12.5598
aute	-12.5599
equel	-12.5601
▁accom	-12.5601
▁revel	-12.5602
dint	-12.5603
oyo	-12.5603
arro	-12.5606
esser	-12.5619
preading	-12.562
▁jok	-12.562
otte	-12.5621
▁articolul	-12.5622
nsure	-12.5623
rito	-12.5623
▁weeeell	-12.5623
assist	-12.5627
issue	-12.5629
yber	-12.563
assi	-12.5638
▁itin	-12.5639
pus	-12.5642
etup	-12.5644
linch	-12.5644
urist	-12.5645
ebate	-12.5647
aniobra	-12.5651
▁ftf	-12.5651
ƃ	-12.5653
agga	-12.5653
▁lunch	-12.5664
▁floatin	-12.5664
▁maniobra	-12.5665
rong	-12.5668
eadline	-12.5669
receive	-12.567
indows	-12.5671
▁windows	-12.5676
ruffle	-12.5676
▁squat	-12.5678
rund	-12.5678
▁install	-12.5682
effer	-12.5683
lava	-12.5685
▁slip	-12.5686
rump	-12.5687
▁fal	-12.5689
illage	-12.569
unter	-12.5691
iiiind	-12.5691
eceive	-12.5693
dps	-12.5695
hield	-12.5696
syn	-12.5697
ctivity	-12.5698
▁golf	-12.5698
erial	-12.5699
nterschiedliche	-12.5699
▁kandidat	-12.57
ersönliche	-12.5702
elease	-12.5704
roller	-12.5705
hrome	-12.5706
hitt	-12.5706
▁privat	-12.5706
▁summ	-12.5707
lejer	-12.5708
eey	-12.5708
▁kiiii	-12.5721
▁persönliche	-12.5721
▁weakaura	-12.5722
eman	-12.5725
emocratic	-12.5727
eposit	-12.5736
pyro	-12.5737
nward	-12.5742
umer	-12.5744
oshi	-12.5745
onner	-12.5752
awile	-12.5754
lough	-12.5754
antry	-12.5755
uilt	-12.5755
valued	-12.5757
eception	-12.5759
emain	-12.5761
loatin	-12.5762
pike	-12.5762
▁best	-12.5763
▁brown	-12.5765
inja	-12.5766
ontinue	-12.5767
▁warma	-12.5768
oddy	-12.5771
▁närmast	-12.5772
cient	-12.5772
ction	-12.5772
▁befor	-12.5773
tipped	-12.5773
oter	-12.5773
akin	-12.5775
▁general	-12.5777
▁stopp	-12.5779
▁braggadocio	-12.578
lert	-12.5781
orin	-12.5781
gjer	-12.5783
rbetsplatse	-12.5794
arium	-12.5796
desk	-12.5797
édéral	-12.5798
brush	-12.58
bort	-12.5802
judge	-12.5803
venge	-12.5804
eakaura	-12.5809
perador	-12.5809
▁fédéral	-12.5809
utu	-12.5812
bq	-12.5816
▁operador	-12.5816
ranged	-12.5817
month	-12.5818
ormalize	-12.582
▁trail	-12.5822
▁nerd	-12.5825
lbs	-12.5828
ärmast	-12.5828
▁arbetsplatse	-12.5829
trigger	-12.5829
hara	-12.5836
urely	-12.584
really	-12.584
oxy	-12.5841
xvehl	-12.5843
▁flunk	-12.5843
▁mellem	-12.5844
ottom	-12.5846
waste	-12.5847
▁fördel	-12.5848
assion	-12.5854
▁whirl	-12.5854
▁fantas	-12.5858
acket	-12.5859
▁messag	-12.5859
▁polygeni	-12.5859
woosh	-12.586
octor	-12.586
otten	-12.5861
▁deni	-12.5862
artial	-12.5862
uplex	-12.5862
alse	-12.5862
you	-12.5865
atitude	-12.5866
▁whitin	-12.5867
ragic	-12.5869
stopped	-12.5869
hul	-12.5869
righten	-12.5871
rasp	-12.5872
olygeni	-12.5873
▁exvehl	-12.5873
antle	-12.5879
▁tän	-12.5881
nna	-12.5885
ranny	-12.5887
arker	-12.5887
▁steel	-12.5889
raken	-12.5891
roduct	-12.5891
ooler	-12.5892
uuuuu	-12.5892
▁aş	-12.5894
leveled	-12.5894
oir	-12.5895
ydro	-12.5901
ersus	-12.5903
rease	-12.5903
▁sens	-12.5904
▁would	-12.5904
▁uptil	-12.5907
iew	-12.5908
lubber	-12.5908
anch	-12.591
ltra	-12.5914
varend	-12.5914
gression	-12.5914
▁match	-12.5915
uppy	-12.5916
pice	-12.5917
noted	-12.5918
raggadocio	-12.592
etect	-12.5921
wizz	-12.5922
eso	-12.5923
uble	-12.5924
▁ringside	-12.5927
eigh	-12.5928
alph	-12.5929
▁koska	-12.5931
ördel	-12.5931
paid	-12.5932
▁dimag	-12.5934
ailor	-12.5935
▁jail	-12.5937
▁shad	-12.5939
recede	-12.5941
elate	-12.5942
▁perform	-12.5943
▁sneak	-12.5945
auka	-12.5945
olid	-12.5946
orrespond	-12.5946
election	-12.595
sj	-12.5951
ilot	-12.5951
xpose	-12.5951
woop	-12.5952
etsu	-12.5952
▁prett	-12.5953
lein	-12.5956
▁gain	-12.5957
arriage	-12.5963
▁waaaaa	-12.5966
▁roar	-12.5967
ibb	-12.5968
riginal	-12.5977
aja	-12.5977
adical	-12.5978
iso	-12.5982
kate	-12.5986
▁hydro	-12.5986
warden	-12.5994
linging	-12.6
mfat	-12.6003
ginate	-12.6007
▁beta	-12.6009
▁surg	-12.601
▁bubble	-12.601
bach	-12.6011
ttande	-12.6015
nstage	-12.6015
▁self	-12.6016
untl	-12.6016
▁itk	-12.6017
ervice	-12.6017
ello	-12.6019
based	-12.6028
estation	-12.6029
prog	-12.6033
baout	-12.6036
alder	-12.6038
▁inform	-12.6038
music	-12.604
rify	-12.6041
great	-12.6041
iddi	-12.6044
▁kiiiind	-12.605
ronic	-12.6051
revent	-12.6056
engage	-12.6058
▁kimura	-12.6058
wich	-12.6059
etty	-12.606
▁surviv	-12.6066
nsoc	-12.6068
entence	-12.6072
reek	-12.6074
lik	-12.6075
estruct	-12.6077
ilation	-12.6081
liment	-12.6084
olle	-12.6086
unlock	-12.6086
ecord	-12.6089
whip	-12.609
swell	-12.6096
ircle	-12.6098
iquid	-12.6101
werve	-12.6103
founded	-12.6103
onfig	-12.6103
▁fumble	-12.6104
aughter	-12.6104
aternity	-12.6108
rapple	-12.6108
ortion	-12.6109
irlw	-12.6111
▁owar	-12.6114
vowed	-12.6117
ickness	-12.6117
е	-12.6117
orc	-12.6118
omân	-12.6118
waddle	-12.6121
odel	-12.6121
ignal	-12.6123
gian	-12.6125
epress	-12.6126
loy	-12.6126
istrict	-12.6128
▁chuckle	-12.6128
▁overlo	-12.6132
▁mist	-12.6132
lunder	-12.6134
ulle	-12.6136
▁alooo	-12.6137
▁sped	-12.614
lender	-12.6142
egit	-12.6144
gnore	-12.6149
▁beach	-12.6149
chol	-12.6149
eside	-12.6151
ached	-12.6153
romp	-12.6153
oooove	-12.6161
entral	-12.6162
ubscribe	-12.6162
eagle	-12.6163
litch	-12.6165
region	-12.6168
mmunity	-12.6169
ttach	-12.6171
hrist	-12.6174
nstal	-12.6177
urry	-12.6178
icking	-12.6179
igan	-12.6181
onvert	-12.6184
sque	-12.6188
efund	-12.6189
erium	-12.619
▁respect	-12.6191
ights	-12.6196
tereo	-12.6198
▁stud	-12.6199
irm	-12.62
uddy	-12.6201
tride	-12.6202
isher	-12.6206
fried	-12.6207
vg	-12.6207
reath	-12.6209
tomize	-12.621
▁kött	-12.6212
▁slack	-12.6215
onger	-12.6216
erform	-12.6217
llege	-12.6219
ppoint	-12.6219
odde	-12.622
jal	-12.6224
orian	-12.6226
▁gall	-12.6229
atent	-12.6231
escue	-12.6232
hyme	-12.6232
▁adventure	-12.6233
▁felt	-12.6236
egulation	-12.6242
▁magnet	-12.6246
tested	-12.6246
stimate	-12.6251
renade	-12.6255
▁whisper	-12.6256
hrase	-12.6257
ansoc	-12.6265
ollapse	-12.6268
ssign	-12.6269
roy	-12.6278
▁sank	-12.6278
wx	-12.628
spic	-12.6285
▁bragg	-12.6286
need	-12.6293
quire	-12.6296
uard	-12.6298
moral	-12.6298
hould	-12.6298
▁drink	-12.6301
eague	-12.6307
omination	-12.6313
▁geocentrism	-12.6314
mploy	-12.6316
nfluence	-12.6318
▁suggest	-12.6319
▁aerobrak	-12.6319
▁smell	-12.6321
ewer	-12.6322
escribe	-12.6326
jection	-12.6327
olver	-12.6328
icc	-12.6329
sx	-12.6331
lectro	-12.6335
vz	-12.6335
cratch	-12.6335
hisper	-12.6337
omitte	-12.6338
legal	-12.6341
egen	-12.6343
cute	-12.6346
arga	-12.6347
eocentrism	-12.6347
pair	-12.6353
▁should	-12.6358
erobrak	-12.636
shopped	-12.636
admin	-12.6362
▁intern	-12.6366
▁object	-12.6366
thology	-12.6366
ecur	-12.6368
byss	-12.6368
oncert	-12.637
rah	-12.6372
ecede	-12.6374
uad	-12.6375
elegate	-12.6376
lamor	-12.6379
keski	-12.6381
easing	-12.6386
wanted	-12.6396
mond	-12.64
▁froze	-12.6401
▁comment	-12.6403
igma	-12.6407
omic	-12.6408
▁correspond	-12.6409
vim	-12.6412
arte	-12.6417
inster	-12.6419
▁breach	-12.6419
arent	-12.6419
ansk	-12.642
ommon	-12.6422
dna	-12.6422
hale	-12.6425
issent	-12.6427
jutsu	-12.6428
zie	-12.6429
family	-12.6432
izze	-12.6438
iiiii	-12.644
▁breez	-12.6446
efeat	-12.6447
alsho	-12.6454
typed	-12.6454
▁thath	-12.6457
wound	-12.6458
▁stared	-12.6458
▁sniff	-12.646
▁impos	-12.646
asser	-12.6464
upport	-12.6466
pto	-12.6467
polis	-12.6467
prime	-12.647
aked	-12.6472
▁creepe	-12.6474
ocalize	-12.6476
▁chugg	-12.6476
hopped	-12.6477
hoped	-12.6477
tudy	-12.6479
nsult	-12.6481
verbal	-12.6483
hrive	-12.6483
attended	-12.6485
ickey	-12.6487
oooooooooooo	-12.6493
nark	-12.6493
evia	-12.6497
omany	-12.6497
▁döm	-12.6498
rupt	-12.6498
▁tear	-12.65
ccomplish	-12.6501
oaf	-12.6501
rseha	-12.6505
vraag	-12.6507
omato	-12.6508
articipate	-12.6509
anzi	-12.6511
nz	-12.6515
enny	-12.6515
ffirm	-12.6516
epart	-12.6518
▁chain	-12.652
mitted	-12.6523
▁beats	-12.6524
entered	-12.6524
▁deep	-12.6524
iscipline	-12.6524
evolve	-12.6527
iary	-12.6529
▁insult	-12.653
▁fact	-12.6531
jax	-12.6531
easant	-12.6533
verride	-12.6533
xxy	-12.6534
arv	-12.6534
yder	-12.6538
odder	-12.6542
nfest	-12.6547
▁fem	-12.6553
lounge	-12.6557
oem	-12.6561
omance	-12.6562
ostum	-12.6562
alte	-12.6564
arrant	-12.6566
ontract	-12.6568
uggest	-12.657
tria	-12.6583
▁creat	-12.6587
rammed	-12.659
▁accros	-12.659
radicate	-12.6592
ritter	-12.6593
ampaign	-12.6596
odded	-12.6597
troop	-12.66
kaa	-12.6604
carn	-12.6605
message	-12.6607
damn	-12.6608
edium	-12.6609
echt	-12.6615
usta	-12.6618
uggle	-12.6618
rover	-12.6619
hower	-12.6623
arder	-12.6623
urvey	-12.6623
oogie	-12.6626
▁downvot	-12.6627
putter	-12.6629
odcast	-12.663
pip	-12.6631
venfo	-12.6632
weave	-12.6634
anci	-12.6635
ussle	-12.664
prep	-12.6643
ezz	-12.6645
igital	-12.6646
yday	-12.6652
uthor	-12.6652
utation	-12.6654
▁moder	-12.6654
plain	-12.6656
nvision	-12.6656
▁wander	-12.6656
▁gaste	-12.6668
▁beast	-12.6669
alon	-12.6671
hose	-12.6671
▁bluf	-12.6673
juice	-12.6675
mmo	-12.6677
ruit	-12.6679
ustom	-12.668
wang	-12.6682
bably	-12.6682
iture	-12.6684
iiiiin	-12.6686
laster	-12.6689
isect	-12.669
igge	-12.6691
unner	-12.6692
coop	-12.6693
omma	-12.6694
lover	-12.6695
▁entertain	-12.6697
limate	-12.6698
warded	-12.6698
▁tho	-12.6698
▁derimo	-12.6699
▁wiht	-12.6699
igment	-12.6699
eeked	-12.6703
eject	-12.6707
xpression	-12.6708
ituation	-12.6709
ción	-12.671
ullshit	-12.6714
ontext	-12.6714
erver	-12.6715
ppie	-12.6715
ystem	-12.6716
▁batter	-12.6716
rigger	-12.6722
▁averag	-12.6725
▁snake	-12.6728
asn	-12.6732
urate	-12.6733
adness	-12.6734
▁phon	-12.6736
nbox	-12.6737
lsho	-12.6745
xen	-12.6746
udit	-12.6747
▁sang	-12.6749
▁shatter	-12.6749
▁original	-12.675
tash	-12.6751
headed	-12.6753
▁snort	-12.6755
uggy	-12.6756
redict	-12.6758
tally	-12.6759
centric	-12.6762
icken	-12.6763
▁ocean	-12.6767
agu	-12.6767
▁correct	-12.6767
ific	-12.6773
▁giggl	-12.6773
epot	-12.6773
hurch	-12.678
ssue	-12.6781
nfer	-12.6781
histle	-12.6784
lacken	-12.6784
regen	-12.6787
▁struggl	-12.6791
opter	-12.6792
idnap	-12.6792
nity	-12.6801
wii	-12.6802
▁glance	-12.6807
▁bled	-12.6815
audit	-12.682
sworn	-12.682
lager	-12.6821
ntertain	-12.6821
orsake	-12.6829
tac	-12.683
urism	-12.6831
onge	-12.6836
▁learn	-12.684
rilled	-12.684
laden	-12.6843
cean	-12.6846
oonie	-12.685
liche	-12.6851
ighting	-12.6862
ellar	-12.6862
niff	-12.6863
urgle	-12.6873
leigh	-12.6874
eneral	-12.6874
heter	-12.6876
patter	-12.6879
atk	-12.6882
xid	-12.6882
ontrib	-12.6886
▁consult	-12.6887
▁texted	-12.6889
onization	-12.6892
▁chok	-12.6894
pawni	-12.6897
laughter	-12.6897
aite	-12.6898
artie	-12.6899
abu	-12.6901
▁cancel	-12.6901
etract	-12.6904
imply	-12.6904
nimation	-12.6904
ution	-12.6908
▁interes	-12.6915
fication	-12.6915
esper	-12.6915
▁glow	-12.6915
robb	-12.6916
▁fors	-12.6916
▁jobb	-12.6919
▁blaz	-12.6921
explained	-12.6922
urpose	-12.6923
xcel	-12.6925
penny	-12.6925
rader	-12.6931
llbei	-12.6931
▁skat	-12.6933
ourney	-12.6938
ographic	-12.6938
vercom	-12.6941
pecial	-12.6941
rgy	-12.6942
elong	-12.6947
ylon	-12.6951
diff	-12.6951
osion	-12.6954
echnical	-12.6954
eleive	-12.6955
oji	-12.6957
▁signal	-12.6958
article	-12.6959
aren	-12.696
treak	-12.6961
▁drill	-12.6962
roke	-12.6964
ecular	-12.6966
erder	-12.6968
itler	-12.6969
aith	-12.6971
efocus	-12.6977
lipped	-12.6978
ilde	-12.6979
aintain	-12.6979
dnt	-12.6979
lanket	-12.6983
centre	-12.6984
ripe	-12.6986
first	-12.6986
▁fuel	-12.6987
urvive	-12.6987
▁circle	-12.6993
deliver	-12.6993
enko	-12.6994
cial	-12.6996
realised	-12.6999
zelfde	-12.7
ntend	-12.7001
rapped	-12.7003
scribed	-12.7003
▁bath	-12.7003
reported	-12.7005
upe	-12.7006
stablish	-12.7009
ontra	-12.7011
icious	-12.7011
ippin	-12.7015
onitor	-12.7021
▁seal	-12.7026
▁mirror	-12.7029
labe	-12.7034
onsult	-12.7035
▁riot	-12.7038
itan	-12.7038
roove	-12.7039
oresee	-12.7041
rx	-12.7044
▁interpret	-12.7047
repair	-12.7047
▁bench	-12.7047
mounted	-12.7048
ouce	-12.7048
odor	-12.705
actual	-12.7053
▁corrupt	-12.7055
utz	-12.7055
▁accus	-12.7058
elation	-12.7059
raze	-12.7059
hw	-12.7059
answered	-12.7061
adas	-12.7061
ewb	-12.7061
ssert	-12.7063
▁foam	-12.7065
ompete	-12.7065
owe	-12.7066
▁smelt	-12.7072
ackpack	-12.7075
visited	-12.7075
rempt	-12.7076
node	-12.7077
located	-12.7077
oused	-12.7079
idecha	-12.7085
incer	-12.7089
formed	-12.7089
shaw	-12.7089
▁chased	-12.709
▁accident	-12.7091
egret	-12.7103
egan	-12.7106
treated	-12.7107
▁worm	-12.7107
lexi	-12.7109
▁palm	-12.7112
uration	-12.7112
escaped	-12.7114
ctuall	-12.7115
uze	-12.7116
als	-12.7118
edication	-12.7121
▁alleged	-12.7124
rolle	-12.7126
ieten	-12.713
elter	-12.7133
ortal	-12.7142
ducate	-12.7142
uarter	-12.7145
▁thumb	-12.7145
wei	-12.7153
ealt	-12.7158
enerate	-12.7158
▁digit	-12.716
acking	-12.716
pitch	-12.7167
riple	-12.7168
ivil	-12.7168
sle	-12.7169
ealer	-12.7171
sexual	-12.7182
▁poison	-12.7185
addled	-12.7186
ensure	-12.7188
▁plead	-12.7191
▁pour	-12.7193
▁period	-12.7193
eaper	-12.7196
▁duel	-12.7199
fury	-12.72
hackle	-12.7202
query	-12.7203
▁hijack	-12.7209
worded	-12.7216
uspend	-12.7218
eplace	-12.7221
amago	-12.7226
▁refresh	-12.7226
olka	-12.7227
rä	-12.7227
▁dragg	-12.7227
llusion	-12.7228
traction	-12.7231
ontent	-12.7232
▁plum	-12.7234
awe	-12.7243
aline	-12.7244
rompe	-12.7244
icture	-12.725
span	-12.725
▁mold	-12.7251
▁cunt	-12.7251
arble	-12.7252
efault	-12.7252
abbit	-12.7253
ccident	-12.7257
arve	-12.7258
lder	-12.7261
egon	-12.7262
nova	-12.7263
theon	-12.7264
▁veg	-12.7268
indle	-12.727
knowledge	-12.727
▁wad	-12.7272
lagged	-12.7276
alculate	-12.7277
kra	-12.7278
enounce	-12.7278
illionaire	-12.7285
▁sugar	-12.7288
usher	-12.7289
presse	-12.7291
▁interfer	-12.7291
ecision	-12.7295
uite	-12.73
▁polic	-12.73
orbit	-12.7304
abot	-12.7307
▁suffer	-12.7309
isguise	-12.7309
▁shone	-12.731
aving	-12.731
ancia	-12.7312
▁null	-12.7313
traighten	-12.7314
oupe	-12.7318
ogot	-12.7318
aq	-12.732
▁budge	-12.7321
▁copi	-12.7322
▁candi	-12.7333
xpire	-12.7334
arbor	-12.7334
▁freed	-12.7334
arz	-12.7343
▁sharp	-12.7344
ican	-12.7345
ncrease	-12.7345
uter	-12.7345
ätta	-12.7347
oci	-12.735
▁bribe	-12.7351
anning	-12.7351
otato	-12.7351
▁contract	-12.7354
▁counsel	-12.7355
sql	-12.7362
ackpedal	-12.7364
▁straighten	-12.7366
▁ship	-12.7368
occe	-12.7368
isconnect	-12.7368
ettig	-12.737
olster	-12.737
▁regain	-12.7371
▁invest	-12.7373
eneration	-12.7373
nch	-12.7374
poligize	-12.7375
azing	-12.7375
▁question	-12.7377
ottle	-12.7377
hird	-12.7379
▁backpedal	-12.7379
ará	-12.7382
novation	-12.7384
hunk	-12.7385
udda	-12.7387
napp	-12.7391
nslave	-12.7395
harge	-12.7398
heed	-12.7401
eating	-12.7401
▁reli	-12.7408
reffer	-12.7409
▁junk	-12.7415
ecap	-12.7416
atabase	-12.7416
liked	-12.7417
▁magic	-12.742
orage	-12.7425
stead	-12.7427
hana	-12.7427
honest	-12.7428
versleep	-12.7428
eader	-12.743
rrest	-12.7436
ject	-12.7436
abber	-12.744
▁meant	-12.7448
ucat	-12.7448
econstruct	-12.7448
yph	-12.7449
client	-12.745
▁sail	-12.7451
hotograph	-12.7453
▁quarter	-12.7453
aptain	-12.7453
estine	-12.7455
ndt	-12.7456
ecession	-12.7457
spend	-12.7459
oison	-12.7462
espawn	-12.7463
pixel	-12.7465
▁spill	-12.7466
vape	-12.7466
lour	-12.7468
oen	-12.7469
▁gift	-12.7471
▁commun	-12.7472
▁spar	-12.7472
hande	-12.7477
unden	-12.7479
lection	-12.7482
fied	-12.7484
inium	-12.7485
acist	-12.7487
cheme	-12.7491
iagnose	-12.7494
haft	-12.7496
ollect	-12.7499
▁function	-12.7501
▁author	-12.7503
irst	-12.7503
▁oppress	-12.7505
ngle	-12.7505
realistic	-12.7507
▁progress	-12.7515
aika	-12.7516
esco	-12.7517
romise	-12.7518
irror	-12.7521
▁labor	-12.7521
ezen	-12.7528
ruption	-12.7528
olio	-12.7529
rompt	-12.7531
urban	-12.7533
euse	-12.7536
curacy	-12.7537
▁bowl	-12.754
▁dump	-12.7542
cene	-12.7545
faced	-12.7548
acious	-12.7554
orgive	-12.7554
appel	-12.7559
eux	-12.7561
rille	-12.7569
isclose	-12.7572
wist	-12.7572
ehold	-12.7573
ovie	-12.7573
emember	-12.7581
onie	-12.7585
arley	-12.7591
▁balloon	-12.7592
▁inst	-12.7596
ozen	-12.7599
waken	-12.7601
ssent	-12.7603
ontain	-12.7607
rapper	-12.7609
evision	-12.7614
wired	-12.7614
otate	-12.7614
ilf	-12.7616
▁dust	-12.7619
vw	-12.7625
emit	-12.7629
espect	-12.7631
▁twitch	-12.7635
ontest	-12.7636
ncredib	-12.7637
alate	-12.7638
ops	-12.7641
raff	-12.7643
▁conform	-12.7643
▁devil	-12.7643
▁drank	-12.7644
ounsel	-12.7644
▁snap	-12.7652
weather	-12.7653
abba	-12.7655
erment	-12.7655
▁swap	-12.7658
ntellectual	-12.7659
eset	-12.766
equest	-12.7662
ubbe	-12.7665
eeeee	-12.7665
elson	-12.7666
▁blink	-12.7666
ractice	-12.7668
orke	-12.7668
idio	-12.7671
coache	-12.7671
rix	-12.7671
▁brave	-12.7673
isin	-12.7673
prise	-12.7674
▁photograph	-12.7674
ristle	-12.7678
redditor	-12.7678
fford	-12.7678
șt	-12.7679
index	-12.7681
ammo	-12.7683
imble	-12.7686
oodwork	-12.7687
spent	-12.7688
anhandle	-12.7692
ammon	-12.7693
boner	-12.7693
xit	-12.7695
einstall	-12.7701
iteral	-12.7701
uality	-12.7703
lunge	-12.7705
andar	-12.7707
▁cruise	-12.771
esha	-12.7711
ogging	-12.7712
nett	-12.7714
nie	-12.7714
appeare	-12.7715
oaster	-12.7715
trate	-12.7716
ún	-12.772
▁wir	-12.7728
haring	-12.7728
estroy	-12.7732
addit	-12.7734
▁gambl	-12.7734
alken	-12.7736
utie	-12.7736
uitar	-12.7736
urine	-12.7736
▁infer	-12.7738
maiden	-12.7739
▁achiev	-12.7741
verflow	-12.7745
xclaim	-12.7746
uuuuuck	-12.7747
▁content	-12.7751
fresh	-12.7751
egue	-12.7752
▁hugg	-12.7752
uiz	-12.7755
oten	-12.7757
▁cod	-12.776
▁dismiss	-12.7761
runt	-12.7764
eckle	-12.777
ncrypt	-12.7771
▁subsid	-12.7772
nowball	-12.7773
itted	-12.7774
rior	-12.7774
eliever	-12.7777
rubber	-12.778
hunke	-12.7782
ason	-12.7783
▁absorb	-12.7784
quint	-12.7786
izza	-12.7787
▁abbou	-12.7788
agin	-12.7791
mature	-12.7794
roman	-12.7794
quare	-12.7794
leaned	-12.7794
tructure	-12.7797
rucif	-12.7799
cript	-12.7801
▁scrap	-12.7802
bending	-12.7803
▁puff	-12.7804
aps	-12.7806
roid	-12.781
alidate	-12.7819
romantic	-12.7819
imón	-12.782
oldier	-12.7827
touched	-12.783
ogi	-12.7831
uden	-12.7831
unde	-12.7834
mooth	-12.7836
magine	-12.7839
ć	-12.7839
▁tough	-12.7843
rifle	-12.7849
argin	-12.7851
leather	-12.7852
bandon	-12.7855
itcoin	-12.7857
hush	-12.7861
crum	-12.7862
lse	-12.7863
logge	-12.7867
ivot	-12.7869
▁waved	-12.787
oooosh	-12.7872
mmigrate	-12.7875
kov	-12.7876
okai	-12.788
refere	-12.7885
mok	-12.7885
▁chrom	-12.7886
bility	-12.7886
▁follow	-12.7888
rundle	-12.7893
vl	-12.7893
ppene	-12.7895
esignate	-12.7896
▁cling	-12.7897
▁combat	-12.7899
erceive	-12.79
zero	-12.7901
lutch	-12.7902
▁tweet	-12.7905
nflation	-12.7905
ounty	-12.7908
vation	-12.7913
ivo	-12.7914
lench	-12.7914
▁fool	-12.7917
esponse	-12.7922
xploit	-12.7923
▁found	-12.7924
rrange	-12.7925
certifie	-12.7929
oki	-12.793
dvertise	-12.793
efence	-12.7933
plice	-12.7937
praised	-12.7939
llie	-12.7939
▁bought	-12.794
bsorb	-12.7946
heft	-12.7947
tyle	-12.7947
evoke	-12.7951
▁exclaim	-12.7953
▁sext	-12.7954
mplicit	-12.7956
anon	-12.7957
urple	-12.7957
thin	-12.7959
encil	-12.796
built	-12.7962
anoe	-12.7963
▁remain	-12.7964
▁coincid	-12.7967
vade	-12.7971
acili	-12.7976
▁snack	-12.7976
ennis	-12.7977
xplore	-12.7979
upply	-12.7979
▁flesh	-12.7982
pider	-12.7983
dentify	-12.7984
egrade	-12.7986
ehydrate	-12.7988
arner	-12.7988
nterrupt	-12.799
sof	-12.7991
enet	-12.7993
lte	-12.7993
raven	-12.7997
niversal	-12.8003
nigger	-12.8003
aider	-12.8005
istinguish	-12.8005
six	-12.8006
emove	-12.8009
▁rocket	-12.801
onest	-12.8011
tire	-12.8012
ipster	-12.8013
boro	-12.8016
nhabit	-12.8016
nore	-12.8018
▁belong	-12.802
▁flam	-12.802
itrus	-12.8021
ulous	-12.8022
▁sent	-12.8022
▁depart	-12.8022
▁pwn	-12.8023
▁destroy	-12.8024
ranium	-12.8026
nalysis	-12.8026
umbly	-12.8027
▁hail	-12.8027
isplace	-12.8027
hoke	-12.8027
▁mull	-12.8028
imic	-12.8029
atheism	-12.8029
▁tak	-12.803
iven	-12.8031
eeeeeee	-12.8034
flutter	-12.8036
▁twin	-12.804
mble	-12.8043
runch	-12.8043
ithi	-12.8045
▁vibrat	-12.8047
aub	-12.8048
ulminate	-12.8048
▁toss	-12.805
onet	-12.8051
ppeal	-12.8052
kindle	-12.8055
yll	-12.8059
maul	-12.8073
zine	-12.8074
atchet	-12.8075
kirt	-12.8076
thaw	-12.8077
olem	-12.8077
rosper	-12.8078
aboo	-12.808
romance	-12.8082
azor	-12.8084
fuse	-12.8085
nzi	-12.8088
easca	-12.8088
pore	-12.8088
ulf	-12.8091
migrate	-12.8094
ningen	-12.8099
ebs	-12.81
▁transport	-12.8101
ffice	-12.8103
elated	-12.8106
nog	-12.8107
orso	-12.8109
mush	-12.8114
▁medal	-12.8115
▁occ	-12.8115
iana	-12.8118
▁bottom	-12.8124
uxi	-12.8126
eow	-12.8128
ucking	-12.8128
crossed	-12.8138
eference	-12.8142
boxed	-12.8142
ditorial	-12.8142
onvo	-12.8143
romote	-12.8144
▁flak	-12.8147
▁defi	-12.8153
igil	-12.8153
isplay	-12.8154
▁think	-12.8154
urvival	-12.8155
ndum	-12.8158
udder	-12.8159
uji	-12.816
▁smooth	-12.8163
ecent	-12.8165
edding	-12.8165
ressure	-12.8166
iam	-12.8167
parse	-12.817
▁prosper	-12.817
▁practi	-12.8172
crub	-12.8173
orta	-12.8173
number	-12.8175
oule	-12.818
aison	-12.8181
ibs	-12.8183
ência	-12.8183
hrift	-12.8184
lothe	-12.8185
yran	-12.8185
▁rear	-12.8186
osition	-12.8188
▁propos	-12.8189
▁expect	-12.8189
▁fry	-12.8194
▁system	-12.8196
cig	-12.8199
▁pride	-12.8201
▁blur	-12.8202
imulation	-12.8205
abuse	-12.8207
olumn	-12.8207
▁cash	-12.8209
allad	-12.821
nnng	-12.8215
ugment	-12.8215
▁towel	-12.8216
arrot	-12.8217
ivit	-12.8218
xceptional	-12.8222
▁blitz	-12.8224
quant	-12.8225
ellan	-12.8226
uell	-12.8229
pank	-12.823
abby	-12.8231
illusion	-12.8234
potter	-12.8236
owder	-12.8239
▁raced	-12.824
idol	-12.824
ompel	-12.8242
aiko	-12.8242
bvious	-12.8244
cope	-12.8248
uffice	-12.8248
nfo	-12.825
nitiate	-12.8252
nline	-12.8254
enza	-12.8256
cquire	-12.826
logically	-12.8261
onkey	-12.8265
hearted	-12.8265
oooooooo	-12.8266
lost	-12.8267
shroud	-12.8268
earl	-12.8268
reid	-12.8268
awesome	-12.8268
▁gamecha	-12.8272
rok	-12.8273
▁hairpi	-12.8273
nvolve	-12.8273
rakt	-12.8278
addie	-12.828
lasm	-12.828
hrill	-12.8282
turned	-12.8284
escal	-12.8285
ucceed	-12.8288
agnet	-12.829
▁clutch	-12.8291
bob	-12.8292
▁colour	-12.8295
nvent	-12.8295
parat	-12.8296
oodoo	-12.8296
▁differ	-12.83
ccul	-12.8301
ektor	-12.8304
erch	-12.8305
lien	-12.8305
crete	-12.8306
ombi	-12.8311
orning	-12.8312
lister	-12.8313
▁preorder	-12.8313
osc	-12.8313
▁pump	-12.8316
▁chil	-12.8317
▁sidecha	-12.8317
teak	-12.8317
eckon	-12.8318
quirt	-12.832
otg	-12.832
atum	-12.8321
preciation	-12.8323
▁succeed	-12.8328
assionate	-12.8329
abbe	-12.8331
mbed	-12.8333
reight	-12.8333
ogan	-12.8334
▁bare	-12.8335
ommune	-12.8335
▁initial	-12.834
coff	-12.8341
eductive	-12.8342
ouple	-12.8343
ismiss	-12.8343
ifs	-12.8345
▁deter	-12.8345
osit	-12.8346
osalt	-12.8347
▁growl	-12.8348
hread	-12.8348
▁snowball	-12.8351
ondo	-12.8351
▁dirt	-12.8354
ormat	-12.8358
owler	-12.8359
▁loan	-12.8362
azo	-12.8364
ync	-12.8366
ccour	-12.8367
pook	-12.8368
roon	-12.8372
▁faint	-12.8373
▁assert	-12.8376
oiter	-12.8378
▁iwas	-12.8382
ocain	-12.8382
rospect	-12.8382
reinstall	-12.8385
epair	-12.8387
olv	-12.8392
orus	-12.8395
spira	-12.8396
hey	-12.84
experience	-12.8402
when	-12.8403
▁colon	-12.8404
ombine	-12.8406
aturation	-12.8407
orment	-12.8412
▁revers	-12.8413
udding	-12.8415
▁winn	-12.8417
▁withdraw	-12.8417
▁wail	-12.8418
latinum	-12.8419
pressor	-12.8419
ivvy	-12.8422
realized	-12.8424
logger	-12.8431
ndertake	-12.8433
sych	-12.8434
unger	-12.8434
cache	-12.8434
joke	-12.8437
▁threat	-12.8439
ecen	-12.8439
altz	-12.8439
▁dared	-12.8439
▁spamm	-12.8442
ecognize	-12.8444
▁intercept	-12.8447
urmu	-12.8447
eclaim	-12.8448
▁gaz	-12.8448
hesis	-12.8452
▁honor	-12.8453
diction	-12.8456
alsa	-12.8457
lout	-12.8462
aniac	-12.8471
emean	-12.8472
▁lust	-12.8474
earned	-12.8478
appiness	-12.8478
lige	-12.8478
▁overflow	-12.8478
arass	-12.8479
vido	-12.848
ibro	-12.8483
▁appeal	-12.8484
▁small	-12.8484
value	-12.8484
cale	-12.8485
atty	-12.8486
wach	-12.8487
impe	-12.8488
ermin	-12.8488
▁spew	-12.8489
hok	-12.8489
endor	-12.8489
atos	-12.849
▁bale	-12.8492
▁oblig	-12.8495
alion	-12.8499
erated	-12.8501
adam	-12.8501
esin	-12.8502
brook	-12.8504
yke	-12.8504
opular	-12.8505
▁craz	-12.8505
ogge	-12.8507
ê	-12.8508
▁dorm	-12.8515
▁backpack	-12.8515
mpire	-12.8516
olden	-12.8517
evour	-12.8522
epopulate	-12.8523
esire	-12.8528
topic	-12.8528
doubted	-12.8534
rood	-12.8536
lyph	-12.8543
nvy	-12.8544
ogie	-12.8545
apport	-12.855
uzu	-12.8553
orker	-12.8553
▁accept	-12.8555
cicle	-12.8558
ighlight	-12.8558
▁loose	-12.8558
rganise	-12.856
poll	-12.8562
ufor	-12.8563
jelly	-12.8565
▁bitcoin	-12.8567
emake	-12.8569
christen	-12.8569
luid	-12.857
leeve	-12.8571
urnish	-12.8572
imber	-12.8572
▁ocorre	-12.8573
ountry	-12.8574
enger	-12.8574
acho	-12.8575
couse	-12.8576
rofit	-12.8578
▁disrupt	-12.8585
dated	-12.8585
easure	-12.8585
mbrace	-12.8586
▁slaughter	-12.8586
roach	-12.8589
anja	-12.8589
conference	-12.8593
reacted	-12.8596
acus	-12.8597
argon	-12.8598
reem	-12.8598
▁opin	-12.86
tempt	-12.8604
appointed	-12.8604
remel	-12.8606
llegal	-12.8606
anage	-12.8607
oupon	-12.8614
▁novel	-12.8614
▁proper	-12.8614
edged	-12.8615
▁embrace	-12.8615
eturn	-12.8616
ybro	-12.8619
ð	-12.8619
orra	-12.8619
gis	-12.8619
enchant	-12.862
▁spank	-12.8623
leck	-12.8624
nherit	-12.8625
regulated	-12.8627
hreaten	-12.8628
▁laser	-12.863
einforce	-12.8631
taff	-12.8631
emonstrate	-12.8633
bha	-12.8639
diagnosed	-12.864
traight	-12.864
▁charm	-12.8641
olum	-12.8642
▁slurp	-12.8644
ebound	-12.865
ranch	-12.8651
eature	-12.8652
eboard	-12.8652
boiled	-12.8654
aber	-12.8654
▁sobb	-12.8659
ivid	-12.866
angu	-12.866
uage	-12.8664
▁bold	-12.8666
lanch	-12.8669
orum	-12.8671
icne	-12.8673
ncounter	-12.8674
▁morph	-12.8675
tj	-12.8679
ebadge	-12.8681
▁cano	-12.8685
llow	-12.8686
rewer	-12.8686
nsue	-12.8687
mj	-12.8687
egard	-12.8689
isle	-12.869
pinne	-12.8697
ersion	-12.8697
leve	-12.8698
reserve	-12.8699
mpeach	-12.8699
alent	-12.8701
arvest	-12.8701
lease	-12.8703
ohn	-12.8706
pdate	-12.8709
oning	-12.8711
ylla	-12.8718
ideo	-12.8718
▁doubl	-12.8718
orrid	-12.8719
inz	-12.872
roff	-12.8721
▁grill	-12.8721
static	-12.8723
▁thrift	-12.8724
odern	-12.8726
coment	-12.8729
istake	-12.8731
croll	-12.8732
partment	-12.8732
alute	-12.8734
onize	-12.8736
arbonate	-12.8737
ezo	-12.8739
▁quiete	-12.8748
ircumcise	-12.8748
ignif	-12.8754
arginal	-12.8759
maug	-12.8759
shifted	-12.876
xchange	-12.876
tilize	-12.876
cquit	-12.8766
lobber	-12.8766
▁shitt	-12.8766
ccuse	-12.8767
rouse	-12.8767
strange	-12.877
minent	-12.8771
andid	-12.8772
onker	-12.8773
scent	-12.8774
knot	-12.8776
ougth	-12.8777
▁frank	-12.8778
placed	-12.8779
orner	-12.878
vos	-12.8781
nacle	-12.8783
expert	-12.8785
iolent	-12.8788
uir	-12.8791
droid	-12.8792
ogic	-12.8796
emor	-12.8798
hade	-12.88
ootleg	-12.8803
surp	-12.8804
rapist	-12.8804
ynthesis	-12.8804
nergize	-12.8805
ür	-12.8805
peck	-12.8806
▁hulk	-12.8808
spie	-12.8813
idar	-12.8814
mpi	-12.8815
ocu	-12.8816
itie	-12.8817
eparate	-12.8818
kane	-12.882
icus	-12.8821
sweeten	-12.8827
crawler	-12.8829
ompromise	-12.883
inister	-12.8831
▁mort	-12.8837
ecommend	-12.8837
ffective	-12.8838
known	-12.8839
inut	-12.8842
isco	-12.8843
▁stack	-12.8843
▁replace	-12.8845
▁confess	-12.8846
oward	-12.8847
hesitat	-12.8848
ssure	-12.8849
created	-12.8852
launcher	-12.8853
tinker	-12.8854
linke	-12.8854
onfess	-12.8855
▁letter	-12.8855
twine	-12.8858
kirmish	-12.8859
▁comed	-12.8861
ecruit	-12.8861
▁separat	-12.8861
djust	-12.8862
hroom	-12.8863
while	-12.8863
ayak	-12.8864
nak	-12.8865
designed	-12.8866
evice	-12.8868
derr	-12.8869
ngri	-12.8869
umen	-12.8869
otty	-12.887
▁puzzle	-12.8873
perf	-12.8874
mpl	-12.8874
erious	-12.8874
nook	-12.8875
irus	-12.8878
▁oscillat	-12.888
been	-12.888
acs	-12.888
ogh	-12.8881
tiff	-12.8884
▁smoke	-12.8887
ometh	-12.8888
lurt	-12.8889
opic	-12.8889
aithful	-12.8892
istress	-12.8892
illä	-12.8893
alue	-12.8894
roz	-12.8894
igure	-12.8897
ât	-12.8899
▁bond	-12.8901
ssssss	-12.8901
▁confus	-12.8905
▁beam	-12.8905
▁electro	-12.8911
eedless	-12.8913
agar	-12.8914
▁launch	-12.892
▁spawn	-12.8921
etrol	-12.8925
▁encounter	-12.8926
spes	-12.8932
▁enslave	-12.8934
orry	-12.8935
isband	-12.8935
riest	-12.8937
vidence	-12.8937
▁marathon	-12.8937
ymptom	-12.8942
ionize	-12.8944
rgent	-12.8947
igrate	-12.8947
lube	-12.895
▁bait	-12.8956
uess	-12.8956
urrent	-12.8957
ransport	-12.8957
iant	-12.8957
eent	-12.8962
slander	-12.8967
▁disband	-12.8971
ombard	-12.8973
rita	-12.8974
ubbie	-12.8975
atastroph	-12.8976
▁paw	-12.8977
issapoint	-12.898
▁bump	-12.8984
efinet	-12.8987
gnite	-12.8988
trut	-12.8988
illar	-12.899
rool	-12.8993
▁dig	-12.8995
rection	-12.8995
ivere	-12.8996
ncase	-12.8997
apitalize	-12.8997
title	-12.9
▁cotton	-12.9011
▁travell	-12.9012
nsight	-12.9013
adent	-12.9016
rganize	-12.9016
▁swerved	-12.9017
ailing	-12.9018
polar	-12.9022
iable	-12.9026
articulate	-12.9027
ás	-12.9029
unish	-12.903
rounded	-12.9033
social	-12.9034
onga	-12.9036
inary	-12.9037
hugger	-12.9038
env	-12.9038
iji	-12.904
▁seperat	-12.9041
enka	-12.9041
pap	-12.9043
▁flar	-12.9046
raffic	-12.9049
spire	-12.9051
proved	-12.9051
embo	-12.9052
laver	-12.9057
verthrow	-12.9058
▁relativ	-12.9059
▁equalis	-12.9062
rovision	-12.9062
▁inherit	-12.9065
ccasion	-12.9073
rolly	-12.9073
quid	-12.9078
cursed	-12.9078
▁corner	-12.9079
eked	-12.908
nternational	-12.9082
▁perfec	-12.9084
uide	-12.9085
called	-12.9085
ladder	-12.9086
ompress	-12.9086
▁glob	-12.9092
ddon	-12.9094
nspire	-12.9095
ourt	-12.9095
▁defin	-12.9096
▁hadn	-12.91
▁scout	-12.9102
omestic	-12.9105
anto	-12.9105
▁church	-12.9106
ebuff	-12.9108
▁captain	-12.911
ifferent	-12.911
bps	-12.9112
evert	-12.9112
esion	-12.9117
orally	-12.9121
modded	-12.9121
▁loaf	-12.9122
piritual	-12.9122
noint	-12.9124
tract	-12.9124
tribute	-12.9124
steroid	-12.9125
▁grant	-12.9126
ursuit	-12.9127
labour	-12.9127
evolt	-12.9129
▁recomm	-12.9131
rama	-12.9137
oooooove	-12.9138
harma	-12.9139
▁jell	-12.9142
rangle	-12.9145
ooooooooo	-12.9145
ackflip	-12.9145
▁omni	-12.9145
tole	-12.9149
named	-12.9149
▁email	-12.9155
▁vanish	-12.9157
cree	-12.9159
indicate	-12.916
gogo	-12.916
▁roam	-12.9161
tubborn	-12.9164
▁glori	-12.9164
xperiment	-12.9164
lizard	-12.9169
editate	-12.9169
▁individual	-12.9171
ulsa	-12.9173
rocked	-12.9174
leek	-12.9174
antha	-12.9175
avon	-12.9176
icidal	-12.9177
onform	-12.9179
shire	-12.9181
ammy	-12.9182
elected	-12.9182
invited	-12.9185
resh	-12.9186
wordfight	-12.9187
appreciated	-12.9189
uance	-12.9195
▁betray	-12.9196
pology	-12.9201
▁decied	-12.9201
priced	-12.9201
nitial	-12.9202
▁weir	-12.9202
equip	-12.9204
▁flood	-12.9205
ecommission	-12.9206
▁metro	-12.9209
strated	-12.9209
arie	-12.921
▁torture	-12.921
omputer	-12.9212
iggity	-12.9214
▁hurt	-12.9217
urried	-12.9219
solved	-12.9227
utcher	-12.9227
geared	-12.9231
nnex	-12.9231
icycle	-12.9233
▁plugg	-12.9238
nvoke	-12.924
ivine	-12.924
▁goog	-12.9241
etermine	-12.9243
physical	-12.9245
fli	-12.9248
▁introduc	-12.925
onverse	-12.9254
rating	-12.9254
ownvote	-12.9254
mendment	-12.9255
▁cough	-12.9255
▁dug	-12.9256
stil	-12.9259
nese	-12.926
▁scree	-12.9265
▁destin	-12.9267
words	-12.9269
uuut	-12.9271
▁spook	-12.9271
tastic	-12.9272
ilateral	-12.9273
vara	-12.9276
esearch	-12.9281
▁banish	-12.9284
keg	-12.9284
oking	-12.9284
igot	-12.9285
lobal	-12.9285
xternal	-12.9287
jord	-12.9289
▁molest	-12.9289
attie	-12.929
iminish	-12.9291
ndividual	-12.9291
opple	-12.9295
obu	-12.9296
nalize	-12.93
awful	-12.9303
hiff	-12.9303
ccidental	-12.9306
▁curr	-12.9307
wank	-12.9308
▁derail	-12.9309
itron	-12.9309
eligion	-12.9313
▁heav	-12.9318
tagger	-12.932
▁soldier	-12.9321
anding	-12.9323
ween	-12.9324
acation	-12.9328
claim	-12.9329
homp	-12.933
▁activ	-12.933
ruel	-12.9332
opulation	-12.9333
▁experiment	-12.9336
licit	-12.9337
cran	-12.9337
ggress	-12.9338
▁revolt	-12.9342
ecoup	-12.9342
heese	-12.9342
rippled	-12.9343
fficial	-12.9343
rologist	-12.9343
▁behav	-12.9344
frie	-12.9344
ctivate	-12.9345
▁rescue	-12.9346
want	-12.9347
eboot	-12.9349
blend	-12.935
orture	-12.9352
tallion	-12.9357
eige	-12.9357
ejected	-12.9357
esolder	-12.9358
osm	-12.936
recen	-12.9361
onceal	-12.9361
utdo	-12.9361
▁sauce	-12.9364
▁screw	-12.9364
ardly	-12.9365
▁psych	-12.9367
ptical	-12.9368
▁karma	-12.937
oxing	-12.9371
▁feminis	-12.9372
assive	-12.9373
efraud	-12.9374
parkle	-12.9375
igilant	-12.9377
umpkin	-12.9379
remix	-12.9379
nounce	-12.9379
▁powder	-12.9382
▁devastat	-12.9382
cape	-12.9384
▁bust	-12.9384
iability	-12.9386
▁malt	-12.9386
horough	-12.9387
▁plaster	-12.9388
arrative	-12.9394
▁extrem	-12.9396
▁narc	-12.9396
crimp	-12.9397
efinition	-12.9402
▁profit	-12.9403
▁pound	-12.9403
▁conduct	-12.9405
fallen	-12.9405
ttract	-12.9411
▁charg	-12.9412
▁scoot	-12.9412
▁wobbl	-12.9415
erserk	-12.9416
tram	-12.9416
▁squirt	-12.9418
risen	-12.9419
▁soar	-12.9421
ín	-12.9421
▁vocal	-12.9424
elder	-12.9426
andstand	-12.9429
minence	-12.9429
riumph	-12.9431
ominion	-12.9435
etalwork	-12.9436
abbi	-12.9437
eager	-12.944
hanger	-12.9441
taker	-12.9441
ircuit	-12.9441
dopt	-12.9443
mpati	-12.9444
established	-12.9444
ongue	-12.9445
nstinct	-12.9447
▁juke	-12.9452
▁calm	-12.9454
ecompile	-12.9454
mere	-12.9454
olicit	-12.9455
robab	-12.9455
▁deposit	-12.9456
eated	-12.9457
▁bawl	-12.9457
eapon	-12.9457
seated	-12.9457
lox	-12.9457
ovin	-12.9458
asso	-12.9458
twen	-12.9458
ectic	-12.946
tatement	-12.9462
noop	-12.9462
ntelligent	-12.9464
eud	-12.9465
▁commo	-12.9466
bsolut	-12.9467
emma	-12.9471
allocated	-12.9473
ssembly	-12.9475
hammered	-12.9476
▁clunk	-12.9477
etition	-12.9477
affer	-12.9478
▁swipe	-12.9485
ntercept	-12.9485
ubstantial	-12.9485
ackward	-12.9485
▁supposed	-12.9486
▁represent	-12.9486
hereabout	-12.9488
ummel	-12.9488
nnnddd	-12.949
ök	-12.949
urther	-12.9496
otel	-12.9497
▁grow	-12.9497
staged	-12.9502
nnual	-12.9503
ftp	-12.9504
defended	-12.9505
loor	-12.9506
nstead	-12.9507
▁newb	-12.9508
bara	-12.9508
aloon	-12.9513
lway	-12.9514
ollie	-12.9514
asteful	-12.9519
▁forgot	-12.9521
clair	-12.9522
lanet	-12.9522
esperate	-12.9523
▁inquir	-12.9523
mear	-12.9523
▁loll	-12.9526
odin	-12.9527
eposte	-12.953
▁conceal	-12.953
fused	-12.9535
reatment	-12.9537
ixie	-12.9538
pacity	-12.9542
offee	-12.9542
sura	-12.9543
equence	-12.9544
▁kayak	-12.9546
▁middle	-12.9546
eography	-12.9547
numbered	-12.9549
eace	-12.955
▁sparkle	-12.9551
artake	-12.9552
converted	-12.9553
uuuuuuuuu	-12.9555
levelled	-12.9555
eenie	-12.9555
ealism	-12.9555
▁campaign	-12.9556
▁glitch	-12.9559
abour	-12.9561
ippy	-12.9562
lge	-12.9562
ɐ	-12.9564
▁whine	-12.9564
▁spark	-12.9565
vertake	-12.9566
änka	-12.9567
yphon	-12.9568
ivide	-12.957
ehaviour	-12.9572
hance	-12.9573
interest	-12.9574
revealed	-12.9575
▁spiritual	-12.9578
camper	-12.9579
itigate	-12.958
resumed	-12.958
shotte	-12.958
▁shark	-12.9581
edeem	-12.9584
roportionally	-12.9585
urser	-12.9586
heater	-12.9586
xtra	-12.9588
▁sunk	-12.9588
uft	-12.9589
dye	-12.9589
akeup	-12.9592
eactivate	-12.9595
xile	-12.9596
▁triumph	-12.9596
isuse	-12.9596
argo	-12.9597
▁bulk	-12.9598
luch	-12.9598
awa	-12.96
elon	-12.9601
reheat	-12.9603
arka	-12.9605
▁casual	-12.9608
▁filter	-12.9609
▁originat	-12.9609
idy	-12.961
often	-12.9611
oooope	-12.9612
urtain	-12.9613
ssay	-12.9615
pply	-12.9615
blocked	-12.962
▁heli	-12.9621
rith	-12.9621
ivert	-12.9621
älla	-12.9624
articipa	-12.9626
ranslation	-12.9627
aware	-12.9629
orger	-12.963
wrestled	-12.9631
uspicious	-12.9632
obilis	-12.9635
aalll	-12.9635
airy	-12.9638
eris	-12.9639
etune	-12.964
upture	-12.964
rackle	-12.9642
lloy	-12.9644
▁grab	-12.9646
eaven	-12.9646
skew	-12.965
igint	-12.965
moved	-12.9652
▁occasion	-12.9654
handling	-12.9654
lectric	-12.9656
prat	-12.9656
pvp	-12.9661
▁absolut	-12.9661
onel	-12.9662
▁butcher	-12.9662
▁musta	-12.9664
▁vector	-12.9664
▁endur	-12.9665
atisfaction	-12.9665
omple	-12.9667
akna	-12.9668
nbalance	-12.9669
▁shard	-12.9673
ecorate	-12.9677
ydlig	-12.9679
lann	-12.968
hove	-12.968
pate	-12.9681
coot	-12.9681
▁global	-12.9682
trangle	-12.9683
▁worship	-12.9683
isrupt	-12.9685
▁illegal	-12.9685
motive	-12.9685
retty	-12.9686
aaay	-12.9687
steer	-12.9687
pvote	-12.9687
ouchebag	-12.969
ustard	-12.9692
▁recruit	-12.9692
▁chunk	-12.9693
▁search	-12.9696
blasted	-12.9697
appy	-12.9697
▁pummel	-12.9698
▁literal	-12.9699
gminer	-12.97
ayback	-12.9701
packed	-12.9702
nformation	-12.9704
mediate	-12.9705
migration	-12.9709
utty	-12.9709
▁massage	-12.9709
helve	-12.9711
apier	-12.9712
▁swallow	-12.9714
xamine	-12.9714
ituate	-12.9715
scha	-12.9715
▁deliberat	-12.9718
▁understand	-12.9719
▁scum	-12.9721
delivered	-12.9721
racker	-12.9722
uror	-12.9724
▁whistle	-12.9726
evere	-12.9728
crafted	-12.9729
ermanent	-12.9729
winke	-12.973
▁whiff	-12.973
▁riff	-12.9732
ferre	-12.9734
▁diffus	-12.9736
enk	-12.9736
loof	-12.9739
▁rustle	-12.9743
reference	-12.9743
▁ultimat	-12.9743
etire	-12.9743
ulit	-12.9745
acif	-12.9745
▁descri	-12.9746
ominant	-12.9747
alua	-12.9749
healed	-12.9749
eere	-12.9749
lamber	-12.975
large	-12.9753
rosecute	-12.9757
▁materialis	-12.9757
prit	-12.9757
erily	-12.9758
uple	-12.9759
welt	-12.9761
ommission	-12.9762
eplay	-12.9763
ieza	-12.9763
▁gyp	-12.9767
cramble	-12.9768
entai	-12.9769
iom	-12.9769
▁surf	-12.977
neer	-12.9777
▁profess	-12.9779
laner	-12.9781
ecompose	-12.9781
scry	-12.9782
traveled	-12.9783
raditional	-12.9783
erke	-12.9786
reson	-12.9786
uuuuck	-12.9788
agic	-12.9791
▁upload	-12.9791
ootstrap	-12.9793
ushi	-12.9796
▁anast	-12.9801
▁platinum	-12.9802
resume	-12.9802
eduction	-12.9802
▁rejoin	-12.9807
equester	-12.9807
alidad	-12.9808
cumbag	-12.9809
ournal	-12.981
olute	-12.9813
wand	-12.9815
airway	-12.9817
▁chicken	-12.9818
pgrade	-12.9818
urchase	-12.9819
ccent	-12.9821
uva	-12.9826
boxone	-12.9827
uicken	-12.9827
▁perk	-12.9828
artner	-12.983
▁model	-12.9831
urner	-12.9834
lign	-12.9835
elapse	-12.9836
▁knitt	-12.9838
uppos	-12.9841
▁page	-12.9841
▁envi	-12.9842
elive	-12.9842
rzo	-12.9843
designated	-12.9843
atsuit	-12.9843
rotein	-12.9844
lasher	-12.9845
alat	-12.9845
meditated	-12.9845
chewed	-12.9848
▁shak	-12.9849
plurge	-12.9853
promised	-12.9856
▁tweak	-12.9858
ertilize	-12.986
tailed	-12.9861
iphon	-12.9862
ootie	-12.9864
razi	-12.9867
▁quicken	-12.9869
▁resist	-12.987
azard	-12.987
atalog	-12.9874
igest	-12.9876
▁weld	-12.9877
eeb	-12.9877
ibil	-12.9878
partition	-12.988
mbody	-12.9881
isturb	-12.9881
unne	-12.9881
rase	-12.9882
blaze	-12.9882
orgi	-12.9884
eje	-12.9885
rofessional	-12.9888
nstruct	-12.9888
▁journal	-12.9891
▁splurge	-12.9892
ionized	-12.9895
ateful	-12.9898
ordial	-12.9899
xcited	-12.99
ubbin	-12.9902
rivate	-12.9903
eeery	-12.9905
ejoin	-12.9908
elden	-12.9908
sé	-12.9909
ropose	-12.991
hali	-12.9911
ndulge	-12.9913
ogenic	-12.9914
cuttle	-12.9915
erino	-12.9916
ekt	-12.9916
otice	-12.9916
▁brawl	-12.9917
retin	-12.992
agging	-12.9922
espec	-12.9923
ibbon	-12.9923
undle	-12.9924
atman	-12.9924
▁pepper	-12.9925
ationalism	-12.9925
nterview	-12.9926
nois	-12.9929
ejigge	-12.9932
▁deport	-12.9935
▁interview	-12.9936
▁compos	-12.9939
unus	-12.9939
▁cloak	-12.9939
▁bobb	-12.9941
inno	-12.9941
exus	-12.9941
ulgar	-12.9941
nsurance	-12.9942
hild	-12.9946
orno	-12.9947
dvocate	-12.9948
compressed	-12.9949
eviate	-12.9952
elion	-12.9954
ardon	-12.9954
▁suppos	-12.9954
lown	-12.9955
trict	-12.9957
cleaner	-12.9957
akke	-12.9958
namo	-12.9959
▁unfortun	-12.9962
▁pregunta	-12.9962
uil	-12.9964
isanthrop	-12.9967
muggle	-12.9969
▁shipp	-12.9972
obster	-12.9973
ativa	-12.9974
btain	-12.9974
ortify	-12.9975
eclare	-12.9975
enki	-12.9976
announced	-12.9977
hovel	-12.9978
emorrhage	-12.9979
ependence	-12.998
ruiser	-12.998
▁advocate	-12.9982
onfront	-12.9983
▁wrangle	-12.9983
oyalty	-12.9986
▁weapon	-12.9987
etray	-12.9989
onit	-12.9991
hurst	-12.9991
ommend	-12.9992
roan	-12.9994
oncede	-12.9995
rimari	-12.9995
aye	-12.9996
raised	-12.9996
tupid	-12.9998
cada	-12.9998
iara	-13.0001
arre	-13.0001
▁temper	-13.0001
ncle	-13.0002
actus	-13.0003
ipping	-13.0004
onstruct	-13.0004
narchy	-13.0005
pork	-13.0006
eeeeed	-13.0006
subbed	-13.0009
cycled	-13.001
▁concede	-13.0013
anitize	-13.0014
▁invade	-13.0016
lavor	-13.0017
battled	-13.0019
xpel	-13.002
nvade	-13.0021
iscriminate	-13.0024
repo	-13.0025
▁ticket	-13.0026
▁strangle	-13.0026
holeheart	-13.0027
xecute	-13.0028
egging	-13.0031
▁whizz	-13.0031
alv	-13.0033
ibrate	-13.0036
▁deadlift	-13.0036
onfus	-13.0043
ocate	-13.0043
eceptive	-13.0044
▁petition	-13.0045
asculin	-13.0045
oderate	-13.0046
▁flee	-13.0049
esture	-13.0049
oudn	-13.0053
▁fram	-13.0057
reside	-13.0058
anagement	-13.0061
▁glad	-13.0061
▁typo	-13.0063
dx	-13.0065
roadcast	-13.0066
▁length	-13.0067
ngine	-13.0067
epict	-13.0071
tx	-13.0073
leet	-13.0075
ecycle	-13.0075
oxygen	-13.0077
▁retail	-13.0081
adar	-13.0085
regunta	-13.0088
ahd	-13.009
etake	-13.0091
scientific	-13.0092
▁believ	-13.0094
oxie	-13.0097
▁calv	-13.0097
verpower	-13.0097
pushed	-13.0097
▁city	-13.0098
ecode	-13.01
▁claw	-13.0101
▁hazard	-13.0102
▁broadcast	-13.0102
okin	-13.011
▁analys	-13.0111
öder	-13.0112
pload	-13.0113
emise	-13.0114
▁dunk	-13.0115
ibus	-13.0115
ooove	-13.0118
losh	-13.0119
marten	-13.0119
mused	-13.012
screened	-13.0125
▁flor	-13.0125
▁find	-13.0126
osine	-13.0127
legi	-13.0129
▁prospect	-13.013
quish	-13.0131
otify	-13.0132
aws	-13.0133
witter	-13.0133
▁dabble	-13.0133
chedule	-13.0134
onstruction	-13.0134
▁crank	-13.0135
oreal	-13.0135
emolish	-13.0137
▁analog	-13.014
rumpet	-13.014
achet	-13.0141
▁debate	-13.0142
▁liberat	-13.0142
npack	-13.0142
▁carri	-13.0142
▁stump	-13.0144
▁clam	-13.0145
ndar	-13.0145
rifter	-13.0147
nstall	-13.0147
▁shun	-13.0147
▁bulli	-13.0149
ithing	-13.015
leech	-13.015
hant	-13.0152
ropper	-13.0152
hapen	-13.0155
tosis	-13.0157
bomba	-13.0157
typical	-13.0157
ptic	-13.016
urrender	-13.016
atify	-13.0161
assel	-13.0161
hord	-13.0164
alet	-13.0165
▁narrat	-13.0165
qué	-13.0165
olymer	-13.0169
▁enhance	-13.0171
▁demolish	-13.0172
▁braz	-13.0176
ações	-13.0178
funny	-13.018
beaten	-13.0182
bombed	-13.0183
▁demonstra	-13.0184
undamental	-13.0185
tried	-13.0187
nowboard	-13.0189
luent	-13.0191
hitter	-13.0193
erran	-13.0194
riginat	-13.0195
åg	-13.0197
irl	-13.0198
▁recess	-13.0199
epose	-13.0199
▁scheme	-13.0199
▁surrender	-13.0202
ipl	-13.0202
inny	-13.0204
tended	-13.0207
ffend	-13.0208
ynx	-13.021
entic	-13.021
▁devour	-13.0212
▁bottle	-13.0212
eddy	-13.0212
accinate	-13.0214
▁lung	-13.0218
xception	-13.022
▁snowboard	-13.0224
ebirth	-13.0226
munition	-13.0226
arpet	-13.0227
imulate	-13.0229
▁vacation	-13.023
ondone	-13.0231
mma	-13.0233
fabricate	-13.0234
orough	-13.0234
▁epic	-13.0236
iede	-13.0236
ntensify	-13.0238
▁diet	-13.0239
ntuitive	-13.0244
▁sale	-13.0245
▁trust	-13.0249
orever	-13.0252
omission	-13.0252
▁spinn	-13.0252
ovia	-13.0253
enocide	-13.0258
ativity	-13.026
intel	-13.026
ppress	-13.0261
hane	-13.0263
oooooooooooooooo	-13.0264
▁swatte	-13.0264
▁punt	-13.0265
▁gasp	-13.0266
nfold	-13.0267
▁squeak	-13.0267
awyer	-13.0269
▁signifi	-13.0269
lution	-13.027
oulder	-13.0271
everse	-13.0272
▁persist	-13.0272
▁bleed	-13.0273
▁carpet	-13.0273
ossibl	-13.0273
ssimilate	-13.0274
ushion	-13.0278
▁cult	-13.0278
idder	-13.0278
oomer	-13.028
elativ	-13.028
onus	-13.028
harpen	-13.0282
flix	-13.0283
reloade	-13.0283
rightful	-13.0285
heeze	-13.0288
efriend	-13.0291
ollectiv	-13.0292
nchor	-13.0292
▁marker	-13.0293
widdle	-13.0293
avish	-13.0297
poor	-13.0297
▁defen	-13.0298
activated	-13.0299
rige	-13.0299
▁skimm	-13.03
pointed	-13.0304
andbag	-13.0304
iscolor	-13.0305
utiny	-13.0307
efenit	-13.0308
quo	-13.031
aggy	-13.031
▁totall	-13.0312
▁grace	-13.0312
obility	-13.0313
opsie	-13.0315
racture	-13.0315
effe	-13.0318
ayne	-13.0319
ecke	-13.0319
nemy	-13.032
▁predict	-13.032
ransform	-13.0322
idic	-13.0326
erpetua	-13.0326
synchronize	-13.0326
olucion	-13.0327
▁snark	-13.0327
tude	-13.033
ownstair	-13.0332
▁purr	-13.0333
egional	-13.0335
▁grumble	-13.0335
lapse	-13.0335
agne	-13.0335
▁strive	-13.0336
ifer	-13.034
▁skydiv	-13.034
sister	-13.0344
aziness	-13.0345
wagg	-13.0348
splode	-13.0349
agge	-13.0353
iece	-13.0353
loe	-13.0355
asset	-13.0356
awp	-13.0356
ucc	-13.0357
herapy	-13.0357
äll	-13.0358
▁gravel	-13.0359
emark	-13.0359
▁nodd	-13.0361
ifter	-13.0364
fender	-13.0365
nternet	-13.0366
nvention	-13.0366
elief	-13.0366
▁goat	-13.0367
odcha	-13.0367
▁rampage	-13.0367
▁guess	-13.0368
dder	-13.0368
pree	-13.037
▁slap	-13.0374
nundate	-13.0375
hox	-13.0376
ossibil	-13.0378
rightly	-13.0378
amiliar	-13.0378
▁proble	-13.0379
örs	-13.0379
ogurt	-13.0381
▁barg	-13.0385
ptimal	-13.0386
olonial	-13.0388
reordain	-13.0388
hage	-13.0388
ethod	-13.0388
quash	-13.0389
▁acid	-13.0393
▁skirmish	-13.0394
atriarchy	-13.0396
enuine	-13.0399
▁preach	-13.04
aywalk	-13.0401
▁fetch	-13.0401
▁benn	-13.0401
▁fill	-13.0403
buffed	-13.0403
cooked	-13.0407
ardi	-13.0407
nact	-13.0407
heoretical	-13.0408
offin	-13.0412
cultural	-13.0414
reacher	-13.0414
▁station	-13.0415
▁buss	-13.0415
▁fault	-13.0417
▁shart	-13.0419
titled	-13.042
mourne	-13.0421
▁infinit	-13.0423
omfirm	-13.0423
▁obtain	-13.0426
iring	-13.0427
egregation	-13.0428
▁laff	-13.0428
nlighten	-13.0429
herm	-13.043
nhance	-13.0431
crape	-13.0431
▁borrow	-13.0431
pinion	-13.0431
▁weigh	-13.0432
aunter	-13.0433
imes	-13.0435
painted	-13.0437
restige	-13.0437
kateboard	-13.0438
ationalise	-13.0441
leased	-13.0441
xtreme	-13.0441
▁fudge	-13.0441
▁torch	-13.0442
nplug	-13.0443
▁comfirm	-13.0444
eird	-13.0444
mbroider	-13.0445
iccup	-13.0445
▁blame	-13.0445
▁enquir	-13.0447
ruid	-13.0448
limax	-13.0449
ramati	-13.0451
kana	-13.0451
assacre	-13.0455
▁unplug	-13.0455
andball	-13.0456
iblio	-13.0457
etention	-13.0463
haracterize	-13.0464
stress	-13.0465
sociated	-13.0466
▁equi	-13.0471
hotgun	-13.0471
udition	-13.0475
▁mew	-13.0476
▁skateboard	-13.0477
lavour	-13.0479
unce	-13.0479
egas	-13.048
ontend	-13.0483
xplan	-13.0486
courge	-13.0486
watche	-13.0488
innen	-13.0489
ibration	-13.049
▁disturb	-13.0492
uken	-13.0493
ampage	-13.0493
uice	-13.0495
unblock	-13.0498
geten	-13.0498
▁dwell	-13.05
ppreciate	-13.0501
icha	-13.0501
ostage	-13.0502
▁arrest	-13.0502
▁peer	-13.0504
▁stripe	-13.0505
▁tramp	-13.0505
▁obvi	-13.0506
▁duo	-13.0509
▁scalp	-13.051
▁true	-13.0513
torial	-13.0514
dvice	-13.0514
ôt	-13.0515
elent	-13.0516
▁possib	-13.0519
admitted	-13.0522
bvi	-13.0526
nvironmental	-13.0526
teep	-13.0526
bome	-13.0527
▁chip	-13.0528
▁squeal	-13.0529
othole	-13.0529
▁feud	-13.0529
developed	-13.0531
mbezzle	-13.0531
fib	-13.0532
wonk	-13.0532
▁download	-13.0532
▁confront	-13.0533
armor	-13.0534
nimate	-13.0535
nderwrite	-13.0536
rrupte	-13.0537
ixel	-13.054
▁cannon	-13.0541
lawless	-13.0544
▁warg	-13.0547
▁brief	-13.0547
evaluation	-13.0548
rickle	-13.0549
ppose	-13.0549
ursid	-13.0549
oran	-13.0551
trength	-13.0552
incere	-13.0553
arva	-13.0553
verhear	-13.0553
▁employ	-13.0553
helter	-13.0554
ård	-13.0558
▁commence	-13.0559
▁execut	-13.0559
norkel	-13.0562
attempt	-13.0563
collapsed	-13.0568
dore	-13.0568
▁obsess	-13.057
anking	-13.057
▁typ	-13.0571
ontour	-13.0572
orado	-13.0572
itas	-13.0574
gaine	-13.0574
uju	-13.0578
▁straight	-13.0578
▁thump	-13.058
identified	-13.0581
eint	-13.0581
everage	-13.0583
mployment	-13.0583
▁hound	-13.0584
hacked	-13.0584
▁rambl	-13.0585
oya	-13.0585
drenalin	-13.0586
ompile	-13.0587
efinit	-13.0587
hibs	-13.0588
trapped	-13.059
▁blanket	-13.0591
heath	-13.0593
ivorce	-13.0594
olonize	-13.0594
pread	-13.0594
▁drown	-13.0594
▁tact	-13.0596
ummi	-13.0598
queak	-13.0598
decked	-13.0598
natch	-13.06
▁snorkel	-13.06
▁warp	-13.0601
ebug	-13.0602
nvite	-13.0602
oubtless	-13.0604
raba	-13.0606
lera	-13.0609
inshe	-13.0611
omosexual	-13.0612
rtisan	-13.0612
trem	-13.0614
▁stupid	-13.0615
kydive	-13.0615
arish	-13.0616
eadlifte	-13.0617
ío	-13.0618
macs	-13.0619
▁vaporiz	-13.0619
ooster	-13.0621
uprising	-13.0623
signed	-13.0625
ardio	-13.0628
▁streak	-13.063
atrix	-13.0631
remaster	-13.0634
wop	-13.0635
▁collab	-13.0636
▁foud	-13.0637
salted	-13.0639
llicit	-13.064
arson	-13.0641
searched	-13.0642
vocado	-13.0644
▁wiggle	-13.0644
▁dissent	-13.0645
xponential	-13.0646
unburn	-13.0646
nnul	-13.065
ersonal	-13.0653
▁instrument	-13.0653
urify	-13.0654
eeter	-13.0656
rystal	-13.0657
▁hustle	-13.0659
▁moonwalk	-13.0661
▁mushroom	-13.0663
cowl	-13.0664
atiniz	-13.0667
queal	-13.0668
twa	-13.0669
nuck	-13.0671
escind	-13.0672
▁tackle	-13.0672
▁stutter	-13.0673
esize	-13.0674
igorous	-13.0676
undress	-13.0677
heni	-13.0678
unnit	-13.0678
▁plunge	-13.0678
tiquette	-13.0681
xte	-13.0681
ecesit	-13.0681
▁plasm	-13.0682
umo	-13.0683
inancial	-13.0684
versity	-13.0691
▁pimp	-13.0692
▁swirl	-13.0693
▁spiral	-13.0694
▁discount	-13.0696
▁collect	-13.0697
evote	-13.0699
▁reign	-13.0699
▁torment	-13.0701
kank	-13.0701
▁purpose	-13.0702
onvict	-13.0702
igress	-13.0703
iggly	-13.0703
▁slick	-13.0706
idno	-13.0707
gnition	-13.0708
ruthful	-13.071
efactor	-13.071
nforcement	-13.071
armac	-13.071
onduct	-13.071
luke	-13.0711
oobie	-13.0712
ssist	-13.0714
mah	-13.0715
xplicit	-13.0716
▁export	-13.0717
ewind	-13.0718
istribution	-13.0719
isorient	-13.072
formatte	-13.072
onclude	-13.0722
▁provide	-13.0723
▁impact	-13.0723
▁repeated	-13.0724
▁subt	-13.0726
olitik	-13.0728
kype	-13.0729
▁gritt	-13.0729
ussification	-13.073
ött	-13.0731
bfuscate	-13.0731
omprehend	-13.0731
▁conclude	-13.0731
rolong	-13.0731
rypton	-13.0732
mla	-13.0736
eligio	-13.0736
closed	-13.0739
iffuse	-13.0742
pritz	-13.0743
itution	-13.0745
hotoshoppe	-13.0748
nife	-13.075
▁brows	-13.075
▁schedule	-13.0752
▁conqu	-13.0753
▁chatter	-13.0753
islead	-13.0753
agan	-13.0754
hosphor	-13.0756
▁seat	-13.0756
▁poot	-13.0757
▁complete	-13.0758
orne	-13.0759
haperon	-13.0759
▁holler	-13.0763
ttent	-13.0765
alcon	-13.0766
andalize	-13.0766
owned	-13.0767
torisk	-13.0767
ushroom	-13.0769
▁commission	-13.077
▁sew	-13.0772
rioritize	-13.0772
people	-13.0774
▁condens	-13.0776
▁kno	-13.0776
amura	-13.0779
animal	-13.078
▁machin	-13.0781
ssociation	-13.0781
orque	-13.0782
iscus	-13.0782
mbiguous	-13.0783
reading	-13.0784
uttin	-13.0788
lara	-13.0789
morg	-13.079
▁hipster	-13.079
ncreas	-13.0791
oplane	-13.0792
▁giv	-13.0792
hicken	-13.0792
▁emerg	-13.0793
emur	-13.0794
nnnnnnnnd	-13.0795
▁save	-13.0796
washed	-13.0796
tutter	-13.0797
▁noob	-13.0798
▁fiddl	-13.0799
▁rela	-13.0799
▁conjur	-13.08
phro	-13.0802
▁method	-13.0802
▁inbound	-13.0802
illain	-13.0803
▁scuttle	-13.0803
nfortun	-13.0804
odule	-13.0804
ivet	-13.0805
wtf	-13.081
effinat	-13.0811
onzi	-13.0812
usb	-13.0812
evit	-13.0814
▁snooze	-13.0814
eartbreak	-13.0815
nnotate	-13.0815
ethane	-13.0815
exile	-13.0817
cidity	-13.0817
onnie	-13.0818
▁norm	-13.0819
heir	-13.0819
ooner	-13.0819
insu	-13.0821
ixture	-13.0823
▁bud	-13.0823
ranco	-13.0824
▁harras	-13.0824
avil	-13.0825
▁garb	-13.0825
illie	-13.0826
cension	-13.0826
nwind	-13.0826
ndre	-13.0827
▁appli	-13.0828
quirm	-13.0828
qure	-13.0829
xponent	-13.0829
ngineer	-13.0831
evblog	-13.0833
fitted	-13.084
annie	-13.0841
ensa	-13.0841
xport	-13.0842
productive	-13.0842
▁piqu	-13.0842
▁munch	-13.0843
▁account	-13.0844
handler	-13.0844
uffet	-13.0844
▁someth	-13.0844
prised	-13.0845
dium	-13.0845
turk	-13.0846
spoken	-13.0848
ubscription	-13.085
avity	-13.0852
▁clim	-13.0852
wab	-13.0852
modified	-13.0855
▁crud	-13.0856
▁supplement	-13.0861
stabilis	-13.0864
eice	-13.0864
urface	-13.0864
nooze	-13.0865
oscope	-13.0866
▁shovel	-13.0868
ropel	-13.0868
▁circuit	-13.0871
▁jibb	-13.0874
niverse	-13.0874
ooooooosh	-13.0876
hopping	-13.0878
egger	-13.088
▁politik	-13.0882
heape	-13.0882
bserve	-13.0883
xplosive	-13.0884
efract	-13.0888
laborate	-13.0888
ersist	-13.089
▁gone	-13.0891
dtv	-13.0892
▁hiss	-13.0893
echnic	-13.0896
illiard	-13.0899
cident	-13.0901
▁belch	-13.0901
kulk	-13.0902
plash	-13.0904
arcel	-13.0904
heke	-13.0905
▁surface	-13.0905
▁estimate	-13.0908
onna	-13.091
rtificial	-13.0911
hallow	-13.0913
imbal	-13.0913
venly	-13.0916
ommy	-13.0916
curry	-13.0917
▁taxi	-13.0917
eplenish	-13.0922
ontaminate	-13.0923
python	-13.0924
weeb	-13.0924
nnouce	-13.0925
reepe	-13.0927
▁sculpt	-13.093
eforge	-13.0932
rusher	-13.0932
▁pacifi	-13.0933
▁respons	-13.0936
izon	-13.0938
virt	-13.0939
aximize	-13.0941
rafter	-13.0944
gorge	-13.0945
▁admir	-13.0947
▁donate	-13.0949
▁villain	-13.095
estie	-13.095
refix	-13.0951
racious	-13.0953
ynonym	-13.0953
vovle	-13.0955
▁infiltrat	-13.0957
aple	-13.0957
rchive	-13.0959
ofa	-13.096
nunciate	-13.0961
cissor	-13.0962
rtifact	-13.0962
▁slumber	-13.0963
▁avoid	-13.0963
esume	-13.0963
▁brass	-13.0964
hilling	-13.0964
broile	-13.0965
estion	-13.0966
▁faction	-13.0966
ngage	-13.0968
ofer	-13.0971
▁snore	-13.0971
nnihilate	-13.0972
attern	-13.0973
arce	-13.0974
▁mangle	-13.0975
ebuild	-13.0975
▁swing	-13.0975
arianism	-13.0975
rgasm	-13.0976
eedle	-13.0976
toked	-13.0979
▁looove	-13.098
nlist	-13.0982
anine	-13.0983
▁insert	-13.0983
calp	-13.0986
paul	-13.0987
istorical	-13.0988
egenerate	-13.0989
magi	-13.0989
eaaaaaaaa	-13.0991
mulsif	-13.0992
rounce	-13.0995
▁primari	-13.0996
▁kidnapp	-13.0998
▁forecast	-13.0998
▁scamm	-13.0999
appar	-13.1001
▁engineer	-13.1002
erfection	-13.1004
ujin	-13.1005
critical	-13.1009
▁maximize	-13.101
arburet	-13.1013
pprove	-13.1014
airbrush	-13.1014
mpact	-13.1016
erpent	-13.1018
angler	-13.1019
▁further	-13.1019
ocksmith	-13.1019
strung	-13.1022
▁jiggle	-13.1024
angbang	-13.1025
hysical	-13.1025
itpick	-13.1027
ffensive	-13.1027
▁sensor	-13.1031
▁chap	-13.1032
obra	-13.1033
reamp	-13.1035
rovide	-13.1036
heim	-13.1037
▁occur	-13.1038
rilogy	-13.104
atting	-13.1043
thletic	-13.1044
venture	-13.1046
▁discriminat	-13.1046
oax	-13.1047
▁distill	-13.1049
ctul	-13.105
empe	-13.1053
ogled	-13.1054
iologist	-13.1054
hriek	-13.1058
▁shriek	-13.1059
rowed	-13.1059
culpt	-13.1061
nfuse	-13.1061
ehave	-13.1063
▁whack	-13.1063
▁mould	-13.1065
apply	-13.1065
isparag	-13.1067
ommence	-13.1069
ovel	-13.1069
arrior	-13.1069
kydd	-13.1072
manned	-13.1074
▁deviat	-13.1075
piller	-13.1076
▁defect	-13.1077
trumpet	-13.1078
ecomp	-13.1082
elke	-13.1082
oggy	-13.1084
oundtrack	-13.1084
enabled	-13.1085
▁cartoon	-13.1087
imer	-13.109
imulator	-13.109
▁overnight	-13.1091
registered	-13.1092
ynchro	-13.1093
▁piss	-13.1097
processed	-13.1097
imming	-13.1098
egalize	-13.1098
▁nav	-13.11
editor	-13.1101
caffeinate	-13.1104
flax	-13.1105
recise	-13.1107
▁wimp	-13.111
ubreddit	-13.1111
▁wal	-13.1113
hoplift	-13.1114
ortar	-13.1115
rænse	-13.1117
unting	-13.1118
oaltend	-13.1121
ucid	-13.1126
uppress	-13.1126
oneth	-13.1127
indness	-13.1128
mplore	-13.113
orized	-13.113
▁clang	-13.1131
iversity	-13.1131
onstitutional	-13.1132
ssociate	-13.1133
econstruction	-13.1133
bjective	-13.1133
roker	-13.1134
upplement	-13.1135
▁exceed	-13.1136
▁militar	-13.114
oomba	-13.1141
ndure	-13.1141
hilia	-13.1143
bide	-13.1144
ooken	-13.1144
aptize	-13.1144
▁inject	-13.1145
▁slopp	-13.1145
efute	-13.1148
ecurity	-13.1148
▁prowl	-13.1149
mute	-13.115
▁razor	-13.115
bstain	-13.115
programmed	-13.115
jim	-13.1151
olarity	-13.1152
owtow	-13.1152
inosaur	-13.1153
penne	-13.1158
llocate	-13.1158
liminate	-13.116
▁celebrat	-13.116
excha	-13.1161
reif	-13.1162
urgeon	-13.1162
▁finance	-13.1162
▁persecut	-13.1163
better	-13.1164
▁blight	-13.1164
▁sigh	-13.1165
onscious	-13.1166
nsert	-13.117
onservativ	-13.117
reasure	-13.1172
▁exit	-13.1174
ernel	-13.1176
bx	-13.1179
▁fork	-13.1181
nzip	-13.1183
▁curb	-13.1184
isting	-13.1185
labelled	-13.1186
ersoan	-13.1186
ezze	-13.1188
▁network	-13.1188
ermination	-13.1192
ecimate	-13.1193
nology	-13.1194
effinit	-13.1198
ekka	-13.1204
nrol	-13.1205
lusive	-13.1205
ationalization	-13.1205
heathe	-13.1206
mirk	-13.1206
amide	-13.1206
winkle	-13.1206
▁debunk	-13.1209
edophilia	-13.121
▁repost	-13.1213
▁click	-13.1214
▁orgasm	-13.1214
ormone	-13.1215
repay	-13.1216
▁toddle	-13.1217
riction	-13.1217
unic	-13.1219
elee	-13.122
borg	-13.122
▁drool	-13.122
eruse	-13.1221
antie	-13.1223
boi	-13.1223
itanium	-13.1223
remo	-13.1223
chop	-13.1223
queeze	-13.1225
ulse	-13.1227
▁puke	-13.1229
defeated	-13.1229
alico	-13.123
covered	-13.123
little	-13.123
▁smirk	-13.123
▁misuse	-13.1234
ontrast	-13.1234
▁squish	-13.1234
ancé	-13.1235
inar	-13.1236
▁retort	-13.1237
nification	-13.1238
▁confid	-13.1239
mitate	-13.124
etort	-13.1241
rovoke	-13.1241
tico	-13.1241
amf	-13.1241
ismark	-13.1241
lapsed	-13.1241
▁wizard	-13.1242
wod	-13.1245
▁propell	-13.1246
wij	-13.1247
ecesar	-13.1248
compiled	-13.1249
atriarch	-13.1249
nnnggg	-13.125
ealous	-13.1251
nex	-13.1252
nfield	-13.1252
ensity	-13.1253
eltzer	-13.1253
ebunk	-13.1254
cknowledge	-13.1255
efuel	-13.1255
igarette	-13.126
gress	-13.1261
oincide	-13.1261
translated	-13.1262
▁gawk	-13.1263
egotiate	-13.1263
elebrate	-13.1264
oody	-13.1265
▁operat	-13.1266
▁offend	-13.1268
▁legit	-13.1268
potlight	-13.1269
ugget	-13.1269
▁refuel	-13.1274
muck	-13.1275
värt	-13.1276
eisen	-13.128
mediat	-13.128
erception	-13.1281
elish	-13.1282
▁broth	-13.1288
▁splash	-13.1288
▁transgress	-13.129
abulous	-13.1291
umbr	-13.1292
ibre	-13.1292
enforced	-13.1293
▁instinct	-13.1296
izzard	-13.1296
eeen	-13.1298
roblem	-13.1298
▁jabb	-13.1299
collected	-13.1302
kicka	-13.1303
▁douche	-13.1304
exture	-13.1304
niform	-13.1305
▁precede	-13.1306
ishwash	-13.1307
ustache	-13.1308
headedness	-13.1309
omorrow	-13.1309
▁fizz	-13.1312
axus	-13.1313
nvo	-13.1314
hroat	-13.1315
argle	-13.1315
cull	-13.1317
▁suit	-13.1317
dvisor	-13.1318
ipstick	-13.1318
referenced	-13.132
undie	-13.1322
wrappe	-13.1323
nicker	-13.1324
▁feel	-13.1325
nstrumental	-13.1325
ummit	-13.1326
reet	-13.1327
▁pirat	-13.1328
refund	-13.1329
rivilege	-13.133
recomp	-13.133
onscience	-13.1331
omicon	-13.1333
ään	-13.1333
▁fuzz	-13.1333
▁drunk	-13.1333
▁blunder	-13.1334
▁gossip	-13.1334
▁invent	-13.1335
▁cook	-13.1335
melter	-13.1335
verwinter	-13.1335
arking	-13.1335
acin	-13.1335
untie	-13.1336
nitialize	-13.1336
osey	-13.1342
oerce	-13.1344
specific	-13.1345
uffy	-13.1346
onument	-13.1346
oosen	-13.1347
▁quack	-13.1347
▁proced	-13.1348
rightness	-13.1348
▁swagger	-13.135
▁gravitat	-13.135
optic	-13.1352
ariat	-13.1352
▁jogg	-13.1354
opulate	-13.1354
xceed	-13.1355
changed	-13.1355
quê	-13.1357
▁festiv	-13.1357
roportion	-13.1357
captured	-13.1358
hirp	-13.1361
hitch	-13.1363
alfunction	-13.1363
arming	-13.1364
indo	-13.1365
rigin	-13.1366
tentia	-13.1369
ridium	-13.1369
uery	-13.137
▁annex	-13.1371
drawn	-13.1372
▁flail	-13.1376
rogramm	-13.1377
▁malfunction	-13.1377
örk	-13.1379
zuki	-13.1379
▁dribble	-13.1381
▁indent	-13.1381
▁youtub	-13.1383
hosphate	-13.1383
urability	-13.1384
▁applaud	-13.1387
arframe	-13.1387
lasp	-13.1388
dderral	-13.1392
▁beep	-13.1394
ahab	-13.1395
refill	-13.1396
asco	-13.1397
▁puddle	-13.1398
▁chatt	-13.1398
oughen	-13.1399
egrease	-13.14
athematical	-13.1401
▁gesture	-13.1402
eselect	-13.1403
rmament	-13.1403
owaday	-13.1404
ookmark	-13.1405
oxxe	-13.1407
ibel	-13.1409
xclude	-13.1409
calculated	-13.141
hrob	-13.141
mber	-13.1412
roadside	-13.1413
▁certain	-13.1413
▁gush	-13.1414
xcuse	-13.1415
villian	-13.1416
pall	-13.1417
arathone	-13.1418
▁chrono	-13.1419
▁different	-13.1419
▁freight	-13.1419
▁seem	-13.142
ossip	-13.142
verreact	-13.1422
commerce	-13.1424
nlock	-13.1425
▁scratch	-13.1427
elegation	-13.1427
▁spider	-13.1428
esponsib	-13.1428
▁screenshot	-13.1429
nflict	-13.1431
arised	-13.1432
▁kilde	-13.1434
▁occurred	-13.1434
vasive	-13.1435
▁contrast	-13.1436
▁ensu	-13.1437
anipulate	-13.1438
linker	-13.1439
▁exclude	-13.1439
horsed	-13.144
▁coexist	-13.1441
articular	-13.1442
ording	-13.1443
omplet	-13.1444
berth	-13.1444
halten	-13.1447
pplaud	-13.1447
▁frog	-13.1448
ihad	-13.1448
ransgress	-13.1449
pplication	-13.145
ånd	-13.145
▁immers	-13.1451
dorn	-13.1452
▁cron	-13.1454
▁joust	-13.1456
dyed	-13.1457
epak	-13.1458
oké	-13.1458
arget	-13.1458
▁pinch	-13.1459
arlac	-13.1459
nonymous	-13.1459
ptimize	-13.146
lanning	-13.146
vangelis	-13.1461
couter	-13.1463
itualis	-13.1465
xhale	-13.1465
rolic	-13.1467
▁stiff	-13.1467
swift	-13.1468
tinted	-13.1469
ighly	-13.147
lapper	-13.147
autious	-13.1472
tml	-13.1472
▁snatch	-13.1473
▁button	-13.1473
▁persever	-13.1476
rimmed	-13.1478
egel	-13.1479
▁crystal	-13.148
irlfriend	-13.148
missive	-13.148
▁two	-13.1481
published	-13.1482
planned	-13.1483
▁dork	-13.1484
riminal	-13.1485
xec	-13.1486
wagger	-13.1489
▁overreact	-13.1489
gunned	-13.149
etreat	-13.1491
▁chirp	-13.1491
loped	-13.1491
rovel	-13.1491
raduate	-13.1492
ensibility	-13.1492
isdain	-13.1492
idal	-13.1493
lasticity	-13.1495
represented	-13.1495
▁kneel	-13.1496
released	-13.1496
▁urinat	-13.1498
nsub	-13.1499
▁crust	-13.1499
eenage	-13.1499
ransmog	-13.15
inute	-13.15
illum	-13.1501
railer	-13.1503
ronounce	-13.1503
▁regular	-13.1505
▁bookmark	-13.1506
iberate	-13.1506
genda	-13.1507
onstitute	-13.1507
mplication	-13.1508
▁summit	-13.1508
packaged	-13.1508
ispell	-13.151
ulu	-13.151
omponent	-13.1511
eenager	-13.1512
amak	-13.1513
ulch	-13.1513
▁bumb	-13.1514
▁compuls	-13.1515
plosion	-13.1516
pillage	-13.1519
ranscendental	-13.1519
obbit	-13.1521
ivan	-13.1522
larif	-13.1526
▁pastur	-13.1527
ggressiv	-13.1528
▁skulk	-13.1528
▁grapple	-13.1529
ustin	-13.153
hiver	-13.153
leaded	-13.1531
▁gigg	-13.1533
▁summer	-13.1535
dama	-13.1536
mulation	-13.1537
educated	-13.1538
▁snoop	-13.1539
irefight	-13.1541
spelled	-13.1541
arum	-13.1542
iría	-13.1542
invested	-13.1543
annoy	-13.1545
auldron	-13.1547
hiner	-13.1548
ercury	-13.1549
▁indulge	-13.155
▁prior	-13.1551
tcg	-13.1552
lif	-13.1553
rotate	-13.1553
ontroller	-13.1555
▁highlight	-13.1557
▁civil	-13.1558
prite	-13.1558
▁bundle	-13.1558
rescribe	-13.1561
ordain	-13.1566
▁groan	-13.1566
ycling	-13.1569
eliberate	-13.157
camme	-13.1572
▁divin	-13.1573
verrule	-13.1573
grated	-13.1575
ackspace	-13.1577
rouser	-13.1582
rumple	-13.1582
▁overrule	-13.1582
controlled	-13.1582
eautif	-13.1583
▁tunnel	-13.1583
vict	-13.1584
ndie	-13.1584
▁prophes	-13.1586
eclassif	-13.1586
ieze	-13.1586
▁budd	-13.1589
▁cluster	-13.159
appere	-13.159
omebody	-13.1592
öka	-13.1592
amming	-13.1593
lread	-13.1594
rofess	-13.1595
etzen	-13.1596
▁remote	-13.1597
▁beef	-13.16
anister	-13.16
ndisputabl	-13.1602
ticulate	-13.1603
▁concept	-13.1604
▁slut	-13.1604
▁conspir	-13.1605
oarse	-13.1607
gility	-13.1609
erously	-13.161
later	-13.161
▁bunk	-13.161
awwwww	-13.161
achine	-13.1616
naw	-13.1616
elite	-13.1618
lait	-13.1618
hallus	-13.1621
matter	-13.1621
▁fundamental	-13.1622
angent	-13.1625
▁prick	-13.1626
▁presid	-13.1626
xfoliate	-13.1629
ractical	-13.163
▁exult	-13.1631
receed	-13.1637
lider	-13.1638
ntwine	-13.1642
sprung	-13.1643
aricature	-13.1643
linear	-13.1643
▁twitter	-13.1644
▁fled	-13.1647
prepared	-13.1648
bsp	-13.165
▁proportion	-13.165
ymbol	-13.165
▁fluff	-13.1651
islabel	-13.1651
eeeaaa	-13.1654
aaaay	-13.1654
eafen	-13.1655
egress	-13.1657
ompensate	-13.1657
ongratulate	-13.1657
▁discharge	-13.1658
▁affect	-13.1659
▁support	-13.1662
baken	-13.1663
▁moan	-13.1663
broken	-13.1665
▁evade	-13.1666
ischarge	-13.1667
liability	-13.1669
itively	-13.1669
▁peep	-13.167
▁internet	-13.167
andor	-13.167
▁fret	-13.1672
immy	-13.1672
▁recoil	-13.1674
efensive	-13.1676
▁abhor	-13.1676
oomerang	-13.1678
▁pulse	-13.1678
ollateral	-13.168
ifo	-13.1681
lummet	-13.1682
scripted	-13.1684
llot	-13.1686
inance	-13.1686
ptr	-13.1687
aden	-13.1688
egular	-13.1689
▁flagg	-13.1689
ompliment	-13.1689
▁swag	-13.1689
kum	-13.169
▁boomerang	-13.1692
lail	-13.1693
▁plummet	-13.1694
rgot	-13.1695
figure	-13.1697
voiced	-13.1697
rge	-13.1697
tropic	-13.17
rezzed	-13.1701
halk	-13.1701
epository	-13.1703
ueen	-13.1703
▁teleport	-13.1703
ucre	-13.1705
ivision	-13.1705
asha	-13.1706
assle	-13.1707
ippity	-13.1709
genic	-13.171
isinfect	-13.171
▁precis	-13.1711
lenium	-13.1713
risp	-13.1714
▁invoke	-13.1714
▁salute	-13.1714
xult	-13.1715
▁kidd	-13.1715
ndict	-13.1717
narl	-13.1717
alva	-13.1717
▁chopp	-13.1717
configured	-13.1718
hitlord	-13.1718
elephone	-13.1718
olie	-13.1719
▁screech	-13.172
ecency	-13.1721
▁prestig	-13.1721
ntervention	-13.1722
aption	-13.1724
eplica	-13.1724
▁sweep	-13.1725
▁forest	-13.1726
uintuple	-13.1726
▁quintuple	-13.1727
▁greet	-13.1729
▁nickname	-13.1733
urian	-13.1733
▁weasel	-13.1734
nvestment	-13.1734
remembered	-13.1735
isinterpret	-13.1736
▁telephone	-13.1736
elicious	-13.1738
imper	-13.1739
filed	-13.1739
artoon	-13.1739
ascism	-13.1739
oncise	-13.174
▁lurch	-13.174
▁brot	-13.1741
▁plea	-13.1741
eepee	-13.1741
▁organiz	-13.1741
▁banged	-13.1741
terminated	-13.1742
ideway	-13.1744
representation	-13.1746
umbe	-13.1746
▁stung	-13.1746
skap	-13.1747
agua	-13.1748
▁loiter	-13.1748
olerate	-13.1749
nject	-13.1752
▁pooh	-13.1755
▁defend	-13.1756
himm	-13.1759
▁contest	-13.176
ubic	-13.1761
ntention	-13.1763
ixer	-13.1763
▁trott	-13.1764
notch	-13.1765
▁cooperat	-13.1765
▁eliminat	-13.1765
accounted	-13.1765
ompetitive	-13.1767
upose	-13.1768
▁crep	-13.1769
erioul	-13.177
arning	-13.177
unct	-13.1772
igender	-13.1772
langer	-13.1772
▁desert	-13.1773
ransmission	-13.1774
mager	-13.1774
▁warrant	-13.1775
ecomend	-13.1776
▁cuddl	-13.1778
arren	-13.1779
creech	-13.178
▁teach	-13.1781
ownvo	-13.1782
▁verge	-13.1784
eeler	-13.1784
ankle	-13.1785
▁misinterpret	-13.1787
lerk	-13.1789
efrain	-13.179
▁spitt	-13.1792
lague	-13.1792
stronaut	-13.1792
esect	-13.1793
lleged	-13.1795
redential	-13.1796
olent	-13.1797
▁cement	-13.1797
viation	-13.1798
▁resigned	-13.1799
implemented	-13.1807
▁plateau	-13.1808
ramatical	-13.1809
▁goggle	-13.181
▁paddle	-13.1812
overnment	-13.1812
emorse	-13.1813
acerate	-13.1814
pposition	-13.1819
respass	-13.1819
assin	-13.1819
▁fluid	-13.1819
andan	-13.1821
ersecute	-13.1823
mpression	-13.1823
acktrack	-13.1824
okay	-13.1826
▁squeez	-13.1826
ivalry	-13.1828
ppropriation	-13.183
ntroduce	-13.1831
ltimate	-13.1832
▁trespass	-13.1834
odon	-13.1836
esert	-13.1836
orecast	-13.1837
inglet	-13.1837
▁refrain	-13.1837
▁orangered	-13.1839
▁creak	-13.1839
lazo	-13.184
resort	-13.184
afari	-13.1841
ère	-13.1842
eflection	-13.1845
ispute	-13.1845
evalue	-13.1846
▁bruise	-13.1846
▁tattoo	-13.1849
quality	-13.1851
ecreational	-13.1852
rücken	-13.1853
magination	-13.1854
iscuit	-13.1857
eatherwork	-13.1858
mayo	-13.1861
crabble	-13.1862
espring	-13.1863
hime	-13.1866
manoha	-13.1867
xpert	-13.1868
ätten	-13.1872
altered	-13.1874
ersevere	-13.1876
▁assault	-13.1878
▁renew	-13.188
▁lynch	-13.1882
umption	-13.1882
tickie	-13.1882
selected	-13.1884
levator	-13.1885
urren	-13.1888
udget	-13.1889
reroll	-13.189
trange	-13.1891
alvage	-13.1893
olution	-13.1893
issy	-13.1893
uteness	-13.1893
▁spasm	-13.1893
nique	-13.1893
▁trekk	-13.1894
ppression	-13.1895
utgrow	-13.1895
perceived	-13.1895
discovery	-13.1896
glued	-13.1897
▁endear	-13.19
▁honour	-13.19
▁disdain	-13.19
▁pounce	-13.1905
ecoil	-13.1908
omprehension	-13.191
isinformation	-13.191
▁fluctuat	-13.191
▁muster	-13.191
▁option	-13.1913
▁haggle	-13.1914
ndear	-13.1914
▁gym	-13.1914
completed	-13.1921
lbow	-13.1922
creenshot	-13.1926
conquered	-13.1926
uplicate	-13.1927
lotter	-13.1931
▁secede	-13.1931
osé	-13.1933
▁subsist	-13.1933
roduction	-13.1933
raser	-13.1934
eferential	-13.1934
▁steal	-13.1935
ickname	-13.1936
▁negativ	-13.1936
ontinent	-13.1937
etten	-13.1938
lateau	-13.1938
aviar	-13.1939
readmill	-13.1941
thwart	-13.1941
settled	-13.1942
lergy	-13.1942
▁backtrack	-13.1944
▁marvel	-13.1945
ulley	-13.1947
rossdress	-13.1947
eforest	-13.1947
rainstorm	-13.1947
▁convert	-13.1947
emotion	-13.1948
ddamn	-13.1951
ympathize	-13.1952
▁tripled	-13.1955
arring	-13.1956
echarge	-13.1958
▁sympathize	-13.1958
bowed	-13.1958
▁jest	-13.1959
allacy	-13.196
riage	-13.1961
▁tempe	-13.1962
ictor	-13.1963
cientist	-13.1964
hemo	-13.1967
ssault	-13.1969
catter	-13.197
▁slump	-13.197
ntagonize	-13.1972
▁salvage	-13.1973
ouka	-13.1976
remble	-13.1977
ontroversial	-13.1978
▁minister	-13.1978
rphan	-13.1978
isgrace	-13.1979
ignificant	-13.198
clicker	-13.198
ainbow	-13.1983
▁meet	-13.1983
ökte	-13.1987
▁flour	-13.1988
appa	-13.199
▁tremble	-13.1991
ahn	-13.1992
rizz	-13.1993
roil	-13.1995
ntersect	-13.1997
ntrinsic	-13.1997
▁muff	-13.1997
evastate	-13.1998
ubmarine	-13.1999
ualism	-13.2001
lither	-13.2001
nterfere	-13.2001
ccurate	-13.2003
▁hurdle	-13.2006
▁groove	-13.2006
ennel	-13.2006
▁couch	-13.2008
bhor	-13.2009
onditional	-13.2009
▁deserved	-13.2011
▁sprawl	-13.2011
droppe	-13.2012
ntrust	-13.2014
shamed	-13.2015
ntire	-13.2016
acepalm	-13.2019
attoo	-13.2019
esurge	-13.2019
urprising	-13.2019
▁focused	-13.2023
ternity	-13.2024
nvestigate	-13.2024
estory	-13.2027
▁jockey	-13.2027
▁shaked	-13.2029
counted	-13.2029
▁facepalm	-13.2029
venue	-13.2031
▁internaliz	-13.2031
▁wrist	-13.2032
otorious	-13.2034
ratification	-13.2035
oncoct	-13.2038
racket	-13.2039
▁widen	-13.2039
▁billow	-13.2039
terilize	-13.204
served	-13.2041
urglar	-13.2042
ooby	-13.2042
nare	-13.2044
ahan	-13.2046
ordination	-13.2047
▁gulp	-13.2048
▁concurr	-13.2049
ituational	-13.2049
arnie	-13.205
▁glare	-13.205
artograph	-13.2051
oleum	-13.2054
stabbed	-13.2054
icat	-13.2056
oexist	-13.2057
▁shove	-13.2059
xis	-13.206
likt	-13.206
eiterate	-13.2061
ommision	-13.2062
▁taunt	-13.2062
▁sour	-13.2062
▁crochet	-13.2064
oyu	-13.2064
а	-13.2067
kämt	-13.2068
ungal	-13.2071
▁lawyer	-13.2073
harass	-13.2073
utze	-13.2074
ttempt	-13.2074
osent	-13.2074
uous	-13.2075
▁fiction	-13.2075
▁merc	-13.2076
ayyy	-13.2076
▁capital	-13.2079
wiesen	-13.208
cythe	-13.2082
ccassional	-13.2083
ierd	-13.2084
zipped	-13.2085
▁minimal	-13.2087
▁smuggl	-13.2088
▁slither	-13.2088
oncrete	-13.2088
nning	-13.2088
▁perus	-13.209
abia	-13.2091
aboon	-13.2092
▁crapp	-13.2093
▁extract	-13.2096
▁acquiesce	-13.2099
▁stomp	-13.2099
▁mutin	-13.2099
remendous	-13.2099
aemon	-13.21
issued	-13.2102
erplex	-13.2102
▁founder	-13.2103
ubtle	-13.2103
thral	-13.2104
▁elbow	-13.2105
▁convey	-13.2105
raik	-13.2106
rocessor	-13.2106
▁redirect	-13.2107
▁orphan	-13.2107
djoin	-13.2108
▁skank	-13.2109
orax	-13.2109
surfed	-13.211
iquif	-13.211
avis	-13.2111
nload	-13.2112
zak	-13.2112
national	-13.2113
▁whisk	-13.2115
▁gimbal	-13.2116
lber	-13.2116
versee	-13.2116
▁avenge	-13.212
enew	-13.212
nix	-13.2122
▁travel	-13.2122
ulge	-13.2123
▁compliment	-13.2124
▁regret	-13.2124
emograph	-13.2125
▁whinge	-13.2126
▁display	-13.2127
nevitab	-13.213
▁dispers	-13.2133
descended	-13.2134
nternalize	-13.2134
amman	-13.2137
▁heave	-13.2139
isquiet	-13.214
eontology	-13.214
▁glimmer	-13.2144
burb	-13.2144
corre	-13.2145
tructural	-13.2145
equin	-13.2146
▁excell	-13.2147
ilkscreen	-13.2148
asual	-13.2151
▁steep	-13.2151
▁fealt	-13.2152
▁climax	-13.2153
limmer	-13.2157
rochet	-13.2157
lreay	-13.2157
anko	-13.2158
▁twink	-13.2161
oundproof	-13.2161
lasti	-13.2162
obey	-13.2162
jws	-13.2163
▁bugged	-13.2164
nchant	-13.2165
nappropriate	-13.2166
heetoh	-13.217
ounterfeit	-13.217
▁platform	-13.2171
evisa	-13.2171
arrage	-13.2171
oalesce	-13.2173
quitted	-13.2173
▁tromp	-13.2173
ahoo	-13.2175
nterupt	-13.2176
stacke	-13.2176
ndex	-13.2177
esitate	-13.2177
▁bulge	-13.2177
▁service	-13.2178
elective	-13.2181
▁cater	-13.2181
roeg	-13.2184
ronoun	-13.2184
potted	-13.2185
▁shimmer	-13.2186
▁farted	-13.2186
▁terroris	-13.2186
uut	-13.2187
eavil	-13.2188
▁recharge	-13.2189
atl	-13.219
▁balk	-13.2192
ambit	-13.2194
anilla	-13.2194
▁coalesce	-13.2194
ourish	-13.2196
verdo	-13.2197
▁preserve	-13.2198
ephi	-13.2198
pprentice	-13.2198
▁complet	-13.2198
burnt	-13.2199
ndoor	-13.22
moosh	-13.2203
▁steadi	-13.2207
profile	-13.2207
▁guilt	-13.2208
pence	-13.2209
hammed	-13.2209
▁censor	-13.2209
esound	-13.221
ohm	-13.221
zoo	-13.2212
▁naturalis	-13.2212
cquiesce	-13.2212
▁rapid	-13.2212
▁revive	-13.2213
ittie	-13.2214
▁socialis	-13.2216
generated	-13.2217
▁imprison	-13.2218
▁edited	-13.2219
nternal	-13.2219
▁clench	-13.2219
ersuit	-13.222
nhibit	-13.2222
▁retain	-13.2222
otif	-13.2222
raith	-13.2224
▁soci	-13.2224
isbelieve	-13.2224
▁attain	-13.2225
▁cackle	-13.2225
iracetam	-13.2227
killnad	-13.2228
paste	-13.2233
▁scrabble	-13.2233
qualise	-13.2233
emodel	-13.2234
▁poker	-13.2235
▁swoop	-13.2237
▁relax	-13.2238
nfair	-13.2242
idney	-13.2243
ayment	-13.2245
croogle	-13.2246
▁glisten	-13.2247
▁feature	-13.2249
latform	-13.225
ursue	-13.2251
matched	-13.2253
ompound	-13.2255
apor	-13.2255
arranged	-13.2255
ounterbalance	-13.2257
rrible	-13.2257
ispose	-13.2258
leasure	-13.2259
▁intellect	-13.226
▁disbelieve	-13.226
ligh	-13.2261
emonstra	-13.2262
▁twirl	-13.2263
▁implant	-13.2263
egate	-13.2263
othered	-13.2264
stern	-13.2265
nhale	-13.2266
oooon	-13.2266
oticeabl	-13.2266
▁pursue	-13.2267
coli	-13.2267
▁copyright	-13.2268
ombust	-13.2268
plit	-13.2269
▁abolish	-13.227
himmer	-13.2271
▁compound	-13.2272
abinet	-13.2273
reaking	-13.2273
outube	-13.2274
▁prance	-13.2276
harte	-13.2276
ncident	-13.2277
erlei	-13.2277
unnet	-13.2278
▁clamp	-13.2279
robabl	-13.2279
mputation	-13.228
ciate	-13.228
uack	-13.2281
onverge	-13.2282
▁tradition	-13.2282
leepwalk	-13.2283
apse	-13.2284
attached	-13.2284
▁infect	-13.2286
hloroform	-13.2286
ifficult	-13.2286
ympathise	-13.2287
supplied	-13.2289
vod	-13.2291
ightstone	-13.2292
andwagon	-13.2293
tarve	-13.2294
▁glamor	-13.2295
▁idé	-13.2295
olish	-13.2298
▁repeat	-13.2299
rowse	-13.23
▁transmitt	-13.2301
costume	-13.2302
istinct	-13.2302
▁brood	-13.2302
▁blabbe	-13.2304
▁scour	-13.2304
oux	-13.2305
aterialise	-13.2306
▁doz	-13.2306
▁bandwagon	-13.2309
espondent	-13.2309
eander	-13.2309
insanity	-13.2309
addressed	-13.2309
allu	-13.231
appende	-13.231
▁cremat	-13.2311
aaaaaaaaaaaa	-13.2312
omson	-13.2312
retta	-13.2313
mplant	-13.2314
prawl	-13.2314
asque	-13.2314
▁added	-13.2315
ealization	-13.2316
anyon	-13.2318
sychology	-13.2318
▁tread	-13.2319
leanse	-13.2319
▁transcend	-13.232
▁sleepwalk	-13.2322
rrational	-13.2323
ruce	-13.2323
isqualif	-13.2324
isteria	-13.2325
umbler	-13.2327
mmitte	-13.2329
rading	-13.2331
apitulate	-13.2332
urreal	-13.2332
raphic	-13.2332
▁decimat	-13.2333
▁clack	-13.2334
opyright	-13.2335
tudio	-13.2335
purchased	-13.2336
stimation	-13.2337
▁debut	-13.2339
▁retaliat	-13.234
eabag	-13.234
mprison	-13.2341
teady	-13.2341
xxxxxxxxxxxxxxxx	-13.2341
encore	-13.2342
rejudice	-13.2345
▁underthr	-13.2345
▁wheeze	-13.2349
helf	-13.2349
▁moba	-13.2351
▁cleanse	-13.2351
ioneer	-13.2352
nderthr	-13.2353
änna	-13.2353
pposite	-13.2353
sker	-13.2354
▁pioneer	-13.2355
hereof	-13.2357
▁reiterat	-13.2358
ejection	-13.2358
espise	-13.2359
▁comet	-13.236
▁improvis	-13.236
ulted	-13.2361
onceive	-13.2363
emple	-13.2364
uccesful	-13.2365
gni	-13.237
▁overthr	-13.2371
winge	-13.2371
trader	-13.2371
▁weas	-13.2374
illian	-13.2375
▁inhale	-13.2375
hyv	-13.2375
lothesline	-13.2377
erification	-13.2378
amouflage	-13.2379
efiner	-13.238
blazon	-13.238
▁choose	-13.2381
▁meow	-13.2382
argain	-13.2383
▁immediat	-13.2383
▁upvote	-13.2384
▁liberalis	-13.2385
hoice	-13.2385
ryps	-13.2385
ehumanize	-13.2386
calibrated	-13.2386
essential	-13.2386
▁customize	-13.2387
issure	-13.2387
tud	-13.2389
▁slapp	-13.239
atchup	-13.2393
▁despise	-13.2394
lonk	-13.2395
ackstab	-13.2396
▁scorch	-13.2397
isintegrate	-13.2399
▁transition	-13.2399
hristen	-13.2399
▁fiddle	-13.2401
▁succed	-13.2403
ustomize	-13.2403
isspell	-13.2404
ostle	-13.2405
mulate	-13.2405
▁coil	-13.2407
wasted	-13.2407
invite	-13.2407
specifical	-13.2409
bsolute	-13.241
ompose	-13.241
▁respon	-13.2411
etexture	-13.2411
urture	-13.2411
isss	-13.2412
▁hibernat	-13.2415
urley	-13.2417
hili	-13.2418
xcept	-13.2419
rudging	-13.2419
imiliar	-13.242
emorize	-13.2422
oyal	-13.2425
verrun	-13.2426
▁tapped	-13.2426
buse	-13.2427
▁effectiv	-13.2427
oever	-13.2428
ecall	-13.2433
corch	-13.2433
evive	-13.2434
igid	-13.2435
▁whopp	-13.2436
▁ponder	-13.2436
chemical	-13.2437
ominal	-13.2437
summoned	-13.2438
▁conven	-13.2438
▁scold	-13.2441
ricket	-13.2443
crounge	-13.2444
arinade	-13.2445
▁relent	-13.2446
tew	-13.2447
umple	-13.2447
lurry	-13.2448
bsolu	-13.2448
earrange	-13.2449
ervant	-13.245
keleton	-13.245
scillate	-13.245
oggin	-13.245
▁rebu	-13.2451
▁jaywalk	-13.2451
demonstrated	-13.2451
necdotal	-13.2451
▁disapprov	-13.2452
cenario	-13.2453
allus	-13.2453
wiftkey	-13.2456
edicure	-13.2456
prinkle	-13.246
ackin	-13.2463
▁gutt	-13.2466
epay	-13.2466
quelch	-13.2466
ousing	-13.2467
▁underperform	-13.2467
▁disgrace	-13.2469
avesdrop	-13.247
▁scrounge	-13.247
▁squint	-13.247
▁pens	-13.2471
arallel	-13.2471
▁rebell	-13.2472
ossess	-13.2472
▁skyp	-13.2472
ntze	-13.2473
▁hax	-13.2474
▁whe	-13.2475
bscure	-13.2476
rouble	-13.2476
edirect	-13.2477
▁travers	-13.2477
▁guest	-13.2477
ialect	-13.2478
hisk	-13.2478
ubsist	-13.2479
lauged	-13.2481
yramid	-13.2481
platter	-13.2481
▁transmut	-13.2483
▁flatter	-13.2483
ardis	-13.2483
▁moment	-13.2484
▁sprinkle	-13.2485
respective	-13.2486
▁sneer	-13.2488
hamble	-13.2488
vious	-13.2488
otom	-13.2489
▁increment	-13.2489
enis	-13.2491
▁reclaim	-13.2491
religious	-13.2491
opor	-13.2492
isapprove	-13.2492
olocate	-13.2493
olten	-13.2493
ediment	-13.2493
thirst	-13.2495
▁mistrust	-13.2495
efrence	-13.2497
ruta	-13.2498
▁international	-13.2498
redesign	-13.2499
▁perv	-13.25
ammal	-13.2501
▁vill	-13.2506
▁animate	-13.2506
ecrete	-13.2507
ulo	-13.2507
nfringe	-13.2508
▁sulk	-13.2508
riggle	-13.251
▁ventur	-13.2511
▁knife	-13.2513
ishonor	-13.2513
upplant	-13.2513
▁stoop	-13.2514
▁doctor	-13.2514
giver	-13.2514
emainder	-13.2515
ermaid	-13.2516
▁recurr	-13.2517
lån	-13.2518
timulate	-13.2518
▁slamm	-13.2518
kein	-13.2519
nfusion	-13.2519
pasm	-13.2521
herewith	-13.2522
▁crackle	-13.2522
rowning	-13.2522
tamper	-13.2524
eiwe	-13.2525
realm	-13.2526
oval	-13.2526
eblog	-13.2527
▁blessed	-13.2527
pathetic	-13.2532
▁could	-13.2533
▁replicat	-13.2535
itchhike	-13.2535
alloc	-13.2536
igivolve	-13.2537
▁hemorrhag	-13.2538
nstant	-13.254
▁sizzl	-13.254
perate	-13.2541
nclave	-13.2541
▁hitchhike	-13.2545
cepte	-13.2546
▁plopp	-13.2547
iggo	-13.2547
ebrief	-13.2548
ytte	-13.2548
cited	-13.2552
roduc	-13.2552
seudo	-13.2553
iaoweixiao	-13.2555
uncture	-13.2556
trang	-13.2557
kirk	-13.2559
elfish	-13.256
▁expell	-13.256
cura	-13.256
quirrel	-13.2563
eceiver	-13.2564
ontempt	-13.2567
eautiful	-13.257
ndirect	-13.257
itual	-13.2571
noculate	-13.2572
uperhero	-13.2572
rouch	-13.2572
▁digivolve	-13.2574
redid	-13.2574
ogfight	-13.2574
razer	-13.2576
▁frill	-13.2581
oonwalke	-13.2581
orised	-13.2584
pologise	-13.2586
ubstep	-13.2587
sterisk	-13.2588
ång	-13.2588
ilitari	-13.2589
easonably	-13.2591
agnif	-13.2592
▁comit	-13.2593
▁stew	-13.2594
rofound	-13.2595
divided	-13.2595
▁generic	-13.2598
elector	-13.2598
änger	-13.2598
▁probab	-13.2599
▁doodle	-13.26
xpansion	-13.2601
ölj	-13.2601
xercise	-13.2601
iscord	-13.2602
ounterattack	-13.2605
▁seethe	-13.2606
atience	-13.2608
▁frogg	-13.2609
eleb	-13.261
▁religion	-13.2616
hwack	-13.2616
▁scowl	-13.2616
iscretion	-13.2616
reathalyze	-13.2616
▁brace	-13.2617
ifle	-13.2617
igurative	-13.2618
▁alarm	-13.2618
▁ravage	-13.2618
vah	-13.2619
alpa	-13.2619
amla	-13.2619
ickel	-13.262
ntology	-13.2621
lizzard	-13.2627
▁counterattack	-13.2627
▁legalize	-13.263
▁exercise	-13.2631
imultaneous	-13.2632
nalyze	-13.2632
nterval	-13.2632
▁exhal	-13.2633
hoof	-13.2633
lossom	-13.2633
▁forgett	-13.2633
▁apologise	-13.2634
jp	-13.2634
elentless	-13.2635
▁discord	-13.2635
ygge	-13.2635
eptim	-13.2636
▁minute	-13.2639
▁princip	-13.2639
igitize	-13.2641
lafel	-13.2641
resident	-13.2643
ranscend	-13.2644
xtort	-13.2648
▁resound	-13.2648
hipping	-13.2649
nsulin	-13.265
unshin	-13.265
▁thunk	-13.2652
ausal	-13.2652
eki	-13.2654
nxious	-13.2656
▁consist	-13.2657
thng	-13.2658
arting	-13.2661
ž	-13.2662
▁impuls	-13.2662
enrich	-13.2663
uote	-13.2666
izor	-13.2667
intelligence	-13.2667
mpale	-13.2667
latline	-13.2668
ynthesize	-13.2668
cussed	-13.2668
uotsi	-13.267
orsen	-13.267
bolish	-13.267
akai	-13.2671
hizz	-13.2672
riter	-13.2675
▁writ	-13.2676
hainsaw	-13.2677
▁pulsat	-13.2677
riangulate	-13.2677
provecha	-13.2679
▁universal	-13.268
omicile	-13.268
▁defeat	-13.2681
tuggle	-13.2682
amacy	-13.2682
ncumber	-13.2683
inden	-13.2683
hetoric	-13.2683
▁wriggl	-13.2685
ixi	-13.2686
▁impale	-13.2688
vegan	-13.269
urin	-13.2692
seudonym	-13.2693
ictionary	-13.2696
▁starve	-13.2696
▁gripe	-13.2698
ransition	-13.2698
azoo	-13.2701
▁dicker	-13.2702
ractal	-13.2702
▁obligat	-13.2704
sätta	-13.2704
rganisation	-13.2705
nderperform	-13.2707
orkscrew	-13.2708
ukkake	-13.2708
remium	-13.2709
▁quibble	-13.2709
▁stemm	-13.2709
talemate	-13.271
uperstar	-13.271
▁analyze	-13.2711
lotch	-13.2714
iscourage	-13.2714
orva	-13.2714
produced	-13.2718
hotel	-13.2722
▁rename	-13.2722
eleport	-13.2722
etere	-13.2725
arbour	-13.2725
mersion	-13.2725
fended	-13.2727
porta	-13.2728
▁disintegrat	-13.2728
verwhelming	-13.2729
▁scoop	-13.2729
oincidental	-13.2731
abrá	-13.2732
▁squirm	-13.2732
ortrait	-13.2733
▁exclusiv	-13.2734
▁shaft	-13.2734
urvivor	-13.2734
nherent	-13.2735
tiffen	-13.2737
onnet	-13.2737
▁flatline	-13.2738
nfiltrate	-13.2738
onsort	-13.2739
onglomerate	-13.2739
xperiance	-13.2739
nput	-13.274
ajar	-13.2742
nception	-13.2743
mbark	-13.2745
arjack	-13.2746
xcessive	-13.2746
akama	-13.2747
ishtail	-13.2749
crimmage	-13.275
▁legitimat	-13.2752
▁waiver	-13.2753
umpstart	-13.2753
andomize	-13.2755
▁jumpstart	-13.2756
▁endorse	-13.2756
ufficient	-13.2757
luescreen	-13.2758
ynthetic	-13.2759
▁sodom	-13.276
andpaper	-13.276
▁embark	-13.2761
utrageous	-13.2762
ibernate	-13.2763
aggin	-13.2764
cution	-13.2767
revail	-13.2767
ebroadcast	-13.2767
▁coach	-13.2767
▁grenad	-13.2769
erialize	-13.2769
▁jott	-13.2769
о	-13.277
örlora	-13.277
ontruct	-13.2772
hq	-13.2773
amiento	-13.2774
▁monarch	-13.2776
iblical	-13.2776
▁glint	-13.2776
antomime	-13.2776
▁thrill	-13.2777
edevac	-13.2777
▁narrow	-13.2779
height	-13.2779
▁prevail	-13.278
▁chek	-13.2781
enue	-13.2782
▁fatal	-13.2783
uller	-13.2783
uthentic	-13.2784
toop	-13.2784
ngest	-13.2784
etrieve	-13.2785
hahahahahahahaha	-13.2785
idicule	-13.2786
ttention	-13.2787
▁scrimmage	-13.279
▁waltz	-13.279
dmire	-13.279
izan	-13.279
▁pav	-13.2791
▁buri	-13.2792
ranscribe	-13.2792
emarkabl	-13.2794
▁knee	-13.2794
atient	-13.2794
▁audition	-13.2794
ocialize	-13.2794
▁pantomime	-13.2795
ordered	-13.2796
joll	-13.2798
▁blog	-13.2801
djourn	-13.2801
xhibit	-13.2801
gnosticism	-13.2802
ilico	-13.2802
marsh	-13.2802
erfe	-13.2803
ornet	-13.2804
ći	-13.2806
▁stagger	-13.2807
tabilize	-13.2807
▁shrink	-13.2808
▁scorn	-13.2809
▁digitize	-13.2809
▁transcribe	-13.2811
▁loooove	-13.2811
xtend	-13.2813
▁humm	-13.2813
urret	-13.2815
esex	-13.2815
allout	-13.2817
tairs	-13.2818
ptimise	-13.282
eeline	-13.282
diale	-13.282
▁watercool	-13.282
ejoice	-13.2822
endition	-13.2822
▁retreat	-13.2822
mpute	-13.2823
arpool	-13.2823
glas	-13.2824
▁fishtail	-13.2825
▁circ	-13.2826
ticker	-13.2826
sexually	-13.2827
agress	-13.2828
▁unload	-13.2828
unzer	-13.2828
lamour	-13.2829
▁carpool	-13.283
ouk	-13.2831
▁clamber	-13.2832
ttain	-13.2832
nstitute	-13.2834
otive	-13.2834
▁wallop	-13.2835
blown	-13.2836
farmed	-13.2837
aiter	-13.2837
sered	-13.2837
icio	-13.2837
▁gloss	-13.2839
▁consort	-13.2839
omanize	-13.2839
uggie	-13.284
▁stamped	-13.284
▁stiffen	-13.2841
▁occour	-13.2841
ssualt	-13.2842
▁rejoice	-13.2843
enie	-13.2843
ncomplete	-13.2844
isassemble	-13.2845
tabilise	-13.2846
▁txt	-13.2848
talic	-13.2848
▁thrust	-13.2848
▁handball	-13.2849
irtual	-13.2849
▁frigg	-13.2849
etaliate	-13.2849
▁converg	-13.285
onvey	-13.2851
▁planet	-13.2852
eaver	-13.2852
▁microwave	-13.2855
▁trebl	-13.2855
lueshift	-13.2857
mplode	-13.2859
▁relis	-13.2859
▁wreak	-13.2859
epression	-13.286
▁fibb	-13.2861
trech	-13.2861
ndersteer	-13.2862
tiende	-13.2862
ubjugate	-13.2863
ratuit	-13.2864
heorycraft	-13.2865
atalogue	-13.2866
imilar	-13.2866
▁understeer	-13.2866
lwas	-13.2866
herrypick	-13.2867
wesom	-13.2869
▁implode	-13.2869
uibble	-13.2869
▁remind	-13.287
▁digress	-13.2871
▁maintain	-13.2872
▁oppen	-13.2872
valuation	-13.2873
köt	-13.2873
wimming	-13.2874
narchism	-13.2876
▁socialize	-13.2876
rolapse	-13.2877
▁shampoo	-13.2878
oncho	-13.2878
oliday	-13.2878
olera	-13.2879
▁assumed	-13.2879
▁blubber	-13.2879
imney	-13.288
gifter	-13.2882
urile	-13.2883
etell	-13.2883
▁holiday	-13.2884
scrib	-13.2884
▁solicit	-13.2885
uttfucke	-13.2885
▁drudge	-13.2885
▁gass	-13.2886
atata	-13.2891
ncover	-13.2891
uggs	-13.2892
ujar	-13.2893
antalize	-13.2893
enzo	-13.2893
rnament	-13.2894
hauffeur	-13.2895
ropagandis	-13.2895
ollercoaster	-13.2895
irman	-13.2896
erosol	-13.2896
▁uninstall	-13.2896
▁detain	-13.2897
tereotype	-13.2897
orpor	-13.2898
eorient	-13.2899
luorin	-13.29
ttribute	-13.29
hisel	-13.29
ransmute	-13.2902
akk	-13.2903
▁smarten	-13.2904
anguish	-13.2905
eminisce	-13.2905
▁scarf	-13.2906
layoff	-13.2906
nstagram	-13.2906
▁tingle	-13.2906
▁computer	-13.2906
arehouse	-13.2907
▁waz	-13.2907
hwere	-13.2908
liff	-13.2908
▁retract	-13.2908
oublecheck	-13.2909
▁beleiv	-13.2913
▁dishonor	-13.2913
väg	-13.2914
organized	-13.2914
eeeeal	-13.2915
ransit	-13.2915
▁grovel	-13.2916
rava	-13.2916
▁instagram	-13.2917
ractise	-13.2917
ongregate	-13.2917
eappear	-13.2917
▁shake	-13.2917
▁fabric	-13.2918
▁erase	-13.2918
eezer	-13.2918
▁cobble	-13.2918
ncision	-13.292
carper	-13.292
vercorrect	-13.2922
airline	-13.2923
▁brutalis	-13.2924
juda	-13.2924
hunderbolt	-13.2927
upervisor	-13.2927
▁slobb	-13.2927
committed	-13.2927
engan	-13.2927
ubberband	-13.2928
▁combine	-13.2928
ideline	-13.2929
ltp	-13.2929
utfit	-13.2929
▁disassemble	-13.293
uffalo	-13.293
anction	-13.293
▁poach	-13.2932
ombie	-13.2934
uppeteer	-13.2934
rehab	-13.2935
▁desist	-13.2935
eddle	-13.2935
▁abstain	-13.2935
▁shiver	-13.2936
onograph	-13.2937
eallly	-13.2937
▁bald	-13.2938
oign	-13.2939
▁reappear	-13.2939
arlock	-13.2939
▁memorize	-13.294
efficiency	-13.2941
ariah	-13.2941
▁grasp	-13.2941
▁notici	-13.2942
▁chisel	-13.2943
▁turbo	-13.2945
▁doublecheck	-13.2945
▁whimper	-13.2945
iscreet	-13.2946
kitter	-13.2948
ndent	-13.2948
himper	-13.2949
▁randomize	-13.2949
pstair	-13.295
▁sacrific	-13.2951
atrol	-13.2951
latte	-13.2952
▁decrypt	-13.2952
rotective	-13.2952
▁treasure	-13.2954
manate	-13.2958
oundation	-13.2958
▁glitter	-13.2958
ntepret	-13.2958
earling	-13.2959
onzo	-13.296
nterface	-13.296
▁harsh	-13.2961
utward	-13.2962
▁molt	-13.2962
hronicle	-13.2963
ransubstantiat	-13.2965
ngrave	-13.2966
alance	-13.2967
requent	-13.2967
hammy	-13.297
urbo	-13.297
rofession	-13.297
wivel	-13.297
adda	-13.2971
hrust	-13.2972
uscarl	-13.2972
rivet	-13.2973
urpris	-13.2974
rtg	-13.2975
ransaction	-13.2976
hanty	-13.2979
urpass	-13.2979
rinkle	-13.298
kew	-13.2984
athom	-13.2984
orsch	-13.2986
kada	-13.2987
irate	-13.2987
rinate	-13.2987
alicious	-13.2988
roductivity	-13.2989
ortification	-13.2989
isnt	-13.299
entacle	-13.2991
▁jarr	-13.2992
nverse	-13.2993
▁stabilize	-13.2994
endezvous	-13.2995
steem	-13.2995
ollerblade	-13.2995
▁flounder	-13.2995
▁crisp	-13.2996
pplejack	-13.2997
leece	-13.2998
ranted	-13.2998
▁shambl	-13.2999
custome	-13.2999
▁misstep	-13.2999
egrip	-13.2999
eatstick	-13.2999
abella	-13.3
ppologise	-13.3001
▁inspire	-13.3001
▁waggle	-13.3003
easer	-13.3005
lounder	-13.3005
ealllllly	-13.3005
ickup	-13.3006
ealllly	-13.3006
spurr	-13.3007
atsup	-13.3009
▁swivel	-13.3009
ottie	-13.3009
ubside	-13.301
afeguard	-13.3012
ireless	-13.3013
▁skitter	-13.3014
quall	-13.3014
onnive	-13.3015
▁rendezvous	-13.3016
▁rollerblade	-13.3016
▁meteor	-13.3018
acit	-13.3019
xpatriate	-13.3021
onservation	-13.3021
ismantle	-13.3023
▁detail	-13.3023
efinance	-13.3024
ecompress	-13.3024
▁pattern	-13.3025
osibilit	-13.3025
adre	-13.3025
ecause	-13.3025
ifference	-13.3026
lectrical	-13.3027
ompliance	-13.3027
etonate	-13.3028
▁deepen	-13.303
▁male	-13.3031
▁clubb	-13.3032
▁adult	-13.3033
▁bluff	-13.3034
ndless	-13.3034
bduction	-13.3035
effinet	-13.3038
▁dominat	-13.3039
utomate	-13.304
▁sudden	-13.304
hapstick	-13.3041
▁approximat	-13.3043
▁neckbeard	-13.3043
ortnight	-13.3044
dentification	-13.3046
ynchronize	-13.3047
▁soften	-13.3047
implif	-13.3048
apitalism	-13.3049
tagged	-13.305
aporize	-13.3052
ypochondria	-13.3053
itocracy	-13.3053
▁practise	-13.3053
▁trundle	-13.3054
▁chalk	-13.3055
▁dismantle	-13.3055
▁retriev	-13.3055
ndorse	-13.3056
▁droop	-13.3057
astebin	-13.3057
cifer	-13.3059
▁record	-13.3059
▁pulp	-13.3059
ownshift	-13.306
addock	-13.306
eeeaall	-13.3061
▁mosey	-13.3063
▁suss	-13.3063
eodorize	-13.3064
▁clash	-13.3067
▁reject	-13.3067
loke	-13.3069
tycke	-13.3069
▁tied	-13.307
utocross	-13.307
sbuddy	-13.307
▁whale	-13.307
perant	-13.3073
schew	-13.3073
röst	-13.3075
▁apear	-13.3075
itory	-13.3076
▁stall	-13.3078
eseed	-13.3078
▁fot	-13.3079
▁scandal	-13.308
eethe	-13.308
▁interven	-13.3081
onisation	-13.3084
indication	-13.3086
njunction	-13.3086
▁sooth	-13.3087
egroup	-13.3088
rhyme	-13.3088
▁toil	-13.3088
guided	-13.3089
▁invalid	-13.3091
cram	-13.3091
▁trial	-13.3092
▁rikki	-13.3093
ebb	-13.3093
icrowave	-13.3094
ortgage	-13.3094
▁overcorrect	-13.3094
nstigate	-13.3095
▁nuzzle	-13.3096
atamine	-13.3098
avitation	-13.3098
agma	-13.3098
diocracy	-13.3098
hitelist	-13.3099
xistence	-13.31
eprieve	-13.3101
▁regime	-13.3101
energy	-13.3102
▁skii	-13.3103
anst	-13.3104
▁dud	-13.3107
▁justif	-13.311
▁bicker	-13.311
ubo	-13.311
eperate	-13.311
ompartment	-13.3115
efrigerate	-13.3117
î	-13.3117
reservation	-13.3117
ettison	-13.3117
igra	-13.3118
▁jettison	-13.3118
omahawk	-13.3118
educt	-13.3118
arbeque	-13.3119
▁journey	-13.3119
scaping	-13.3119
rodin	-13.312
▁twinkle	-13.312
▁whitelist	-13.312
nvyus	-13.312
njoin	-13.3121
alkie	-13.3123
horten	-13.3124
morality	-13.3124
otivate	-13.3126
ermi	-13.3127
urop	-13.3129
roger	-13.313
▁dawn	-13.313
issolve	-13.3131
alesman	-13.3132
▁incarnat	-13.3132
åstå	-13.3133
ompetent	-13.3133
elevise	-13.3134
utoattack	-13.3134
uffaw	-13.3135
lueprint	-13.3136
▁guffaw	-13.3137
emester	-13.3137
obbyist	-13.3138
▁skid	-13.314
▁detest	-13.3143
udden	-13.3143
orizontal	-13.3144
▁thrive	-13.3144
▁next	-13.3145
strong	-13.3145
entiment	-13.3146
candle	-13.3148
esetzt	-13.3149
houghtseize	-13.3149
udicrous	-13.3149
xtirpate	-13.3149
nshrine	-13.315
enotype	-13.315
▁bastard	-13.315
isburse	-13.315
▁loathe	-13.3151
iamond	-13.3152
haser	-13.3152
ismember	-13.3153
▁fangirl	-13.3154
▁stubb	-13.3155
▁protract	-13.3155
ectify	-13.3156
mbassador	-13.3157
▁smack	-13.3157
▁spam	-13.3158
▁false	-13.3159
▁registr	-13.3159
iglet	-13.3159
eflash	-13.3161
▁pluck	-13.3161
▁sympathis	-13.3161
xtensive	-13.3161
▁condemn	-13.3162
ouf	-13.3162
worde	-13.3163
ursor	-13.3163
hostwrit	-13.3163
etagame	-13.3163
▁oppo	-13.3164
xecution	-13.3164
privacy	-13.3165
ypothetical	-13.3165
▁visit	-13.3168
ungus	-13.3168
▁solder	-13.3171
rogressiv	-13.3171
iserabl	-13.3171
▁crucifi	-13.3171
▁poise	-13.3175
▁flicker	-13.3176
▁concrete	-13.3178
eallyyy	-13.3178
ecrypt	-13.3178
nvalid	-13.3179
▁infant	-13.318
ocken	-13.3181
roselytize	-13.3181
▁overcame	-13.3182
acrifi	-13.3182
ideswipe	-13.3182
▁dismember	-13.3183
wift	-13.3185
▁reminisc	-13.3186
reditor	-13.3187
ună	-13.3188
uron	-13.3191
eckbeard	-13.3191
▁autocross	-13.3193
chive	-13.3193
▁rumor	-13.3195
▁bleat	-13.3195
▁scrubb	-13.3197
utthurt	-13.3198
▁attract	-13.3198
blation	-13.3198
apless	-13.3198
forgotten	-13.3198
esbian	-13.3199
▁stroll	-13.32
▁humiliat	-13.32
leam	-13.3203
oisen	-13.321
▁induct	-13.321
fråga	-13.321
▁fidget	-13.3211
▁bellow	-13.3211
opdeck	-13.3211
ompensation	-13.3213
stretched	-13.3214
utoclave	-13.3214
eclusion	-13.3214
asebitch	-13.3215
egation	-13.3215
iggyback	-13.3215
onceptual	-13.3216
houjo	-13.3216
▁shew	-13.3216
chained	-13.3217
isobey	-13.3218
estrain	-13.3219
▁fizzle	-13.3219
hangelog	-13.322
obvious	-13.322
ydrate	-13.3222
hione	-13.3223
irion	-13.3223
▁flock	-13.3223
ennant	-13.3225
abid	-13.3227
▁bead	-13.3227
▁ditch	-13.3228
woon	-13.3228
onent	-13.3228
trongarm	-13.3229
igth	-13.3229
nonymize	-13.323
atisfied	-13.323
pledged	-13.323
lankton	-13.3233
▁institute	-13.3235
rejudge	-13.3237
▁quiver	-13.3237
▁hiccup	-13.3237
ationality	-13.3237
together	-13.3239
▁dispatch	-13.3239
picket	-13.324
▁crusade	-13.3241
orrib	-13.3242
randi	-13.3243
uiver	-13.3243
lacksmith	-13.3245
utility	-13.3245
portunity	-13.3246
sphyxiate	-13.3247
▁disobey	-13.3248
uccessful	-13.3249
▁poked	-13.3249
▁burl	-13.3249
▁explicit	-13.3249
ncircle	-13.3249
tudie	-13.3249
antine	-13.325
▁misbehav	-13.3252
odomize	-13.3253
resage	-13.3253
aystation	-13.3254
▁misjudg	-13.3254
▁needle	-13.3254
artwheel	-13.3255
enght	-13.3255
▁implore	-13.3256
▁choreograph	-13.3257
eapfrog	-13.3258
alendar	-13.3259
horeograph	-13.326
unbro	-13.3263
▁displace	-13.3265
rusade	-13.3266
▁leapfrog	-13.3266
exposed	-13.3267
tudent	-13.3267
▁bustle	-13.3268
allowed	-13.3268
istend	-13.3268
▁erect	-13.3268
elescope	-13.3269
▁travl	-13.327
industrial	-13.3272
istroy	-13.3273
▁cartwheel	-13.3273
▁abduct	-13.3275
rincipal	-13.3276
hameful	-13.3276
onologue	-13.3279
▁expressed	-13.328
▁whipped	-13.328
arwolf	-13.328
oathe	-13.3281
▁vassal	-13.3281
▁materializ	-13.3283
yberbull	-13.3285
aragraph	-13.3286
sourced	-13.3286
▁commit	-13.3287
protected	-13.3289
praypaint	-13.3289
▁knuckle	-13.329
▁overclock	-13.329
harped	-13.329
▁twas	-13.329
▁shuffle	-13.3291
threaded	-13.3291
ummage	-13.3293
elocate	-13.3294
rocede	-13.3296
▁podcast	-13.3296
▁fixed	-13.3298
▁howl	-13.3298
cured	-13.3298
▁uncover	-13.3299
mbargo	-13.3299
nzb	-13.3299
heelie	-13.33
ussin	-13.3302
▁seen	-13.3302
ationalist	-13.3303
▁stammer	-13.3304
aucus	-13.3304
ithstand	-13.3305
▁eschew	-13.3306
urantee	-13.3306
omersault	-13.3307
▁flinch	-13.3308
▁pepp	-13.3308
▁rummage	-13.3308
ifferentiate	-13.3309
loam	-13.331
einfect	-13.3311
entrifuge	-13.3311
xcercise	-13.3311
øje	-13.3313
omber	-13.3314
lycerin	-13.3314
rofane	-13.3315
▁grandfather	-13.3315
egeneration	-13.3315
onné	-13.3316
▁anoint	-13.3316
eanie	-13.3317
▁hearken	-13.3318
atronize	-13.3318
ebble	-13.3318
▁respond	-13.332
tammer	-13.3322
mplif	-13.3323
▁bling	-13.3327
circumcised	-13.3328
▁swish	-13.3328
hresh	-13.333
arbage	-13.3331
▁gratuit	-13.3332
ailment	-13.3333
iterate	-13.3333
▁cockblock	-13.3334
iscrimination	-13.3336
huffle	-13.3336
oluntari	-13.3337
intage	-13.3337
▁miscalculat	-13.3338
elise	-13.3339
colored	-13.3339
easy	-13.3339
isavow	-13.3342
amoflage	-13.3344
estaurant	-13.3344
bito	-13.3344
roletariat	-13.3345
romo	-13.3345
disputed	-13.3345
▁grunt	-13.3346
espectful	-13.3346
krim	-13.3346
econvert	-13.3346
tucked	-13.3346
blivious	-13.3347
▁somersault	-13.3347
▁tussle	-13.3348
▁smog	-13.3352
licking	-13.3354
▁knuckled	-13.3354
▁hydroplan	-13.3356
esus	-13.3357
orrelate	-13.3358
rauma	-13.3358
stable	-13.3358
▁scamper	-13.3359
▁synthesis	-13.3359
boken	-13.3359
ispatch	-13.3359
arrent	-13.336
▁misspoke	-13.336
▁peek	-13.336
▁ridicul	-13.3363
▁swtich	-13.3364
uspect	-13.3364
martphone	-13.3365
agazin	-13.3365
▁synthesize	-13.3365
retentious	-13.3366
ncorrect	-13.3366
▁booze	-13.3366
awwww	-13.3367
onfide	-13.3368
onspire	-13.337
raient	-13.3373
merch	-13.3377
nesthesia	-13.3377
ejuvenate	-13.3377
mnesia	-13.3377
dcs	-13.3377
efleja	-13.3377
▁require	-13.3377
isjudge	-13.3377
umbing	-13.3377
ssasinate	-13.3377
arthquake	-13.3378
odestone	-13.3379
▁disavow	-13.3379
ndefinite	-13.3379
earken	-13.3379
lickbait	-13.3379
elco	-13.338
▁sashay	-13.338
rioritise	-13.3381
▁related	-13.3381
ecuperate	-13.3381
rtosis	-13.3381
ormality	-13.3382
badon	-13.3382
røv	-13.3384
▁sicken	-13.3384
wtich	-13.3384
eseal	-13.3384
essel	-13.3386
sorted	-13.3386
blige	-13.3387
oget	-13.3389
ronn	-13.3389
▁medic	-13.3392
xotic	-13.3393
parte	-13.3393
ubricate	-13.3393
uthenticate	-13.3394
▁constitut	-13.3394
hurl	-13.3395
rimace	-13.3395
onderlic	-13.3395
▁datap	-13.3396
kade	-13.3396
anarchist	-13.3396
▁nudge	-13.3397
ehement	-13.3397
▁tooke	-13.3398
rawler	-13.3398
▁grimace	-13.3399
efroze	-13.3399
▁skipp	-13.34
estle	-13.34
historic	-13.34
ercive	-13.3401
ashion	-13.3401
▁clinch	-13.3401
▁splic	-13.3403
ehearse	-13.3407
entil	-13.3408
▁slime	-13.3409
vene	-13.341
retzel	-13.341
▁quarrel	-13.3411
▁maxim	-13.3411
ashay	-13.3412
asketball	-13.3412
irdie	-13.3413
leaser	-13.3413
▁bade	-13.3414
rayer	-13.3415
ognize	-13.3417
hitstomp	-13.3418
nstitutionalis	-13.3419
nstagib	-13.3419
prendido	-13.3419
rutally	-13.3419
acrifice	-13.3419
▁twiddl	-13.342
abrador	-13.342
▁refroze	-13.342
▁insinuat	-13.3421
wathe	-13.3421
▁unpack	-13.3422
jock	-13.3424
immick	-13.3425
nebro	-13.3425
▁business	-13.3425
hatsoever	-13.3427
oloq	-13.3427
somuch	-13.3428
cassional	-13.3428
emonize	-13.343
isperse	-13.343
artition	-13.3432
heorise	-13.3435
▁gleam	-13.3435
▁extort	-13.3436
▁bacon	-13.3439
odka	-13.3439
iscolour	-13.3442
writhe	-13.3442
nfuriating	-13.3443
tigmatize	-13.3443
tifle	-13.3444
xtrude	-13.3445
coti	-13.3445
isassociate	-13.3446
assigned	-13.3446
verestimate	-13.3447
hahada	-13.3449
restling	-13.3449
aminate	-13.3449
ugfix	-13.3451
▁plug	-13.3453
▁crowd	-13.3453
▁herd	-13.3454
ussie	-13.3455
nterference	-13.3456
▁gurgl	-13.3456
▁scoff	-13.3456
iscrete	-13.3457
▁wiff	-13.3457
isunderstand	-13.346
equipped	-13.346
onsign	-13.3461
▁torque	-13.3462
epute	-13.3462
pscale	-13.3463
lluminate	-13.3463
▁oxidiz	-13.3464
nclose	-13.3465
acron	-13.3465
enni	-13.3465
aibo	-13.3465
▁suprem	-13.3468
▁harvest	-13.3471
▁happ	-13.3471
ulsate	-13.3472
orcibl	-13.3473
▁format	-13.3474
▁scrapp	-13.3475
emind	-13.3475
▁extrude	-13.3475
emolition	-13.3476
heard	-13.3477
oncept	-13.3477
ndeavour	-13.3478
lectricity	-13.3478
▁resurrect	-13.3478
iscussion	-13.348
ebris	-13.348
ugu	-13.3484
utline	-13.3487
▁construct	-13.3487
ythe	-13.3487
etach	-13.3487
istract	-13.349
quawk	-13.349
elvet	-13.3491
prepare	-13.3491
elenda	-13.3492
ensitivity	-13.3492
ousse	-13.3495
▁vamp	-13.3495
wald	-13.3496
yndrom	-13.3496
▁bitten	-13.3498
spekt	-13.3498
andicap	-13.3499
iscalculate	-13.3499
onquest	-13.3503
▁penetrat	-13.3504
ubclass	-13.3506
urrito	-13.3506
aytrace	-13.3507
▁endeavour	-13.3508
apitalization	-13.3509
rotocol	-13.3509
eprimand	-13.3509
▁kilo	-13.351
ndmill	-13.351
ennet	-13.351
▁twinge	-13.3511
weener	-13.3511
dmonish	-13.3511
figured	-13.3511
▁encase	-13.3511
eeeeeal	-13.3512
▁pension	-13.3512
arnage	-13.3513
crystallize	-13.3514
lavish	-13.3514
eguile	-13.3516
▁thresh	-13.3516
fficient	-13.3516
odular	-13.352
soteric	-13.352
▁beeline	-13.352
utlaw	-13.352
ubconscious	-13.3521
onfirmation	-13.3522
spirate	-13.3523
efinitel	-13.3523
nduct	-13.3525
ultivate	-13.3526
indsight	-13.3526
▁ruptured	-13.3526
questria	-13.3527
modulate	-13.3527
mpower	-13.3528
▁squawk	-13.3529
ositiv	-13.353
olus	-13.353
ilemma	-13.3533
ansom	-13.3534
▁outlaw	-13.3534
inimize	-13.3536
efnit	-13.3536
radual	-13.3537
enfold	-13.3537
nconvience	-13.3538
randfather	-13.3539
cademic	-13.3542
ebride	-13.3542
ncentivise	-13.3543
oalition	-13.3543
trium	-13.3543
sicminer	-13.3543
treetfight	-13.3544
ooperate	-13.3546
iracy	-13.3547
▁inconvience	-13.3548
bds	-13.3548
▁revert	-13.3548
verload	-13.3549
erminator	-13.3549
jammer	-13.355
ishonest	-13.355
▁minimize	-13.355
scaled	-13.355
▁official	-13.355
pectrum	-13.3551
esignation	-13.3555
nterrogate	-13.3555
ecelerate	-13.3555
ryst	-13.3556
orona	-13.3557
akedown	-13.3558
hakalaka	-13.3559
orgeous	-13.356
uuuuuuuuuuuuuck	-13.356
ctivist	-13.3561
charged	-13.3561
▁brom	-13.3562
▁weaken	-13.3564
eintroduce	-13.3564
▁gauge	-13.3564
▁bristl	-13.3564
resolved	-13.3565
ectin	-13.3567
engen	-13.357
carf	-13.357
taught	-13.3573
epeal	-13.3575
issapear	-13.3575
udgment	-13.3575
ankruptcy	-13.3576
▁sufficed	-13.3576
sbestos	-13.3576
▁implied	-13.3577
atapult	-13.3578
ollaborate	-13.3578
▁mingle	-13.3579
lourish	-13.3579
arage	-13.3579
enetrate	-13.3579
lashdot	-13.3579
uantif	-13.3579
ntichrist	-13.358
▁velvet	-13.358
atheter	-13.3581
tatis	-13.3581
lås	-13.3581
atapa	-13.3581
yser	-13.3582
eeeet	-13.3583
nterpet	-13.3584
▁ferment	-13.3584
stressed	-13.3585
▁silicon	-13.3586
▁grease	-13.3587
▁tease	-13.3587
eflowe	-13.3587
rotract	-13.3587
▁caucus	-13.3587
mpathize	-13.3588
rtist	-13.3588
ndoors	-13.3589
pparen	-13.359
▁repeal	-13.359
gressive	-13.359
▁pierc	-13.359
ignity	-13.3591
▁flourish	-13.3594
▁saved	-13.3596
▁blacken	-13.3596
ensus	-13.3598
▁homogen	-13.3598
ubsidize	-13.3599
inite	-13.3601
▁blossom	-13.3601
▁automate	-13.3602
eoffend	-13.3602
uarrel	-13.3603
pologetic	-13.3603
▁particular	-13.3605
perture	-13.3607
escriptive	-13.3607
▁roleplay	-13.3608
▁nurse	-13.3608
opside	-13.3608
onventional	-13.3609
luoride	-13.361
▁shapeshift	-13.361
emophilia	-13.361
urveillance	-13.361
achelor	-13.3611
▁dissapear	-13.3611
ctopus	-13.3611
ogeyman	-13.3612
otivation	-13.3612
ctuality	-13.3613
orsion	-13.3613
opposed	-13.3613
iesel	-13.3616
ottage	-13.3616
ataki	-13.3616
plunk	-13.3617
▁discontinu	-13.3617
verstay	-13.362
▁beguil	-13.3621
robl	-13.3621
▁ambush	-13.3621
jailbreak	-13.3622
ncarnate	-13.3622
▁lament	-13.3623
ffekt	-13.3624
frustrate	-13.3627
pawnkill	-13.3628
▁modernis	-13.3629
equire	-13.363
▁recant	-13.363
riticize	-13.363
▁seduce	-13.3632
issect	-13.3632
uuuuuuuuck	-13.3634
▁regroup	-13.3637
ajin	-13.3637
enjutsu	-13.3637
▁criticize	-13.3638
▁msg	-13.3638
ntervene	-13.3638
utting	-13.3639
tamina	-13.364
aaannnd	-13.3641
toryline	-13.3641
▁bumbl	-13.3642
ccession	-13.3643
isbelief	-13.3644
riticise	-13.3644
uthanize	-13.3644
ccommodate	-13.3645
eplane	-13.3645
▁croon	-13.3646
▁saute	-13.3649
ootball	-13.3649
atura	-13.3649
▁override	-13.3649
isibility	-13.3653
ownward	-13.3654
ducation	-13.3654
adiator	-13.3654
orkshop	-13.3655
teamroll	-13.3656
▁enlarge	-13.3656
epulse	-13.3657
ttatch	-13.3657
obia	-13.3657
nowl	-13.3659
ecommand	-13.366
xigen	-13.3661
silenced	-13.3661
anliness	-13.3666
▁muscle	-13.3668
poch	-13.3668
▁bann	-13.367
▁virtual	-13.367
locat	-13.367
uarantee	-13.367
yeball	-13.3671
▁scatter	-13.3671
uthorize	-13.3672
epete	-13.3677
heist	-13.3677
obfuscated	-13.3678
▁brighten	-13.3679
utocracy	-13.3682
▁smother	-13.3683
obust	-13.3683
avern	-13.3684
loving	-13.3684
ohabit	-13.3684
▁stuggle	-13.3685
saturated	-13.3685
edicine	-13.3685
glue	-13.3687
angirl	-13.3687
irthday	-13.3688
väl	-13.3691
evitalize	-13.3692
▁recent	-13.3692
ncentivize	-13.3694
urble	-13.3695
recip	-13.3695
▁boogie	-13.3695
utomatically	-13.3695
isarm	-13.3696
showered	-13.3696
ickory	-13.3697
orrelation	-13.3697
rammatical	-13.3698
mpulse	-13.3698
annibalize	-13.3698
▁dictat	-13.3698
▁eyeball	-13.3699
supported	-13.3699
henomenal	-13.37
▁handled	-13.3702
▁fapp	-13.3704
aldi	-13.3706
▁trouble	-13.3707
▁overcompensat	-13.3707
nspect	-13.3707
nitiativ	-13.3709
ricle	-13.3709
obro	-13.371
▁disqualifi	-13.371
tagnate	-13.371
tench	-13.371
nsnare	-13.3711
verdose	-13.3711
bsorption	-13.3711
onect	-13.3712
relieved	-13.3712
fternoon	-13.3712
icromanage	-13.3712
opularity	-13.3714
ooooooooooo	-13.3714
mplification	-13.3715
folded	-13.3716
▁overdose	-13.3719
acketeer	-13.3719
▁precipitat	-13.3719
ppease	-13.372
eaken	-13.372
hankful	-13.372
vening	-13.372
abric	-13.372
▁blather	-13.3724
secured	-13.3725
muse	-13.3726
nihilation	-13.3728
nalyse	-13.3729
▁manufacture	-13.3729
isbehave	-13.3729
▁orgina	-13.373
soaked	-13.373
yperthread	-13.3732
oenst	-13.3733
enzen	-13.3733
irdrop	-13.3733
eveloppe	-13.3734
eepen	-13.3734
bloate	-13.3735
stablishment	-13.3737
ontificat	-13.3737
updated	-13.3737
onfigure	-13.374
lurker	-13.3741
wss	-13.3741
▁empathize	-13.3742
wung	-13.3742
laycall	-13.3742
iathlon	-13.3746
obilization	-13.3746
msayin	-13.3746
isincentivize	-13.3746
promoted	-13.3746
egalization	-13.3746
aundry	-13.3747
▁muddle	-13.3749
▁divulg	-13.3751
▁capitulat	-13.3752
▁fogg	-13.3754
▁pontificat	-13.3755
iracha	-13.3755
▁vague	-13.3755
isclosure	-13.3755
repackage	-13.3757
▁constru	-13.3758
▁appologise	-13.3759
eproach	-13.376
ompute	-13.3761
considered	-13.3761
ealtime	-13.3762
uthorization	-13.3762
entionne	-13.3763
hipper	-13.3763
eflate	-13.3763
etweet	-13.3764
fought	-13.3764
ownclock	-13.3765
xtract	-13.3768
▁credit	-13.377
▁swoon	-13.377
pud	-13.3771
▁snubb	-13.3773
toryboard	-13.3773
usband	-13.3773
▁behead	-13.3774
▁retweet	-13.3774
spotted	-13.3775
eaaaall	-13.3775
ealllllll	-13.3778
caused	-13.3778
▁hogg	-13.378
icrochip	-13.378
melde	-13.378
luminum	-13.378
aptionbot	-13.3781
ntegration	-13.3781
rrelevant	-13.3781
▁mistook	-13.3783
▁upsett	-13.3783
ishonour	-13.3783
equirement	-13.3784
uyo	-13.3784
shaped	-13.3784
engue	-13.3785
reble	-13.3785
abbage	-13.3786
yromania	-13.3788
tabalize	-13.3789
ugest	-13.3791
inore	-13.3791
ollution	-13.3792
ehavioral	-13.3793
ovt	-13.3793
▁reserved	-13.3796
xhort	-13.3796
oordinate	-13.3797
▁unfroze	-13.3797
zhaar	-13.3797
▁deflate	-13.38
easonal	-13.3801
tunt	-13.3803
rossbone	-13.3804
▁flux	-13.3804
iptoe	-13.3805
ăcut	-13.3805
ooooooooooooooo	-13.3807
okenize	-13.3807
unnery	-13.3807
hålla	-13.3807
xium	-13.3807
▁prison	-13.3808
untime	-13.3808
ssignment	-13.3809
▁contemplat	-13.3811
allon	-13.3811
ronie	-13.3812
▁traffic	-13.3813
eciprocate	-13.3814
anipulation	-13.3814
requency	-13.3814
mancipate	-13.3814
rapnel	-13.3816
urator	-13.3816
▁copywrit	-13.382
▁jag	-13.382
aleness	-13.3821
arther	-13.3821
▁colaps	-13.3821
ransplant	-13.3822
▁bullet	-13.3822
uddie	-13.3822
▁mosh	-13.3823
estiv	-13.3825
▁tiptoe	-13.3828
ushing	-13.3829
scarred	-13.3829
verindulge	-13.3829
▁mattered	-13.3829
öja	-13.3831
ccelerate	-13.3831
enace	-13.3831
orcefield	-13.3832
vidential	-13.3832
eclaw	-13.3832
amber	-13.3833
möjlig	-13.3833
mbush	-13.3834
trikeout	-13.3834
recipitate	-13.3835
innie	-13.3836
▁tailor	-13.3836
lgs	-13.3837
undun	-13.3837
ompetence	-13.3837
peedboost	-13.3838
▁graft	-13.384
nightmare	-13.3841
▁rewatch	-13.3841
erserve	-13.3841
▁transplant	-13.3841
onour	-13.3842
weeten	-13.3844
onvers	-13.3844
hortcut	-13.3845
ulva	-13.3846
▁smear	-13.3846
iiiight	-13.3848
örvänta	-13.3849
pprehend	-13.3849
ealisation	-13.3849
ountaineer	-13.3849
▁snigger	-13.3851
ondeo	-13.3851
hampoo	-13.3852
▁plonk	-13.3853
andscape	-13.3853
uja	-13.3854
oleplay	-13.3854
adwork	-13.3854
▁gradual	-13.3854
nchantment	-13.3855
▁wheelie	-13.3857
eteor	-13.3858
isrobe	-13.3858
▁goon	-13.3859
arody	-13.3859
▁landscape	-13.3859
riddle	-13.386
▁weaponiz	-13.3861
ollabe	-13.3863
onversation	-13.3864
▁shoo	-13.3865
aptor	-13.3865
andwich	-13.3865
embodied	-13.3866
▁accelerate	-13.3866
iculously	-13.3866
ndeavor	-13.3868
saken	-13.387
luctuate	-13.387
ceptor	-13.387
▁disrobe	-13.3871
orgy	-13.3872
▁rebound	-13.3872
yrodil	-13.3873
ioli	-13.3874
hastise	-13.3875
▁wern	-13.3875
reampie	-13.3877
▁assured	-13.3877
allium	-13.3877
ivulge	-13.3878
ossession	-13.3878
eevil	-13.3878
mpersonate	-13.388
wam	-13.3882
oncatenate	-13.3883
ircumcision	-13.3883
blivion	-13.3883
eadership	-13.3883
rgendein	-13.3884
ncidence	-13.3884
unslinger	-13.3884
ught	-13.3884
arricade	-13.3885
adir	-13.3886
▁worshipp	-13.3887
egregate	-13.3891
▁fetishis	-13.3893
ntentional	-13.3893
ogon	-13.3893
hameless	-13.3894
äcker	-13.3894
eflector	-13.3896
xtension	-13.3896
▁endeavor	-13.3899
ică	-13.3899
aji	-13.3899
ommandeer	-13.3901
quivalent	-13.3901
iochemist	-13.3902
▁sandwich	-13.3903
ternal	-13.3903
▁flower	-13.3903
acklash	-13.3904
▁mourn	-13.3904
ethylene	-13.3906
lusiveness	-13.3907
érie	-13.3911
resold	-13.3913
idfield	-13.3914
auri	-13.3915
▁vocaliz	-13.3915
ncorporate	-13.3916
nately	-13.3916
gird	-13.3917
ibilidad	-13.3917
eferral	-13.3917
▁swam	-13.3918
ccentuate	-13.3918
akon	-13.3918
ehydration	-13.3918
itigation	-13.3919
hden	-13.3919
eminazi	-13.3921
▁overload	-13.3921
ciatic	-13.3922
enote	-13.3923
issappoint	-13.3924
aptcha	-13.3924
njure	-13.3928
ilute	-13.3928
elbi	-13.3928
mphasize	-13.393
everence	-13.393
▁revenge	-13.3931
ydrolock	-13.3932
ematerialize	-13.3932
rguably	-13.3933
ł	-13.3935
▁wuss	-13.3936
▁veto	-13.3937
ighteous	-13.3938
ontrari	-13.3938
▁ddos	-13.3938
reconfigure	-13.3938
mystify	-13.3938
ompact	-13.3939
costed	-13.3939
▁mutter	-13.394
recovered	-13.394
▁neglect	-13.3941
nfection	-13.3943
▁finalize	-13.3943
▁interdict	-13.3946
beautiful	-13.3947
▁disgust	-13.3947
▁interact	-13.3949
ravle	-13.3949
creencap	-13.395
remate	-13.395
revious	-13.3951
pooge	-13.3952
à	-13.3953
▁advised	-13.3953
ignificance	-13.3953
inalize	-13.3955
nfact	-13.3955
ourtesy	-13.3958
▁apparat	-13.3958
rosh	-13.3958
quivocate	-13.396
rubbish	-13.3962
rostate	-13.3963
rayon	-13.3963
oncider	-13.3963
reposition	-13.3963
hythm	-13.3964
egn	-13.3964
reapprove	-13.3964
eallocate	-13.3965
otorize	-13.3967
conditioning	-13.3967
eevee	-13.3968
swept	-13.397
▁hydrolock	-13.397
▁vacillat	-13.397
urik	-13.3971
ubmission	-13.3971
ediscover	-13.3971
▁throbb	-13.3972
lask	-13.3972
rangere	-13.3973
▁blurt	-13.3975
▁reassert	-13.3975
toler	-13.3975
nofficial	-13.3976
▁frequent	-13.3976
royo	-13.3977
xtinguisher	-13.3977
▁scarper	-13.3977
gnor	-13.3979
▁custom	-13.398
ibber	-13.3981
accepted	-13.3981
▁curat	-13.3982
ommiserate	-13.3982
▁lold	-13.3983
epson	-13.3983
▁compact	-13.3983
▁screencap	-13.3984
lassif	-13.3984
urtail	-13.3984
rincip	-13.3985
▁emphasize	-13.3985
erpetuate	-13.3985
ubtitle	-13.3986
▁wince	-13.3986
clicked	-13.3988
bnoxious	-13.3988
inglehanded	-13.3988
▁yawn	-13.3989
ocumentary	-13.3989
documented	-13.3989
pitched	-13.3989
anufacture	-13.399
▁epitomi	-13.399
molested	-13.3992
▁snogg	-13.3992
minded	-13.3992
ensitize	-13.3993
nnovate	-13.3994
clenche	-13.3994
olyfil	-13.3995
▁pamper	-13.3996
oyer	-13.3996
ccountability	-13.3996
▁raved	-13.3996
▁pong	-13.3999
▁radicalis	-13.4
▁portray	-13.4
eposition	-13.4
▁prattle	-13.4001
nterdict	-13.4004
morphic	-13.4006
isapear	-13.4006
tonewall	-13.4006
eaponsmith	-13.4006
atshit	-13.4006
rample	-13.4006
ascara	-13.4007
opal	-13.4008
oozie	-13.4009
urplus	-13.4009
▁indirect	-13.4009
snapshot	-13.401
riminalize	-13.4011
▁hoard	-13.4012
▁murk	-13.4012
recognized	-13.4015
▁nibbl	-13.4015
odus	-13.4017
rosscheck	-13.4018
blocke	-13.4019
▁exhibit	-13.402
▁taint	-13.4021
▁product	-13.4023
▁overpowered	-13.4023
numerate	-13.4023
hrottle	-13.4023
declared	-13.4023
tatusbar	-13.4023
aroused	-13.4026
usic	-13.4027
▁relation	-13.4028
▁scuffle	-13.4028
ologie	-13.403
dolize	-13.403
▁evict	-13.4031
laspheme	-13.4033
▁architect	-13.4033
elax	-13.4034
hisp	-13.4035
▁beckon	-13.4036
lacklist	-13.4038
ʍ	-13.404
▁disapear	-13.4041
capitalized	-13.4041
ogey	-13.4041
cuffle	-13.4041
purged	-13.4041
atriotism	-13.4042
acarl	-13.4043
▁stonewall	-13.4043
urveil	-13.4044
▁progressiv	-13.4046
▁countersu	-13.4046
â	-13.4046
icochet	-13.4047
ravitate	-13.4047
aylay	-13.4048
▁blaspheme	-13.4048
otherhood	-13.4048
repare	-13.4049
kiie	-13.405
ehoove	-13.405
imagined	-13.405
aterialize	-13.405
hampion	-13.405
▁conk	-13.4051
atriot	-13.4052
aceplant	-13.4053
overall	-13.4053
silic	-13.4055
▁scrimp	-13.4055
nlarge	-13.4056
lll	-13.4056
stify	-13.4056
irector	-13.4057
aaaaaaybe	-13.4058
esuscitate	-13.4058
ormalization	-13.4058
weller	-13.4059
shaved	-13.4059
▁backslid	-13.406
nsect	-13.4063
laring	-13.4063
▁faceplant	-13.4063
uip	-13.4065
▁behoove	-13.4065
bduct	-13.4067
anitise	-13.4067
▁skidd	-13.4067
▁headline	-13.4068
eassert	-13.4068
▁ricochet	-13.4068
▁champion	-13.4068
rasher	-13.4069
▁compell	-13.407
oppel	-13.407
örsök	-13.4072
▁reemerge	-13.4073
hepherd	-13.4073
imetable	-13.4074
nfant	-13.4075
udacity	-13.4076
photoshopped	-13.4076
ndustry	-13.4076
fulfilled	-13.4076
rainwash	-13.4077
raverse	-13.4078
contacted	-13.4078
▁spazz	-13.408
chlep	-13.408
▁clapp	-13.408
eggie	-13.4081
recondition	-13.4081
prized	-13.4081
▁actuall	-13.4082
aution	-13.4082
oozy	-13.4083
rocrastinate	-13.4084
portsman	-13.4085
ebalance	-13.4085
sharpened	-13.4085
▁saunter	-13.4087
▁trample	-13.4088
ualitative	-13.409
subscribed	-13.409
▁guarant	-13.4091
▁crumple	-13.4091
▁whim	-13.4092
lectrocute	-13.4093
conditioned	-13.4094
rotrude	-13.4095
ccede	-13.4095
ompost	-13.4095
eclutter	-13.4097
ydroplane	-13.4097
ultiply	-13.4098
abbin	-13.4099
oppet	-13.4099
econvene	-13.4101
lamme	-13.4101
▁pertain	-13.4102
averly	-13.4102
▁deprecat	-13.4102
▁procrastinate	-13.4102
mphatic	-13.4104
efiant	-13.4105
otoscope	-13.4105
plata	-13.4106
errymander	-13.4107
bully	-13.4107
olapse	-13.4108
▁goos	-13.4109
▁taze	-13.4109
hermo	-13.411
▁purposed	-13.4111
ilage	-13.4111
compromised	-13.4112
▁wrench	-13.4113
▁shepherd	-13.4113
nstantiate	-13.4115
▁schlep	-13.4115
lwy	-13.4115
▁gerrymander	-13.4115
ceased	-13.4116
hught	-13.4116
nsinuate	-13.4117
olidif	-13.4118
istort	-13.4118
▁cluck	-13.4119
rivat	-13.4121
▁reconvene	-13.4121
erath	-13.4122
▁begon	-13.4123
yclone	-13.4123
utplay	-13.4123
▁pelt	-13.4123
▁squash	-13.4124
awkward	-13.4124
endon	-13.4125
▁meander	-13.4125
esort	-13.4125
ollock	-13.4125
▁rumour	-13.4126
uuuuuuure	-13.4127
sername	-13.4127
quabble	-13.4127
ankrupt	-13.4128
eimburse	-13.4129
eepthroat	-13.4129
▁neaten	-13.4129
▁defini	-13.413
lucidate	-13.4131
▁subtitle	-13.4132
cgplayer	-13.4132
hirst	-13.4133
udu	-13.4133
ortray	-13.4133
ogma	-13.4134
annin	-13.4134
dblock	-13.4135
▁resurg	-13.4135
▁slacken	-13.4135
esurrect	-13.4135
recognition	-13.4136
abal	-13.4136
orilla	-13.4138
rogrammer	-13.4139
arfighter	-13.4141
eaddress	-13.4141
▁sparr	-13.4142
aunting	-13.4143
ourier	-13.4144
▁chomp	-13.4145
nybody	-13.4145
▁transform	-13.4146
▁dissappear	-13.4146
▁reuse	-13.4147
mbelish	-13.4148
▁remodel	-13.4148
atdog	-13.4149
▁kowtow	-13.415
loset	-13.415
ankind	-13.4151
assail	-13.4151
ondemn	-13.4152
▁relegate	-13.4152
▁magnifi	-13.4153
adopted	-13.4153
mpose	-13.4155
▁detract	-13.4155
widget	-13.4155
econsider	-13.4155
urrie	-13.4156
▁benefit	-13.4158
uscle	-13.4158
▁crotch	-13.4158
atoo	-13.4159
esecrate	-13.4161
▁jinx	-13.4161
einsert	-13.4162
usto	-13.4164
ptitude	-13.4164
heorize	-13.4164
constructed	-13.4165
hoehorn	-13.4165
pooped	-13.4166
▁squabble	-13.4166
ocktail	-13.4167
aiya	-13.4167
eslut	-13.4167
flavored	-13.4167
xcavate	-13.4167
rickster	-13.4168
▁knel	-13.4169
enning	-13.4169
oolish	-13.4169
removed	-13.417
efecate	-13.417
onolith	-13.4172
▁cupp	-13.4172
eproduce	-13.4173
atalism	-13.4173
▁necesar	-13.4173
▁trickled	-13.4173
▁stem	-13.4174
ntegrate	-13.4175
▁discourag	-13.4175
▁congregat	-13.4178
ailgate	-13.418
▁reload	-13.418
▁shushe	-13.4181
▁stunk	-13.4181
hermal	-13.4182
awdle	-13.4182
urpress	-13.4182
studied	-13.4183
utism	-13.4183
dvance	-13.4183
emerit	-13.4183
arpoon	-13.4184
▁clatter	-13.4185
eldom	-13.4185
vacuate	-13.4185
antasy	-13.4187
▁professional	-13.4187
quoted	-13.4188
▁intervention	-13.4188
▁plott	-13.4189
lounce	-13.419
▁snicker	-13.4191
▁tailgate	-13.4192
asiness	-13.4192
otebook	-13.4192
apir	-13.4192
hronoboost	-13.4192
enefit	-13.4193
ionization	-13.4194
acquainted	-13.4197
vailability	-13.4198
pellcast	-13.4199
ficionado	-13.42
bundance	-13.42
▁prompt	-13.4201
ncinerate	-13.4201
▁kickstart	-13.4202
vår	-13.4204
bfilter	-13.4204
annock	-13.4205
efuge	-13.4205
reviewed	-13.4206
▁fluke	-13.4206
urga	-13.4206
valance	-13.4208
espone	-13.4209
▁proven	-13.4211
nunciation	-13.4211
▁marvell	-13.4212
pecifical	-13.4213
nstructor	-13.4214
akeover	-13.4214
estward	-13.4215
▁evacuate	-13.4215
lumina	-13.4215
recorded	-13.4216
triple	-13.4216
chmooze	-13.4216
eformation	-13.4216
venin	-13.4216
▁funnel	-13.4216
▁caption	-13.4217
▁revis	-13.4217
onvolution	-13.4218
pictured	-13.4218
revoked	-13.4218
▁wonderd	-13.4218
▁dawdle	-13.4218
eluded	-13.4219
ruch	-13.422
▁shrunk	-13.422
ventuate	-13.4221
troller	-13.4221
▁blacklist	-13.4222
utref	-13.4223
orefront	-13.4223
odification	-13.4224
▁discard	-13.4224
erminal	-13.4224
onsumption	-13.4225
onderd	-13.4226
▁prepp	-13.4226
urmise	-13.4226
▁visist	-13.4226
▁spirall	-13.4227
vail	-13.4229
istil	-13.423
▁plague	-13.423
egale	-13.4231
▁upscale	-13.4232
redictability	-13.4235
isenfranchise	-13.4235
entennial	-13.4236
ivisection	-13.4236
henomenon	-13.4236
njustice	-13.4236
▁musk	-13.4237
backlight	-13.4237
▁encod	-13.4237
▁deplan	-13.4239
▁hour	-13.424
dubbed	-13.4241
▁compost	-13.4241
tripper	-13.4242
adboy	-13.4242
▁disarm	-13.4243
ankey	-13.4245
rohibit	-13.4245
onfine	-13.4245
▁brin	-13.4246
▁partic	-13.4247
deployed	-13.4247
efill	-13.4247
ismount	-13.4248
erobic	-13.4248
oredom	-13.4249
alibrate	-13.425
▁eventuate	-13.4251
hotobomb	-13.4252
adjusted	-13.4252
challenged	-13.4254
ompare	-13.4255
rebought	-13.4255
harter	-13.4256
▁schmooze	-13.4256
examined	-13.4256
entury	-13.4257
▁rickroll	-13.4257
▁harken	-13.4259
aternal	-13.4259
taxed	-13.426
ressor	-13.426
▁whirr	-13.426
▁harness	-13.4262
harassed	-13.4262
▁distract	-13.4262
▁preceed	-13.4266
verperform	-13.4267
cracy	-13.4267
munity	-13.4268
canner	-13.4269
▁discover	-13.427
uarantine	-13.4271
vaccinated	-13.4272
rofile	-13.4272
eresy	-13.4272
▁disenfranchise	-13.4272
istachio	-13.4272
▁quarantine	-13.4272
utmaneuver	-13.4273
conspiracy	-13.4274
redeemed	-13.4275
▁franc	-13.4276
uscular	-13.4276
▁overperform	-13.4276
▁commiserat	-13.4277
arrie	-13.4277
▁photobomb	-13.4278
ontingent	-13.428
▁burble	-13.4282
macro	-13.4284
▁deside	-13.4284
hwart	-13.4284
▁feint	-13.4285
igit	-13.4287
▁reeked	-13.4288
▁beet	-13.4288
ssess	-13.4289
rbitrari	-13.429
disguised	-13.429
issappear	-13.4291
gång	-13.4293
▁waterproof	-13.4293
rikan	-13.4293
onsistent	-13.4294
▁happpen	-13.4295
rivs	-13.4295
▁injure	-13.4295
▁duked	-13.4296
asterize	-13.4297
ontemplate	-13.4297
▁disprove	-13.4297
reppe	-13.4299
iposte	-13.4299
arassment	-13.4301
▁tetr	-13.4301
▁country	-13.4302
valuate	-13.4302
▁decelerat	-13.4303
eglect	-13.4303
verpromise	-13.4303
vercompensate	-13.4303
idade	-13.4304
ocality	-13.4306
▁exploit	-13.4307
hitler	-13.4307
incorporated	-13.4307
bliviate	-13.4308
sychoanalyze	-13.4308
▁miscount	-13.4308
histleblow	-13.4308
▁disrespect	-13.4309
hris	-13.431
xorcise	-13.431
esium	-13.4311
learance	-13.4311
▁vapor	-13.4311
upgraded	-13.4311
ommunism	-13.4312
enovate	-13.4313
upervise	-13.4314
promo	-13.4314
reator	-13.4314
atbro	-13.4314
anada	-13.4314
ompli	-13.4316
kama	-13.4316
ompletion	-13.4317
enjin	-13.4319
istine	-13.4321
▁pillow	-13.4322
riad	-13.4322
mprovise	-13.4322
▁flounc	-13.4323
acelift	-13.4324
ubstitute	-13.4324
▁fals	-13.4324
distributed	-13.4324
auze	-13.4326
uperficial	-13.4327
▁overheard	-13.4327
▁scann	-13.4327
ecolor	-13.4327
idden	-13.4328
possessed	-13.4331
scratched	-13.4334
elocity	-13.4334
▁parri	-13.4334
opeless	-13.4336
arhead	-13.4337
▁wove	-13.4338
▁presage	-13.4338
panda	-13.4338
acuum	-13.4342
eamless	-13.4342
nbounde	-13.4342
appraise	-13.4343
urveyor	-13.4344
onvulse	-13.4344
waxed	-13.4346
▁vacuum	-13.4346
▁closet	-13.4347
ctuation	-13.4347
lgorithm	-13.4348
▁dismount	-13.4348
sumir	-13.4349
omprimise	-13.435
faded	-13.4351
▁jeer	-13.4352
▁worry	-13.4353
bashed	-13.4353
▁disown	-13.4354
isrespect	-13.4355
cleaned	-13.4355
▁invision	-13.4355
▁favorit	-13.4355
▁commute	-13.4356
▁cube	-13.4357
bliterate	-13.4358
▁relapse	-13.4358
isown	-13.436
kje	-13.436
▁transmog	-13.4361
▁despawn	-13.4362
evenge	-13.4362
witnessed	-13.4362
shackled	-13.4362
restored	-13.4362
ommute	-13.4363
▁substitute	-13.4364
ockup	-13.4365
▁obliterate	-13.4367
mpathetic	-13.4367
torage	-13.4367
xaggerate	-13.4368
urround	-13.4368
▁gnaw	-13.4369
pazz	-13.437
uition	-13.437
anipulado	-13.4373
hudder	-13.4373
muffin	-13.4374
ulligan	-13.4375
▁yakk	-13.4375
amblin	-13.4375
ontroll	-13.4376
ollude	-13.4376
remier	-13.4377
rtifice	-13.4377
glazed	-13.4378
ambulance	-13.4379
andstorm	-13.4379
econcile	-13.438
decorated	-13.438
▁casu	-13.438
chambered	-13.4381
otlink	-13.4381
organised	-13.4382
▁amrit	-13.4382
ricot	-13.4382
xhaust	-13.4382
onjure	-13.4383
▁emmigrat	-13.4383
▁culminat	-13.4384
▁worsen	-13.4384
onberry	-13.4385
▁augment	-13.4385
illige	-13.4385
▁deriv	-13.4386
acrafice	-13.4387
▁manipulado	-13.4387
nventor	-13.4388
yberpunk	-13.4388
actose	-13.4388
▁jewell	-13.4389
▁neutral	-13.4389
▁impress	-13.4389
▁premier	-13.4389
▁bult	-13.4389
ntegral	-13.439
utosave	-13.4391
subbe	-13.4392
▁barf	-13.4392
▁collude	-13.4393
oundless	-13.4393
isfigure	-13.4394
▁sputter	-13.4394
ften	-13.4396
upid	-13.4397
patched	-13.4397
▁trudge	-13.4397
vernighte	-13.4398
punched	-13.4398
ebought	-13.44
ră	-13.44
▁surround	-13.4401
▁vroeg	-13.4402
equeue	-13.4404
▁compli	-13.4404
▁vouch	-13.4407
eemerge	-13.4407
ythm	-13.4408
laque	-13.4408
▁deceiv	-13.4408
▁incident	-13.4409
▁accede	-13.4409
▁diverge	-13.4412
njury	-13.4413
utopilot	-13.4413
sexualized	-13.4413
nfortunatel	-13.4414
▁instant	-13.4415
igor	-13.4415
▁mortar	-13.4415
rebounde	-13.4415
ecognise	-13.4417
nowflake	-13.4417
baptized	-13.4417
igamy	-13.4417
ällä	-13.4417
owboy	-13.4417
▁dishonour	-13.4418
rtillery	-13.4418
taghorn	-13.4419
▁origin	-13.442
feared	-13.4422
eligious	-13.4424
ollenate	-13.4425
entar	-13.4425
roubleshoot	-13.4425
▁brainstorm	-13.4427
enege	-13.4428
hotocopy	-13.4428
erwacht	-13.4433
epopulation	-13.4434
▁redouble	-13.4434
▁infringed	-13.4435
▁wathc	-13.4435
reflected	-13.4435
warranted	-13.4435
rafting	-13.4436
hipolt	-13.4436
▁misl	-13.4437
▁verwacht	-13.4437
▁exam	-13.4437
▁jostle	-13.4437
mbarrass	-13.4437
iscard	-13.4438
iffract	-13.444
xidize	-13.4441
interpreted	-13.4442
attributed	-13.4442
▁extend	-13.4443
ajun	-13.4444
nvelop	-13.4445
▁troubleshoot	-13.4445
iddo	-13.4445
einstate	-13.4445
▁survey	-13.4446
▁perfer	-13.4446
wesome	-13.4446
▁strict	-13.4448
▁bogg	-13.4449
▁faff	-13.445
mediated	-13.4451
råk	-13.4451
▁muzzle	-13.4451
ountenance	-13.4453
eadbutt	-13.4454
hicago	-13.4455
▁principal	-13.4456
ubsribe	-13.4456
sliced	-13.4456
ickroll	-13.4457
greement	-13.4459
▁totter	-13.4459
eneric	-13.4461
▁fuk	-13.4461
▁equivocat	-13.4461
▁wool	-13.4462
avalier	-13.4463
▁hurtle	-13.4465
▁reinstate	-13.4465
▁reoffend	-13.4465
nafu	-13.4466
pouch	-13.4467
efrost	-13.4467
▁maim	-13.4467
ecouple	-13.4467
greased	-13.4469
trengthen	-13.447
stolen	-13.447
nggg	-13.447
▁glower	-13.447
roactiv	-13.447
rematch	-13.4471
ozzie	-13.4472
upernatural	-13.4472
categorized	-13.4472
▁fundrais	-13.4473
▁editorialis	-13.4473
▁squeel	-13.4473
▁shudder	-13.4474
scoped	-13.4475
xtremis	-13.4475
ugue	-13.4475
ratat	-13.4476
mplent	-13.4476
ontraven	-13.4476
nvironment	-13.4477
▁assent	-13.4478
utograph	-13.4479
▁invert	-13.448
lgebra	-13.448
arbecue	-13.4482
▁contraven	-13.4483
hugge	-13.4483
midiat	-13.4486
monad	-13.4487
kissed	-13.4488
raud	-13.4488
uthless	-13.449
isprove	-13.449
ctuate	-13.4491
▁strengthen	-13.4492
ngratiate	-13.4492
ightclub	-13.4492
riar	-13.4493
sarcastic	-13.4493
hroud	-13.4496
ridden	-13.4496
ontagio	-13.4497
▁barbecue	-13.4498
mmolate	-13.45
▁convince	-13.4501
opulism	-13.4501
isclick	-13.4503
▁biff	-13.4504
plutter	-13.4505
arach	-13.4506
deemed	-13.4506
▁autograph	-13.4508
▁protrud	-13.4508
▁decri	-13.4508
tupefy	-13.4508
eban	-13.4509
luvia	-13.4509
deleted	-13.451
regardless	-13.451
▁splutter	-13.4511
esque	-13.4511
xpunge	-13.4512
iode	-13.4512
▁hasn	-13.4513
ailgun	-13.4514
öda	-13.4514
▁replay	-13.4515
▁finsh	-13.4516
ranchise	-13.4517
▁modell	-13.4517
▁clamor	-13.4517
iksi	-13.4519
coated	-13.4519
reastfe	-13.452
ebrand	-13.452
cumen	-13.4521
drained	-13.4521
ortress	-13.4521
ailroad	-13.4522
xtrapolate	-13.4522
predicted	-13.4524
kse	-13.4524
dvers	-13.4526
lexiglas	-13.4527
uccumb	-13.4527
ysfunction	-13.4527
advertised	-13.4527
nowplow	-13.4527
▁avail	-13.453
▁regrett	-13.453
▁council	-13.4531
onvince	-13.4532
▁mulligan	-13.4534
onetize	-13.4534
▁breastfe	-13.4534
nequality	-13.4535
▁inventor	-13.4536
temize	-13.4537
ackhand	-13.4537
▁riposte	-13.4537
▁railroad	-13.4538
shared	-13.4539
▁titter	-13.4542
▁expunge	-13.4543
aggie	-13.4544
isspoke	-13.4544
ecomme	-13.4544
hocolate	-13.4546
▁wrestle	-13.4546
assembled	-13.4547
▁buddi	-13.4547
urveille	-13.4549
wkward	-13.455
▁crime	-13.4551
coupled	-13.4552
▁rearm	-13.4553
kiddie	-13.4554
ostpone	-13.4555
discovered	-13.4555
aldo	-13.4556
pressurized	-13.4556
frosted	-13.4556
uckus	-13.4558
raper	-13.4559
ackground	-13.4561
anken	-13.4563
smacked	-13.4563
umpin	-13.4563
dentity	-13.4563
vatar	-13.4564
cknowlege	-13.4564
▁frolick	-13.4565
▁normalize	-13.4566
iscontinue	-13.4568
▁wete	-13.4569
allway	-13.4571
asova	-13.4572
xposure	-13.4572
returned	-13.4573
ppc	-13.4574
▁exhaust	-13.4574
upercharge	-13.4575
▁postpone	-13.4575
▁stagnat	-13.4577
▁background	-13.4577
awakened	-13.4577
iedo	-13.4577
ashboard	-13.4578
verbalance	-13.4579
eoccurre	-13.4579
onka	-13.458
ackberry	-13.4581
ookery	-13.4581
▁spoof	-13.4582
convicted	-13.4583
▁ridic	-13.4583
▁idiot	-13.4583
lemental	-13.4583
owngrade	-13.4584
▁sniped	-13.4586
▁overbalance	-13.4587
▁demurr	-13.4589
tunned	-13.4591
▁border	-13.4592
▁repond	-13.4592
▁chew	-13.4592
▁bargain	-13.4593
▁reoccurre	-13.4594
▁homeschool	-13.4594
utland	-13.4594
ogle	-13.4595
▁patent	-13.4596
utstay	-13.4596
▁plodde	-13.4598
▁reconsider	-13.4599
uccinct	-13.4601
ircumsis	-13.4601
hallenege	-13.4601
recieved	-13.4601
consumed	-13.4601
▁alread	-13.4602
ymbiot	-13.4602
ssassinate	-13.4603
recommended	-13.4604
espoil	-13.4605
▁outstay	-13.4606
▁dealt	-13.4606
integrated	-13.4606
▁careen	-13.4608
ollage	-13.4608
▁botch	-13.4609
ugging	-13.461
arbarian	-13.461
verpay	-13.4611
▁proffer	-13.4612
▁itemiz	-13.4615
▁halb	-13.4616
▁misclick	-13.4618
filmed	-13.462
▁downgrade	-13.462
essimist	-13.4621
idst	-13.4622
eveon	-13.4622
brupt	-13.4623
erning	-13.4623
pruce	-13.4625
alcul	-13.4627
▁grammar	-13.4627
▁enamel	-13.4627
elinquish	-13.4628
hnage	-13.4628
eformulate	-13.4628
rammar	-13.4629
ocalization	-13.463
aatu	-13.4631
obably	-13.4631
complish	-13.4633
ultitask	-13.4633
utdoors	-13.4634
utritional	-13.4635
▁martial	-13.4635
solator	-13.4635
▁sandbox	-13.4635
▁catfish	-13.4635
roden	-13.4636
▁stifl	-13.4636
▁assassinate	-13.4637
iploma	-13.4637
atfish	-13.4637
ndigo	-13.4637
iskriminera	-13.4638
nsomnia	-13.4638
▁auction	-13.4639
▁monk	-13.4639
viscerate	-13.464
rophes	-13.464
mbra	-13.4641
uker	-13.4642
▁slutt	-13.4642
spouse	-13.4642
toner	-13.4644
▁rectifi	-13.4645
▁burp	-13.4645
▁jizz	-13.4646
lipboard	-13.4646
▁forsoo	-13.4647
entimental	-13.4648
esubscribe	-13.4648
▁relinquish	-13.4649
ajole	-13.4649
▁snuff	-13.4651
▁chnage	-13.4652
blate	-13.4654
kort	-13.4656
logging	-13.4657
abotage	-13.4658
piloted	-13.4661
▁rebrand	-13.4663
maginari	-13.4665
ngender	-13.4665
apsule	-13.4665
ecommence	-13.4666
▁hoist	-13.4666
▁reproduce	-13.4667
uffocate	-13.4667
ersonnal	-13.4668
▁cajole	-13.4668
ltimat	-13.4668
uprem	-13.4672
gnorance	-13.4672
▁forgiven	-13.4673
itchen	-13.4673
aterproof	-13.4674
tilization	-13.4675
expired	-13.4676
ensitive	-13.4677
discussed	-13.4677
ialog	-13.4677
aaar	-13.4678
nthusiastic	-13.4678
huffed	-13.4679
rrrl	-13.4679
ersuade	-13.4681
▁capsule	-13.4687
roffer	-13.4687
▁recommence	-13.4687
▁trol	-13.4688
nfect	-13.4689
utsource	-13.469
lagge	-13.469
ubsidiar	-13.4694
▁sabotage	-13.4696
hoas	-13.4696
eagal	-13.4696
öter	-13.4697
scertain	-13.4697
▁flung	-13.4698
ircon	-13.4699
tagge	-13.47
▁squirrel	-13.47
solute	-13.4701
ndustrial	-13.4703
kimp	-13.4703
ccasional	-13.4703
mbryo	-13.4704
onfim	-13.4705
▁hallucinat	-13.4709
▁victim	-13.471
▁weren	-13.4711
▁discredit	-13.4711
▁aggre	-13.4712
aseline	-13.4712
▁interject	-13.4712
umberjack	-13.4713
uadruple	-13.4713
onsequent	-13.4713
aïve	-13.4713
dreamed	-13.4714
tatus	-13.4715
▁feather	-13.4716
andbox	-13.4716
▁definet	-13.4716
iverge	-13.4716
estart	-13.4716
atchmaker	-13.4718
▁royal	-13.4719
raught	-13.4719
onsecrate	-13.4719
lackhole	-13.4721
raipse	-13.4722
anache	-13.4723
ogepi	-13.4724
unishment	-13.4725
▁revist	-13.4726
ooking	-13.4726
▁throat	-13.4727
orfeit	-13.4727
ispel	-13.4728
atality	-13.4729
ejuv	-13.4729
sterism	-13.473
apourize	-13.4732
suspected	-13.4732
nterject	-13.4732
▁lecture	-13.4734
improved	-13.4734
iwi	-13.4735
olking	-13.4735
repaired	-13.4737
▁forfeit	-13.4738
▁brought	-13.4738
ntangle	-13.4739
egie	-13.4739
ardine	-13.4739
▁traipse	-13.4742
▁snipp	-13.4742
▁flitte	-13.4742
▁dwindle	-13.4742
ommie	-13.4744
scort	-13.4744
oopin	-13.4745
▁garnish	-13.4746
otara	-13.4749
umme	-13.4749
utpace	-13.4751
▁mime	-13.4752
noticed	-13.4752
oldstone	-13.4753
ardener	-13.4754
eacon	-13.4755
nfriend	-13.4757
asochist	-13.4758
▁splatter	-13.4759
▁doubt	-13.476
ndress	-13.476
arametric	-13.4761
▁outline	-13.4765
omatter	-13.4766
ecade	-13.4766
bolted	-13.4767
ountermand	-13.4767
culler	-13.4768
owhead	-13.4768
▁restart	-13.4768
ocietal	-13.477
▁grown	-13.477
onfiscate	-13.4771
▁clamm	-13.4771
ingler	-13.4772
ircular	-13.4773
corrected	-13.4773
ecture	-13.4774
mmensely	-13.4774
ountersue	-13.4774
hromatic	-13.4775
nsanely	-13.4776
ccompany	-13.4776
▁outpace	-13.4777
▁acept	-13.4778
eleri	-13.478
piderbro	-13.478
jira	-13.478
▁fatten	-13.4781
ishna	-13.4782
teenth	-13.4783
wain	-13.4787
rontier	-13.4787
ninstalle	-13.4787
▁clusterfuck	-13.4789
iscredit	-13.479
isembark	-13.479
ominance	-13.479
ociopath	-13.479
usker	-13.4791
bulletin	-13.4791
▁begot	-13.4791
oncur	-13.4793
▁contrari	-13.4794
ndirekt	-13.4795
reschool	-13.4797
stral	-13.4798
aitin	-13.4798
crobble	-13.4798
omfortab	-13.4799
etise	-13.4801
upsize	-13.4801
mpregnate	-13.4803
▁saliva	-13.4805
iggur	-13.4806
huttle	-13.4807
ecapitate	-13.4807
televised	-13.4808
oesn	-13.4809
tochastic	-13.481
▁widow	-13.481
einstitute	-13.4811
ctivation	-13.4811
smoked	-13.4811
▁impregnate	-13.4813
ttachment	-13.4813
irtualize	-13.4814
egis	-13.4815
▁launder	-13.4817
▁shuttle	-13.4818
ursing	-13.4819
▁overpromise	-13.4819
etermination	-13.482
described	-13.482
rotube	-13.482
lorious	-13.4821
abitual	-13.4825
▁disembark	-13.4826
umidify	-13.4827
heeseburger	-13.4827
nterconnect	-13.4828
atchwork	-13.4829
bscond	-13.4829
imension	-13.483
thign	-13.483
coped	-13.483
pamme	-13.4831
eaponize	-13.4832
ommunicate	-13.4835
ijn	-13.4835
horizo	-13.4836
ulent	-13.4836
▁kitt	-13.4836
ondertrade	-13.4837
▁waive	-13.4837
inomial	-13.4838
▁mechanic	-13.4841
ilarious	-13.4842
ggree	-13.4842
ncessant	-13.4843
▁compute	-13.4843
lignment	-13.4845
greed	-13.4845
eneralization	-13.4845
erritorial	-13.4846
tegen	-13.4846
practiced	-13.4846
efinatel	-13.4846
boosted	-13.4847
lowstone	-13.4848
oticie	-13.4848
åda	-13.485
▁abbreviat	-13.485
currence	-13.485
▁rediscover	-13.485
killful	-13.4852
izziness	-13.4855
▁sidle	-13.4855
llium	-13.4856
lleviate	-13.4857
▁communicate	-13.4857
anarchism	-13.4858
haaaaaaaa	-13.4858
▁impis	-13.4859
uede	-13.486
▁foll	-13.486
armonize	-13.4861
▁frient	-13.4862
▁bobbl	-13.4862
▁abscond	-13.4863
▁fobb	-13.4866
cancelled	-13.4866
▁amend	-13.4868
oquet	-13.4868
roblematik	-13.4869
musement	-13.487
ellos	-13.487
▁harmonize	-13.487
▁hint	-13.487
peciate	-13.487
ecriminalize	-13.4871
verstep	-13.4873
nstrument	-13.4874
owser	-13.4874
bsol	-13.4876
ureaucrat	-13.4876
nvert	-13.4876
▁humbl	-13.4877
utright	-13.4878
yeliner	-13.4879
uplication	-13.488
emporar	-13.4881
miko	-13.4881
nbearabl	-13.4883
bsofuckin	-13.4884
▁schol	-13.4884
▁mesmeriz	-13.4885
isembowel	-13.4886
adstone	-13.4887
▁predetermin	-13.4888
mbaras	-13.4888
urax	-13.489
onvin	-13.489
▁slurr	-13.4891
lashback	-13.4891
ealistic	-13.4892
▁liquor	-13.4892
apppen	-13.4895
▁skimp	-13.4895
econnect	-13.4896
phere	-13.4896
ictate	-13.4896
crushed	-13.4896
▁prank	-13.49
uncheon	-13.49
ehöva	-13.4903
xpropriate	-13.4903
isconstrue	-13.4904
mmediat	-13.4905
contracted	-13.4905
cogido	-13.4905
carved	-13.4906
reprocess	-13.4907
bligate	-13.4909
asere	-13.491
aaaayum	-13.4912
etware	-13.4912
▁virtualize	-13.4912
▁evaporat	-13.4912
ehavior	-13.4913
▁reconnect	-13.4915
carina	-13.4915
▁ginger	-13.4916
▁grief	-13.4917
indstorm	-13.4919
▁cosplay	-13.4921
ouger	-13.4922
ispenser	-13.4922
▁disembowel	-13.4922
iewbot	-13.4924
rogression	-13.4925
▁collide	-13.4926
ffortless	-13.4926
onetari	-13.4926
ryck	-13.4928
▁toilet	-13.4929
hysiological	-13.493
▁crumble	-13.493
etrofit	-13.4932
▁photoshop	-13.4934
tudere	-13.4936
driven	-13.4937
antano	-13.4937
▁decod	-13.4941
ppreaciate	-13.4942
arkside	-13.4942
evolp	-13.4942
▁manage	-13.4943
mmigration	-13.4944
irandize	-13.4944
caged	-13.4945
▁bopp	-13.4945
▁mutual	-13.4946
outhward	-13.4947
qualize	-13.4947
isinterest	-13.4948
▁hunger	-13.4949
tms	-13.4949
▁wither	-13.495
ehabilitate	-13.495
ndecisive	-13.4951
ankie	-13.4953
▁herbal	-13.4954
mployee	-13.4954
everberate	-13.4954
arkey	-13.4955
orex	-13.4957
edition	-13.4958
▁miscarri	-13.4959
astigate	-13.4961
▁deco	-13.4962
egitimate	-13.4963
vå	-13.4964
crutinise	-13.4965
▁deadlock	-13.4969
▁sheer	-13.4969
uffin	-13.497
▁recall	-13.497
irebreath	-13.4971
lagiarize	-13.4971
ometido	-13.4972
oderado	-13.4972
ardwork	-13.4972
weeper	-13.4973
oncetrat	-13.4974
platoon	-13.4976
laus	-13.4976
ascot	-13.4977
▁cosign	-13.4978
prayer	-13.4978
oophole	-13.4979
atercoole	-13.4979
bstract	-13.4979
alami	-13.498
verhaul	-13.498
ulighede	-13.498
desired	-13.4981
xpirence	-13.4981
oulsilver	-13.4981
arten	-13.4982
allar	-13.4982
ntarweb	-13.4982
vantage	-13.4983
pocalypse	-13.4983
iagra	-13.4983
▁overhaul	-13.4988
▁embellish	-13.4989
▁plagiarize	-13.4989
▁negotiate	-13.4989
lizz	-13.499
enifit	-13.4992
gnorant	-13.4992
nfortune	-13.4992
utflank	-13.4992
oadtrip	-13.4993
ntercede	-13.4994
eplore	-13.4995
athlete	-13.4996
orsi	-13.4996
▁inflict	-13.4997
ysterious	-13.4998
inpoint	-13.4998
åbe	-13.4998
ojack	-13.4999
▁suffocat	-13.4999
wordsmith	-13.4999
bfuscator	-13.4999
amana	-13.5001
rivillig	-13.5002
recompute	-13.5002
entance	-13.5003
▁nominate	-13.5004
oopla	-13.5005
▁intercede	-13.5006
utomatis	-13.5008
▁interrupt	-13.5009
▁equalize	-13.5009
▁relic	-13.5009
plied	-13.501
ullfill	-13.5013
igourous	-13.5015
bidden	-13.5015
▁twigg	-13.5016
mpress	-13.5017
vandringspolitik	-13.5019
acknowledged	-13.5019
napdragon	-13.5019
emarcate	-13.5019
vaporate	-13.5021
rerecord	-13.5024
nfinit	-13.5024
▁gank	-13.5024
ospital	-13.5025
ohan	-13.5025
tencil	-13.5026
rezca	-13.5026
osign	-13.5027
efarm	-13.5031
remarked	-13.5031
whas	-13.5031
llll	-13.5035
▁restate	-13.5035
▁clinic	-13.5038
leant	-13.504
▁negate	-13.504
utocorrect	-13.504
▁stencil	-13.5041
ramer	-13.5041
pectator	-13.5042
migrant	-13.5043
emcache	-13.5044
verreach	-13.5045
▁noodle	-13.5046
ascade	-13.5047
ebbed	-13.5048
lazing	-13.5048
▁furl	-13.5049
ropheci	-13.5049
▁bugger	-13.5051
▁overreach	-13.5052
ncomfortab	-13.5052
aidan	-13.5052
▁bombard	-13.5052
opcap	-13.5054
ankster	-13.5057
▁torn	-13.5058
nculturat	-13.5058
ordinar	-13.5059
valtine	-13.506
adioactive	-13.506
▁voluntari	-13.506
onfectioner	-13.5061
reappli	-13.5061
asement	-13.5065
aughte	-13.5066
espair	-13.5066
▁advert	-13.5066
brogate	-13.5067
▁propheci	-13.5067
▁upward	-13.5068
▁premis	-13.5068
▁interface	-13.5068
erialization	-13.507
calli	-13.5071
ndependent	-13.5072
osmetic	-13.5073
aindeck	-13.5075
larion	-13.5076
initiated	-13.5077
▁birdi	-13.5079
anonis	-13.5079
▁given	-13.5079
peron	-13.5081
ensationalize	-13.5084
▁eventual	-13.5087
losure	-13.5088
itania	-13.5089
bror	-13.5091
ritisize	-13.5093
▁wiped	-13.5094
reconstructed	-13.5095
basic	-13.5096
igelei	-13.5097
etribution	-13.5097
ussyfoot	-13.5098
eartbeat	-13.5098
rganization	-13.5098
trophy	-13.5099
▁indoctrinat	-13.51
▁quilt	-13.5101
▁gimmick	-13.5102
cebreaker	-13.5102
▁sociopath	-13.5102
▁babble	-13.5104
▁misdirect	-13.5105
efurbish	-13.5106
hreddit	-13.5111
ircularize	-13.5111
oincident	-13.5111
aralyze	-13.5113
▁exhume	-13.5114
orporation	-13.5115
hipwreck	-13.5116
peculate	-13.5116
consented	-13.5117
oodshed	-13.5117
▁engrave	-13.5117
oadblock	-13.5117
ggregate	-13.5119
hiamin	-13.5119
rushing	-13.5119
▁respawn	-13.512
ormalise	-13.5121
eplete	-13.5121
utilized	-13.5123
asalt	-13.5124
▁rehabilitat	-13.5126
raus	-13.5127
▁autocorrect	-13.5128
▁inverse	-13.5129
urgatory	-13.513
▁camouflage	-13.5131
ctualize	-13.5132
▁refurbish	-13.5134
▁reneg	-13.5134
irculation	-13.5136
avigator	-13.5137
iscretiz	-13.5138
ecipher	-13.5138
xperience	-13.5139
▁overstep	-13.5139
marry	-13.5139
burr	-13.5141
▁thudd	-13.5141
erring	-13.5144
▁usurp	-13.5145
▁weve	-13.5146
otential	-13.5147
bsess	-13.5148
erald	-13.5148
enchmark	-13.5149
▁transcript	-13.515
ibrator	-13.5151
errupted	-13.5151
▁sequence	-13.5151
bvios	-13.5153
appin	-13.5153
esgin	-13.5153
▁aggregate	-13.5153
galactic	-13.5155
onsoliz	-13.5155
encrypted	-13.5156
▁speculate	-13.5156
implistic	-13.5158
xample	-13.5159
mule	-13.516
atfuck	-13.516
▁outsource	-13.5161
egistration	-13.5163
ppropriate	-13.5164
umma	-13.5165
▁economic	-13.5168
▁mow	-13.5169
ontagious	-13.5169
eifer	-13.5169
repurchase	-13.5169
▁twerk	-13.5171
▁internalis	-13.5171
chock	-13.5173
iwikaki	-13.5175
▁benchmark	-13.5176
odsdamn	-13.5176
medical	-13.5178
uarentee	-13.518
xhume	-13.518
ongfu	-13.5182
oralize	-13.5183
elegitimize	-13.5185
urka	-13.5186
schooled	-13.5187
▁solucion	-13.5188
istory	-13.5188
ermastun	-13.5189
olibs	-13.5189
elie	-13.5189
anther	-13.5191
eloading	-13.5191
▁bevel	-13.5193
combinator	-13.5195
egislate	-13.5195
▁curts	-13.5196
arpgate	-13.5196
latten	-13.5196
cholar	-13.5197
aiman	-13.5199
atermark	-13.52
utumn	-13.5201
auterize	-13.5201
ohawk	-13.5202
rawling	-13.5202
ibertate	-13.5202
umiko	-13.5203
▁define	-13.5204
crutinize	-13.5204
atcall	-13.5205
▁welch	-13.5205
rabbin	-13.5205
oliticize	-13.5206
ermute	-13.5206
nterchange	-13.5211
gotten	-13.5213
erpetual	-13.5213
ondom	-13.5213
ndication	-13.5214
emocratis	-13.5215
hosphorylat	-13.5215
ække	-13.5215
urisdiction	-13.5215
expanded	-13.5215
xcecute	-13.5215
ampus	-13.5219
erkeerd	-13.5219
ammie	-13.5219
herish	-13.5219
asker	-13.5221
maken	-13.5221
uisness	-13.5222
▁embarrass	-13.5223
lebol	-13.5223
amiliarise	-13.5223
bnormal	-13.5226
▁cherish	-13.5227
ommingle	-13.5228
▁posit	-13.5229
▁scurri	-13.5229
namel	-13.523
irectional	-13.523
eadpan	-13.5231
▁resize	-13.5231
nyth	-13.5231
andit	-13.5232
econfirm	-13.5234
ffiliate	-13.5234
hickene	-13.5234
intendude	-13.5235
▁shipwreck	-13.5235
rolif	-13.5235
alternate	-13.5238
▁deconstruct	-13.5238
ethrone	-13.5239
jaculate	-13.5239
wanst	-13.5241
▁clown	-13.5242
isiste	-13.5242
▁behel	-13.5242
arbonize	-13.5244
▁laught	-13.5245
▁boulder	-13.5246
lternative	-13.5247
arcissist	-13.5247
▁corrode	-13.5248
rcade	-13.5248
alidation	-13.5249
▁rebutt	-13.525
limination	-13.525
ccessorize	-13.5252
nfortuant	-13.5252
oppity	-13.5253
▁peter	-13.5254
harmaceutical	-13.5254
olidarity	-13.5255
etamorphose	-13.5255
ualshock	-13.5255
ountergank	-13.5255
rewhitelist	-13.5256
ubbreddit	-13.5256
obbie	-13.5257
brasion	-13.5257
trocity	-13.5258
▁dethrone	-13.5258
lphabetize	-13.5259
nimal	-13.526
amster	-13.526
ignature	-13.526
ollide	-13.5261
▁pett	-13.5262
alice	-13.5264
lphabetical	-13.5264
cclaim	-13.5265
esynch	-13.5266
ncrust	-13.5267
uceed	-13.5267
urposeful	-13.5268
▁permit	-13.5268
▁ejaculate	-13.5269
ushin	-13.527
xert	-13.5271
favored	-13.5271
iquor	-13.5272
olloquial	-13.5273
orrode	-13.5273
aceit	-13.5274
unnnn	-13.5275
vein	-13.5276
verlook	-13.5276
willing	-13.5278
uré	-13.5279
itualize	-13.5279
loodbend	-13.5279
▁glamour	-13.528
kipper	-13.528
lemish	-13.528
eprive	-13.5281
ffort	-13.5282
▁overlook	-13.5282
imitation	-13.5283
▁parcel	-13.5285
lanker	-13.5285
▁privatiz	-13.5286
reseason	-13.5287
eplicate	-13.5288
uperglue	-13.5291
emming	-13.5291
erniate	-13.5292
▁disapoint	-13.5292
ooobably	-13.5294
rocrastination	-13.5294
hameleon	-13.5294
mscripten	-13.5294
▁poni	-13.5295
nblock	-13.5295
verdramatize	-13.5295
dyssey	-13.5296
▁teeter	-13.5297
rafic	-13.5297
hilosophize	-13.53
sworth	-13.53
mentioned	-13.5301
▁revell	-13.5302
▁bloodi	-13.5302
▁multipl	-13.5302
▁bureaucrat	-13.5302
arrette	-13.5302
panned	-13.5305
ermon	-13.5306
ehandla	-13.5306
ockwork	-13.5307
requested	-13.5309
ntice	-13.5309
vercharge	-13.531
▁sequin	-13.531
xxxxxxxxxxxx	-13.531
alataliz	-13.5312
ickstarte	-13.5312
▁deprive	-13.5312
innow	-13.5313
interupted	-13.5315
ndubitabl	-13.5315
ertebrate	-13.5315
allpaper	-13.5316
[...]
