<blank>
<s>
</s>
▁
,
▁Const
(
▁)
▁A
D
N
1
ce
2
▁Instan
3
▁Verb
▁the
djective
e
▁a
▁Past
Tens
▁Dog
ed
H
ly
▁z
▁x
7
▁y
▁S
▁I
▁C
dverb
y
d
▁was
Link
W
▁P
▁did
▁Speaker
_
?
▁your
▁M
▁B
▁T
er
▁F
ing
▁E
▁R
▁Un
t
▁L
▁G
▁is
▁Pred
▁Own
▁my
▁O
al
r
ion
n
▁V
s
▁Re
able
espite
▁Like
eath
▁like
ally
ity
lst
a
o
side
us
ation
▁Near
▁near
long
▁Inside
▁inside
▁Unlike
en
▁unlike
l
ily
▁Up
▁Whi
ill
ness
▁Over
uz
▁cuz
▁Under
out
less
▁whi
▁till
nstance
▁Til
▁Name
on
over
▁En
ate
or
board
b
it
▁Get
▁Old
▁got
ic
lbei
bs
▁til
▁w
line
▁lb
▁vs
▁Vs
ance
rew
m
▁Bout
▁vers
▁bout
▁Exact
w
▁exact
▁albe
▁ol
▁under
way
▁Vers
age
ive
▁In
▁en
▁Not
c
est
▁Work
▁Break
▁ben
▁Ben
ook
▁Love
ingly
ake
time
ans
in
sans
▁hover
▁Take
le
▁Go
▁See
▁Thou
▁thou
▁Know
p
g
ist
▁Hard
▁unto
▁Unto
▁Be
ged
▁Out
v
▁Fall
▁Give
▁End
▁Come
▁lest
▁Real
i
▁Grow
▁Draw
▁Run
▁Play
▁Luck
▁Write
▁Win
▁Sound
▁Close
▁Total
ay
▁Ver
ism
up
lot
▁Final
▁nt
▁Ot
te
said
▁Correct
ment
▁Read
▁Eat
ank
aboard
▁Live
rocs
▁Co
▁Sleep
▁ot
▁Drive
▁Kind
withstand
▁Slow
▁Open
z
▁total
▁Wear
▁Scar
▁Complete
▁Kick
▁Tell
▁Look
▁saw
ng
midst
▁Clear
▁Hand
ant
top
▁Trip
▁slow
▁Freak
▁Cool
▁Hang
x
h
▁Free
▁Land
▁Post
▁Key
read
▁On
re
▁High
▁Blow
▁Time
▁Start
▁Fuck
▁Worth
▁Sit
▁happen
coming
▁Travel
▁kne
went
▁Show
▁Direct
f
▁complete
▁Pay
ry
▁Actual
wanted
day
▁not
▁Vote
ward
▁Weird
▁alot
▁Test
▁Line
▁Strange
▁sound
▁came
▁Black
▁Honest
▁Major
▁Log
▁Second
▁Pop
▁Train
▁Blood
▁Great
loved
▁Throw
unny
▁Buy
▁Base
verage
wear
▁Dead
▁Nice
paid
▁second
▁Join
▁actual
▁final
▁proc
▁Hop
ish
▁Double
rash
▁Basic
▁Fair
told
gave
▁Kn
▁Bitch
▁Range
▁Star
▁direct
▁Sign
int
▁nice
▁high
▁Good
▁Hair
▁Feel
appen
▁Us
▁Perfect
▁Steal
▁Hot
▁Que
▁Moral
▁g
▁Laugh
▁Fro
▁Remov
▁Fly
▁Touch
▁Help
▁perfect
▁Bad
▁Want
sult
▁Personal
▁kind
▁clear
▁Tear
▁Leg
▁Edit
▁Main
ver
▁Try
▁Rat
▁Forget
▁Original
▁Speak
atop
▁Sad
▁bad
▁Far
▁Sex
▁Point
▁Confirm
▁look
▁post
▁free
▁Score
▁New
▁Rep
▁luck
▁correct
▁Public
▁ao
▁Messag
▁Kill
▁Choos
▁Find
▁Short
▁Amazing
▁Act
▁Talk
▁great
▁Shut
▁talk
▁Man
▁Electric
k
▁Bar
▁amazing
▁Wood
▁Super
▁Creep
▁shut
▁Cross
▁Report
▁Extreme
▁Understand
▁Walk
▁help
▁Farm
▁Current
▁Box
▁double
▁Fat
▁new
▁Market
▁Wait
▁Lose
live
▁Push
▁Class
down
▁Stupid
▁Sour
▁Huge
▁Normal
▁Blind
▁start
ify
▁Fail
▁Lie
▁Stream
▁fro
▁Ju
▁Random
▁Question
ended
▁Obvious
▁Jack
▁stole
▁Change
▁Part
▁Fix
▁woke
▁Surviv
▁ran
▁Friend
▁black
▁wrong
▁Light
▁broke
▁Smell
▁Low
▁Wrong
▁Rock
ful
▁live
▁sad
▁Similar
▁Hide
▁fail
▁Progress
▁average
load
▁Quick
▁Note
▁Possibl
▁Speed
▁major
▁main
▁Absolute
▁message
▁current
ch
▁Jump
▁hard
▁Listen
▁Limit
▁personal
ail
nce
▁Happ
▁i
▁Specific
▁real
▁Hack
▁Decide
▁extreme
▁Legal
▁Die
▁Step
st
▁wonder
▁Drop
▁star
▁Ask
▁Valu
▁score
▁War
th
▁update
▁obvious
▁Port
▁normal
▁Late
▁Sell
▁Natural
▁Mean
▁Equal
sus
▁honest
▁Bear
▁Mental
▁Mode
▁Trade
▁fair
▁Season
▁awesome
▁Stop
greed
▁Tax
head
▁sat
▁Shin
▁Awesome
▁Heat
▁Lay
▁Focus
▁stupid
▁Typical
▁Technical
▁Sneak
▁Wonder
▁Wi
oss
confirmed
▁Goddamn
▁forgot
▁walk
▁Tip
▁Brave
▁Smoke
▁absolute
▁Ultimate
▁Fire
▁show
ten
▁Outside
▁Care
ie
▁Sing
▁Face
▁short
▁Bomb
▁original
ring
▁bang
▁Sure
▁Sta
▁Mix
▁bitch
▁Bang
▁Catch
ably
red
▁Fake
▁Build
aw
▁Hunt
▁General
▁Promis
▁Pick
▁Beautiful
ped
▁Incredibl
▁base
worked
▁Fight
▁Camp
▁Lock
▁Clean
back
rove
▁beautiful
▁Rain
▁Odd
▁Enjoy
▁natural
▁Drink
ar
▁Fish
ve
▁Tin
▁Wire
raise
▁p
man
ted
▁Park
▁similar
▁Price
▁Special
▁ultimate
▁chose
▁Certain
mail
▁Rush
▁general
▁Physical
▁ask
▁tri
▁Respect
▁Pure
▁Week
▁Burn
▁St
▁Joke
▁Massive
rotank
▁Agree
▁Begin
▁Rare
▁crash
▁Long
▁Realis
▁Smile
▁Gran
▁massive
▁Boot
▁Recent
▁Important
▁Load
▁clean
▁won
▁Weak
▁Bill
▁Watch
▁Present
▁Occur
▁sure
▁Terribl
▁Exhaust
▁true
▁typical
▁land
▁True
▁Twist
▁single
▁close
▁big
▁wor
▁Condition
▁Calm
▁pure
▁huge
▁text
nstead
▁over
▁Different
▁Single
▁Literal
▁Finish
▁Interesting
▁Last
▁Big
arry
▁hid
▁good
▁Mad
▁Lone
oot
▁Turn
▁Support
related
▁blind
▁Ris
eak
▁wi
▁different
▁demand
▁Some
▁Cheap
▁Local
▁Ride
▁Shift
▁Warn
rated
▁Secret
▁rare
▁calm
▁Surprise
▁holy
▁dug
▁Option
▁certain
▁stay
▁Health
▁Wild
▁fake
ath
▁hot
▁Hero
den
▁Wish
▁travel
▁interesting
▁Entire
▁random
right
▁Fore
▁Large
▁Qu
▁wait
▁Warm
▁Visit
▁World
▁matter
▁Poor
▁recent
▁praise
oming
▁Strong
▁Glad
▁Beat
▁Rule
▁wild
▁Text
▁Usual
▁Strike
▁rush
▁Command
▁decided
▁large
▁Spoil
▁Shitt
▁public
▁important
▁odd
▁cool
▁Stand
▁secret
▁cross
▁Trick
▁Suppose
light
▁mad
▁strange
▁special
▁Continu
▁entire
▁Learn
laim
▁Raid
▁Ban
▁glad
more
evel
▁Teach
▁specific
▁fell
▁Horribl
▁Safe
▁Engineer
▁Lean
▁poor
▁Kit
▁Racis
▁Unfortunate
▁Sub
▁Master
▁super
▁Order
▁Separate
▁happy
died
▁Answer
▁Ho
▁Sexual
▁Honor
sap
▁lean
▁physical
▁Shake
▁Stick
▁Need
▁lack
▁Power
wise
▁Ins
▁Sting
▁Sweet
vil
▁Bull
known
▁Frustrat
▁fire
▁Explain
▁Ridiculous
▁literal
turn
▁Follow
▁Mis
▁Gu
▁Rape
▁Comment
▁result
▁Ram
▁Spin
wing
▁Ball
▁Solid
▁Complain
▁technical
what
▁Regular
▁Origin
▁approach
▁strong
▁counter
▁brave
emand
▁Trust
▁Paint
▁Willing
▁laugh
▁Common
oil
▁join
▁false
▁raw
▁Dream
▁felt
▁Fast
▁figure
▁Year
▁Translat
ur
▁Human
umble
▁False
▁Essential
come
▁legal
▁Deep
ized
▁non
▁force
▁Life
▁Tank
▁Virtual
▁Plan
▁Contribut
understood
▁Gross
rote
▁Interest
▁Stone
▁usual
▁Block
▁half
▁Repeat
tw
▁fast
▁Additional
▁Fit
▁Shoot
mo
▁Inst
▁Wide
▁Meet
anish
eep
▁Observ
▁Lack
▁world
▁Slim
▁Fascinat
▁Dry
▁wire
▁Factor
rab
▁Express
▁Jerk
▁Violat
▁Cap
▁Edg
▁weird
▁progress
▁open
▁fat
▁Salt
▁Ring
▁Move
▁jump
▁Slight
ung
▁Spell
med
answered
▁Sudden
▁listen
▁Water
▁Insane
▁Multipl
set
cross
▁Li
▁Fresh
▁Careful
▁Track
▁local
▁additional
▁goddamn
ew
▁constant
logged
▁User
▁Map
▁German
▁Rest
▁Hilarious
▁Risk
▁Effective
▁little
▁Brand
▁hop
▁unfortunate
▁solid
led
▁hilarious
▁fine
▁Wind
eave
▁Oppress
▁Relevan
▁Round
▁Vari
▁Approach
seen
▁virtual
▁Little
▁Figure
▁round
▁dream
air
▁Tight
▁safe
▁learn
▁Probabl
▁kick
▁outside
▁Dumb
▁Select
scape
▁Half
▁fore
atter
▁Political
▁State
inner
▁Fine
▁Perform
▁Jail
at
▁title
▁lay
heard
▁Rough
▁Non
▁Hell
▁Hook
rticle
▁Reward
▁Shock
▁Internal
▁smoke
▁instant
▁Process
▁Rational
▁essential
▁Eas
▁trade
▁race
▁sweet
▁mov
▁dead
▁Private
▁Craft
▁crazy
▁struggle
▁Orange
▁Ironic
▁Gather
▁Spend
▁Eg
▁Trash
ocket
▁Smooth
▁mirror
▁Race
▁mental
▁cheap
▁Flip
▁Print
▁comment
▁Practical
▁rule
▁slight
▁internal
▁some
▁Optic
otion
asty
▁Climb
▁Strip
▁Loud
▁Stud
ss
▁careful
▁Cry
▁regular
▁Launch
▁bill
▁funny
▁burn
▁test
▁private
ble
▁Sin
▁Color
▁Murder
▁Sick
▁Alternative
▁Enter
▁Replace
▁Account
▁common
▁attack
▁political
▁Increas
▁Fruit
▁wish
▁Classic
▁dance
▁team
▁Proper
▁Ideal
▁Previous
▁basic
ad
▁smile
▁Con
▁Force
ps
▁Elect
▁Mess
▁Click
▁Cost
▁Slide
▁Code
uel
old
▁Negative
▁Pass
ought
▁Fear
▁Surprising
▁Supp
▁Stag
▁Head
▁deal
▁ridiculous
▁shift
▁Locat
▁Bug
▁dropp
▁Hopeful
▁stopp
▁push
▁hope
▁Guilt
▁Air
▁Historical
▁Bank
▁alternative
▁fresh
truggle
▁Photograph
▁escape
▁Brutal
▁Place
▁Project
▁Count
▁meant
▁Flash
▁Exi
▁Cast
▁Immediate
▁search
▁Record
▁Dear
ound
▁grant
▁Heart
▁Genuine
stage
itute
all
▁dark
▁Ignor
▁sexual
▁season
land
▁React
▁Cycl
▁key
▁dear
▁Disable
▁Freeze
▁White
▁negative
▁Visual
▁picture
▁mis
▁proper
u
▁Dark
▁Troll
▁old
▁Ug
▁Religious
▁Awful
▁Remind
▁Pack
▁Manage
▁Element
▁Bus
itness
▁Compar
born
▁previous
▁Stuff
▁stuff
▁Conflict
blew
cream
▁Soft
▁Cloth
▁Fashion
▁Realistic
▁fantastic
▁Keep
▁Save
▁Treat
▁smooth
▁Silent
se
▁Refus
▁Bond
▁Wing
▁Add
▁Charge
voted
▁Graduat
▁far
the
▁Constant
▁hat
▁Licens
▁Poison
el
▁ironic
▁place
▁Control
▁collapse
▁awful
▁Dress
▁smart
▁Warrant
▁Mirror
▁Cute
▁pre
▁Automatic
▁Search
▁Review
rank
▁water
▁visual
▁Favorit
▁Bowl
▁religious
▁Request
▁Respond
▁Escalat
▁target
▁terrible
▁master
▁Suit
illy
▁fear
▁moral
▁Wheel
▁Primar
▁Tempt
added
▁Reserv
▁silent
▁park
▁rose
▁Illegal
▁Skinn
attended
▁rough
▁Foreign
▁Fantastic
▁supposed
▁Fund
▁Pray
▁joke
elay
▁story
▁Eventual
id
▁Quiet
▁Attack
▁Professional
▁ideal
▁Casual
▁Smart
▁bold
▁Bust
▁visit
▁human
▁Notice
▁worth
▁gross
▁Rip
▁quiet
▁Decent
▁stage
▁volunteer
▁Initial
▁Remote
▁Orgasm
▁brilliant
▁Balance
▁Medical
▁decrease
▁Month
itle
▁Easy
uck
▁Traditional
▁Unique
▁surprising
▁Rust
▁eg
▁Federal
▁Thread
raft
▁Slip
▁Check
▁Challenge
▁Snip
▁Financial
▁Brilliant
▁Wave
▁downvote
▁Host
▁Bold
aked
▁quick
▁genuine
▁Reflect
▁Neat
andy
▁Word
▁medical
▁Damag
▁Awkward
▁Useful
▁favorite
▁Goof
▁Roll
▁Do
▁Occasional
▁native
▁Sort
▁Liberal
▁Particular
▁Scientific
▁Team
▁Send
▁evil
▁Hear
▁Research
▁decent
▁rock
▁raid
▁nail
▁heat
▁cold
▁casual
unk
pring
▁Modern
▁upvote
▁Potential
ragged
▁Design
▁Burst
▁peak
▁Thing
▁label
▁Loose
▁Valid
▁immediate
▁Individual
▁Native
▁Experience
hief
▁Downvote
▁Purchas
▁equal
▁automatic
▁Trap
▁low
▁small
▁level
▁Wick
▁excellent
▁curse
▁initial
▁Relat
▁burst
▁fun
called
▁Sweat
▁Incorrect
ays
▁late
▁neat
▁potential
▁Generat
▁soft
▁friend
ollapse
▁Should
▁Frequent
▁Participat
▁remote
▁share
▁hopeful
▁Wonderful
▁Govern
▁Excellent
▁select
▁Interview
▁Prove
explained
▁awkward
▁Form
▁Entertain
▁couple
lost
▁illegal
▁tax
▁financial
▁Tough
▁Central
▁Girl
▁Appear
▁th
ash
▁fall
▁School
▁central
▁respond
▁Relative
▁arrest
▁wonderful
▁tight
▁Jealous
▁freak
volutionary
▁Expect
▁Brew
ified
▁Ub
▁Bare
▁Thin
▁Cock
▁separate
▁pvp
▁Snap
▁Small
▁appear
▁met
▁reason
▁federal
▁pack
▁traditional
▁Game
written
ite
▁incorrect
▁past
hill
▁Night
▁Deal
▁Democratic
▁Thankful
▁Juic
▁Utter
▁request
▁cute
▁Call
▁View
▁Contract
▁swor
▁Voi
▁tough
▁Eye
▁loud
course
▁Rent
▁Critical
fixed
▁Thrill
▁Trail
▁Unit
▁repli
▁Buff
▁Pitch
▁market
▁easy
▁murder
▁Social
▁liberal
▁contact
▁center
▁Wash
▁eternal
▁stone
▁Magical
▁ready
olunteer
▁Eternal
▁Logical
▁Guide
▁Cheer
▁Talent
▁Crack
▁Moderate
▁Lot
▁enter
rrive
▁Masturbat
▁Yo
▁storm
▁rap
ecrease
▁grabb
▁Education
▁Rap
▁scientific
▁Feed
▁Op
▁critical
▁Later
▁book
▁Waste
▁Frank
▁Bright
▁middle
▁school
▁Cook
▁professional
▁democratic
icture
▁Stretch
▁Jew
productive
ause
▁Plain
▁phone
▁Cream
▁Blur
▁Cringe
▁Snow
▁Transfer
▁Hol
▁climb
▁warn
ever
arget
▁fucking
▁white
lush
▁hook
abel
▁severe
▁Middle
▁Disappear
▁fle
▁relative
▁proceed
▁battle
▁occasional
rk
▁Curious
▁Objective
ridge
rrest
▁cri
▁reserve
▁frequent
utter
▁complain
rick
▁Revers
▁ground
awn
▁extra
▁young
▁Jar
▁group
▁found
▁design
▁relevant
▁plain
▁Rich
▁Toast
▁Positive
▁deep
▁objective
▁effect
▁love
▁triple
▁female
▁moderate
▁Ill
▁sh
▁assault
focused
▁Forward
pologize
▁Sink
▁Import
▁stream
▁purchase
▁german
ent
▁Impress
▁watch
stood
▁individual
▁cheer
▁cave
▁brand
▁Flood
emale
▁Coast
▁rich
▁Provide
▁Needless
▁Fortunate
claimed
▁Ton
▁deposit
▁Silence
▁guy
▁record
▁Attend
▁Emotional
▁realistic
▁Drag
▁Buzz
▁shitty
▁Criminal
▁Clever
▁Story
▁drive
▁sick
▁Proce
▁Minor
▁eventual
▁blame
▁Secure
▁needless
▁Region
▁The
▁Humbl
▁Extra
▁Lb
▁particular
▁dumb
▁Job
ender
▁Successful
▁positive
▁horrible
▁research
▁Appropriate
▁Receive
▁Boom
▁Type
▁Book
▁patch
▁bomb
▁heavy
▁Heal
▁Disagree
▁credit
aybe
▁apologize
▁Packag
doubted
▁Flat
▁Doubt
▁Fill
▁Match
▁comic
▁Heavy
▁magical
ominate
▁practical
▁Protect
▁national
▁night
retty
▁review
▁classic
▁Corrupt
▁Preten
▁Corporat
enter
▁logical
▁Believe
▁link
▁Civil
▁golden
ecline
▁wide
▁sexy
▁Impossibl
▁trigger
▁Storm
▁decline
▁seal
▁simple
▁reference
▁Government
▁Counter
▁Prompt
▁giant
▁war
▁flow
▁Way
▁Zon
▁Milk
▁Spic
▁Competitive
ability
▁appropriate
▁Reasonabl
▁store
▁Wise
▁Store
▁global
▁tiny
▁chinese
imp
▁Gift
▁multiple
▁Comic
▁view
▁Fiction
▁Phone
▁Rapid
▁thing
▁Official
▁Comfort
▁Simple
▁Patch
▁emotional
finished
▁thankful
▁Kid
▁email
▁angry
changed
▁Elder
▁Space
airs
▁Demonstrat
▁Oblivio
▁Blame
▁whisper
▁Modest
▁Blast
un
▁Fundamental
▁wheel
▁Memor
limited
▁Cur
▁plenty
▁smell
▁Reve
▁Proud
▁Tag
▁cod
▁plant
▁Exist
▁guarantee
▁pretty
▁Cover
▁Tid
▁sw
ull
▁Share
▁Reason
▁Gear
▁Endless
▁official
▁op
▁jerk
▁western
▁flag
ass
▁stock
▁Hold
▁active
▁Defensive
▁reveal
▁Theoretical
▁Spot
▁Knowledge
▁Sail
▁Chip
▁modern
▁buzz
▁poison
▁curious
▁Toxic
▁conservative
▁project
▁Seal
▁thin
ouple
▁voice
hinese
▁Cloud
▁follow
▁Mortal
▁Horn
▁shiny
▁Sincere
▁You
▁Accidental
▁Group
▁Vast
sian
▁loose
eposit
▁sea
▁List
▁Piss
▁game
▁internet
▁successful
▁Vi
▁appeal
▁mother
▁criminal
▁spoke
▁Copy
▁clever
▁prompt
▁Global
▁bare
▁Pre
▁independent
▁science
▁Gold
▁steam
▁Wr
▁disagree
▁left
▁Plant
▁proud
▁Brain
▁Mega
▁Fun
ngry
▁Miss
▁japanese
▁Conservative
ssociate
▁National
▁Serious
▁Nod
▁Mod
▁trash
xplode
▁Shad
▁Think
lda
▁gather
▁access
▁korean
▁muslim
▁gorgeous
▁Lend
anity
▁Laz
▁unique
ough
▁possible
▁code
▁advocate
▁pick
▁explode
▁Sharp
▁Functional
▁power
▁endless
estern
▁Especial
▁Accurate
▁Independent
▁last
▁Iron
▁Fact
▁Precise
▁rapid
▁Realiz
acted
▁dirty
▁baby
▁hung
da
▁republican
▁Resistan
▁Cultural
▁Committe
▁switch
▁Glor
▁Chat
iant
▁associate
erial
▁gold
ranged
▁Trad
▁racist
▁Violent
▁cat
▁Statistical
▁Recommend
▁Press
allet
▁Popular
ope
▁Bless
▁occurre
▁Passive
▁Mechanical
lept
▁willing
▁civil
▁engineer
▁mega
▁Blond
imo
▁stem
▁Creative
▁southern
▁Punch
▁Gender
▁Mayo
▁Dangerous
▁Recover
um
▁Voice
▁face
▁refus
▁subject
▁thought
▁Pirate
▁Position
▁practice
▁fool
alm
▁sort
▁frank
▁Opposit
▁rape
▁taste
▁farm
▁Hype
▁Bounce
▁box
▁Bal
▁point
apanese
orean
▁King
▁russian
▁year
▁bega
▁address
▁Ship
orgeous
uslim
▁passive
▁Ground
▁Leak
▁Back
▁Alternate
▁Runn
▁car
▁Spar
▁track
▁mom
▁film
▁fortunate
▁class
▁urban
▁Practic
name
▁semi
▁Steam
▁file
▁Offensive
▁Yellow
▁popp
▁mechanical
▁Elit
▁frozen
▁girl
▁dog
▁Mild
▁Dual
▁Mere
▁mind
▁breath
▁Gun
▁dual
▁Nerd
▁Hour
▁Rag
▁Sp
▁asian
rban
▁Awake
▁progressive
▁Styl
▁sense
▁Broad
▁northern
▁Ago
▁Cave
▁Taste
▁defensive
▁dangerous
played
▁craft
▁accurate
▁freedom
▁Matur
ask
▁death
outhern
▁scream
ssault
▁Subject
▁creative
▁slipp
▁brutal
▁drunk
▁Summon
▁alternate
pray
▁Wall
▁light
▁interview
▁ball
▁competitive
▁print
▁cultural
ontact
▁spam
▁Crowd
▁guard
▁job
▁Upset
▁Semi
▁circle
▁home
▁violent
▁Wealth
▁Batter
▁divorce
▁Active
▁argu
▁incredible
▁social
▁display
ussian
▁Tune
▁bloody
▁ancient
▁Skill
▁offensive
epublican
▁adamant
▁graduate
▁coach
▁hint
▁Strict
▁Partial
▁suspect
▁Format
▁hell
▁Paranoi
▁void
▁Overhea
ous
ncient
▁abuse
▁evidence
▁Curs
▁Earth
▁Room
▁Withdraw
▁movie
▁Foot
hisper
▁forward
rozen
▁steppe
▁flat
orthern
▁silly
▁Argue
▁sharp
uarantee
▁annoying
▁accidental
spoken
▁optional
▁Battle
▁theoretical
▁Extend
▁insane
▁Libertarian
▁Chase
▁Mutual
▁Incom
▁standard
▁Spirit
▁Adamant
▁sex
▁Du
▁alien
▁disappear
lenty
▁karma
▁precise
▁Office
▁everybody
▁Annoying
▁Pleas
▁warm
▁sincere
▁Prefer
▁fart
▁Effect
▁Polite
▁Straight
▁Brief
▁british
▁Sense
▁exchange
▁Switch
▁admitted
dvocate
▁Scal
▁Mother
vp
▁Permanent
atty
altered
▁Greed
▁hunt
▁honor
uspect
▁impossible
▁witness
▁Shout
▁Drunk
▁camp
sh
▁Operation
▁Mid
▁end
▁Referen
▁File
▁Weight
▁Bump
▁popular
▁Lead
▁care
▁schedule
▁heart
edited
▁Flee
▁award
▁cunt
▁Knock
ize
▁bough
▁gray
▁male
▁pop
ppeal
▁humble
▁ugly
▁Suck
▁gone
▁Alien
▁Intentional
▁mild
▁Unbelievabl
▁wifi
▁host
rush
▁service
▁Exclusive
▁legendary
▁scary
▁card
▁Square
▁Ya
▁Bat
▁model
▁Glan
▁party
▁ago
▁Yell
▁yell
▁minor
▁video
▁Intellectual
▁bright
▁vast
▁Commission
uke
▁interested
▁news
▁corrupt
▁Artificial
▁Fascis
▁Famous
▁famous
▁bench
▁today
▁spoiler
redit
sp
▁Shop
▁delicious
▁collective
▁station
▁Ski
▁Presum
▁naked
▁alive
▁Delicious
▁blast
rigger
away
▁Set
▁flipp
▁Ethnic
▁Dig
na
▁fourth
▁ice
▁Bunch
▁pitch
▁Severe
▁silence
▁statistical
▁Tub
▁Refresh
▁Behav
▁bullshit
▁mere
▁bundle
▁lovely
arch
▁frame
▁Senior
▁support
▁mutual
▁Disgusting
▁libertarian
▁Stock
▁impact
▁modest
▁Vet
▁Dodge
▁Mobil
itty
▁Consistent
▁Collective
▁Terrifi
▁foreign
▁tank
▁grill
▁spray
ool
▁disgusting
▁bacon
▁grey
▁Significant
▁Band
▁Stead
▁trick
tem
▁phase
▁boom
ritish
▁canadian
▁miss
▁Creat
▁Trib
▁Journal
▁partial
▁question
▁Staff
▁unknown
▁Wet
▁Gray
▁Estimat
▁Intelligent
▁maybe
▁shout
▁Kitt
▁bond
▁Desir
▁consent
▁Indian
▁week
educated
▁Inherent
▁Legitimate
▁Mail
▁Elevat
eel
rise
▁elite
▁lucky
▁surprised
killed
▁Mind
▁Restrict
egendary
▁Recogniz
▁Genetic
▁reverse
▁Them
▁Radical
▁Premier
▁fit
▁cooler
trapped
▁weight
▁snow
ranked
▁hack
▁exclusive
▁permanent
▁strict
▁Philosoph
▁benefit
▁return
▁Home
▁Combin
ancel
▁Grey
▁indian
▁click
▁Prison
ourth
▁communist
▁torture
inder
▁continu
▁Fry
▁Task
▁artificial
▁tip
▁Endur
aggy
▁food
▁african
anadian
▁fuel
▁Day
aint
▁Arrange
▁glance
▁chip
▁Cunt
▁freaking
▁socialist
rench
▁work
▁change
ack
▁Operat
▁Corn
ney
▁intellectual
▁cash
▁style
▁genetic
▁Employ
▁flood
isplay
▁Blatant
▁moon
▁exist
▁pretend
▁blood
▁Sa
▁Predict
▁Unnecessar
frican
checked
tuck
▁hand
▁react
▁Jungle
▁Manual
▁Relax
▁Rude
▁corporate
rift
▁house
▁Pit
▁hair
▁bunch
▁Length
▁Pa
▁Tend
▁rational
▁Joy
▁Ve
▁pay
▁advanced
▁zone
▁Aggressive
▁Delete
▁Harvest
▁delete
▁Qualifi
▁Fur
▁Director
▁Oil
▁Publish
▁economic
pply
ddress
▁com
▁guilty
hrug
▁Produce
▁jewish
▁mask
▁shrug
▁Service
▁Program
▁Early
▁Formal
▁Desperate
▁badass
▁punch
▁Flag
▁Renew
▁Soon
▁issue
▁Organic
▁wet
▁tattoo
▁poop
▁Experiment
▁Fool
olden
▁family
▁Robot
ommunist
▁Garden
▁bust
▁Sli
▁snapp
▁protest
▁yellow
▁Bias
▁cycle
▁Film
▁spanish
▁radical
▁thread
▁Colour
act
ut
▁pit
▁city
▁meme
▁dutch
▁commercial
▁load
▁Furious
▁step
▁art
▁Right
atent
▁surviv
▁Transform
▁Grill
rown
▁idea
▁gem
▁reward
iversity
▁organic
▁Floor
▁significant
▁Fart
▁Tap
▁Financ
ailor
▁arrange
▁Neutral
an
▁Statu
▁legitimate
ssure
utch
▁Hate
▁fundamental
▁influence
▁feature
▁Represent
▁Pull
▁neutral
▁Pro
▁Schedule
▁unlimited
▁italian
▁act
oggy
▁electronic
▁Remain
▁consistent
▁Tru
▁Economic
▁Contain
▁trust
dvanced
▁Access
▁Flaw
▁brush
▁Standard
▁exercise
oster
▁intelligent
▁part
▁glorious
▁Romantic
▁task
▁Enforce
▁remain
▁Sketch
▁command
Const
▁weigh
▁Infinite
▁present
▁Weigh
▁Death
▁Electronic
▁Bon
▁Nois
▁tap
▁Radi
▁Sight
lorious
▁senior
held
▁especial
▁tipp
▁mess
▁Guard
▁Excited
▁cost
▁Socialis
▁Circle
▁Vague
▁Confuse
▁Disappoint
▁tv
▁hero
▁gun
▁furious
▁Yog
▁Male
▁iron
reach
night
▁Eviden
▁swedish
▁Impressive
▁Abuse
▁Badass
▁mod
A
▁mobile
aft
▁object
▁Thorough
▁Regulat
▁sun
▁inherent
▁rescue
▁Scienc
ssue
▁crucial
▁excited
▁Pos
▁polite
▁remind
▁turn
▁Mass
▁desperate
▁Sea
▁Pressur
▁Sugar
▁Environmental
oon
▁Complex
ivorce
▁Stress
▁rogue
▁lazy
▁Constitutional
▁dry
▁Commercial
omit
bh
▁Lad
▁Harsh
▁Broadcast
▁Painful
▁rode
▁Roman
umber
▁Understandabl
▁pull
talian
▁pink
▁Scout
▁Filth
▁Lift
▁son
▁clock
▁early
▁Mom
▁improv
▁Psychological
▁Sand
▁straight
▁impressive
▁page
▁aggressive
ecurity
▁conclude
▁Protest
▁Karma
▁twin
▁fish
▁Baby
▁Math
▁shape
▁kid
▁cam
▁slim
▁creepy
▁Tir
▁case
residential
▁music
▁dash
▁Orient
▁flash
▁scale
▁Orbit
▁Size
▁manual
planned
▁pause
▁bugg
▁Obes
▁Bike
▁Fault
▁Cod
▁Flick
om
▁Mans
▁orange
▁Detail
▁discount
▁Mark
state
▁innocent
▁frown
▁shield
▁lego
▁surface
onclude
nternet
aker
▁coat
▁Beast
▁Wreck
▁wall
▁Manipulat
▁blatant
▁Greas
▁Superior
▁Inevitabl
▁Pee
▁Frame
▁romantic
▁promis
▁Firm
▁Recruit
▁psychological
▁mature
heater
▁Regard
▁Road
▁Twin
▁Comfortabl
▁position
▁judge
▁Temporar
▁west
wedish
▁Define
▁Patient
▁pve
loppy
rucial
ue
▁Reliabl
wide
▁Coach
take
▁encounter
xchange
▁Pale
▁measure
▁sacrifice
▁Art
▁Powerful
▁Flawless
umor
▁Exploit
▁infinite
▁finish
▁Innocent
▁episode
▁penis
▁screen
tomp
▁earth
▁Page
elease
▁scroll
▁uber
▁Leaf
▁Difficult
▁train
▁Elaborat
▁painful
▁Tre
▁Impact
▁String
▁Imagin
▁serious
▁Manufacture
▁truth
urry
▁Spam
▁government
▁cheese
▁Dare
▁expensive
▁Transport
▁powder
▁source
▁fuck
▁Swift
▁Card
igger
▁sail
▁Grave
asp
▁Station
▁enjoy
▁Beard
▁problem
▁Reassur
▁Prevent
▁swift
▁stomp
▁cock
▁classy
▁Restor
dorable
▁copyright
▁Qualit
▁tbh
▁weak
▁Rambl
▁boss
▁Sole
▁believe
taken
▁Phase
▁given
▁Benefi
signed
lone
▁number
▁seed
founded
▁duck
shamed
▁campaign
undle
▁Verifi
▁Marri
rs
▁bowl
apture
▁future
▁boring
▁Minimal
▁Universal
▁Insist
▁electric
▁milk
▁Flu
▁adorable
▁repair
▁Weapon
▁body
▁Episod
▁Peaceful
▁Routine
▁Quarter
▁sim
▁shot
▁Anal
▁un
▁arm
orture
▁Dramatic
▁Dynamic
▁dynamic
▁firm
▁Shred
elcome
▁insiste
▁universal
▁contribut
▁patient
▁Pink
▁delay
cut
needed
▁network
▁savage
▁rage
▁regard
▁Pun
▁Obsess
online
▁Backward
wap
acon
▁control
done
▁twisted
▁Judgment
▁Responsibl
eg
▁vote
▁note
▁boot
▁Deliberate
▁thorough
▁Respectful
▁flawless
▁noble
▁legit
▁magic
▁Seed
ether
▁constitutional
▁harsh
▁Privilege
▁Selfish
▁Bel
▁mist
▁bank
▁Discover
▁Bottle
▁Football
▁originat
▁Convenient
▁pain
▁Justifi
ancy
nfluence
▁birthday
▁Savage
▁brother
▁Butter
▁led
▁increas
▁Beef
▁Pleasant
▁mighty
▁doctor
▁nerf
▁fifth
▁Might
▁bot
oring
▁country
▁brew
▁somebody
▁nuclear
▁wireless
▁Dust
▁superior
▁Bench
▁Gate
▁shame
hape
▁Grim
▁scared
▁slaughter
▁sole
▁Roast
▁Truck
▁type
otten
▁Profit
mbrace
▁Video
reedom
▁Familiar
▁Racial
▁chas
▁definitely
▁Bind
▁Reform
▁football
▁unreal
▁supernatural
ke
▁import
▁Gain
▁eye
▁Car
rogressive
ovie
▁woman
▁broad
▁toxic
▁Efficient
▁Riot
▁hardcore
▁Upper
▁location
▁embrace
▁violat
▁weed
▁drift
eature
▁arriv
▁profit
▁cup
▁Hypothetical
▁history
▁routine
▁Theor
named
▁Person
▁Hope
▁Success
vailable
▁Trace
panish
▁Domestic
▁Subsequent
▁Crisp
▁Legit
▁generat
reek
▁tired
▁coin
▁Unfair
▁Row
▁Stealth
▁Definite
▁Cat
eem
▁Board
▁Drug
▁Approximate
▁monster
▁Subscribe
▁potato
▁Narrow
▁Econom
▁tripp
irty
▁flu
▁narrow
▁favourite
▁peaceful
▁sign
▁tweet
hold
▁fact
▁purpose
▁alert
▁Explicit
▁Frighten
▁pale
▁Age
▁biblical
▁league
▁House
▁sour
▁Spill
▁Biological
eek
▁Window
▁welcome
attoo
uzzle
▁Liquid
▁contrary
▁Medicin
start
▁metal
xpensive
▁System
▁Sweep
▁Structure
▁vomit
▁minimum
▁Teenage
aughter
▁drill
▁space
▁Download
▁Rogue
▁Absurd
▁wreck
▁racial
▁environmental
blown
▁Unreal
▁harvest
▁re
oble
▁self
upernatural
▁Concern
▁Glitch
▁Voluntar
▁Exceed
▁sent
▁verified
▁beast
▁Fla
▁Judge
ifth
▁Twa
▁pass
verybody
▁justice
▁Sentenc
▁Intense
▁Warp
▁bit
▁jealous
▁Convert
▁Injur
▁Distinct
▁hungry
▁Red
▁troll
▁Harm
▁Measure
▁Network
▁industrial
▁Enlighten
▁Substantial
▁Proof
▁health
▁Can
▁wicked
▁price
▁commission
nt
▁Mute
▁Compete
▁Zoo
▁resident
▁clone
▁trace
▁sold
▁Blaze
▁dramatic
itting
▁proof
▁sigh
▁Mem
by
▁Conscious
▁cake
▁Irrational
▁Yu
▁wise
▁stranger
▁player
▁Document
▁debate
▁Musical
▁speed
▁Eliminat
▁biological
▁sunny
▁person
▁Cash
▁Immortal
▁business
▁Scratch
▁Unusual
▁channel
▁rocket
▁Shadow
▁anal
▁cast
▁Found
▁shocking
▁Meat
arrier
iblical
▁Extensive
▁solar
▁Breath
ullshit
▁optical
▁Filt
genesis
▁Rob
▁pressure
▁Beg
▁selfish
▁flush
▁Fond
▁beer
▁Stat
▁Organis
▁Lame
▁broken
▁vague
▁worship
▁Mold
ifi
▁plot
▁formal
▁Plat
▁system
▁Shocking
erry
▁domestic
▁Fav
ontrary
▁Pathetic
▁Fier
▁sky
▁condition
▁absurd
style
tore
▁Content
▁Consider
▁Accept
▁Photo
▁maximum
▁obligatory
▁Shave
▁auto
▁Kar
place
▁soul
▁Drill
▁Annual
▁Screw
▁beta
▁reform
▁contract
▁Bur
▁arab
▁gear
broad
▁fascinating
▁club
▁Tie
▁crack
▁damned
▁damage
▁edge
▁Vegan
▁convenient
▁Curve
▁accept
▁Tall
▁shadow
▁musical
▁machine
▁fantasy
▁quality
▁sang
▁Overwhelming
▁classical
▁Vital
avourite
▁lame
▁Adequate
▁attention
▁life
▁Son
efeat
▁chuck
▁pie
defeated
▁mortal
▁report
▁Invest
▁sub
▁rom
oday
▁queen
▁Wrap
▁Resign
▁anybody
▁factor
▁crap
▁defense
▁unusual
▁Sample
▁hatch
▁respectful
▁patent
▁stunning
▁islamic
▁spring
▁To
▁Nerf
oke
elief
▁verbal
▁Fuzz
▁underground
▁intense
▁state
▁estimate
▁Slut
▁jail
▁community
▁Execut
▁Flesh
▁Entr
▁Reject
▁backward
▁Vertical
▁plan
▁Behavior
▁Foolish
aily
▁News
▁Funk
▁Course
xercise
▁leak
▁deck
▁Bulk
▁religion
▁subsequent
▁soon
not
▁Object
▁Respective
▁Certif
▁annual
▁Obscur
▁exceed
▁irrelevant
▁Homeless
▁Baffl
▁Yar
▁Preach
▁Improve
unt
ncounter
▁hypothetical
▁Powder
▁junior
▁skinny
▁Poop
lock
▁Considerabl
while
▁Seat
▁area
▁Crap
▁strip
▁mode
ose
▁immortal
▁Purpose
oul
▁nasty
▁Plug
lert
▁Thank
▁overwhelming
▁powerful
▁Wander
▁Grind
▁spen
aximum
▁certifi
otch
▁road
▁deliberate
▁explicit
▁gaming
▁bitcoin
pparently
▁likely
▁Nature
▁server
▁tour
▁Connect
▁flesh
iscount
ural
▁Pen
escue
▁Jaw
popular
▁favor
▁Clock
▁Twi
▁Equivalen
▁Chain
nner
▁extended
▁repeated
▁Craz
▁toast
▁Stink
protected
▁Idea
▁peace
▁order
▁piece
▁invisible
▁tonight
▁Toleran
▁Gam
bligatory
▁Mouth
▁rain
▁Sacrific
▁sleep
▁child
ork
▁Tier
▁approximate
▁captain
▁pizza
▁Mythic
amned
▁Gener
▁row
▁chrome
▁Crawl
▁Immense
▁insult
▁Outrage
▁summer
like
▁friendly
slamic
▁Destroy
▁Prepare
▁provide
▁risk
▁Mistake
▁screw
▁energy
▁church
▁nigger
▁Useless
▁substantial
▁air
▁Crush
▁office
▁Humiliat
▁Food
▁experiment
▁married
▁Gas
alve
▁Ethical
▁knock
▁rude
uclear
▁college
▁Dash
▁Evident
▁deadly
▁launch
▁Teen
▁Duck
▁Overclock
▁extensive
▁glory
▁sacred
▁mail
▁series
▁Crunch
▁Reach
▁Butch
▁valve
▁Introvert
▁rotten
▁Screen
▁dust
ma
nger
razy
dly
▁elemental
▁south
▁confused
▁Debate
▁Poll
▁island
▁Flavor
urface
▁br
▁excessive
inimum
▁finger
▁elaborate
▁International
▁flare
▁computer
▁vertical
▁description
▁should
▁Moon
▁Hatch
▁Doctor
▁Preferabl
▁Cas
▁cough
▁Deck
▁adequate
▁goal
▁chicken
ungry
pic
tended
▁Contest
▁Feminis
swell
▁information
▁Bitter
▁Timi
▁tea
▁Fad
▁pro
▁irrational
▁unfair
▁demonstrat
▁Arguabl
croll
▁express
▁unrelated
▁paper
▁Legaliz
▁respective
▁Rom
▁law
▁Notabl
▁sponsor
▁Sufficient
▁faint
▁Indirect
tested
▁butter
▁liquid
▁Grade
ardcore
▁Handle
▁axe
▁enemy
▁guild
▁timid
▁bonus
▁institute
▁Generation
▁reported
▁Deliver
▁exit
▁melee
▁plague
▁portal
▁Easter
▁Disgust
▁presum
rrelevant
▁mixed
▁Indoor
▁Raise
▁Less
▁secondary
▁Faint
▁Slaughter
▁valid
▁receive
▁form
▁Even
▁compromise
▁waste
opyright
▁probab
▁stun
▁Convict
▁Script
▁distinct
▁Wrestl
▁joint
▁cage
▁punk
▁generic
▁Simpl
▁nation
▁Sacr
▁strike
▁primary
▁Left
▁froze
▁Industrial
▁imagine
▁kingdom
▁march
▁dragon
rmed
▁overclock
▁atheist
nvisible
▁Gradual
▁shady
▁radio
▁Woman
▁understandable
▁transport
intended
▁plat
▁Ble
▁alcohol
▁image
▁international
▁hispanic
▁presidential
▁Gem
▁planet
▁spare
▁stuck
▁wound
▁Flow
▁conscious
▁Spectacular
▁university
▁Sport
▁Com
▁budget
▁Seek
arriage
▁idiot
▁Rhetoric
▁glue
▁grammar
▁tree
▁venture
▁Topic
▁twist
▁shower
▁Convinc
▁download
▁Sigh
▁Rif
▁skin
▁Thick
▁mass
▁uncle
▁vegan
▁Tweet
▁Village
▁usb
▁Music
hield
developed
▁nature
▁Noticeabl
▁sword
▁Sensor
▁opinion
▁Ultra
▁spread
▁Spread
▁Hood
▁Magic
▁Exaggerat
stance
▁everyday
▁feminist
▁universe
▁elementary
▁prize
▁Truth
▁set
▁Digital
▁Flame
▁Law
▁complex
olar
ampaign
▁subtle
▁dps
▁Offer
orship
▁Quant
▁wander
▁chapter
▁Resident
▁Bone
▁logic
▁hole
▁account
▁Allow
▁spun
▁Descend
▁banana
▁River
rea
▁disregard
▁scratch
▁citizen
▁Continuous
▁indie
▁root
▁Bigot
▁arcane
▁Confident
adness
▁descend
▁evident
▁fancy
▁Definitive
▁theory
ector
saved
▁song
noticed
▁Miserabl
▁map
▁riot
▁Fami
▁useless
▁immense
▁cpu
▁medieval
▁nickname
▁fighter
▁coast
▁day
▁band
▁challenge
▁Factual
▁Mediocr
▁spectacular
▁martial
▁chief
▁lonely
▁snake
▁Extract
▁Utilit
▁Sun
fraid
▁Spike
▁street
▁Bodi
▁chocolate
▁attribute
dead
▁Selective
rcane
▁resign
▁Country
▁wife
▁chemical
▁historical
▁flair
▁Transition
▁core
▁diamond
▁scout
▁destiny
▁weekly
▁Tack
▁surprise
▁Grip
▁glass
▁beach
▁girlfriend
▁champion
▁heroic
▁Skate
▁zombie
▁Require
▁block
▁example
▁steel
▁society
▁pump
▁Oral
▁tall
▁static
▁australian
▁Punish
▁Subtle
▁amendment
bility
▁Favor
▁grave
▁Inherit
▁military
▁Pronoun
▁paint
▁Compress
lc
▁Univers
▁Fleet
▁Skim
▁Soul
▁silver
▁Organize
▁finance
▁coke
▁mmo
▁Cam
▁value
▁disappointed
▁notice
▁constitution
▁Mo
econdary
▁Rememb
▁remember
▁animal
▁spider
▁dire
▁button
▁democracy
ark
▁digital
▁pleasant
ummy
▁Emerge
▁door
▁secure
ispanic
▁sufficient
▁indirect
▁money
▁winter
▁match
▁Exceptional
▁user
▁useful
▁ram
▁mix
▁ticket
▁education
hopping
▁weapon
▁motherfucking
▁supply
▁available
▁duty
ustralian
▁labor
▁Sew
▁genius
▁Golf
▁definitive
▁Upload
▁tru
lementary
▁Hostil
▁Arm
▁healthy
▁wind
▁adventure
▁consider
▁trap
▁Tremendous
▁company
affected
▁electrical
derground
▁county
▁ghost
▁anecdotal
▁hockey
▁intelligence
▁smoking
box
▁realize
▁pathetic
▁Hd
▁list
▁Unexpected
▁route
▁Guess
▁lion
ge
▁Bot
▁action
foul
▁Bread
▁beat
▁Fiscal
▁Ruin
▁Hill
▁basically
▁Boost
▁butt
▁loan
▁sin
▁unlikely
▁union
▁confident
▁legacy
▁pepper
▁rear
▁sand
▁skill
▁forest
▁cell
▁wine
▁color
▁capital
▁arena
▁artist
opened
▁Cheese
▁Anecdotal
▁nexus
▁storage
▁serial
▁garden
▁Remarkabl
▁department
▁Piece
ention
▁Flatter
▁Chill
enial
▁West
▁mountain
▁ham
▁indoor
▁queue
▁tomorrow
▁Develop
▁edition
▁Culture
onkey
▁hunter
▁Excess
▁Cup
ph
▁foolish
▁Aesthetic
▁unexpected
▁Polish
▁giveaway
▁Judgement
▁Arab
▁index
▁Depend
▁size
▁emerge
▁agnostic
▁python
▁Fist
▁Dirt
▁Glu
▁Rig
trained
si
▁bus
work
enis
▁bike
inister
▁math
▁excuse
▁Avoid
▁jack
▁vanilla
▁bronze
▁flight
▁sack
▁Coin
artial
peed
▁gas
▁horse
▁thank
▁factual
▁princess
▁bitter
▁security
▁Predator
▁any
ow
plug
▁Sore
▁Polar
rm
▁throw
uo
▁Body
▁operation
▁porn
▁Obtain
▁library
▁belong
▁butcher
▁Flop
▁mage
▁wood
▁avoid
eduction
inspired
▁guess
▁Down
▁coffee
▁reasonable
theism
▁prison
▁Futur
▁field
rose
▁minimal
▁Float
▁marriage
▁Foundation
▁epic
▁period
▁Jo
▁arc
▁driver
▁alliance
▁jungle
▁Specialize
▁gravity
▁Hone
▁squad
▁selective
▁Sim
▁Societ
▁sentence
▁armed
▁Fluff
▁lake
▁Dire
▁tower
▁phrase
▁Conceal
▁Spiritual
▁salt
▁shock
▁legend
▁Notorious
▁Visibl
▁gradual
▁memory
▁default
▁Brown
ysterious
▁town
▁Br
▁Pain
ap
▁month
▁continuous
▁shelter
▁Offend
▁Rage
▁afraid
▁Problem
▁tech
▁Information
otherfucking
▁Sober
▁naughty
▁press
ickle
▁Plot
▁study
▁replace
▁error
▁pearl
▁crystal
▁aesthetic
▁Dishonest
▁Hormon
▁battlefield
▁safety
▁event
▁Ticket
▁corner
▁diet
▁disable
▁cancer
▁squat
▁Cheek
▁morning
▁Replica
▁twitter
boot
▁Mistaken
▁upper
▁Field
otel
▁Tour
▁Enem
hrase
▁offer
▁Academic
▁pissed
▁technology
▁rice
▁character
nuck
▁Urin
▁Geek
▁Sponsor
▁meat
▁court
▁philosophy
▁tremendous
▁software
▁Hospital
▁warlock
▁brain
▁strength
▁Educat
▁combat
▁latin
hatter
▁faith
▁External
▁Helpful
▁Lump
▁daft
▁juice
▁outline
▁atheism
▁limited
▁Extraordinar
▁academic
▁submission
▁jet
▁gender
wad
▁spot
▁bass
▁Submit
▁trail
abble
aul
▁experience
▁manufacture
▁cloud
▁external
▁baseball
▁guide
▁Spec
▁dollar
▁Pump
▁Witch
evil
▁Serve
solve
opper
▁fiction
▁Loss
▁bann
▁blonde
▁protection
▁rumor
▁window
▁Mystic
▁evolution
irc
▁village
▁thick
omebody
bio
▁mouse
▁Index
▁Wife
▁petty
▁honey
▁Clip
▁Excit
▁bar
▁shop
▁height
▁Browse
▁Vocal
rought
▁room
▁Breed
▁Exempt
▁Betray
▁caught
▁Kiss
▁purple
▁Chart
▁penny
▁training
▁destroy
▁Comp
▁Expansi
▁Drunken
▁convict
▁vape
▁exile
▁crisis
▁mysterious
▁toy
▁draw
▁path
▁district
ique
▁onion
ounty
▁advice
▁hr
▁escalat
▁Justi
▁wizard
▁Attach
▁Agnostic
llusion
▁bless
▁depend
▁fled
▁Clinical
▁Bleach
▁mystery
▁management
▁hour
▁bath
▁Side
▁taco
▁mistaken
▁Brother
▁Any
▁engine
▁premier
▁word
▁Loop
▁director
▁sticky
▁exotic
▁Jet
▁Versatil
ight
▁mandatory
▁sudden
▁Ghost
▁fallout
▁spirit
▁Victor
▁Cake
▁focus
▁Collect
▁Quot
▁charge
▁clinical
▁funniest
▁warrior
▁were
▁keyboard
tack
▁risky
▁daily
▁killer
▁suck
▁Metal
eague
▁cap
▁Scrap
▁egg
▁Optimiz
▁thunder
▁feminism
▁bay
▁reality
ug
▁dinner
orbid
▁Indi
▁Apart
▁rust
▁glitch
▁tear
veryday
▁lightning
▁Youth
▁functional
▁Coward
▁Prop
▁Shame
▁wiki
▁foundation
▁recommend
▁Cons
▁notorious
▁property
▁pointless
▁Budge
▁dlc
ister
▁graphic
▁Fatal
▁attach
▁Rear
room
nline
▁Histor
▁Root
▁Charm
edieval
▁chaos
▁wage
iggle
egardless
▁arrow
▁sample
▁info
▁Extinct
▁knife
▁liberty
▁stern
▁Retail
▁modular
▁pilot
▁capitalism
▁Pointless
▁Passionate
▁bull
▁Fantas
▁crit
▁Squa
▁leader
▁Strategic
venue
▁comp
▁amateur
▁galaxy
xotic
▁doom
▁drunken
▁redditor
▁Defense
▁belt
▁engineering
▁sauce
▁Bit
▁origin
▁behav
▁Formula
▁guitar
▁Mathematical
useum
▁awe
pu
hannel
▁Settle
▁Tent
andatory
▁spill
▁Populat
if
▁division
▁exceptional
▁bird
ompromise
▁Prejudice
▁racism
▁language
▁clan
▁soccer
▁sixth
▁Shameless
▁Enchant
defined
▁empire
▁Repost
irthday
regulated
▁repost
▁swamp
▁Bag
▁tier
▁respect
ttribute
▁section
▁Butt
▁Platform
▁oblivion
▁Kink
▁castle
▁Loath
▁realis
▁Molest
▁devil
▁net
▁Hit
▁port
▁author
unnel
nybody
▁suicide
▁Tech
▁professor
▁Labor
seas
▁fad
aughty
ure
▁Interpret
▁witch
▁Marginal
▁Ki
▁fate
▁choice
▁medium
▁physics
▁safari
▁mouth
▁option
table
▁Contributor
▁fruit
▁jazz
▁travelle
lick
▁Gamble
▁scumbag
▁loot
▁studio
▁victory
▁doubt
▁item
▁unbelievable
▁sing
▁gift
▁pet
▁Repai
▁sleeve
▁Uncomfortabl
▁cherry
▁profile
▁Nervous
addy
▁Enhance
▁Auto
▁Solve
▁Loa
▁stat
▁culture
▁ignorant
▁blizzard
odded
▁Monst
▁soldier
▁elder
▁gate
▁disclaimer
ffordable
▁web
▁sneaky
▁Blend
angle
subscribed
▁audio
▁priest
▁username
▁infamous
▁student
▁shameless
etty
▁oral
▁Machine
▁Cartoon
▁sore
▁Anonymous
▁museum
▁childish
▁stadium
▁razor
▁lane
▁pot
▁officer
▁Stern
▁revolution
▁crawl
ways
▁Bass
▁Chuck
▁Planet
▁nervous
▁Chemical
▁failure
exist
▁robot
▁tasty
▁affordable
▁grad
▁unnecessary
▁bridge
otato
▁Flak
▁Exhibit
▁balance
▁ocean
▁buddy
▁arabic
▁polar
▁ditto
▁Subjective
▁later
▁bored
▁Finger
▁Funn
▁goof
▁plug
▁Orchestra
huckle
▁Suicid
ain
▁range
▁sugar
ttention
ixth
▁Blunt
▁Chronic
▁handsome
▁horror
▁century
▁forbid
▁platinum
▁rainbow
▁Cease
▁foul
▁depression
▁dodg
▁apparently
▁Cheat
▁yesterday
▁invest
accounted
▁method
itcoin
▁Inappropriate
▁therapy
▁pocket
▁subjective
▁Forest
▁discussion
▁ton
aware
▁Refer
▁string
▁photo
▁sport
▁chronic
▁tragic
▁chamber
▁championship
▁comedy
▁Ignorant
▁Festiv
regardless
▁Inspir
▁Dread
▁motion
▁context
▁multiplayer
▁background
▁Disease
▁performance
▁manager
▁Economical
▁passionate
▁Business
epression
▁Sauc
mmy
▁Trend
dle
▁Calculat
▁Amateur
▁Tape
▁spiritual
▁Tragic
▁puzzle
▁development
sort
▁flame
▁Child
▁Kee
▁Sky
▁stealth
▁Swim
lague
▁Treasur
▁peanut
▁premium
▁fellow
▁Sh
▁Pil
▁Wizard
▁Pot
▁annoyed
▁Substitut
▁Incidental
rize
▁blaze
▁Religio
nfamous
▁inappropriate
▁unpopular
xcuse
▁Prior
▁pun
▁Tea
each
earl
▁Energ
▁Disturb
▁Truthful
▁syndrome
▁gotcha
▁concede
ordered
oncede
▁Technological
▁Homosexual
▁blog
unniest
▁Bann
▁bread
▁gasp
▁difficult
▁Assert
rested
▁stain
▁cruel
▁cosmic
▁tiger
▁undead
▁chance
▁Stunn
▁install
▁Wou
▁Scholar
▁Graphic
▁bud
▁commander
▁Club
▁confidence
▁Ensu
arity
▁Hug
▁mathematical
▁quantum
▁nightmare
▁compound
▁Explore
▁pen
itch
▁scar
▁cloth
fried
▁rang
▁marijuana
▁carbon
▁Bumme
izza
▁hotel
▁status
▁mayor
▁dvd
andsome
▁touching
▁Bored
▁Fold
▁Persisten
▁assert
▁cruise
▁Self
▁spike
▁Jewel
▁Prevalen
▁Suspicious
▁vicious
▁psychic
tly
▁woul
▁teacher
lump
gout
▁Embarrassing
▁ethical
▁association
▁launcher
▁Mone
rabic
▁dank
▁First
▁Flam
▁Righteous
▁Summer
▁Latin
acial
▁jar
▁Squish
▁Wack
▁Propos
tatic
▁assassin
▁Enormous
▁kitty
▁candy
▁wii
▁Weld
▁Motivation
▁Uncle
▁pool
▁spelling
▁Cruel
▁content
▁square
▁ethnic
▁shore
▁paranoid
▁Troubl
▁Childish
▁Bir
▁tournament
▁Goal
safe
nnoyed
▁Spark
▁collection
▁exciting
▁Mob
▁drug
▁Disciplin
▁Leader
laid
▁journey
▁smash
▁blunt
▁opposite
▁upgrade
▁governor
▁hospital
▁Smash
▁busy
▁explosive
▁Bash
▁council
hurch
▁Recycl
▁Subconscious
▁console
▁breakfast
▁sarcastic
ingo
▁scrap
▁darkness
▁crime
▁success
▁Tool
▁pal
▁pirate
▁anonymous
▁climate
▁Eager
▁Frost
enture
▁zoo
our
▁Action
▁administration
▁Hung
▁staff
▁Product
▁Parent
▁wave
▁prime
▁hunger
isregard
▁dirt
▁slid
▁Horizontal
▁insurance
▁dawn
edding
closed
escription
▁theme
▁fond
▁patriot
▁pride
▁Feminin
▁Vicious
▁labour
▁dye
ccompany
▁embarrassing
▁chuckle
▁Corps
lan
▁salty
▁compar
▁Puss
▁fist
▁layer
treated
▁entertainment
▁Vir
▁Horse
▁Peace
▁cow
▁possib
▁bail
▁crop
▁homeless
▁Pie
▁bunny
▁revenge
▁brick
▁Hire
ick
▁desktop
▁hopp
▁wrestling
▁daddy
▁Ocean
▁Wipe
▁Militar
▁hood
▁filthy
▁pound
▁program
efinitely
▁beef
▁flaming
▁technological
▁burger
▁israeli
▁kit
▁Soap
hearted
▁sniper
▁simpl
chother
▁Chrome
▁grace
▁monk
▁enormous
▁violence
▁Allege
▁facial
▁Compose
▁terrifying
▁gain
▁humanity
▁Union
▁tag
ructive
▁rating
ther
▁Bet
▁Doom
▁kiss
▁Crippl
ommunity
▁wot
healthy
▁acid
river
▁tool
aptain
▁Spontaneous
▁suspicious
▁Genocid
▁summary
▁gap
▁horizontal
▁Motivat
▁born
▁cable
▁Image
▁Forgive
▁Guil
assage
▁Divide
▁birth
▁constructive
▁Paper
▁suit
▁vision
▁subconscious
▁compliment
▁Mindless
▁portable
▁river
▁drain
▁intent
▁Imp
▁rpg
▁Brewer
▁transition
▁pregnant
▁Unreasonabl
▁infinity
▁Chicken
ickname
▁translation
▁theater
▁Goth
▁spy
sleep
▁hit
▁Awe
▁unit
▁camera
▁nurse
▁holiday
▁crew
▁policy
▁thief
▁tailor
sland
▁trading
▁customer
▁haunted
▁regional
▁centre
▁Opinion
▁drama
▁Simultaneous
▁laser
▁medicine
▁bipolar
▁resistance
osmic
▁arcade
▁spec
eam
▁trailer
▁version
ermit
▁Kidnap
bound
▁Sentien
▁mission
▁marginal
▁Lane
xe
onight
sraeli
▁Colleg
▁obscure
▁york
▁Moment
▁trip
▁Expan
▁date
▁Uninterest
▁Suprem
errifying
▁testament
▁fairy
▁Shark
▁floor
bled
arn
▁Have
▁opera
xplosive
▁Green
▁skimme
▁Intent
▁Radian
▁googl
▁spice
ledge
▁beauty
▁vet
▁dungeon
thletic
▁effective
olt
▁hugge
▁Royal
▁Tri
▁theft
▁log
▁Mood
▁panic
▁Vape
▁dump
rop
onus
▁Alcohol
▁correction
hapter
▁Cell
▁rent
▁Google
▁South
▁Intuitive
▁communism
▁letter
▁plastic
▁breach
▁sister
▁Implement
▁socialism
volve
▁baked
▁pussy
▁grade
helter
ntimate
▁tab
▁Chest
▁ignorance
▁avatar
▁spiral
▁anime
▁Dump
▁factory
released
▁Champion
▁sober
▁bat
▁athletic
▁chain
▁midnight
▁Productiv
▁Grass
▁Empiric
▁Concept
▁Bail
fact
ox
▁Drain
▁rod
rappy
▁Radio
▁apocalypse
▁Perpetual
▁Thirst
▁blitz
▁Extremis
rena
▁runner
▁loop
▁mill
▁aussie
▁Birth
▁product
▁split
▁scientist
▁twilight
▁Trivial
herry
▁Wiki
ussie
▁Pregnan
sychic
ssume
▁dedicated
▁chest
▁Mill
▁Obligat
▁bullet
built
▁Jelly
▁leather
▁fusion
rrow
▁brief
▁slice
▁Forge
managed
aunted
▁pm
▁comfort
▁Strength
▁handed
▁Rebel
▁prophet
▁Skin
▁psychology
▁Sleeve
▁mph
▁Scan
▁weekend
▁Net
▁convention
▁Earn
▁draft
rass
▁upload
▁leaf
▁Refin
venge
▁academy
▁danger
▁Profound
▁fabulous
▁lemon
▁supreme
▁grandpa
▁Coincide
▁Idiot
▁samsung
▁communication
▁wallet
▁Bullet
▁pill
▁Tease
▁Null
▁formula
▁dress
▁Cut
▁battery
▁grass
▁Evaluat
▁pony
▁Outrageous
▁monthly
ipolar
▁traffic
▁vocal
▁Stab
▁creed
▁grim
▁danish
elee
▁twi
▁economical
▁truthful
▁adult
kept
▁generation
▁Heroin
▁Hopeless
▁abortion
▁begg
▁Pod
mendment
▁participat
▁Rod
▁knowledge
▁helpful
▁journal
▁perpetual
ndistinguishable
▁warfare
▁mindless
easi
ental
▁Insert
▁bounc
▁Integrat
▁resort
▁Adventure
▁Stra
▁transfer
▁Corner
▁Regist
▁Tow
▁yummy
ntelligence
▁youth
▁Stain
▁Choi
▁motor
▁crush
▁Promote
▁anarchy
▁citation
▁conference
▁income
▁barrel
▁outlet
▁intimate
▁invasion
▁precious
▁teen
▁rural
▁notch
pider
▁Revolution
▁persona
iveaway
▁naive
▁Obnoxious
▁retarded
▁stereotypical
▁Suffer
▁outrageous
▁basketball
▁Portray
▁hire
▁cube
▁function
hore
▁preferr
▁reader
▁assume
▁Unlock
▁skate
▁Discuss
emocracy
warranted
▁trouble
▁Animal
▁gang
▁Coincidental
▁kitchen
▁obnoxious
▁Perk
▁waved
▁unable
▁refund
▁cheat
▁hdd
▁Tail
▁ranger
▁festival
▁profound
▁Stereotypical
▁fortune
▁cloak
▁mall
▁civilization
▁movement
▁paleo
▁Dragon
▁Rpg
▁gamer
▁Logic
▁Mini
▁Min
ouch
▁shark
▁gamble
▁outer
▁crappy
▁novel
▁clay
▁fiber
▁hardware
▁Coffe
▁lesson
▁toss
▁era
▁swing
▁Reduc
▁article
rror
▁Invent
▁Citizen
stable
omorrow
efault
▁Flirt
lair
▁heaven
▁Systematic
▁chemistry
▁Relian
▁countless
▁downtown
orry
▁pray
▁Grand
▁marketing
▁cd
▁optic
rateful
▁Invit
▁lunch
▁Encrypt
▁Gimmick
▁Retarded
▁outstanding
▁vault
▁Egg
uty
▁golf
▁Stamp
▁Naive
ombie
▁Adjust
▁Modula
anana
iamond
▁Defend
acceptable
▁Implicit
▁ridicule
▁spontaneous
▁constitute
▁wax
▁subway
▁survivor
▁passion
▁speaker
▁Street
▁survival
▁Aim
aval
▁remov
▁Dense
▁myth
▁bone
nake
▁fury
▁activity
▁matrix
▁skull
▁landing
▁morality
▁Lap
▁Mmo
▁forge
▁manly
▁bleach
▁Untouch
▁hulk
il
matched
▁Chew
▁Refund
▁conspiracy
▁css
▁rugby
▁confession
xample
▁breaker
▁disappointing
▁unity
▁La
▁Silver
▁stalker
▁romance
▁Atheist
▁Terror
▁expand
play
▁anniversary
▁implement
▁Fabulous
▁philosophical
▁enterprise
▁No
edication
▁Evolution
▁Chan
▁lab
▁convincing
▁Haz
ative
exus
dmitted
hocolate
Disproportionate
▁vanish
▁experienced
▁institutional
▁Development
▁brawl
afety
▁Constitution
▁Novel
▁Door
▁hill
▁nerd
▁Ref
▁capitalist
▁fascist
▁incredibly
▁magazine
▁responsible
▁Pet
▁overkill
▁Tourist
▁Duplicat
▁Town
▁discovery
▁meth
▁banner
▁sale
▁Gramma
▁Period
▁man
▁Shrink
▁lot
eo
▁Meaningful
▁Unleash
▁Snark
▁outlaw
▁trilogy
▁Capital
common
▁Shy
▁fleet
▁Fenc
▁Chunk
▁enhance
▁anger
asteful
▁Cautious
▁contrast
▁Pepper
▁soup
▁mute
▁rabbit
▁intuitive
▁bet
▁demo
irlfriend
▁Merc
recious
omputer
▁Ri
▁frustrating
▁meaningful
▁cannabis
▁joy
▁bag
rticulate
▁nap
piral
affle
▁Guitar
▁soap
▁gene
▁Trouble
▁disease
▁alleged
▁wrath
▁butthurt
▁bolt
▁cookie
▁revolutionary
▁thanksgiving
▁naval
▁winner
▁highway
▁Event
flow
▁Cancer
lliance
▁Sword
▁dock
▁touch
▁desire
▁confusing
available
▁incidental
ong
restricted
eries
kip
▁Vegetarian
▁horizon
▁parliament
▁Organization
▁justified
▁Merge
▁chili
▁gameplay
▁keen
epartment
▁dominant
▁Libert
▁truck
torage
ookie
ffiliate
▁happiness
easy
▁srs
▁Pound
ispute
▁Combat
edium
rystal
▁Silk
▁independence
▁feedback
▁Scamme
▁dense
▁website
▁Establish
ttempt
▁Librar
▁tricky
reliable
▁speech
▁Optimal
▁Utiliz
▁Donat
nimate
▁honorable
ompany
▁dared
▁terror
▁leg
▁foot
eny
▁rat
▁orgasm
▁remark
▁Bath
oyalty
▁Capitalist
▁muscle
▁Terra
▁trivial
▁blank
▁empirical
▁duplicate
▁optimal
▁volume
egacy
anilla
▁hail
▁Litter
▁shipping
▁bed
▁Ful
▁streaming
omination
▁discuss
▁suddenly
▁grandfather
▁Steel
▁scripture
▁wedding
▁Strain
▁personality
▁course
▁horde
narchist
▁fame
▁emperor
▁spell
▁agency
▁population
▁survey
▁fatal
▁Favour
▁read
▁Grammatical
▁Vest
▁sp
realistic
▁tail
▁Artist
▁airport
▁Blank
▁Faith
▁planning
▁cream
▁Legend
▁describe
▁Off
wamp
▁Division
ned
▁anarchist
▁mold
▁handle
kin
escribe
▁seperate
▁systematic
▁Protection
▁Highlight
pprove
ronze
▁doubtful
▁Ham
▁Mountain
▁Spy
▁necessary
witter
▁weather
▁litter
lift
▁Colon
▁pig
utthurt
▁Confusing
▁Outstanding
▁gnome
▁prop
▁writer
ian
▁Prophet
▁boil
▁intentional
▁Enable
▁attempt
uction
▁solution
▁axis
rincess
▁Bother
▁exhibit
utton
▁reckless
ockey
▁Exponential
▁bother
▁treasure
▁unsure
▁vehicle
▁competition
▁pole
▁stray
▁Introduc
▁whip
▁comfortable
▁chat
solution
▁Stalk
▁stalk
▁Affect
▁Condo
▁Glass
▁admin
▁biology
▁programming
▁wooden
▁fitness
▁Cruise
documented
▁Humid
▁Mage
▁defender
▁experimental
▁woody
▁bent
▁Song
▁Gamepla
▁Porn
urple
disproportionate
▁Silicon
▁bizarre
▁mercury
▁simultaneous
▁identity
▁steep
▁numerous
▁stack
▁Electora
▁bald
▁apart
▁arrogant
▁cocaine
▁cotton
▁Herb
▁sheer
▁loser
▁Adopt
inter
enile
▁contest
▁Depress
▁Dub
▁Goat
xcessive
▁Emb
risis
▁partner
▁Jazz
▁Seperate
▁cautious
▁vampire
▁Virgin
▁paradise
▁gospel
▁Spook
▁Grad
▁Gravit
onic
▁legion
▁fitting
▁realise
▁Boil
▁Miner
most
▁hype
▁Summar
organized
solved
▁terran
▁Blink
▁maker
▁tale
▁pyro
lurry
▁Detect
willing
▁multi
▁righteous
ython
▁device
▁jelly
▁noise
▁housing
▁Unconscious
▁beam
▁Unsur
▁Horrific
▁freshman
▁Heaven
▁crowd
▁pub
▁rebel
▁Embarrass
▁rider
▁collect
▁autism
▁homer
▁implicit
▁fortress
▁unplug
▁resolution
▁Spawn
▁principal
▁incoming
▁sunshine
verkill
▁maple
▁Method
▁Prominent
▁evolve
▁export
clear
▁Gentle
▁Surf
▁Technolog
▁brown
istrict
▁Interfere
▁hipster
▁binary
▁soda
▁worthless
▁definition
▁site
▁Morbid
▁Generaliz
ane
edicated
▁Sustain
▁Thunder
▁grammatical
▁liar
▁substitute
▁yoga
▁vintage
▁gentle
▁outweigh
▁Expir
▁backup
▁whiskey
▁priceless
▁Temp
▁Linguistic
▁Route
priced
▁Mission
▁slot
▁Quantit
ightning
faced
art
▁Experimental
▁joker
▁Multi
▁ac
attlefield
▁Junk
▁mediocre
▁Grain
▁Lyric
▁slavery
▁madness
orning
▁programme
▁ship
▁Resurrect
▁Regulator
▁Nose
▁Compliment
▁Squad
▁articulate
tudent
▁enhancement
▁dwarf
isclaimer
rained
▁Arc
▁Brawl
▁marathon
▁icon
▁orb
▁Engage
▁depressing
▁eager
▁Outer
washed
▁contain
controlled
▁colour
cation
▁Tire
▁husband
▁advance
▁cowboy
▁Disorder
▁lent
▁surrender
▁norwegian
▁detective
▁Crim
▁adopt
aseball
▁Dock
▁Sensitiv
heat
▁executive
ethical
▁Crit
▁handy
▁element
▁insert
oubtful
tadium
▁circuit
▁Improper
▁anxious
▁emergency
▁Ideological
▁controller
▁disturbing
▁inner
▁baron
▁Bent
ollar
▁Attractive
▁questionable
▁flawed
▁fund
▁Myster
▁mile
▁slave
▁grid
together
▁Anxious
▁maintain
▁Willful
▁civilian
▁donate
▁inferno
▁pursuit
▁Centr
tumble
▁Bizarre
▁steady
dvice
valued
▁Author
▁iso
▁deliver
▁terminal
▁poker
▁prominent
▁macbook
▁Branch
▁reboot
▁nose
hamber
▁grateful
eckless
diagnosed
▁Character
ssociation
▁Unintentional
urrender
onitor
▁vodka
▁monitor
▁brotherhood
▁Pond
▁magnetic
▁creator
▁slick
lender
▁Alter
ait
▁majority
▁Lunch
▁charm
▁talent
▁pity
tudio
oftware
▁Uniform
▁committee
▁unaware
aintain
▁lore
▁missile
▁Wax
▁shy
▁equality
▁production
uff
nowa
▁Item
nterior
▁talented
▁Diet
roperty
ilot
▁lethal
▁Empir
▁rim
▁Bay
arrior
▁coincidental
▁Arrogant
▁generous
▁Hesitat
▁upset
▁competent
▁shotgun
▁dim
resolved
▁trinity
▁Mouse
▁throttle
▁Info
occer
▁consumer
▁Reap
oak
▁quarter
ta
umerous
teep
▁dial
▁Court
▁analysis
▁Cab
▁Caus
▁goat
▁establish
utweigh
▁Heartbreak
▁gym
▁horrific
▁minute
▁nonsense
▁Beaut
▁Bisexual
▁Generous
▁redemption
▁diesel
▁Accord
▁disabled
enny
▁overhear
▁locker
▁Upward
ubmission
▁preorder
▁authority
▁Priest
▁mid
▁beard
oldier
▁brazilian
▁Disturbing
▁Ordinar
raged
▁daughter
▁Engine
▁ruined
olution
inary
▁Dupe
orwegian
afari
anguage
▁Hysterical
▁mining
▁Gay
haos
▁Path
▁oil
▁accident
▁Texture
▁temporary
allowed
▁convert
▁Immatur
▁champ
appreciated
atch
▁unconscious
rofile
▁exponential
▁degree
▁Nuance
▁siege
▁moronic
▁complicated
▁Lab
▁plane
▁summoner
ackground
▁Disadvantage
▁Therap
▁wealthy
▁Audio
▁Context
alaxy
orrendous
▁cliff
▁keeper
▁valuable
▁heritage
▁infantry
▁Breathe
▁specialized
▁ego
ominant
▁Harass
▁interest
cooked
▁Council
▁drum
▁chess
▁morbid
▁foil
▁pile
▁Use
▁Overuse
▁moment
▁Linear
▁photoshop
▁Fellow
ivilian
▁chick
▁tooth
▁scene
▁length
▁heroin
▁Intrinsic
▁Competent
▁Burg
▁Budd
inch
▁threaten
▁Construct
▁working
▁achievement
rofessor
ompound
astle
▁Slap
uddle
▁Dim
▁mayo
azor
▁dupe
▁recovery
▁hobby
remade
▁ideological
▁boyfriend
▁vengeance
▁foster
▁protein
▁thermal
▁underrated
▁creation
▁distant
▁Immun
▁license
▁Melt
▁Arch
▁Rail
▁Abandon
▁Smug
▁colored
▁Motor
▁abandon
▁Ridicul
▁border
▁interactive
ically
pleasant
▁Web
▁perform
armed
▁Accomplish
▁construct
▁mini
▁balanced
▁accomplish
rincipal
▁Underwhelm
▁equivalent
▁client
▁miracle
▁pour
▁worried
▁Letha
▁sexist
▁lone
▁reach
▁term
▁Accuse
addle
▁evolutionary
▁accord
expected
urround
▁offense
▁surround
ultiplayer
▁cannon
▁druid
▁Gank
▁Friggin
▁broadcast
▁Journalist
▁closet
aco
attractive
▁sucker
▁parallel
▁Leas
▁branch
▁Hearted
▁industry
▁laptop
▁sandwich
treat
▁discharge
sk
dministration
arijuana
▁vegetarian
remium
▁intrinsic
entury
▁difference
▁horrendous
▁fedora
▁panda
▁Indefinite
▁screenshot
▁throne
▁reaper
apitalism
itter
cover
▁corn
▁Confiden
▁disc
heft
ountless
hrottle
▁hazard
▁expert
▁distance
▁Backpack
▁condescending
▁mutant
▁paladin
▁shaman
▁borderline
▁challenger
▁material
▁corruption
▁Ash
▁Tactical
▁sting
▁anxiety
▁Unjust
razilian
lied
▁bubble
▁american
▁hardy
▁inflation
▁patience
▁healthcare
▁Tig
▁bbq
▁fragile
▁mma
▁bounty
▁lava
▁wisdom
▁simulator
▁explorer
familiar
▁palm
tunning
▁signal
▁Lobby
▁Function
▁tactical
▁melt
▁Attract
▁Las
orror
▁stress
▁Conduct
▁member
▁meditation
▁monopoly
▁bingo
▁identical
▁portuguese
▁Teleport
▁television
▁null
▁Consol
▁Habit
▁Boat
oose
▁eyed
▁cab
ceased
lastic
arrot
▁immature
▁recipe
▁feral
▁burden
isk
▁roll
▁Fuss
▁mob
lucky
▁infected
▁rant
▁Acid
hubby
▁parking
▁Jur
▁attract
latinum
▁Premature
▁Structural
▁guest
▁childhood
▁mafia
▁Vivid
▁informative
▁Lawful
▁unhealthy
▁sarcasm
▁wheat
▁blue
▁Predictabl
▁debt
▁warrant
lizzard
▁tie
ather
eral
▁God
▁Harmon
ondescending
▁cheesy
▁committed
▁orangered
▁newbie
▁bark
▁dome
▁frog
otcha
▁Conventional
nformative
▁Assassin
▁sensitive
▁Retire
▁Achieve
▁Tam
xclaim
▁juicy
▁challenging
▁helmet
▁Slant
▁samurai
▁reign
▁Fiance
▁tide
▁slippery
▁tame
▁Pill
▁Expos
▁amirite
▁ring
write
▁Carbon
▁Crank
▁arbitrary
esterday
▁beg
ailure
▁outdoor
▁Identif
▁first
ntend
▁postal
▁suffer
▁lead
owel
▁greedy
nsurance
▁hysterical
▁improper
▁Quirk
▁capture
▁lawyer
▁Weather
▁Fluent
▁Futil
▁rumble
▁Innate
▁bottle
▁Thought
▁green
vd
▁ditch
▁Retain
▁Sue
▁Boo
▁swap
▁frost
▁Adapt
nteractive
▁hairy
▁entirety
▁poll
ctivate
▁shocked
mirite
▁linear
ournament
ainbow
▁Euphori
▁restaurant
▁Ww
▁powered
▁idiotic
▁Suggest
▁required
▁Violen
cope
▁invent
▁Remark
enius
▁Equip
▁smug
▁strategy
▁html
▁conclusion
▁Unus
▁shallow
▁panel
▁campus
▁depot
ragile
▁Rabbi
book
▁Cube
▁attorney
older
hallow
▁Cow
▁Wii
▁authentic
▁insanity
▁utility
▁inconsistent
▁rarity
arcastic
dentical
▁goodness
▁Dial
▁disorder
▁Whine
ile
weak
▁prevent
▁relaxed
▁Minded
▁Pan
cquire
eanut
▁unjust
▁obese
▁structural
▁jacket
▁innate
▁tomb
▁compact
▁enthusiastic
aleo
▁owner
▁convinced
utlaw
▁Monk
▁Fl
▁irony
▁pod
▁buff
licensed
▁career
▁Resist
▁Patriot
▁viable
ightmare
▁table
hysics
▁Pagan
▁premature
▁jeep
▁conquest
▁strawberry
lead
▁realm
abour
▁Overt
▁observed
punished
▁awake
nfinity
▁fishing
▁pledge
▁Dismiss
▁unlock
▁puck
▁Emergenc
▁Terminat
nime
▁lucid
estament
ortuguese
▁corporation
▁beneficial
▁scenario
▁rail
loak
authorized
itation
▁estate
▁Proportional
▁dam
▁trader
▁filter
▁topic
▁American
▁Oppos
orried
ection
▁Pride
▁Geographical
heesy
▁Ranch
▁Polic
▁curiosity
▁secular
▁penguin
▁Rightful
▁sushi
▁Blue
▁gay
▁Poker
▁olive
▁mercy
▁Render
omedy
▁retail
▁rift
▁Bud
rbitrary
▁plate
rcade
esktop
▁Quest
▁pleased
▁inception
▁problematic
▁Drama
▁delivery
▁replay
▁Memoriz
▁deem
discovered
▁Climat
▁Psycholog
▁dull
▁expansion
▁denial
▁Christian
lassical
▁Acknowledge
tic
▁Regre
▁acknowledge
▁recover
▁Jag
▁Transgender
▁desert
▁response
▁clarity
▁poverty
▁perceive
▁ban
▁uncomfortable
▁cue
erceive
▁Investigat
▁dive
▁lobby
▁bookmark
▁Table
ewbie
▁spoiled
▁Stubborn
rate
hilosophical
▁Border
▁Nest
itto
▁obtain
▁buri
predictable
arallel
litz
reakfast
hallenging
▁helm
▁Muscle
▁emphasis
▁populated
▁terrified
▁vivid
oliday
▁cricket
▁willful
▁illusion
▁hopeless
circumcised
▁priority
▁Liberat
▁Opera
▁amazed
▁Inferior
bortion
▁Mug
▁selection
▁ashamed
▁Vision
▁chart
▁excess
▁shave
▁Revolt
▁garbage
▁idle
▁tobacco
▁Blog
▁Grace
▁disk
▁proportional
▁tint
▁fan
ecular
anagement
▁interpret
▁Authentic
▁Gen
▁warning
▁Graphical
▁Specif
▁Jin
▁immune
▁Rubber
▁protestant
cumbag
▁widow
▁shaft
▁widespread
▁overload
▁terrorism
▁acquire
▁goofy
▁duo
▁adapt
ining
▁vapor
▁dew
▁stretch
▁region
▁Torrent
▁snip
▁Tim
▁Concentrate
▁consecutive
▁piano
▁pulse
▁palestinian
▁whore
▁artistic
utant
▁donkey
▁Nation
▁We
▁entertaining
ependent
cd
▁Modif
urable
hampionship
▁opposed
▁Era
busive
pplicable
▁Danger
▁fountain
▁inaccurate
▁untrue
▁calculus
▁coconut
▁fluent
▁unaltered
▁revelation
▁dubstep
▁inclined
racket
ompact
▁fuzzy
▁worthy
eap
nconsistent
▁hyped
▁Relieve
▁spicy
▁Aka
▁scotch
▁rookie
▁dimensional
▁predict
▁unwilling
informed
atisfied
official
eta
▁Numb
▁argument
▁Fizz
vatar
yndrome
▁hydra
▁Elegan
▁genocide
▁phenomenal
▁pseudo
▁cognitive
▁Purposeful
▁abusive
▁dependent
▁capable
▁Borrow
▁developer
eekend
▁Encourage
▁Convention
▁Hurt
▁package
▁Sale
▁Mock
ungeon
▁Malicious
ommunism
▁punishment
▁Manager
▁overpriced
▁sunset
▁rebellion
▁turkish
▁rubber
▁Torch
▁growth
▁trial
oronic
▁overt
wilight
▁Dice
▁assembly
▁notable
▁lace
▁Outdoor
▁resource
▁bachelor
▁reluctant
▁vitamin
▁calendar
▁Leather
▁galactic
▁role
▁Pony
▁pronounce
edditor
▁predator
▁Fairy
▁boat
▁Saturat
supported
▁geographical
▁f
ept
▁pork
▁Protestant
isappointing
▁shirt
mazed
▁fashion
▁asleep
hand
▁Abnormal
▁vagina
▁stubborn
▁Hulk
▁Irresponsibl
▁Phenomenal
▁clause
▁striking
▁Striking
▁plasma
▁goblin
▁aunt
▁noticeable
▁Responsive
▁crunch
▁taint
▁destruction
loud
▁educational
eminism
arkness
▁micro
▁runn
▁Untru
▁suffice
▁Enterpris
▁folk
▁unacceptable
▁unsafe
cademy
▁collector
▁Artistic
▁Cent
▁perk
▁Residenc
▁builder
amper
▁time
▁rewarding
unning
▁singer
▁Camera
ucid
▁Succe
▁Grandpa
▁succeed
▁Declar
▁indefinite
▁uncommon
▁pattern
▁overlook
▁thoughtful
▁Distribut
▁pawn
▁sloppy
▁applicable
▁shatter
▁medal
verlook
▁knowledgeable
▁lift
▁enjoyable
▁grown
roblematic
ak
▁drop
nk
▁nut
▁slide
▁detailed
▁Fortun
▁ref
orde
▁horny
hermal
▁pretentious
▁pagan
▁teenage
▁retire
▁Consecutive
▁Troop
▁uncharted
▁sorry
iscussion
▁toilet
diotic
▁patrol
▁graphical
▁boner
▁knee
▁sounding
▁Devi
▁Accident
▁cring
▁Qui
▁Persona
▁Bruise
▁Temper
ield
istant
▁Nurse
▁controversial
onference
ush
identified
▁Reluctant
▁malicious
▁swimming
▁play
▁netflix
filled
▁unreasonable
▁Playful
▁dope
▁Myth
ctively
▁Term
▁Kno
▁anti
eneficial
▁animation
nc
▁hacker
▁sized
▁arch
gain
▁tho
▁Gamer
▁float
idespread
▁Clarif
▁Sensibl
▁transparent
▁meaningless
▁magnificent
▁pistol
▁sane
pocalypse
▁combo
narchy
▁Reviv
▁Ballo
▁application
▁involved
▁Sham
▁Encourag
build
▁prayer
▁farming
adder
▁raider
▁abstract
▁equip
alestinian
▁superficial
▁neon
▁chaotic
▁congressional
▁creature
▁coincidence
▁Esp
▁immigration
▁silk
▁ordinary
▁encouraging
etention
▁obsessed
▁deer
▁Reus
▁Qua
▁heal
arlock
▁summon
▁enforce
▁amusing
ault
▁Preorder
▁cinnamon
▁fringe
▁flexible
▁wealth
▁primer
▁dynasty
▁batter
▁shopping
▁Discourag
▁Opt
▁charter
▁spark
▁retreat
hreaten
▁sketchy
▁dismiss
▁sustain
covered
▁abnormal
▁inferior
illionaire
▁Panic
randfather
▁Pseudo
▁redundant
▁homemade
▁Occup
▁visible
▁overweight
▁stitch
▁steak
▁confirmation
▁Initiat
▁Whin
alactic
▁potter
▁Clay
▁Advertise
▁intention
▁upward
▁Abstract
▁Restrain
atrix
ognitive
▁hypocritical
▁oxygen
▁swat
▁playful
▁copper
musing
nniversary
▁Tab
▁reaction
▁addiction
▁appli
▁prick
gressive
agnetic
▁farmer
▁opt
▁prior
urkish
ontroversial
▁Negligen
▁contemporary
▁bourbon
▁bracket
▁Thoughtful
▁welfare
▁eastern
▁Delight
▁strategic
▁Vil
▁Transparen
funded
▁Partner
▁Prime
▁Compile
▁highlight
▁Split
▁accessible
▁Skew
▁voluntary
nvolved
▁radiant
▁interstellar
▁Adult
▁harmless
▁ramen
▁Infect
registered
hili
▁Bubble
▁Poke
▁familiar
▁Advise
▁conduct
▁transit
▁archive
▁shred
cientist
▁cult
▁hurt
ontrast
▁omega
▁puppy
▁hollow
▁Hijack
▁suicidal
▁stash
▁workshop
ursuit
▁setup
▁throwaway
▁frustrated
llergic
▁embarrassed
▁Redundan
erver
orderline
▁Distress
▁Meth
▁auction
▁Micro
▁Nap
late
▁Recreational
xport
▁allergic
▁christian
▁Distan
iber
urvey
▁Inaccurate
▁Sophisticat
▁economy
▁Superficial
▁metric
▁unavailable
▁french
▁Badge
ctivity
▁grocery
▁masturbation
ccessible
▁locat
weight
▁prescribe
▁Ow
▁definite
▁advertising
▁buggy
▁ranch
imensional
umour
rescribe
retentious
▁mat
agazine
▁venom
annabis
kull
▁pleasure
▁covenant
▁outlook
▁libertarianism
▁cartoon
charted
▁dolphin
▁Helpless
▁combin
▁aid
▁Parliament
▁boxing
▁reject
modded
▁pipe
▁minded
▁divine
▁Manner
▁unreliable
▁salad
▁Bargain
▁outdated
▁salvation
▁Prohibit
▁Tolera
▁dishonest
▁skeptical
▁mic
▁destructive
nvasion
▁cynical
▁lip
▁Tone
▁Anti
▁Masculin
▁eevee
ling
▁paradox
onspiracy
▁cinema
omemade
▁insecure
▁whale
▁timing
▁Tooth
▁Speech
▁addicted
▁stable
▁psych
▁Announce
▁dressed
▁Singular
▁Cor
active
▁Aware
censored
▁Lemon
estiny
raffic
▁tribal
▁credible
▁unemployment
▁creek
▁friendship
▁lantern
▁imaginary
▁introduction
▁plausible
▁nostalgia
▁scope
idnight
▁sidebar
▁Slot
▁correlation
▁dominion
▁Pol
▁Pyro
arfare
dated
▁Wrestle
ypocritical
▁crowded
▁forum
▁situation
▁process
oup
▁recreational
▁photograph
▁Shove
▁impress
▁grip
▁Overwhelm
agnificent
▁Fame
▁Bunk
▁Rebellio
▁Residu
▁bride
▁cache
▁incompetent
▁inevitable
▁optimistic
▁satisfied
▁minority
▁deserving
▁disposable
▁Stalker
represented
▁Invade
▁situational
▁Homer
▁respected
▁Biolog
▁Demo
▁Assign
insured
▁pedophile
▁hurricane
▁mommy
▁unstable
▁rightful
▁cabin
▁negligible
ivilization
▁Feasibl
▁Erase
▁suggestion
▁pasta
▁terrorist
▁fictional
▁Periodic
▁prone
▁assign
▁comparable
▁Gang
rolled
▁distracted
▁Stiff
sl
▁run
ischarge
owntown
▁homosexual
amsung
▁macro
▁ultra
haotic
ontemporary
▁bankrupt
▁Divine
▁Java
▁microwave
ongressional
▁primal
▁portrait
▁upcoming
reof
▁tense
▁Crust
eaningless
▁Vigilant
▁prepared
irport
▁entry
▁None
▁Pub
▁carrier
▁concerned
▁Shak
▁dish
biased
▁united
▁occur
▁incident
hemistry
approved
▁Pleasur
▁miserable
▁Erotic
▁resistant
▁intensive
▁furry
▁witty
▁respectable
▁rune
▁grand
coop
▁Consumer
utomate
▁rate
▁attractive
▁akin
employed
▁Situational
▁spawn
heer
asketball
▁pose
▁portray
▁exempt
hanksgiving
▁stiff
▁Unnatural
▁unnatural
▁Mount
▁Comparative
▁privacy
▁Ledge
▁worthwhile
▁Mall
▁faction
▁equipment
▁Entitle
▁emblem
▁humane
▁Chop
▁Absorb
lash
▁Suspen
▁absorb
▁suspend
▁haul
gency
▁casino
▁coal
▁shuffle
uggy
▁mans
▁Pedophil
▁enable
▁announcement
▁extraordinary
▁loss
lexible
▁brewing
ont
▁environment
ocialism
▁assure
▁Reader
▁alcoholic
ntertainment
▁api
▁anchor
▁Volatil
▁parade
▁hybrid
▁Chok
▁repetitive
▁editor
▁Behold
▁connection
▁tradition
ollow
▁platform
▁Humane
▁Drown
▁submitte
▁rep
▁reflect
utism
▁Equat
nterstellar
nferno
utlet
▁unemployed
▁propaganda
▁Conclusive
▁chatt
▁fault
▁Potter
touched
▁tad
ugby
▁Emulat
lausible
▁Icon
▁album
▁Necessar
enesis
egligible
nsecure
▁chair
▁feminine
▁sphere
▁irresponsible
▁cousin
▁massacre
▁charity
▁Elitis
▁Prosecut
▁nerdy
▁Equit
▁durable
▁cdr
▁hyper
▁chilling
▁vital
▁pad
▁Bankrupt
▁costly
▁royal
ava
▁Grump
▁blink
▁Rub
redible
▁abs
▁Classif
neplus
▁Horizon
▁essence
▁tolerate
▁Interchangeabl
▁playlist
▁oneplus
▁pumpkin
▁seventh
▁simplistic
▁tunnel
▁misuse
▁stick
▁isolated
▁Passion
▁shooter
▁Dive
▁squishy
▁Favorabl
maginary
▁Apparent
▁affirmative
estructive
ubway
▁flower
urgical
▁mono
▁Immoral
▁Inhuman
▁Lecture
▁quake
▁compatible
▁unrealistic
▁belief
idget
▁depressed
ache
lanning
▁assistant
▁Riddle
▁Wot
playable
▁delusional
▁jok
▁Cursor
▁Diagnos
▁Hamm
▁permit
▁Victim
orta
▁photography
islike
announced
rilogy
▁invalid
▁Bookmark
▁Conquer
▁genre
▁satisfy
▁viral
▁horrifying
▁virus
▁bucket
▁lesbian
▁journalism
▁rockstar
▁shameful
epressing
▁worry
▁Heterosexual
▁dislike
riceless
▁wing
▁striker
▁detrimental
▁compelling
▁Hyper
lbum
▁conventional
aught
▁Varian
▁charming
▁yield
▁Broth
▁aggro
▁Flower
▁Migrat
▁caffeine
▁Marxis
▁coherent
▁irritating
▁stellar
▁probable
▁honesty
tapped
▁Custom
otton
▁flick
ffirmative
implistic
▁adapter
▁camping
▁Divers
▁bruise
▁conclusive
▁varied
▁doable
▁hatred
▁torment
▁demographic
▁evening
▁Suitabl
mperor
▁Invalid
▁inspiring
front
▁Deserv
▁Bite
▁organization
▁elderly
▁humor
▁pair
acro
▁Terminal
▁beloved
▁pregnancy
▁ongoing
▁invincible
▁clueless
▁overrated
▁Hipp
▁creep
▁Tale
ggro
etric
▁processing
▁tablet
▁clothing
▁Mile
▁gank
ddicted
▁Vaccinat
cripture
▁Deriv
▁Lodg
▁defence
▁prestige
▁comprehensive
▁fence
▁maintenance
▁persistent
▁existent
▁envy
▁pinch
▁stumble
▁gel
▁transportation
▁Ward
▁ink
▁construction
nalysis
▁clip
ommunication
arrel
warf
▁borrow
▁Shirt
ter
▁mum
lcoholic
▁abyss
▁judgement
▁Admit
ipster
▁ability
▁singular
ardware
▁mock
oherent
▁Obscene
▁Undeniabl
▁marxist
cceptable
▁clown
▁makeup
▁incomplete
▁parent
▁nicotine
▁straightforward
specified
▁Minut
▁Advance
▁exaggerated
beaten
charged
▁Celebrat
udge
▁rank
▁trainer
▁Ov
ompetition
▁rad
unshine
ndependence
▁jinx
▁ludicrous
▁unhappy
▁variable
▁Overreact
▁celebrity
ustard
▁choke
▁moot
▁format
▁Vampir
▁atmosphere
▁treatment
▁taxi
▁homosexuality
▁Mono
moking
▁Singe
efinition
▁duel
ebsite
▁Bid
▁Loyal
▁Rad
▁direction
rotherhood
constitutional
▁bisexual
eventh
▁yard
▁Admin
▁courage
▁Cliff
▁harmony
▁finnish
▁unclear
▁peek
▁raise
▁supportive
▁dairy
▁fizz
▁Pig
▁Hydrat
employment
▁enforcement
ateful
▁Gene
▁gentleman
▁bump
ollection
▁jaw
▁shove
▁immoral
▁Plane
▁animat
wallow
▁Grid
▁incapable
▁employee
▁representative
▁payday
mentioned
intage
iability
▁apt
▁removal
pathetic
▁charger
ovement
ntensive
nome
▁tire
▁Satisf
painted
isposable
published
haft
▁Ludicrous
▁veteran
▁finite
▁jackass
▁couch
▁innovation
▁password
▁satellite
▁lodge
▁judgmental
▁historically
▁laughable
oda
▁sprint
▁render
▁tanky
▁tone
▁Schem
▁Monarch
petitive
▁torch
nvincible
rritating
▁Crook
▁concert
▁edgy
▁unethical
▁Faithful
▁bait
▁lightweight
ocaine
▁misunderstood
▁scoop
▁surgery
▁processor
▁Scent
▁Orb
▁refined
▁veil
▁texture
▁babe
▁claw
olume
uthority
▁exhausted
▁blend
▁profitable
▁boost
▁Poo
iesel
locked
▁atom
dentity
▁straw
▁Nonsens
▁luxury
▁tribe
▁crucible
▁hull
▁kitten
▁purposeful
▁redneck
▁patriarchy
▁stainless
▁prohibition
▁disrespectful
▁geek
▁Impos
▁lawful
▁Fraction
▁Jam
▁seat
lavery
▁roller
▁kinky
▁Communicat
ompelling
▁Consume
▁Mum
▁wary
▁Legislat
▁moron
ompatible
▁obscene
▁hydrogen
▁sensible
▁tin
▁Compensat
▁electricity
▁airplane
▁Pc
creenshot
▁bully
▁dna
▁darn
settled
▁inventory
▁logo
▁sleepy
▁numb
▁Mercur
▁fog
aradise
professional
▁bomber
▁picky
▁Heav
xis
▁neck
rinity
engeance
orrifying
▁Husband
▁scheme
▁strand
ngoing
▁currency
▁comparative
▁hostile
▁tomato
▁Groov
▁impressed
▁idol
▁fluffy
▁ethernet
▁harass
▁loyal
omprehensive
innish
▁firefly
▁vulnerable
▁frontpage
▁intriguing
▁Menac
▁shuttle
▁agreement
tellar
▁Grocer
▁difficulty
spoke
▁Lore
▁warped
▁swam
▁apparent
hameful
▁Pin
▁conflict
hipping
▁yearly
urden
ehicle
▁typo
▁versatile
▁diverse
▁grease
▁fork
▁unwanted
▁suburban
▁browser
▁sweeping
▁Fracture
▁tempt
▁crisp
▁hut
▁starter
▁Rider
▁Hydra
▁accountable
drafted
▁designer
ower
▁entitle
▁oblivious
▁hesitant
▁needle
▁satire
▁mushroom
ortrait
▁piracy
▁uniform
▁pedantic
▁skeleton
▁brass
▁taboo
▁Ego
▁clinic
▁drown
▁soak
▁domain
▁junk
ax
important
▁Cannon
urther
▁Wit
▁elf
▁funky
▁eligible
dr
▁Material
ircuit
▁bug
▁Geometr
▁radiation
▁uncanny
▁butterfly
▁unpleasant
▁underwater
▁pineapple
▁surgical
▁stationary
▁Adverse
nhancement
▁disaster
paced
▁parental
ncomplete
fulfilled
▁Existent
▁Stereotype
▁tempting
▁sided
▁oppress
mit
▁Pad
▁Unhapp
▁Creation
▁shake
▁Hobby
edneck
▁Pupp
arathon
▁prevalent
▁sublime
▁fierce
▁bummed
▁adverse
▁unattractive
▁grandmother
▁investment
sexual
▁faceless
utnumber
▁headed
▁San
▁Primer
▁accounting
xclude
▁Strateg
▁blur
nclude
▁wrappe
▁Let
▁Pron
▁bash
ustle
aboo
ounge
▁Gym
▁twat
▁believable
▁unfamiliar
▁chubby
▁unarmed
▁intermediate
▁qualified
toked
▁Unemploy
▁biased
▁damaging
▁linked
odka
▁Iso
blocked
▁promising
▁copi
▁Differen
▁horn
▁autistic
▁european
▁rally
▁exclude
elusional
▁lounge
▁norm
emographic
▁pulp
andwich
hotgun
▁isolation
ortress
iracle
▁elegant
▁uneducated
▁titanic
▁awareness
▁discipline
▁Momm
▁Claw
▁doubl
utistic
▁motivated
chievement
▁Slave
etrimental
eedback
ccountable
onopoly
rontpage
▁fractal
▁lube
▁variety
▁palace
▁circular
▁whiny
▁tribute
▁freaky
▁tangible
game
onfession
▁Replay
cy
▁create
▁curly
layer
▁Expert
lient
▁cut
traightforward
▁helicopter
▁canyon
▁contradictory
▁unlucky
▁input
▁penalty
▁inefficient
▁candidate
▁sterling
▁snowball
▁maiden
▁stoked
ospel
▁shipp
oar
nception
▁Condemn
airy
▁aluminum
etective
▁remove
▁flavor
iege
▁favour
▁Programm
odium
edemption
esitant
▁elitist
▁hammer
▁sentient
▁Midfield
▁Clutter
▁bummer
▁upright
▁sapphire
▁synthetic
ncapable
▁radar
▁saga
▁cluster
▁owned
▁pirated
▁Misinform
perm
▁Panick
▁reliable
hrowaway
▁blender
gent
▁entertain
▁Sprint
▁pace
▁Install
isrespectful
▁Disc
▁Gent
▁Rim
▁mud
ntriguing
▁catholic
▁insight
▁misinterpret
▁nude
▁electoral
▁confusion
▁liquor
▁opportunity
▁harmful
▁include
▁leadership
▁Hazard
▁fashioned
lueless
▁Minimalist
▁privilege
etch
▁Spa
▁Nud
▁periodic
arcasm
▁lastly
▁Chick
interrupted
hess
▁homophobic
▁jury
▁shrunk
▁motorcycle
▁molten
aladin
▁claim
▁reduction
▁hub
▁lifetime
▁Degre
▁Manifest
▁circlejerk
▁actor
uropean
▁aka
eadership
tationary
invited
▁gifted
▁Inflation
rchive
ligible
▁suggest
▁Continual
▁answer
▁friggin
acbook
ealthcare
▁crippling
▁consensual
▁Panda
▁playoff
▁bland
▁Coordinat
rotein
▁Mat
▁belly
▁Rotation
▁eater
▁faithful
▁disgusted
▁contributory
▁Swat
▁Mandat
▁Sucker
▁cancel
▁neighbor
▁Champ
edantic
▁cyber
▁bodily
inite
▁Preceden
▁disingenuous
▁dental
▁Objection
▁Revolve
ptimistic
▁shoulder
▁Inject
issile
▁sweaty
▁Plural
▁accuracy
ntermediate
▁companion
edora
▁ukrainian
▁collar
▁literature
▁perception
▁soundtrack
▁nostalgic
▁reputable
▁vacation
▁booth
caused
▁skewed
▁Cop
▁pricey
ynical
titch
▁scholar
▁Scene
nefficient
ulnerable
eat
oriented
▁Sublim
▁spoon
▁Suffic
▁insignificant
▁integral
▁Booze
▁robust
▁temperature
▁meal
▁shade
vid
▁dagger
▁Supplement
▁Jol
keptical
▁suitable
▁aged
▁blurry
rag
▁roast
▁swallow
ruid
▁Empath
trusted
▁aircraft
▁corpse
isdom
aggot
▁Desert
▁greasy
▁territory
▁extremist
▁federation
▁brigade
▁lizard
▁protocol
▁precision
▁tedious
▁grumpy
imulator
nfantry
▁bigoted
uburban
▁paste
▁ignore
▁bowling
▁efficient
▁genesis
▁fee
▁sweat
▁Historic
▁Lan
▁quest
▁Cult
▁invade
urvivor
▁Categor
ndustry
▁empathy
▁shoe
▁franchise
▁humorous
▁goodwill
▁stressful
▁psycho
▁documentary
▁Offens
filtered
▁slate
▁Intention
ification
▁arsenal
▁brewery
▁exposure
▁rest
▁Curl
▁Lett
esirable
▁Apt
▁lefty
▁slut
eglect
estaurant
▁cardio
▁gigantic
▁neglect
▁manipulative
▁nemesis
▁nonsensical
acket
▁attitude
▁tennis
▁tweak
▁destination
▁dusty
ttorney
nxiety
onsensual
▁Tutor
epresentative
▁count
▁Hast
haman
trawberry
ntegral
▁disrespect
▁sovereign
▁comfy
▁garage
bq
▁Hat
▁tune
hiskey
▁soy
▁usage
▁dinosaur
▁diabetes
▁orbital
ontradictory
hrone
▁domination
isuse
▁Radioactiv
▁Coup
▁Angle
▁ladder
▁Censor
▁dread
▁sophisticated
well
ppreciate
ostalgic
▁papa
atholic
▁lime
ircular
▁curb
▁majestic
▁mexican
▁unpredictable
▁Omeg
▁protective
▁inconvenient
▁frightening
▁tongue
▁bound
▁debatable
▁descriptive
▁Observation
▁Convers
▁App
▁Mash
hug
▁document
▁Recip
elmet
▁exploit
far
▁Wir
afia
▁pixel
▁cycling
▁scum
▁ministry
▁moderator
▁hateful
▁garlic
▁intact
▁superhero
▁rampant
▁technique
▁triangle
▁fender
▁brainwashed
ecessary
▁breast
▁snarky
os
coustic
rsenal
▁messy
▁escort
▁nutrition
isingenuous
amurai
oyfriend
▁memorable
▁vacuum
▁hideous
▁hound
▁queer
▁gamecube
▁influential
▁Hideous
▁squirrel
▁proxy
▁Lag
▁reuse
conditional
▁instance
▁breed
▁Indicat
▁Patien
▁Configur
▁marked
earned
▁behavior
▁Uncontrollabl
ushi
riticize
▁rigid
cenario
ynthetic
▁Drum
▁Unbearabl
▁fraud
▁cinematic
angible
▁relationship
▁wallpaper
▁wasteland
▁speculation
ricket
tml
▁Argument
▁feed
▁overwhelmed
▁tee
▁criticize
▁Decay
▁aforementioned
usable
▁hacking
▁groom
ightweight
▁Tho
▁Dome
▁Owner
▁desk
▁rum
overty
▁concise
▁innovative
awyer
▁entity
▁combination
▁differential
▁Role
▁orgasms
▁Member
▁drm
▁Fan
eaten
▁pine
▁script
eight
▁acoustic
▁injur
▁Psycho
forementioned
float
▁commerce
▁Tomb
▁fiscal
umorous
▁boxer
▁assured
▁algebra
lasma
nsignificant
uriosity
▁terrific
▁gallery
▁torn
▁syrup
▁Pervert
▁sinister
▁token
▁depth
▁utter
eserving
▁bulk
▁holder
▁Insulat
▁grain
reator
▁mop
▁addictive
▁Patriarch
▁Mar
balanced
nimation
derwater
▁Sovereign
▁alarm
▁salvage
oblin
rebuilt
▁pleasing
▁Misinterpret
▁unused
▁deserved
▁hippie
▁buffet
▁hex
▁possession
▁pencil
▁ineffective
eritage
▁tropical
akeup
ngrained
subbed
ipple
evelation
▁trophy
▁Fin
▁avid
ackup
ontroller
▁Dam
ntact
▁frugal
utdated
eputable
▁Resell
▁uninformed
▁pyramid
▁ivory
▁misguided
▁barrier
▁psychedelic
▁fatty
▁statement
ebt
▁pointed
▁ease
▁impli
▁Stran
▁refreshing
▁devoted
▁defeat
▁nest
▁Examine
▁Validat
▁feel
typed
▁awoke
▁injury
▁threat
▁owl
▁mistake
hale
▁conquer
alendar
owboy
▁moist
▁statue
▁thrift
▁moss
▁peer
anel
upportive
▁mumble
▁conflicting
▁tube
detected
▁Rid
▁explanation
▁orbit
▁Humor
election
avoidable
lawful
▁Indu
▁faulty
uckle
isunderstood
▁Respons
▁astounding
▁karate
▁flavour
▁offspring
▁perspective
▁infrastructure
▁intolerant
▁lengthy
▁bathroom
▁interior
▁rampage
▁relay
▁Felon
▁downright
▁Bree
▁spooky
larity
orum
ulse
hell
▁Inform
▁globe
▁outraged
▁crude
▁Psych
▁Gall
▁Breast
harmed
▁election
igantic
nconvenient
▁frequency
▁radioactive
▁rambling
▁handicapped
▁hearted
▁session
▁oppressive
▁Tackle
▁simplest
▁max
oncise
igid
▁Happi
▁Imperfect
▁Max
attern
▁Underage
▁Rout
▁sexuality
▁release
▁Justifiabl
arbage
▁saturated
reshman
escriptive
▁privileged
reature
itanic
▁Clich
▁Jok
▁condemn
▁inherit
▁accent
onquest
▁mash
▁Crude
▁bypass
▁mobility
▁interstate
▁surreal
▁Homophobi
▁doctrine
▁decision
▁discrimination
▁fuss
▁advantage
▁Forth
▁Promotion
▁sight
▁Stunt
▁treaty
▁enlightenment
ssembly
efty
epot
nnovative
obust
ubstep
▁exam
ifferential
▁circumcision
stated
▁fathom
edious
▁sector
▁increase
▁monetary
▁Stal
llied
▁Resource
▁bard
ncompetent
▁Distort
▁catchy
▁referr
eign
ombo
▁victim
▁worker
damaged
inematic
▁Employe
onsensical
▁Astounding
▁masculine
▁hue
▁boulder
roactive
▁unfounded
▁phantom
▁subset
▁Slam
ortex
tressful
dible
▁declaration
▁curve
▁Resembl
ajestic
▁prejudice
aga
▁straighten
cute
▁cann
occupied
▁networking
hopper
appiness
▁dose
▁carpet
▁Emphasi
▁remarkable
▁ratio
rugal
enguin
▁thug
neffective
▁concrete
▁stale
▁Robber
▁circus
▁batshit
▁literary
▁injustice
▁revenue
▁lens
▁popcorn
omfy
▁proactive
canny
▁sequel
▁rhino
hildhood
▁fur
▁oak
▁diversity
▁Lip
▁Mint
▁exploration
▁continual
▁banking
▁Assist
tash
mbiguous
aptop
▁liable
▁Vapor
funny
▁Preserv
ebatable
▁Vagina
ropical
oilet
istol
oconut
▁unofficial
▁hangover
▁relapse
▁nursing
▁fav
sychedelic
▁descent
▁claws
▁tape
▁mansion
▁exception
▁diplomatic
▁conceal
▁historic
exican
▁chew
ranian
verpower
▁Fountain
▁futile
▁comparison
▁delightful
▁output
▁pissy
▁interface
▁overpower
▁societal
asis
▁shibe
▁whoosh
rainwashed
huffle
▁spru
▁douchey
idow
recognized
▁Execution
▁connected
▁cancell
run
aze
▁determined
▁Watt
▁booty
usion
▁informed
▁structured
ddictive
▁Downward
▁Berserk
▁Principle
▁upsetting
▁Freelance
▁hassle
▁coalition
▁celestial
▁misinformed
▁initiative
▁sheriff
▁Claus
▁studi
▁leftover
served
▁feather
▁Bak
▁intrigued
▁Conceiv
mission
▁desirable
▁harden
divided
▁sympathetic
▁wip
▁ramble
ntirety
▁par
tout
initiated
acho
▁stair
▁confront
▁Confront
hantom
alculus
onetary
▁fossil
▁muscular
▁banjo
▁obsolete
▁skinned
▁warehouse
▁inflated
▁orchestra
▁clue
▁Trim
▁rope
▁informal
dict
▁Tender
▁Deploy
▁Reinforce
▁Mop
▁Moist
skilled
cared
▁disturbed
▁conversation
▁inspiration
challenged
▁judicial
▁catastrophic
▁mundane
▁standalone
▁tender
▁Venom
▁Possess
▁guilt
nch
▁rainy
▁poster
rustworthy
rimal
▁mount
pad
▁Clue
pplication
laster
elievable
obacco
▁imperial
uperhero
urreal
▁shaky
▁misery
athom
▁Delightful
▁criticism
▁obsessive
▁insightful
▁wit
▁shovel
▁Bloat
▁Obsessive
▁rhetorical
▁Humanit
ireless
innamon
▁Eloquent
▁tolerance
▁Swimming
▁viper
▁sausage
▁Forceful
▁relief
iano
modified
▁staggering
tainless
▁structure
▁app
▁jealousy
▁deploy
▁Correlat
ba
▁proven
mused
▁carri
▁instinct
▁civilized
▁Imperial
olk
estruction
esbian
▁Bachelor
▁vain
▁opponent
▁signature
▁gateway
olten
▁creat
▁principle
▁ambush
compressed
▁overcom
▁feasible
isguided
▁Informal
▁esteem
▁Rum
▁Careless
▁ripp
▁fold
▁Shot
▁considerable
▁Paradox
▁extract
▁plural
ore
nfluential
▁Sala
atshit
▁delicate
▁censorship
▁primitive
▁funeral
▁Coco
▁beginner
▁raspberry
▁shithole
▁indicative
▁right
▁Pal
▁Medal
▁cent
▁Cinema
efender
▁nerfs
▁primar
ridden
▁sketch
▁chrono
▁tackle
▁din
ympathetic
▁reminder
▁Suppress
simplification
▁Align
▁relieve
ouchey
▁Modul
yrian
antern
ixture
▁ketchup
▁charizard
▁cosmos
▁oatmeal
▁freakin
▁instrumental
▁silicon
▁atrocious
▁Conversation
▁extension
exposed
▁Freakin
listed
esidential
▁Lust
▁Stair
▁adblock
▁aggression
▁fed
▁obligat
▁heterosexual
idebar
icrowave
undane
itamin
▁Pulp
▁economist
▁hormonal
▁opposition
▁multitude
▁mankind
▁cargo
▁fever
▁spew
▁neighborhood
▁improvement
▁sms
▁Mist
▁cart
▁deaf
layoff
▁Staggering
▁soil
▁Subsid
ampant
▁cocky
▁ash
▁Gag
trocious
mbush
roduction
iterary
▁Fract
▁rid
tc
onclusion
andicapped
rivacy
elestial
▁vector
▁unbiased
▁imminent
▁incompatible
▁spectrum
▁colorful
▁savvy
▁retirement
▁traumatic
▁wool
▁helpless
ddiction
unishment
▁mastery
otto
▁inexperienced
▁bias
ippie
▁Transcript
armful
▁Mutilat
▁disconnected
orthwhile
▁Retro
▁apartment
▁distort
▁Dip
▁Brut
▁hourly
▁retro
▁smear
▁pebble
▁registration
ownright
▁tuna
▁waffle
▁ingrained
▁deceptive
▁superb
▁weirdo
▁Husk
▁Modde
▁villain
▁manageable
lap
▁Basi
▁vow
▁comforting
▁healer
▁none
▁Circumcis
▁preferable
▁booze
▁imperfect
esh
▁drastic
lf
▁Reddit
etflix
xygen
▁gambit
▁horrid
▁mustard
▁infuriating
▁gigabyte
▁illogical
▁mainstream
▁nordic
▁revolver
▁tinder
▁derogatory
▁Reaction
▁voter
▁angle
▁inch
▁Bell
hotoshoppe
▁devastating
▁Prob
▁quickly
ruiser
▁underage
▁stop
dvertising
▁edible
▁bitchy
▁lit
bsolete
uscular
▁Delicate
▁fascism
▁quantity
▁tolerant
▁bale
▁syrian
▁relic
▁unpaid
▁tempo
xecutive
▁spit
▁Helm
▁arguabl
▁stoner
▁amused
▁booster
orment
▁Deceptive
▁ski
▁Cre
▁Env
▁meter
▁responsive
▁Graph
ynasty
▁Transit
assacre
▁Municipal
ovenant
▁consistency
▁bicycle
▁pokémon
ivilized
nterstate
hithole
▁xbone
cotch
▁gal
▁Drastic
▁classifi
▁elbow
▁foo
vert
▁aware
▁girly
▁agenda
iplomatic
▁concept
▁promotion
▁Pursu
elfare
atrol
rimitive
▁mythology
unconstitutional
▁throat
▁Cabin
etermined
▁let
▁neutrality
▁bender
▁Incident
▁Dew
alvation
▁Retrospect
▁justifiable
lown
▁Sync
▁bra
▁Anchor
▁Mic
▁dogma
▁absent
queeze
ourbon
tandalone
▁Orthodox
▁heavi
▁panicked
▁meow
▁stunned
▁parenthood
▁reliant
▁Zi
▁unheard
▁batch
▁squeeze
▁fluid
▁shell
▁notification
▁tornado
▁transaction
mack
▁workout
orkshop
ocal
▁Jud
▁quot
▁glove
▁characteristic
▁Starv
▁Glob
▁regime
warm
▁volcano
▁frontier
▁hose
▁inexpensive
▁recon
▁transmission
▁careless
▁resurrection
▁mystical
hath
love
▁tilt
▁mean
▁thirsty
▁adrenaline
▁decay
▁sustainable
ucket
▁smelly
▁judgment
nort
ybrid
▁Rhythm
▁facility
▁kernel
▁iraqi
▁dispute
▁poisonous
▁immersive
▁sunlight
▁nationalism
▁az
▁expression
nsightful
▁Magnet
▁amp
▁Moron
▁strain
▁Coal
iper
ustainable
▁prohibit
ncompatible
ultitude
▁eloquent
▁verge
▁impatient
▁salary
▁restrictive
▁Mang
oncert
▁surge
▁pc
▁sailor
▁database
▁polished
▁reflection
eaf
▁Cuddl
▁torrent
▁regulatory
▁Dish
catter
mblem
▁offende
▁boo
erogatory
action
ordic
llogical
▁juvenile
▁belgian
▁heel
▁further
▁insensitive
▁iranian
nnouncement
▁narcissistic
▁consciousness
▁interaction
▁limp
▁dismissive
▁Rotat
▁temp
▁concentrated
▁Chair
▁pastor
▁skilled
▁Horri
oppy
▁Bow
▁Misogynist
rib
▁Nutrition
mbient
▁motivation
▁Ramp
▁headline
icotine
▁explosion
▁hyperbole
▁regain
▁unplayable
▁Bride
▁snort
▁scatter
▁laughter
▁trans
▁terminator
▁vile
▁popularity
▁ambient
▁cheek
▁worm
▁regen
aternity
▁scarce
ollector
▁lung
▁amid
▁Essen
▁Xb
▁catalyst
▁lobster
▁paranormal
▁reactionary
▁tutorial
▁pickup
▁Neighbor
desired
stretched
▁slope
▁flopp
raumatic
▁perfection
▁gin
nthusiastic
formed
▁symbolic
▁wand
unset
▁pointy
olphin
▁ambiguous
ms
▁Caffein
▁effort
▁orc
▁reinforce
lined
▁category
▁noisy
▁merchant
▁critique
▁psychotic
▁percentage
elected
▁defective
▁seller
implest
▁Rac
▁outrage
▁bow
▁creamy
oodle
teak
▁Amid
▁fishy
▁Terroris
amp
▁deni
▁theology
▁jerky
▁betray
▁Precede
avvy
▁compare
mminent
▁Conceptual
▁calorie
▁proprietary
▁ogre
ctor
▁sturdy
▁roommate
▁irritated
mmigration
▁automat
nexpensive
▁Kidd
▁heartbreaking
▁oppression
▁metaphorical
▁Api
▁jungler
▁potion
▁nutritional
▁rusty
eow
▁eternity
▁Tradition
▁enlighten
▁acceptance
dept
▁seasonal
▁sighted
▁percent
keleton
▁mania
▁ritual
▁conceptual
▁velocity
▁Pipe
▁friendzone
▁potent
▁polo
▁gullible
▁voltage
▁shrimp
▁endurance
krainian
▁stupidest
▁Metaphorical
▁Comical
▁Parad
▁Discriminat
proved
▁unbearable
ib
▁earthquake
▁trustworthy
▁Fork
▁roof
▁trashy
ominion
ostalgia
▁partisan
▁capitol
▁cabinet
▁loyalty
▁novelty
▁sperm
▁forceful
nowball
▁strapped
▁emo
▁duration
▁derivative
▁atomic
broken
▁edit
▁Defen
▁Mush
▁detail
▁Situation
▁Absent
▁payment
▁bid
▁skipp
▁gum
ris
▁buster
▁agility
▁curved
▁bulky
ringe
▁Shor
struck
▁supplement
irplane
▁spott
mpatient
▁monogamous
▁homework
▁therapist
utlook
▁sexism
▁het
▁Sur
ousin
tomic
rog
ndicative
▁router
▁overused
▁wacky
▁comical
rink
▁Eeri
lower
▁efficiency
▁graph
▁Tablet
▁evangelical
ubsidize
▁productive
▁Pierce
▁assed
▁Editor
uicidal
opulation
▁lecture
nfuriating
▁listener
urricane
▁Jade
▁horrified
▁brute
▁lousy
▁prophecy
▁glimpse
▁intern
▁susceptible
▁Bab
▁Wors
▁Infringe
etup
▁Simplif
ricken
tall
▁precede
▁Threat
sychotic
arcissistic
▁poo
haracteristic
olorful
▁fiddle
▁sued
▁dad
▁toned
▁brow
defended
▁Dictat
▁apathetic
lob
▁Customiz
▁kill
▁Environment
atastrophic
aintenance
▁trout
▁Potent
▁Traumatiz
▁notebook
▁pact
▁wholesale
▁placement
ssistant
nsensitive
▁mineral
▁apocalyptic
▁complexity
▁pan
▁Defiant
▁smoker
axi
▁favorable
omato
hilling
phone
▁reddit
▁Norm
▁cleric
rony
▁extinct
ockstar
ropaganda
▁Spher
▁waterproof
▁Unforgiv
▁hindsight
ydrogen
▁vendor
▁charitable
▁existence
▁fetus
▁unified
▁rigorous
una
anipulative
▁Disrespect
▁Luxur
owed
ortable
▁bell
▁Courage
▁Shade
riendship
▁Designat
▁crown
laylist
apper
▁Itch
▁Knit
aranormal
raqi
ullible
▁exhaust
▁Sequenc
▁Fragment
▁Abrupt
▁messaging
▁Villain
▁commentary
▁pragmatic
▁Typo
▁surgeon
▁sunk
mmersive
▁mythical
▁crippled
gi
▁rack
eactionary
declared
▁Rec
▁quirky
▁Matte
▁rye
ismissive
og
▁aperture
▁proportion
▁whistle
▁infringe
▁fallacy
▁jolly
▁sheet
▁clarification
▁unprofessional
▁laundry
▁omnipotent
▁salmon
▁gravitational
▁nationwide
▁medication
▁analogous
▁starve
off
▁dubious
elgian
adjusted
▁Clinic
▁predictable
▁thrilled
umpkin
▁scanner
▁mood
▁cement
igorous
▁progression
▁Fabricat
rail
vangelical
▁Direction
▁Prese
▁Straw
reso
▁aspect
▁Spamm
▁assistance
▁Atom
asino
▁sensory
▁Gel
▁Fanatic
▁shed
▁Horrifi
▁Interven
▁Behaviour
▁Satir
▁douchebag
▁paranoia
▁foam
▁grape
▁crota
▁Chil
▁membership
▁font
▁framework
▁genital
▁responsibility
assword
processed
turdy
▁copying
▁portrayal
▁Spoon
▁transferr
▁Abyss
▁designat
▁Fog
bly
▁coloured
omain
▁habit
▁faker
dapter
ationwide
of
▁hip
nus
pocalyptic
▁authoritarian
atellite
▁triumph
mplication
▁Figurative
▁kosher
▁unsettling
▁rifle
traighten
▁rebuttal
▁landscape
▁roster
▁generator
▁iconic
▁baseless
▁baffled
▁finale
oisonous
gre
▁stupidity
▁directory
▁architecture
▁Fertil
▁flashy
▁Waive
sound
tuned
▁attraction
▁Alarm
▁herb
▁Nut
▁retrospect
roprietary
urrency
▁synth
elebrity
▁node
▁uncertain
▁repeal
▁mascara
▁conversion
▁barbarian
▁unimportant
▁immunity
▁smack
▁condom
▁sanity
oodwill
pportunity
▁Headline
▁Hyperbol
erivative
▁playable
▁sensor
▁Compel
▁rig
scort
▁bran
ntroduction
▁establishment
▁sharia
▁Partisan
▁Papa
engaged
▁curvy
urvy
▁anarchism
ousy
▁appearance
eluded
ruction
▁Plate
▁conflicted
otorcycle
▁stereo
▁Empower
▁moderation
▁shrine
▁incest
▁Meter
▁satirical
▁Collar
▁newborn
▁specialist
▁basement
▁Slop
▁elevated
ragmatic
▁sake
▁Prestig
▁speedy
▁Fee
▁Considerat
regnancy
▁Idol
▁cure
onogamous
▁southwest
▁Homophob
▁behold
▁Destin
▁colonial
nput
haritable
▁Whoop
▁feast
▁Existential
▁cigarette
▁myriad
▁indifferent
▁stamina
▁novice
▁sodium
▁Needle
▁derby
▁Lub
irclejerk
▁crooked
▁afternoon
▁distribution
▁introverted
wl
design
▁decade
▁misogynist
ebuttal
rigade
rucible
▁kindergarten
▁chipotle
▁caloric
▁breakdown
▁bedroom
▁ghetto
▁unfinished
▁hurtful
▁reproductive
ement
ariety
▁Interact
▁dri
▁behavioral
▁Neck
▁prey
▁Poster
▁Smok
efective
▁tourist
atred
▁bulli
▁Subse
▁blacklist
amel
▁amnesia
evee
bar
▁con
▁lust
estination
errorism
ecal
erfs
▁roasted
▁sequence
usceptible
holesale
limpse
nalogous
▁discrete
▁regulation
▁velvet
▁cgi
▁metallic
▁suspension
▁Feather
▁tribunal
▁accustomed
▁massage
▁Causal
▁exhausting
lang
tina
▁armored
randmother
tion
▁geographic
▁Imbalance
loss
▁Fundamentalis
▁observation
▁sonic
▁Org
ovice
terling
mnipotent
▁courtesy
▁inept
▁integrity
▁politician
▁impractical
▁allied
▁oath
manned
evoted
ubious
▁wat
married
▁stabb
▁apple
▁Baker
▁premiere
▁custom
stressed
▁tagge
alvage
▁Rune
install
ccustomed
ttitude
tmosphere
▁bastion
▁underwhelming
▁vietnamese
▁concentration
▁meetup
▁handheld
▁murderous
▁southeast
▁titanium
utterfly
eteran
pt
▁sluts
▁bloated
armless
ationality
▁shin
▁timer
urgery
obility
▁Phon
▁lady
▁destroyer
wareness
greement
iving
▁spirited
▁Firef
mple
▁Fulfil
emesis
icycle
ineapple
settling
▁Frantic
▁province
▁basket
▁clunky
▁merit
▁blockbuster
▁mesh
▁father
▁legislative
▁lipstick
▁momentum
▁stability
▁synonymous
▁lottery
▁semitic
▁replacement
▁wasteful
roxy
▁cardboard
▁mag
▁muted
▁Embarass
enalty
▁intervention
▁creeper
▁indicat
▁Uncertain
ard
▁Lime
▁offse
▁inject
▁behaviour
▁Seiz
▁acceptable
▁asinine
mount
▁Unsuccessful
▁Waterproof
▁equity
▁fascinated
▁melody
▁module
▁vinegar
▁poetry
▁stomach
▁technician
▁observer
▁textbook
▁ample
▁bandit
▁towel
▁recommendation
▁disclosure
enital
▁deductible
▁wedge
▁buyer
▁seize
▁navy
▁ripe
alt
agger
▁Simulat
▁pond
▁Hub
iabetes
▁solo
ranny
crub
▁crate
aimed
▁Synth
yriad
▁Discrete
▁Inconvenience
▁composition
▁menu
▁burrito
▁cigar
▁outfit
▁indigenous
▁invasive
▁nsfw
▁tragedy
▁timezone
▁inverted
▁layout
harity
▁mentality
▁dodgy
▁finder
▁Gor
thernet
▁Facilit
▁audience
▁haired
▁surf
▁Bra
affiliated
▁Peach
atirical
▁Cluster
▁presence
▁abrupt
▁hypocrisy
▁yeast
▁macho
sinine
▁probability
▁cartel
▁neuter
assle
ravitational
▁Soy
ocumentary
▁weakness
▁diving
tim
lavour
▁chopp
▁stamp
▁wording
eaver
▁complaint
nnovation
▁apology
▁chill
▁Authoritarian
▁Roof
iminish
▁dev
rio
▁faggot
encrypted
▁obesity
▁militant
▁misspell
▁extent
▁unstoppable
▁Stump
▁possibility
▁infallible
▁surveillance
▁sprite
▁nifty
▁gluten
▁operator
▁unbalanced
ccent
▁terrain
▁lvl
▁tasteless
▁diminish
▁Isolation
▁hefty
▁Inspiration
▁fruity
isspell
▁Amp
leveled
stream
▁alley
▁photographer
▁cop
conic
nvestment
sustainable
ens
▁retain
▁swapp
▁Roller
isaster
▁dealer
apphire
iquor
▁architect
▁Misunderstand
▁Retaliat
▁elevator
▁graduation
▁orientation
▁verdict
▁comedic
▁bartender
▁ceiling
▁musician
▁balloon
▁gritty
▁Seamless
▁Inept
▁misogynistic
▁summit
▁wishful
▁importance
▁reactor
anyon
▁dozen
▁donation
▁Persecut
ession
anny
▁systemic
erception
onfusion
▁array
▁tacky
▁integrat
▁Offse
▁waist
▁delusion
posed
presented
yrup
ndigenous
▁trauma
▁Lacklust
▁unsuccessful
▁focal
▁lifestyle
▁tenth
▁squash
▁protector
▁compassionate
▁sinful
mbitious
▁Depriv
ietnamese
suited
▁rag
▁powerless
▁renewable
▁duct
▁spinal
▁crusader
▁sync
▁employment
andidate
▁Shee
secured
▁warp
▁sir
▁agriculture
▁oily
ssed
▁flux
rmored
▁Insight
ewborn
ipped
ennis
▁Desk
▁ambitious
iracy
▁barbaric
▁canal
▁convoluted
▁inclusive
▁recognition
huttle
▁wrist
▁fundamentalist
▁equation
▁brake
euter
▁dietary
▁prediction
▁catcher
etallic
▁Hex
▁Repe
▁cc
▁needy
▁availability
▁rhetoric
▁Companion
▁Territor
riority
ribute
ntolerant
▁merge
odgy
▁costume
▁interchangeable
▁adjustable
mpractical
▁Fatigue
▁hypothesis
▁mantle
▁inactive
▁maze
▁cereal
▁presidency
▁gauge
sfw
▁sherlock
▁Orc
▁vaginal
▁corny
▁supplie
sorted
entleman
▁Geographic
vory
rb
▁funding
izard
nstrumental
xplanation
▁prisoner
adar
▁Afford
▁Pala
▁Revis
▁execution
▁effectively
eductible
ederation
▁convenience
▁legislation
▁controversy
▁manga
▁sanction
▁nether
ynonymous
▁Blade
▁organ
ifty
▁debut
▁grasp
▁intimidated
nspiring
▁Verif
epth
aired
aloric
▁cuff
▁lover
▁recruit
▁Barbari
▁rival
▁icy
▁strippe
▁rhythm
▁coward
▁afford
fs
▁impulse
▁bandwidth
▁unavoidable
uppet
▁household
▁newspaper
▁punctuation
ietary
▁instructor
▁wonky
lunky
▁deity
djacent
▁prank
▁operational
omedic
▁Twitch
▁atm
encil
▁Sever
ushroom
▁Unknow
▁adoption
xposure
ighten
▁fabric
▁Crown
evastating
ationalism
▁east
emitic
▁adjacent
▁symbol
ursing
▁defiant
▁inflammatory
▁bogus
▁coverage
▁tardis
questioned
▁impaired
▁usable
▁sadness
ccounting
ecision
▁distinction
▁analog
▁Par
dded
desirable
▁Kin
▁epitome
arlic
▁Bribe
▁scrub
▁attic
▁gig
▁Pixel
nfallible
rotocol
onvoluted
▁licensing
▁sympathy
▁Cleric
▁breeze
▁plaster
▁fridge
▁marketplace
▁paperwork
▁fumble
▁nightfall
▁semantic
▁requirement
▁underwear
is
▁lawn
em
▁tease
▁Startl
▁artwork
quipment
▁downward
▁Bush
▁masturbat
▁abysmal
nvasive
lacement
▁Judici
▁segment
▁uneven
▁yogurt
▁passenger
▁illiterate
▁reddiquette
▁matchup
▁troubled
▁manic
▁receiver
ttic
▁Entit
▁Zealo
▁sticker
▁android
▁toaster
▁bombing
▁robb
ellow
paired
inosaur
▁Cart
allpaper
▁meteor
▁poly
ilitant
stoppable
acuum
ffspring
▁Ult
▁vinyl
▁unlawful
▁census
▁inadequate
▁sociology
rone
▁intake
▁strawman
▁calculator
▁leftist
▁giggl
▁Vaginal
▁margin
▁overtime
▁presentation
bysmal
▁illness
ircraft
▁watt
▁bearded
pgrade
▁hash
▁producer
▁chunk
▁Theolog
nverted
emperature
▁Devastat
▁ramp
▁entail
▁mint
ampus
▁Barb
▁crusade
▁Uneven
▁Abundant
▁blasphemy
▁consequence
▁troubling
▁voodoo
▁muddy
view
hibe
▁scam
▁pioneer
▁Enlist
▁centralized
▁representation
▁Thrift
elationship
▁heartless
▁disability
▁dialogue
ccuracy
▁despicable
▁removable
laws
escent
▁violation
▁oven
▁Pine
▁profession
urderous
▁occasion
nflated
▁Exam
cited
reatment
counted
▁atmospheric
eloved
▁dimension
▁angel
▁causal
▁govern
oundtrack
▁warranty
▁lackluster
▁vibe
▁unfunny
▁imagination
▁undefeated
▁intoxicated
▁psychiatric
ibertarianism
▁cutter
▁smirk
▁testosterone
▁beep
▁compassion
sle
▁inspirational
oulder
▁ip
osher
▁grinder
djustable
explored
ritty
▁folder
▁blessing
▁artillery
pitome
▁Boob
▁Miser
▁Bidd
▁magnet
▁Buffe
etchup
▁canon
amecube
▁Concrete
▁figurative
▁preference
▁Fiddl
emantic
▁creativity
▁viewpoint
▁faux
▁realization
▁pakistani
▁gesture
▁och
▁classroom
▁submissive
▁wikipedia
ebut
▁Leverage
▁restoration
▁timeline
▁endur
▁indication
sourced
ssemble
pressed
onky
▁swarm
lbow
▁manner
▁introvert
▁boob
ntail
▁caster
eveloper
echnique
ranchise
▁Homicid
▁Smear
▁Utopia
▁vibrant
▁mellow
▁backstory
▁snack
▁subscription
▁relativity
▁civic
▁undercover
utput
▁wiz
abid
▁Scum
▁implementation
▁density
uthorize
tmospheric
▁trademark
▁Mudd
▁manufacturer
nclusive
steem
▁buck
▁eighth
▁assumption
▁rise
▁verse
▁trendy
▁Algebra
▁Mud
▁smelt
▁Appoint
▁commute
humb
▁fave
▁implant
ominal
quirrel
requency
▁complement
▁abundant
▁frantic
▁symptom
▁prototype
▁Roleplay
▁fetish
▁undergraduate
▁chromecast
▁jewelry
▁guru
▁commitment
▁renaissance
▁nonexistent
▁passage
▁startup
▁Manic
▁decimal
▁taxation
geared
ypass
▁rental
▁try
ickening
oe
▁emotion
recision
avy
▁Rack
tucked
▁tracker
▁Tee
espicable
▁sensation
▁Mindful
inful
▁sl
heriff
elicopter
▁Whistle
▁certificate
▁frivolous
▁plethora
▁recourse
▁seamless
▁speculative
▁rubbish
▁poetic
▁tension
▁developmental
▁usd
▁compensation
▁hotline
▁linguistic
▁clarifi
iscard
▁discard
▁Outward
ompassionate
▁acne
▁flattering
▁blade
urtful
▁loathe
▁approval
▁milky
iterature
▁Cooki
ub
rritated
rofitable
▁aoe
hino
▁column
ntoxicated
▁Cardio
▁phony
▁chef
▁urgent
▁bribe
▁barefoot
▁unprotected
▁cutie
▁restart
▁neural
▁reflective
▁spotlight
▁sickening
▁torque
▁Every
▁minion
ircus
▁Crusade
▁drone
genda
ggression
▁mechanic
▁conviction
▁Encod
▁publicity
▁Advantage
▁sly
▁fix
▁endgame
▁patriotic
▁adaptation
article
▁almond
omparison
rented
▁Shoe
▁revolt
nclined
partment
▁chin
▁strap
▁hall
nadequate
iraculous
▁Urge
▁sterile
▁Enslave
▁Streak
ntertwine
▁ammo
▁unskilled
▁inequality
▁outgoing
▁facebook
▁particle
▁intensity
▁slutty
▁coupon
▁Commute
▁diabetic
riendzone
▁digestive
ymbolic
▁addict
▁dough
▁transgender
▁Composit
▁Ss
▁stigma
▁readable
▁ankle
▁quo
▁resell
▁cheeky
ebble
▁medic
▁stall
▁resist
▁erotic
buffed
anction
▁appease
njustice
pponent
▁dentist
▁dominance
▁justification
▁mortgage
▁Vibran
ia
▁kidney
▁pricing
▁semen
▁neckbeard
▁nominal
▁span
▁shutter
▁veto
anjo
▁installation
▁functionality
sychiatric
▁recognizable
▁contribution
tupidest
dblock
▁acute
▁refresh
residency
▁consideration
▁Crate
▁weary
▁isp
lliterate
▁Conceivabl
▁founder
▁Surge
aternal
▁isle
octrine
▁Oblig
ich
sm
verweight
nflammatory
nfrastructure
▁median
▁ginger
▁crossfire
▁memorial
▁boggling
▁fireball
▁intrusive
▁overrun
▁commonplace
▁compression
▁tendency
▁Bs
▁stark
▁formation
▁camel
amaging
▁fox
▁funk
▁cliche
▁stereotype
▁mate
obster
▁Din
▁afterlife
▁Sorcer
original
▁comet
eclaration
▁Commerc
▁notion
anal
▁administrative
▁withdr
▁Enthusiast
▁harm
ongue
ubmissive
olcano
▁relatable
▁heinous
▁ownership
▁consumption
▁furniture
▁benevolent
▁lucrative
▁shampoo
▁analogy
▁creationism
▁tolerable
▁rapist
▁impression
▁diagnosis
▁deluded
▁generalized
issue
ccumulate
riangle
▁flaw
▁Organ
▁asexual
▁audit
▁Scarce
▁coup
▁Tempo
ayday
arpet
▁gendered
▁king
uthless
▁Fraud
▁jersey
▁remix
▁Ubiquit
▁tidy
▁caucasian
▁Urgent
▁inane
▁jam
▁Graceful
▁turret
▁footage
▁considerate
▁Emo
▁hippy
▁rejection
▁counseling
▁cruiser
▁sway
▁windy
▁alchemist
argo
▁Plea
▁Registr
orrelation
▁Negotiat
ighth
▁Trans
▁energetic
apable
▁tactic
▁cosplay
leak
rasp
rophy
▁Ol
istribution
▁Wage
▁instruction
hoosh
▁scandal
▁Instantaneous
▁expense
▁Cyber
▁headphone
▁cider
aux
▁carrot
▁unconditional
▁basis
▁omniscient
▁suppress
▁prestigious
▁gallon
▁scandinavian
▁peel
▁deceased
▁disguise
▁injection
▁devout
▁prevention
ffy
▁fort
▁ops
▁arrangement
▁Explosi
▁buffer
onexistent
▁ambulance
▁assessment
▁Hue
▁addition
entralized
▁Lung
▁slappe
▁Complement
athroom
▁Exception
▁compell
isguise
▁compass
▁mythic
▁bastard
yramid
▁flour
dergraduate
▁sophomore
▁merry
▁ruthless
▁freezer
▁socket
▁Occupation
▁binge
▁cowardly
▁teenager
pg
luminum
ivic
▁Capitaliz
▁Relation
▁accountability
rish
intentionally
ystemic
▁Top
utritional
fuse
▁Fabric
optimized
opcorn
▁Distinguish
▁kicker
ausage
akistani
erspective
nterface
▁Convo
▁vortex
possessed
▁component
▁dorm
▁uphill
▁parody
▁bong
▁underestimate
▁pessimistic
▁satisfaction
▁outcome
chained
▁binder
▁jaded
▁bush
▁programmer
▁liner
▁dove
riticism
▁artifact
▁sweater
helpful
▁actress
▁north
uede
▁coaster
editation
▁kite
▁theological
▁Alley
▁Instinct
▁sentiment
shortened
▁Institutional
▁rotation
lethora
okémon
ucrative
rivolous
▁Brood
▁charmander
▁boycott
▁intricate
▁guardian
▁simplicity
▁thumb
▁lifelong
▁timeless
▁phd
bred
dministrative
oderator
▁Elastic
▁baggy
atmeal
▁curl
▁erase
▁Illustrat
tance
▁demon
▁Melod
etain
▁dabble
vl
iabetic
hroat
▁happi
▁terrib
candinavian
▁existential
ntrusive
enevolent
aucasian
inistry
▁geometry
▁hydro
▁kinetic
▁radius
▁uranium
▁Relentless
▁coworker
▁wolf
▁beacon
▁capacity
▁clash
▁grandma
▁ideology
▁inconsiderate
▁sensitivity
▁supermarket
▁niche
▁infection
▁mentor
▁Explor
▁tiring
▁occurrence
▁gg
utorial
▁smiley
▁Persist
ndifferent
▁Steril
▁backpack
harizard
▁polish
▁reporter
▁Gin
▁solder
emorial
peculative
▁Interrupt
mprovement
▁Appease
xtension
igestive
▁cord
aspberry
igabyte
▁caution
▁Obedien
▁nerve
▁caviar
▁friction
▁substance
▁blanket
ossil
▁brink
▁winded
utgoing
▁expir
▁reputation
▁latex
▁limbo
▁interpretation
▁Tumbl
▁realism
▁Depict
▁deficit
▁touchy
▁provider
▁laggy
▁occupation
▁accomplishment
▁fitt
ogus
verb
allery
ommonplace
ga
▁fare
▁combine
eural
▁hd
▁bottled
▁unintentional
▁virgin
▁Whisk
mniscient
▁incoherent
▁Costume
▁linux
▁millionaire
▁untouched
▁lawsuit
▁prostitution
▁laziness
▁shelf
▁suspicion
▁wierd
▁noon
▁saddle
▁Punt
capped
▁burial
▁Pickl
provoked
▁dancer
▁exterior
rastically
subsidized
▁heating
▁grief
otification
▁Recogni
omparable
ecimal
pectrum
▁thresh
▁govt
▁parasite
▁tumblr
▁canvas
▁mechanism
▁firewall
▁citizenship
▁inability
▁redesign
▁gasoline
▁integer
▁gothic
▁fearful
utty
▁Gambi
nitiative
▁denim
▁continue
▁Timeline
▁lease
gricultural
olo
arehouse
uneral
▁flirt
▁asset
ensorship
▁nuanced
restigious
▁airborne
mphasize
▁agricultural
▁Relegat
▁crispy
▁Moderat
isband
verpriced
▁municipal
einous
▁groove
▁geography
oalition
▁miraculous
▁lunatic
▁incentive
▁obtuse
▁capability
▁satanic
▁temple
▁rabid
▁ramm
▁tourism
▁Hike
▁hungover
▁crib
▁disband
▁fairness
▁Predominant
▁forth
▁streak
▁spaced
▁arrival
nergetic
▁emphasize
▁dice
rocessor
lic
ooster
▁Intern
▁viewer
fit
eceased
▁Worm
▁prom
issolve
ignature
▁persist
▁bandwagon
▁frustration
▁judo
▁northeast
▁recognise
▁cosmetic
▁broccoli
▁fudge
▁permission
▁benign
▁sizable
▁interact
▁tuition
▁restriction
▁shack
▁disappointment
▁rocky
▁debunk
ebunk
arefoot
▁dissolve
▁compet
▁barber
▁lotion
▁Dogma
ccelerate
▁exodus
utclass
osmos
▁buy
▁weld
▁Whats
▁Regime
▁Proportion
lutty
hoppy
▁scamm
isogynistic
▁embe
hyme
▁armor
▁Astronomical
▁instantaneous
▁ceremony
▁flexibility
▁preseason
▁podcast
▁smartphone
▁narrative
▁celebration
▁investigation
▁discourse
▁diameter
▁building
▁fraction
▁Colonial
▁australium
ownside
▁statistic
▁Confine
iscrimination
ankind
▁concern
grateful
came
▁Symbol
evout
▁shopp
▁amazon
▁humid
▁journalist
▁halo
▁caliber
▁candle
▁communal
▁flimsy
▁insufficient
▁spa
▁unseen
▁harassment
▁wildlife
▁configuration
▁Prol
▁iffy
▁Ma
narchism
misunderstanding
▁automation
▁Insta
▁container
oommate
▁Fuse
▁probe
▁ai
▁spite
aiden
▁prospect
▁Condense
▁Incoherent
▁quasi
▁reassuring
▁hyperbolic
▁relentless
▁courier
▁cellular
▁unusable
▁pesky
▁Compulsive
▁graceful
▁salsa
▁turkey
▁legalization
ernel
▁confrontational
▁Perfection
▁Outdoors
▁governmental
▁dandy
▁engagement
▁excitement
▁goddamned
▁evaluate
issy
▁bun
▁fiance
essimistic
hack
▁euro
oggling
equel
atabase
ornado
▁Chrono
ntricate
▁variation
▁miniature
▁comeback
▁preparation
▁liability
▁checkout
▁Glar
▁dota
▁rename
▁involuntary
oetic
flavored
▁Spamme
▁discouraging
scripted
▁trend
▁dat
xterior
▁Calori
▁ecstatic
▁timely
elevision
▁Confess
▁insanely
ayment
▁instrument
ainstream
heological
▁van
nteger
▁marine
▁converse
▁hustle
▁credibility
▁leopard
▁negativity
▁nephew
▁slang
▁wilderness
▁Ratio
▁expectation
▁login
▁tissue
▁robotic
▁reactive
▁carb
▁promotional
▁documentation
▁portion
ostage
ink
▁retina
▁bumper
▁metro
▁empathetic
nforcement
aligned
▁Vibrat
▁petition
onfirmation
▁horribl
▁doge
arage
▁Grav
nflict
▁infant
btuse
▁uninteresting
▁hamburger
▁minecraft
▁moisture
▁headset
▁landlord
atalyst
▁leisure
▁stove
▁phenomenon
▁inflict
▁nationalist
▁nonstop
usty
ppearance
▁cane
▁daylight
nfront
▁daunting
tatement
▁Ritual
roclaim
▁riddled
▁rover
▁proclaim
ancer
atanic
▁conditioning
call
ransaction
▁rip
▁Cord
▁Gues
▁will
▁Decade
▁Petit
▁confine
▁noob
mployment
▁feat
▁visa
▁Honour
▁astronomical
▁Staple
▁verification
▁maturity
▁monstrous
▁fraudulent
▁unprecedented
▁latency
▁pokemon
▁imperative
▁invaluable
▁separation
▁standpoint
▁scholarship
▁pinkie
▁Grape
▁vitality
▁employer
▁desperation
▁detain
oll
▁Foo
▁Van
▁adept
▁dedication
▁flying
▁detached
▁Regen
unlight
gility
atriotic
egislative
▁vice
cstatic
ayout
appointed
ritique
holy
assisted
olerable
▁flop
▁staple
▁Existen
▁mindful
nconsiderate
onsistency
▁hypocrite
▁misogyny
▁significance
▁vine
▁utmost
▁chorus
▁consensus
▁crotch
▁contrived
▁penetration
▁insulin
▁physiological
▁planetary
▁cooperation
▁supervisor
▁nauseous
ustomer
▁measurable
▁puke
▁topless
▁forgiven
▁trench
quash
aunt
▁Certificat
aunting
▁Transphobi
▁refill
▁ruler
net
enign
scale
uration
▁archaic
cured
▁accus
▁payer
▁floppy
▁Jamme
▁Front
decided
▁Fallac
▁depict
▁peasant
▁Shrin
▁bulb
ommunal
eighborhood
▁turtle
▁militia
▁rebirth
▁premise
▁gibberish
▁hitch
▁stagnant
▁receptive
▁kidnapp
▁plugin
andheld
▁elimination
▁debit
▁taker
ommentary
ocialize
▁enlightening
▁crust
▁absence
eist
dmirable
▁Versa
▁essay
▁simplifi
ellular
rake
▁intersection
▁agile
▁thrust
▁printer
▁Brow
derestimate
▁admirable
ternity
▁badge
▁Grief
▁procedure
▁rehab
▁theatre
▁craigslist
▁firearm
esky
▁charismatic
▁fanbase
▁passport
▁graffiti
▁roar
▁toll
▁touchdown
▁recession
▁withdrawal
▁planetside
▁iphone
▁fighting
▁insider
▁buying
▁tent
gile
tmost
▁Formulat
▁accusation
izable
mnesia
▁entitlement
▁Wedg
fficiency
▁explanatory
ransmission
▁regrett
usk
fined
urgeon
▁partition
▁renew
▁Hall
▁alphabet
▁Effort
▁maid
▁disgust
onstop
hipotle
limsy
▁Douchebag
▁pornography
▁proficient
▁custody
▁mustache
▁variant
▁uneasy
▁paragraph
▁peripheral
▁pudge
▁packet
▁sandbox
unatic
alary
▁frightened
ottery
▁debris
arenthood
▁integration
▁Dimension
▁anecdote
▁Recess
perture
▁rigg
▁eyeshadow
▁itchy
▁std
▁sur
▁adventurous
▁Imprison
tability
▁calculat
reset
▁Wand
mpathetic
▁spine
▁transform
endor
nsufficient
precedented
iniature
▁marker
▁vocabulary
▁comprehension
▁cringeworthy
▁invitation
▁playground
▁hoodie
▁unborn
▁spongebob
▁reminiscent
▁rupture
▁simulation
▁publisher
▁discriminatory
seated
▁dependant
▁driveway
ramped
▁pint
▁Instrument
▁capitalize
▁glitter
▁stead
▁Limb
▁matte
▁angular
son
▁slamme
▁deriv
▁poppy
▁tutor
▁hooker
peculation
▁Percent
arve
▁relation
ercentage
▁capita
▁sci
▁hesitate
▁ceramic
▁compulsive
▁behalf
▁unicorn
▁bonfire
▁facetious
▁provincial
▁premade
▁skyrim
▁pillar
▁telephone
▁mileage
▁Proficien
▁customizable
ovelty
uggestion
▁tell
▁Spit
birth
epressive
nalyze
dventurous
pplaud
rchaic
▁Nationalist
arthquake
▁What
▁gimmicky
arental
▁dryer
lacklist
▁Apple
ngular
▁dub
▁Sum
▁Dat
▁continent
▁Isolat
▁carve
ven
esponsibility
nvaluable
auseous
elocity
▁circumstance
▁urine
▁purge
▁highschool
▁humanitarian
▁chile
▁cydia
▁paycheck
▁proposition
▁illegitimate
rontier
▁projectile
▁foreseeable
▁scramble
▁prospective
▁contender
▁traction
▁contradiction
▁gravy
▁dreadful
▁detection
aring
▁lookout
▁bring
▁cloudy
▁Commit
▁tub
▁believer
▁embarrassment
irborne
▁Sentiment
xplanatory
▁Defin
omework
▁Puff
pv
▁lock
▁enact
urb
cramble
▁imprison
mperative
onstrous
▁harness
▁visibility
▁productivity
▁soviet
artender
▁reassure
▁rivalry
▁virginity
▁whipp
base
▁dictionary
▁dickish
▁advertisement
itigation
▁Het
▁Emotion
ubbed
griculture
ounterproductive
ocietal
▁anarcho
▁poisoning
▁armour
▁liver
▁knit
shirt
▁Sir
▁Tom
▁utterly
watch
abinet
larification
▁Kindergar
▁president
▁Succinct
▁jeopardy
▁populace
▁registry
▁tyranny
▁sock
▁holocaust
▁minimalist
▁collateral
▁competitor
▁cyborg
▁clumsy
▁Recon
▁Cigar
▁uninstall
▁pollution
▁brony
▁playthrough
▁Hoard
▁pudding
▁pertinent
▁bigotry
▁hitman
▁necessity
▁watermelon
▁totem
▁rabble
▁Feas
▁motherboard
▁negotiate
▁daring
▁clearance
▁Delusion
▁attachment
▁tread
▁Uninstall
▁Merchan
▁reli
▁assassination
▁emulator
canner
▁Instruction
estrictive
ise
▁willingness
▁Contradict
▁misrepresent
▁esque
▁amiibo
guided
lanetary
▁lamp
arbarian
▁addicting
ependant
▁alarming
▁Yea
iscriminatory
eminiscent
tagnant
▁congress
ipstick
lockbuster
raudulent
ontrived
▁nazi
▁euphoric
▁hometown
▁metaphysical
▁legitimacy
▁involvement
▁internship
▁prescription
▁forgiveness
ormative
▁legged
▁bf
▁toggle
▁saint
▁reel
▁painless
▁stake
▁toon
▁disposal
▁Mytholog
olitician
▁filler
▁reduce
prepared
etirement
parse
▁vested
▁advancement
▁felony
▁evasion
narcho
nag
harismatic
pology
▁audible
▁roman
▁Specialis
▁formatt
rist
▁lite
▁Covert
litter
gnition
▁metaphor
▁lateral
▁trivia
ombination
▁bean
▁jumper
▁republic
▁ballot
▁turd
▁packaging
▁collision
▁ingame
▁offseason
▁graveyard
▁unintended
▁irish
▁motive
▁cocoa
▁redstone
▁rhyme
▁Foam
▁dissapointed
▁conception
▁sensationalist
erby
▁attendance
disputed
▁Rival
eutrality
▁cover
▁Hash
▁dining
eceptive
▁analyze
ddicting
make
▁applaud
▁recall
ofa
ssistance
edroom
almon
hrimp
ibberish
ertinent
eramic
igarette
▁relevance
▁ubiquitous
▁virtue
▁herpes
▁chord
▁Evict
▁overhaul
▁proximity
▁sidewalk
▁triforce
cceptance
▁decency
rophecy
rovincial
easurable
isinformation
ampage
▁knight
readful
hysiological
asal
▁Ea
hovel
iff
onvincing
▁nuke
▁entrenched
oral
▁aerial
▁devastat
ttraction
trolled
▁crunchy
▁Gig
▁Northeast
llegitimate
▁volatile
▁commit
▁skirt
▁commie
▁conscience
▁banshee
▁unsustainable
▁pillow
▁pitiful
▁placebo
▁jarring
▁nickel
▁schizophrenic
▁workplace
▁skepticism
▁lever
▁measurement
▁threshold
▁implication
ove
acetious
▁immersion
▁admission
▁overal
▁deadline
▁athlete
otebook
▁eve
▁chopper
▁covert
oviet
udience
ump
yeliner
high
erit
▁Gum
▁execut
▁midfield
▁hs
nkle
nspirational
earful
doption
▁Undo
▁Rave
▁recieve
tamina
outheast
▁jag
ntegrity
apitol
▁observable
▁ethic
▁haze
▁headache
▁magnitude
▁merchandise
▁bikini
ascara
▁preventative
▁wagon
▁wraith
▁transplant
▁manipulation
ecieve
▁avocado
▁betrayal
▁dysfunctional
▁kindness
▁anticipation
▁anus
▁coastal
ierd
▁appreciation
▁ensue
▁Hos
▁racer
horten
llocate
▁Continent
▁promo
▁bee
▁bargain
▁Drip
▁limb
lumsy
▁intel
▁twas
▁ketosis
▁blond
▁immigrant
▁purity
▁leash
▁paralyzed
▁sergeant
▁snapshot
▁solitary
▁mindset
▁inheritance
▁Gal
▁effectiveness
▁pup
▁Bast
▁disparity
▁decentralized
▁disastrous
▁allot
stone
boat
▁Hip
▁pushy
▁altitude
▁envelope
▁pg
▁army
stonishing
▁Liv
▁char
▁Tether
▁slant
▁trait
larming
▁Impuls
tort
▁handful
itiful
uffin
▁exaggeration
▁marble
▁Mania
▁vegetable
▁Refuge
▁champagne
▁microsoft
▁composite
▁grenade
▁semester
▁unanswered
▁semblance
▁soothing
▁goalie
▁imagery
▁thigh
▁limitation
▁pew
▁Partie
▁hostage
▁discomfort
▁offender
eginner
▁detention
▁Overpa
▁downside
▁uv
▁Mag
▁laner
artel
▁wrestler
▁Totalitarian
▁Triumph
packaged
bolish
miibo
ssumption
▁doll
▁distress
▁summ
▁Confidential
▁Stereo
sume
cky
▁redeem
▁spin
▁swag
andwidth
▁clit
▁alpha
▁hormone
▁outlier
▁cohesive
▁Incest
▁fallacious
▁backyard
▁blowjob
▁resume
▁bankruptcy
▁pacific
▁ppv
▁boredom
▁teamwork
oun
▁Rpm
▁inspection
▁ray
spect
▁blackout
rray
▁Basket
conventional
lmighty
▁envious
▁almighty
contested
▁Char
drenaline
nlightenment
asteland
▁operat
tark
▁Dispatch
ewspaper
mirk
▁totalitarian
hetto
aundry
▁Dominan
▁lenient
▁humour
▁commodity
▁curriculum
▁complacent
▁malware
▁porch
▁stunt
▁baggage
▁pug
▁proposal
▁Incline
▁Templ
▁devoid
▁extinction
seem
▁Analog
▁Selfless
oodie
▁apathy
▁Plunge
oreseeable
robability
oof
herapist
▁Colloquial
▁advantageous
▁astonishing
rtwork
▁Bran
enu
▁Convenien
▁Disprove
▁blaster
▁Dev
▁Mitigat
▁Provinc
reeze
▁Audit
herlock
otify
oncentration
umanitarian
ypocrisy
▁Diagonal
▁Sophomor
eiling
▁mickey
▁molecular
▁residence
▁underpowered
▁undesirable
▁octopus
▁pervasive
▁unnoticed
▁impartial
▁gruesome
▁torso
udible
elvet
▁steering
▁distinctive
ringeworthy
▁Lenien
ereal
▁Upst
ership
lumber
▁enthusiasm
eftover
auge
▁Geni
ntrenched
word
▁reasonabl
▁Sympath
ozen
▁Ip
▁mech
ecentralized
isastrous
▁institution
▁Convey
▁Architect
▁config
sent
▁Of
▁shredde
ribunal
outhwest
chizophrenic
▁colloquial
aralyzed
etosis
ourtesy
▁osx
▁upfront
▁conducive
▁cozy
▁misinformation
▁uncertainty
▁inquisition
▁sorcerer
▁irregular
▁platonic
▁shitlord
▁noun
▁Maniac
▁sparse
▁hallway
▁Ginger
▁selfless
▁stout
▁scann
▁sd
▁pedal
▁prolong
▁ethnicity
urrito
▁validity
▁expel
▁analyst
▁dummy
▁translate
▁barn
▁projection
▁Overdo
▁Reactiv
▁whitelist
▁disadvantage
▁pickle
▁abolish
dvantageous
vailability
▁ww
▁toe
▁Addict
▁Ph
embership
▁wrap
▁flak
ickish
ardis
upture
▁discretion
▁predominant
▁Lurk
▁crane
▁diagonal
▁helluva
▁offence
▁messenger
▁reception
▁likelihood
▁cellphone
▁backlash
▁portfolio
▁protagonist
▁gundam
▁introductory
▁overview
▁clogged
▁sabotage
▁spreadsheet
▁nutshell
▁skype
▁counselor
▁tray
▁scooter
▁humidity
▁affinity
▁thickness
▁brightness
▁baseline
▁Will
▁ved
▁coma
▁corps
▁dime
▁nationality
▁finding
▁trooper
▁outward
mplant
ursive
▁accompani
imezone
▁analytical
▁Sci
▁Solo
▁foreigner
▁Poly
▁Stabiliz
ortal
emblance
▁murderer
▁Commi
▁slump
omplicated
coordinated
▁gag
▁Exten
evoid
▁interfere
urveillance
▁Hygien
▁homicide
▁vaccine
▁handwriting
▁inverse
▁contagious
▁midrange
▁mixture
▁masterpiece
▁lifespan
▁fickle
▁spinach
▁schizophrenia
▁scythe
▁sunscreen
▁obsession
▁worldview
▁transformation
substantiated
▁fashionable
▁judgemental
isclosure
rospective
▁godly
▁epidemic
▁Dad
▁Margin
ircumcision
▁Overru
rchitecture
▁colony
hromecast
▁use
▁Meditat
▁dispatch
olitary
tomach
ncorporate
ruesome
▁entrance
▁mattress
▁misconception
▁cruelty
▁marital
▁outlandish
▁lax
▁licence
▁puppet
▁preview
▁caveat
▁goose
▁turbo
▁indicator
▁modem
assenger
▁Thrust
nd
▁singularity
▁deployment
▁disruptive
▁participation
haria
eftist
▁undeniable
▁Media
ns
▁bore
▁colon
utonomous
▁incorporat
oetry
oken
▁find
▁Wat
ensus
▁brood
▁Outli
▁oblig
oothing
urniture
onducive
indsight
▁succinct
▁fiasco
▁retribution
▁motto
▁microphone
▁ingredient
▁receipt
▁willpower
▁therapeutic
▁spout
▁affair
nvious
▁waiter
▁Transmit
▁prot
nalytical
▁down
▁ounce
▁brat
aseline
▁topp
napshot
▁inconvenience
▁branding
▁facet
ramework
rogramming
reventative
▁rebound
ioneer
▁Worr
▁persecut
▁rapper
▁shill
▁Lax
▁think
ohesive
ontagious
▁fertile
▁urinal
▁statute
▁famine
▁slug
▁payroll
▁pedophilia
reativity
▁ribbon
▁specialty
▁survivability
voke
▁contractor
▁warden
▁completion
▁disbelief
▁drummer
▁sickness
▁traveler
▁distraction
▁stripper
▁sassy
▁Consult
▁Distract
sd
urse
▁Canon
▁Sensationalis
▁ensu
▁expertise
ummer
▁assertive
ysfunctional
▁nigh
▁cos
▁Gunn
▁Angel
▁Dealer
▁Fantastical
usician
▁airline
▁Fo
▁glee
▁java
▁Vulgar
▁pharmacy
▁sponge
▁comedian
▁methodology
▁crab
▁ferry
▁hay
▁kickass
▁restroom
▁gore
▁wardrobe
esture
▁glorifi
▁loathing
▁wrench
▁deception
▁shortage
▁persecution
▁trad
▁humiliating
▁Span
ecognition
▁rave
▁discontinu
eripheral
▁scouting
▁lap
▁autonomous
omentum
▁Tract
latonic
pproval
lossy
▁centric
ummit
▁compos
▁supporter
▁dh
▁Speculat
▁vest
iscontinue
▁Thresh
rota
▁Medic
acific
▁Compassion
endency
▁Facet
ickup
▁dominat
derpowered
omplacent
elluva
inyl
▁mortar
inegar
▁Excel
▁cocktail
▁compulsory
▁malt
▁leech
▁palette
▁ninja
▁scummy
▁enjoyment
echnician
▁synergy
▁adjustment
▁diarrhea
ervasive
▁Vaccin
▁continental
▁Buck
▁Undertake
antle
▁drastically
▁maths
ison
ator
ialogue
▁taxable
▁Expens
▁Dilut
ecession
equal
▁eyebrow
vaccinated
▁Intervention
▁drip
lmond
fternoon
▁achiev
bt
▁aura
▁commenter
▁spouse
ssertive
▁Scam
lumped
hampoo
ntroductory
rossfire
▁Chronological
▁Segment
▁guidance
▁causation
▁cashier
▁firefox
▁jammed
▁reproduction
▁indestructible
▁giddy
▁salon
▁Blasphem
▁lid
▁nipple
▁taxpayer
▁organisation
▁Parasit
▁Purg
▁laden
▁convey
▁aftermath
ragedy
prised
q
▁attractiveness
▁domesticated
allacious
▁thriller
▁pinn
▁Sadden
mpartial
▁enraged
▁Gro
▁chunky
▁Endorse
▁Lawn
▁moody
▁elastic
leek
▁disprove
nticipate
ortgage
▁fiery
▁Marin
▁fellowship
▁idiocy
▁innocence
▁physician
▁conservation
▁impending
▁minister
▁hydrated
▁starvation
▁reservoir
▁subpar
▁shoddy
▁wheelchair
▁inspector
emen
▁acceleration
▁seriousness
▁dignity
▁asshat
ozy
▁alcoholism
enchanted
▁stinky
▁weaken
ama
ossibility
onsciousness
▁fuzz
▁egregious
▁gravel
edeem
lux
▁mixer
pc
ectic
▁pointer
ately
▁nominat
isle
▁thingy
▁Atm
certainty
▁Ammo
isruptive
rademark
▁inevitab
▁psyche
ranium
▁tangent
▁Erroneous
▁approx
▁encryption
▁undergrad
▁metabolism
▁futuristic
▁cartridge
▁paved
▁shitload
▁manifesto
▁literate
▁downfall
owerless
▁awesomeness
▁audacity
▁submitter
▁Intoleran
lippery
review
▁demonstration
olster
fterlife
▁Meteor
prite
ousehold
▁Strap
▁hijack
arital
▁Symptom
▁motivational
▁Eject
▁anticipat
olecular
▁appointment
till
ompulsory
ontroversy
uspension
▁frenzy
▁generalization
▁oversight
▁opinionated
▁pardon
▁overdose
▁parti
▁superstar
▁surplus
▁winged
▁scarf
▁hive
▁windshield
▁monkey
▁rug
▁tequila
▁template
▁speechless
▁slayer
▁dosage
▁Preferen
▁greatness
alley
▁gent
▁silencer
▁contempt
▁Occasion
▁suprised
▁Fort
cummy
ardboard
▁ecosystem
▁advisor
▁shadowban
ymore
mbulance
ssessment
▁freight
▁onward
▁Compass
uru
▁Repress
▁confidential
herapeutic
urret
ightfall
▁soooooo
▁memo
utlandish
▁advent
▁testimony
▁fiat
▁cylinder
▁Reincarnat
▁benchmark
▁bleak
▁overlord
orruption
▁beetle
▁psychologist
▁chairman
▁interference
▁riff
▁definat
nstructor
▁toddler
▁autumn
▁despair
etus
aved
▁distortion
omprise
rippy
▁Rose
▁freed
wards
▁Tactic
▁appalling
daptation
▁flooding
gregious
eddiquette
ppalling
ctress
ican
plash
istinctive
▁eagle
rohibition
entry
iddy
emonic
omesticated
izzy
▁confrontation
itanium
▁aquarium
▁fanboy
ackstory
idrange
▁charisma
▁dialog
▁baffling
▁insecurity
▁influx
▁gossip
▁partnership
▁nudity
▁Induct
▁stylish
▁mug
▁cedar
▁customization
▁lineup
▁specializes
▁Wiz
▁exploitation
▁siren
▁durability
▁camo
▁disheartening
▁demonic
▁sentimental
▁invention
think
▁marketable
fetched
ifetime
▁concealer
▁bakery
▁suite
▁drawer
▁Trauma
▁East
rtillery
etish
▁Nigh
▁Abort
▁pitcher
▁Readi
ndroid
▁Addition
▁Mate
▁Column
▁Ferment
▁rpm
▁After
estosterone
▁titan
rregular
ndestructible
▁cheddar
▁compatibility
orque
▁biscuit
▁unoriginal
▁boundary
▁lettuce
▁heist
▁intercourse
▁plentiful
▁nanny
▁workaround
▁teammate
▁rapture
▁vanity
▁berate
lassroom
▁residential
▁downtime
▁immortality
proven
stablishment
▁Televis
▁acidic
▁gimmick
ladder
▁distribut
▁whine
evelopmental
ndanger
xcruciating
▁Instruct
▁follower
▁glare
▁abort
▁hike
▁Cuti
eckbeard
▁add
▁defect
▁Soooooo
onsumption
ypothesis
▁juggernaut
▁affection
▁fandom
▁balcony
▁vein
▁syntax
▁settlement
▁swollen
▁sadistic
ider
▁anonymity
▁wiring
▁mutation
▁temptation
▁liberation
▁consult
cidic
▁whisky
▁eco
mpaired
▁Dentist
▁Fet
▁sugary
▁Cram
▁numerical
▁antique
uct
▁oem
uturistic
▁leverage
aperwork
▁drilling
exism
▁Egalitarian
▁zebra
▁bigot
▁endanger
▁briefly
hef
▁dreaded
isheartening
▁appetite
▁remorse
▁catalog
irewall
▁Extrovert
▁clingy
▁temporal
▁closure
▁mantra
▁unhelpful
▁fuckton
▁libido
▁inbox
▁gamma
▁nova
▁noir
▁mainland
▁sweetie
▁Slash
▁dealership
errain
▁stud
mpending
▁skiing
▁Consequen
▁Blo
osplay
▁Armour
▁Chin
▁rec
▁Viewer
sn
unctuation
▁Profession
▁promise
▁Prom
elapse
▁leave
▁alignment
hoddy
eisure
▁cram
omponent
▁umbrella
▁hectic
▁lemonade
▁mama
▁psychiatrist
▁pristine
▁knot
▁momma
artition
▁sidenote
▁navigation
referential
▁opener
▁padded
▁overturn
ifestyle
ersey
▁diagram
▁freeway
▁activation
▁Dorm
andle
istinction
xploration
▁whim
▁Trou
▁Upto
ersonality
▁Bounc
nail
▁necessar
▁arse
ntensity
▁check
ubscription
oltage
ntique
▁blooded
orporation
godly
theistic
▁likeable
riction
▁streamer
▁Scandal
▁attacker
ecency
hutter
▁vulgar
ikipedia
▁administrator
nequality
▁handicap
▁philosopher
▁unwarranted
▁improbable
▁purse
▁kickstarter
▁saturday
▁sesame
▁shite
▁standby
▁werewolf
▁wvw
▁machinery
▁forehead
▁shortcut
▁transparency
▁overhead
▁waiver
▁vu
▁seo
▁calculation
▁dizzy
▁demeaning
ainless
▁replaceable
▁wrestl
▁dot
ighway
match
▁Flour
▁excruciating
▁Prank
sset
trawman
▁Feat
▁ender
▁lyrical
onnection
nexperienced
▁replicate
▁whats
▁Prostitut
ccomplishment
opless
▁accompany
▁Sensation
▁Spite
▁ascension
▁patron
▁empower
▁egalitarian
▁disgrace
▁Bulb
▁chronological
▁whey
▁headshot
▁mercenary
▁backdoor
▁firmware
▁ungrateful
▁overarching
isability
▁shroud
▁selfie
▁canonical
▁antenna
▁bravery
▁shutdown
▁mbps
wollen
▁spank
▁disagreement
▁assertion
▁legality
▁doggy
▁Col
▁appreciative
▁Hitch
▁cursive
▁enlist
lchemist
▁introduc
▁Led
▁unleash
ello
▁Allot
eficit
atchup
▁overreact
potlight
allway
▁islam
ubpar
arody
lentiful
▁Prototyp
▁hygiene
▁jailbreak
▁jumbo
▁negligent
▁squid
▁Remix
▁heresy
▁clerk
▁bureaucracy
▁banter
ccurrence
▁salesman
▁concussion
▁roundabout
▁sleek
alsa
▁punishable
▁allergy
▁senseless
▁squared
arketplace
harmander
▁Visa
▁isk
zone
▁Polariz
erminator
▁cracker
▁Psychopath
odcast
ensity
▁fantastical
▁Trait
▁uncover
▁confess
▁aggregate
ephew
oycott
▁malice
▁procedural
▁havoc
irearm
▁colossal
▁Fundrais
▁caption
▁peculiar
▁sovereignty
▁recipient
▁Eco
▁scenery
▁bearable
▁stimulation
▁grove
▁awkwardness
rrangement
▁Spank
▁diplomacy
▁morale
▁donut
▁dogecoin
ireball
▁Inventor
▁similarity
adistic
▁sucky
pinionated
etition
▁encouragement
▁eq
▁Confrontation
▁satisfactory
nteraction
itizenship
▁cone
▁Wag
▁Lev
▁Intrigue
rtifact
▁Emot
mmunity
ccountability
▁honour
oggle
elativity
implicity
▁Hydro
▁heir
▁menace
▁resemblance
▁Concurrent
▁curtain
▁obstacle
▁intimacy
▁iteration
▁pronunciation
▁overdue
▁poem
▁haircut
▁scrutiny
▁sheeple
▁traitor
▁tantrum
▁frontal
▁worst
▁pubic
▁noodle
▁laning
▁diaper
▁determination
▁damning
▁Vib
aziness
▁deed
ommitment
▁Armor
▁recreation
iner
▁monarchy
▁Mechanic
▁trimme
▁Improv
▁Literat
▁Expe
sque
▁Gree
ppreciative
▁Caution
▁Dork
▁Outfi
▁algorithm
urial
▁annoyance
atisfactory
orkaround
ubbish
neeze
ristine
aviar
ercenary
▁cafe
▁optimization
▁handgun
▁herd
▁underdog
▁heap
▁butthole
▁puberty
▁interval
▁assignment
▁certification
▁serenity
▁sneeze
▁snail
▁prosecutor
▁severity
▁trunk
▁liberalism
▁dialect
▁germanic
▁trope
▁referee
▁lending
▁endorse
▁esp
extbook
nack
▁variance
▁unleashed
▁Wolf
▁abhorrent
llness
▁every
▁elephant
iscouraging
nalogy
▁preferabl
▁standardiz
anonical
▁Demon
ossession
▁cause
uition
▁Localiz
ildlife
uspicion
▁comb
mprobable
anvas
▁Discreet
▁intolerance
▁sorcery
▁conjunction
▁bacterial
▁magma
▁magician
▁impoverished
▁funnel
▁cramped
▁scifi
▁scorpion
▁induction
▁sunrise
▁territorial
atency
iewpoint
▁tourney
▁dissonance
▁crossover
▁know
rite
▁Prepa
▁bunker
ymmetrical
tandardize
▁affectionate
verdue
▁propos
tylish
oem
▁Procedur
▁mane
▁Socket
bhorrent
▁Theist
▁prejudiced
▁Penetrat
isappointment
hella
▁aftermarket
ported
oundabout
ackdoor
animous
▁hetero
▁discreet
▁jizz
▁prostitute
▁heartbeat
▁knob
▁hookah
▁courteous
▁tenant
▁referendum
▁overdone
script
molested
▁validation
▁continuity
ffectionate
▁Infest
▁fly
▁husky
▁abdomen
anned
urnout
▁Prospect
▁versa
▁spamm
cne
atisfaction
yperbolic
▁impos
uckton
amning
▁activist
enaissance
▁alchemy
olossal
▁Bandwagon
▁Forcibl
▁upbringing
▁Vitriol
asoline
▁froakie
▁bladder
▁mucho
▁pedestrian
▁inbetween
▁godlike
▁prism
▁slur
▁nigerian
▁idealistic
▁weaponry
▁slender
▁invoker
▁trio
▁Momentar
▁Insure
▁punt
▁womb
▁aisle
▁Hous
alo
▁Goo
eech
▁passer
onfrontational
bdomen
▁teleport
▁bunk
▁acronym
dvancement
esperation
▁asylum
urkey
inux
▁Advent
oodoo
▁greet
▁metropolitan
▁dt
▁opaque
oworker
▁breakup
▁gamergate
▁scarcity
▁North
▁reliability
scend
▁wich
▁distro
verarching
wiss
▁rubb
▁fiancee
▁drought
▁easter
▁Bastard
▁preach
▁Characteriz
▁polling
awsuit
etworking
▁Diver
▁Glute
▁plea
▁Jumb
ransportation
▁disadvantaged
tandby
▁considerabl
▁Trench
upermarket
deology
▁intellect
▁Circumstan
▁valley
▁Whitelist
▁chainsaw
▁culinary
▁helium
▁undecided
▁inclusion
▁cryptic
▁provocative
▁chore
▁saving
▁Congress
▁gamepad
▁swiss
▁flashback
▁smartass
▁wiiu
▁comma
▁sentry
▁caller
▁shirtless
▁brewer
▁dictatorship
▁dessert
eputation
▁doorway
▁superiority
▁Regimen
▁bum
rouse
▁Procedural
▁Maid
▁endeavor
▁ethereal
▁restor
▁incremental
▁psi
acebook
▁ceo
▁slimy
▁Misogyn
▁certainty
ntimidated
istracted
ustralium
oach
▁Pornograph
▁Barber
alculator
▁reflex
emolish
▁Cray
▁scent
▁amulet
roccoli
horus
ompetitor
▁quiz
▁upbeat
▁hemp
▁fidelity
▁unholy
▁compliant
▁precedent
▁repetition
▁patronizing
▁congressman
▁quarterback
▁consultant
▁storytelling
▁dictator
▁midget
▁misplace
▁snide
▁terminology
▁teamfight
▁delighted
▁skyline
▁quota
▁demolish
aliber
rty
oob
uardian
oir
erritorial
▁erection
▁diner
▁destin
aylight
▁strat
▁back
ltitude
ppreciation
bsence
▁Ore
▁Geograph
▁geeky
martphone
▁Nerv
▁Tur
entor
▁Stigma
▁snag
atronizing
amburger
▁genie
▁gracious
▁connotation
▁shard
acterial
▁refute
▁petite
▁oval
▁seafood
▁platoon
▁spaceship
▁overblown
eparation
▁circulation
▁mongering
▁shootout
▁whopping
▁arty
▁Optimis
▁tow
▁donor
reparation
▁goth
▁contention
▁workable
▁electromagnetic
▁psychopath
▁cranky
▁peach
▁Tit
▁sailing
▁buckle
▁Alphabet
▁cape
▁Moistur
▁Metro
▁pope
arrative
ccusation
▁Complian
▁orthodox
▁induc
▁contradict
andscape
enim
▁Synonym
▁plateau
▁cray
▁insomnia
eculiar
mpoverished
ncentive
▁prince
▁uptight
▁creatine
▁cubic
▁mario
▁bamboo
icorn
▁glucose
▁Gracious
▁neighbourhood
▁connector
▁patriarchal
▁statutory
▁resentment
asteless
▁warmth
▁toothpaste
▁runway
▁superman
▁prosecution
▁daycare
nstallation
▁cringe
▁deeply
rovocative
▁sewing
▁Inspect
iche
▁bounce
▁apex
▁flatter
▁uncontrollable
▁espresso
ifle
▁retailer
eopard
mined
▁produc
▁Bean
pathy
▁condo
▁Statistic
xcitement
▁rework
utomation
peechless
lur
▁autonomy
espise
▁apartheid
iscovery
▁fret
▁enslave
ilitia
eremony
▁metabolic
▁masculinity
▁pleasurable
▁goddess
▁curry
▁prerequisite
▁seizure
▁starcraft
▁sponsorship
▁nefarious
▁outspoken
▁wishlist
iscourse
▁royalty
▁coercion
iagnosis
▁despise
pin
oupon
ardon
▁Promo
erate
▁transformer
▁scammer
ilderness
▁Whol
▁Significan
▁Immers
▁imbalance
esigner
onation
▁conditioner
▁evaluation
boriginal
omb
oarse
▁Hetero
▁instruct
▁academia
ab
▁cata
ebris
igerian
amergate
henomenon
ourier
yborg
▁Snug
▁Xy
▁concurrent
▁homophobia
▁overlay
▁chemo
▁promiscuous
▁repulsive
▁unchanged
▁savior
▁reprehensible
▁produce
▁masturbate
reationism
▁angled
▁gist
▁Euro
▁obligation
▁Ignit
andbox
▁lowly
tick
thereal
▁Motiv
emeaning
▁Virtu
tandpoint
▁Better
tartup
pex
▁verifiable
cold
▁anatomy
▁arrogance
flex
aceless
▁cad
onfire
verhaul
etropolitan
▁javascript
▁markup
▁coarse
▁Vine
▁lithium
direct
▁hedge
▁paradigm
▁physicist
▁inconsequential
▁serpent
▁Counsel
▁wattage
▁usefulness
rudge
ulinary
ustache
▁toughness
▁Complicate
yeshadow
lamp
▁win
▁gunner
▁Reel
▁electron
▁fir
harming
▁compiler
▁Doll
▁aboriginal
▁Shill
▁equilibrium
▁poked
sung
▁Offic
▁Shit
▁advis
▁Scrape
inkie
anbase
▁prol
▁agent
▁cooperative
rrival
▁perverted
iscomfort
▁eerie
onsensus
nbetween
paque
lexibility
redibility
helf
▁Intermittent
▁jurisdiction
ocabulary
▁chassis
▁migraine
▁faculty
▁revoke
▁framerate
▁sjws
▁stimulus
▁probation
▁treason
nide
▁turnover
▁dafuq
▁deficient
▁temper
▁abrasive
dealistic
▁recruiter
tove
odder
▁fluff
▁trippy
▁broker
▁robe
reason
xodus
apability
▁stew
▁slime
▁translat
dhesive
▁imaginable
▁ambition
arden
ndgame
▁Amazon
roximity
osmetic
echanism
▁uninterested
▁frat
eresy
▁calcium
renade
▁outperform
▁elective
▁commentator
▁unjustified
▁glaze
▁pimp
▁similiar
ourteous
▁tinfoil
▁soggy
▁Titan
ocumentation
▁tumor
▁Ass
▁rationale
inecraft
omposition
▁biker
▁crypto
hallenger
▁adhesive
▁Infant
lanket
▁Cubic
ermission
assport
▁efficiently
ensitivity
▁wick
▁Bing
lectromagnetic
ssassination
▁Disconnect
▁troop
ugged
▁Mine
▁Unjustifi
▁Rug
▁Gir
▁corp
▁Trivia
▁Indoctrinat
efarious
egativity
pongebob
rerequisite
▁Theatr
olorblind
ighschool
▁gud
▁intermittent
▁saddened
▁untouchable
▁uplifting
▁cholesterol
▁melodic
▁broadband
▁incarnation
▁pavement
▁perfume
▁scalp
▁Wa
▁uncalled
▁niece
▁neurological
▁flashlight
▁tiresome
isplace
▁dildo
▁fella
ickel
▁spiked
tatutory
▁brutality
▁objection
ooperative
▁informational
▁ascend
▁broadcasting
ometown
▁Prim
▁expectancy
▁examination
iled
▁Lite
▁vigilant
▁Captiv
cholarship
issapointed
▁fatigue
cap
ssay
ateway
steroid
▁tom
ertainty
brasive
▁Sensational
▁annex
exuality
▁Metaboli
ustomizable
nconsequential
ustody
▁trance
▁cavalry
▁forearm
▁bottleneck
▁coral
▁machete
▁bluetooth
▁unanimous
▁bulletproof
▁unprepared
▁pathfinder
▁pitchfork
▁reinstall
▁inanimate
▁interracial
▁intuition
▁grudge
▁cancerous
▁nintendo
▁pong
▁prosperity
▁surpass
▁solidarity
▁treadmill
▁coil
▁dexterity
▁christianity
▁segregation
▁chap
urpass
▁recycling
▁topical
▁breeder
▁swell
▁Bun
▁critic
▁habitat
layground
▁zeppelin
▁xkcd
▁Lik
▁billing
▁statist
necdote
thlete
edophilia
ictionary
▁Eve
ubby
▁fight
▁crossing
▁chalk
▁boned
nsulin
romiscuous
okemon
omprehension
▁uprising
▁financing
▁remedy
▁mosque
▁choir
▁fraternity
▁pension
▁fetal
▁copious
▁oversized
▁snowflake
▁prostate
▁socioeconomic
▁shabby
▁resilient
▁webcam
▁posture
▁retaliation
▁turf
▁reinforcement
▁prog
▁widget
▁flock
▁Gutte
▁discredit
▁batting
▁referral
▁succession
▁tempered
▁Peasant
▁asteroid
ively
▁Redo
▁Quo
▁avail
iscredit
otary
▁sociopath
▁thrill
▁gripe
▁cringey
▁diploma
▁opening
▁Pillow
egistration
▁anthem
▁civ
mplementation
ecessity
aragraph
ntersection
▁hostility
▁hungarian
▁holster
▁veggie
▁conjecture
▁contraception
▁checklist
▁buffalo
▁muffin
▁ocarina
▁identification
▁hitter
▁infectious
▁keg
▁percentile
▁sobriety
▁synthesis
▁parrot
▁shipment
dvertisement
▁streamlined
▁veg
▁deterministic
▁distasteful
▁mortality
▁defenseless
roposition
▁blurr
rotch
idenote
▁activat
▁entropy
eadphone
iameter
rupt
ryptic
ishful
hord
▁commissioner
▁Tempora
▁announcer
▁theist
▁symmetrical
eficient
▁feud
▁infest
heistic
elephone
eprehensible
esilient
nvolvement
icrosoft
ollateral
ydia
▁vessel
▁cassette
▁cottage
▁culprit
▁breakbeat
▁pharmaceutical
logger
▁screwdriver
▁servant
▁raccoon
▁secretary
▁hostel
▁limitless
▁sloth
▁off
▁Spine
▁riled
▁knitting
istrust
▁dumpster
▁detector
▁repressed
▁Sock
▁unchecked
▁Vigorous
▁randomness
▁rationality
▁Refu
▁browse
▁changer
dercover
▁stride
ntrigued
▁Popula
▁crow
▁fractured
▁robbery
▁eyeliner
▁Proto
▁Skir
lusive
martass
▁autograph
▁Depart
▁Nazi
▁sinn
▁President
▁Retract
ransplant
raith
nterracial
andlord
lowjob
ulletproof
▁Rehab
▁instability
▁Plateau
▁coffin
▁blob
▁potassium
▁picnic
erchandise
▁scepter
▁nvidia
▁railroad
▁shitless
▁remainder
▁narrator
ied
▁baton
▁publication
▁dart
▁shooting
▁Traitor
▁icky
▁glossy
▁dex
tically
▁etiquette
▁erupt
eetup
▁egotistical
▁Chalk
edstone
lly
▁Carb
▁characteriz
▁yarn
kepticism
rotector
▁condens
▁Victimiz
▁Dota
▁arous
▁transcript
illpower
▁depart
▁evo
ommodity
▁apprentice
▁toad
▁bodied
▁haven
▁hoax
▁coordination
▁comrade
▁ballpark
▁irritation
▁paintball
▁prudent
▁shitstorm
▁Inverse
▁ipad
▁untill
▁wrestlemania
▁nutty
▁tractor
petition
▁clamp
▁teaser
▁fabricat
pa
▁washer
▁fiscally
▁endearing
▁Wanna
▁cursor
▁enthusiast
▁Negat
omplexity
▁revert
▁limit
▁sleeper
▁touristy
▁abomination
times
umerical
ndication
ortrayal
▁amusement
▁predatory
▁colorblind
▁lively
atermelon
eurological
utperform
agnitude
aggage
anshee
▁cuddly
▁insulation
▁residual
▁wanna
▁charcoal
▁cyclist
▁reunion
▁unconventional
▁missionary
▁outbreak
▁pancake
▁fax
▁illicit
▁sweetheart
▁substantive
▁rotary
▁rooster
▁organism
▁Supris
▁dichotomy
▁conceiv
▁inquiry
unscreen
▁deduction
▁separately
nfectious
agle
▁sage
▁Hypocrit
▁lad
▁Contempt
▁astronaut
▁Reception
odlike
▁lump
▁maneuver
▁afk
▁snug
udding
reseason
egitimacy
ikini
▁Uter
▁hierarchy
▁humility
▁vulnerability
▁cradle
amount
▁Overpopulat
▁checkmate
▁pompous
▁schoolboy
▁foreplay
ickey
▁greek
▁bitterness
magination
▁dependency
▁debuff
mitted
▁ledger
habby
idewalk
▁Prohibitive
iresome
▁Shun
incomprehensible
etached
▁upp
rippling
enue
▁yahoo
eopardy
▁booming
▁Intel
▁complet
▁snowy
pecialty
ngled
ttendance
▁Statist
nalyst
▁Airline
▁Tread
▁burner
▁Sooooo
abotage
ocioeconomic
preadsheet
▁basil
erpes
nanimate
▁Squeak
▁hadith
▁calf
▁multiverse
▁hardship
▁paralysis
▁uncut
▁saturation
▁enchanting
▁retention
▁weekday
▁punchline
▁kindle
▁divinity
▁toxicity
▁extraction
▁appalled
onversion
ttachment
▁drinking
▁Instinctive
nterpretation
▁Contaminat
▁even
▁replica
▁likable
eployment
▁converter
rojectile
▁With
opious
▁plead
ooperation
riveway
▁Cu
enalize
▁Lever
▁adulthood
▁accessory
▁penalize
icrophone
▁agressive
▁asthma
▁Discretion
pouse
▁nausea
heelchair
imiliar
laythrough
cythe
iasco
hampagne
▁janitor
▁visceral
▁cactus
▁ftl
▁loneliness
▁mole
▁cunning
▁overdrive
▁Thematic
▁olympic
▁insufferable
▁unregulated
▁moisturizer
▁submarine
▁workforce
▁mismo
▁patriotism
▁telescope
kyrocket
▁Republic
▁dilemma
▁porno
kype
▁suppression
▁ore
remise
hirtless
▁lyric
▁discourag
▁dumbed
▁ecstasy
▁elusive
istasteful
rough
▁arrive
oth
matic
stand
▁Tyrann
lacebo
nthusiasm
yebrow
▁sticki
▁Barre
▁withdraw
▁lick
▁affiliation
asterpiece
▁digit
▁autocorrect
ik
▁abundance
ppalled
udacity
eterministic
riforce
▁consist
illar
raffiti
renzy
olocaust
▁Demonstrabl
▁Tangential
▁decisive
▁hamster
▁legislature
▁ballistic
▁gorilla
▁negro
▁slogan
▁Consist
▁noteworthy
▁Toe
▁investor
▁stru
▁dissent
▁expo
▁Coma
urity
▁hanger
▁Gov
▁kidnapping
omeback
▁refusal
▁scholarly
▁outsider
▁scarr
▁die
equirement
▁Glee
▁Crab
▁promot
▁weirded
▁Pip
▁monument
▁Subt
▁Inn
▁Config
▁acquisition
▁neighbour
▁Capita
kyrim
emester
▁Decisive
▁archer
▁clusterfuck
▁cockpit
▁ignite
▁mockery
▁unproven
▁peninsula
ashier
▁unaffected
▁btc
▁guise
▁regeneration
▁mailbox
▁sorrow
▁illustrator
elivery
solicited
▁bailout
alware
▁projector
▁defendant
eadline
▁indoctrination
ounselor
▁artsy
ebit
▁Ethic
ancerous
▁Memo
▁ea
▁Whole
aycheck
tangled
▁cheater
▁Squi
▁Clit
ubic
dmission
▁choppy
▁bitte
apping
▁send
▁Islam
utomotive
chievable
isibility
▁Pharmac
ardrobe
eceipt
ubstantive
hysician
nsufferable
undam
ifespan
ungarian
▁exclusion
▁captive
▁undertaker
▁Alpha
▁callous
▁kettle
▁choose
▁combustion
▁profanity
▁gangster
▁negotiation
egetable
lcoholism
▁bruiser
otem
▁Recreation
ourism
▁cry
▁installer
▁Eq
▁Overla
gotistical
loom
▁shoot
threaded
rescription
▁allowance
▁apologist
lugin
rtsy
▁Licen
▁Comm
sshat
rusader
rudent
dminister
qualified
▁violin
▁poise
▁bidding
▁hourglass
▁cabbage
▁citrus
▁fullscreen
▁keyword
▁loophole
▁bureaucratic
▁innings
▁nitrogen
▁serum
▁wannabe
▁infringement
omedian
▁thyroid
▁resto
▁preset
▁layman
▁pipeline
▁undercut
egged
orso
▁after
▁inhumane
▁lose
▁mapping
hreshold
upervisor
ethodology
ruelty
alcony
▁Sociopath
weeping
agon
▁wp
▁editorial
▁Incompeten
▁marginaliz
▁barb
sin
disciplined
▁Testimon
reight
ergeant
hitlord
dentifiable
raigslist
urriculum
▁suburb
▁medicinal
▁residue
▁homebrew
ollision
▁hawk
▁cheeseburger
▁conservatism
▁crutch
▁Slug
▁flask
▁montage
▁unfit
▁luggage
ackyard
▁godfather
▁muzzle
▁rewatch
▁threesome
▁prose
▁troublesome
▁subscriber
▁Rewatch
essenger
▁loadout
▁automotive
eadache
▁passable
▁Os
ercentile
▁spammer
responsive
urbo
▁Sl
inority
eplete
▁monarch
ngagement
▁painter
efenseless
igotry
ileage
ylon
▁aviation
▁affiliate
zoom
espair
▁freelance
▁puede
▁Advisor
version
nvoluntary
▁Brat
▁cluttered
nquisition
ompous
heddar
▁harp
▁upscale
llicit
▁cafeteria
▁crease
▁Aura
treamlined
▁unsupported
▁identifiable
▁icelandic
▁modification
▁Crypto
▁superpower
▁balm
▁starship
▁toothbrush
▁journalistic
▁preservation
ntitlement
▁antiquated
production
▁delta
▁deluxe
▁caste
▁beefy
ungover
▁depriv
▁Consolidat
▁drinker
▁Pudg
▁sling
▁wake
▁introduce
▁migration
▁temporar
▁filth
imbo
nvelope
▁interviewer
▁bane
▁armchair
▁Metaphor
▁goo
▁agony
utumn
vocado
ffair
▁Institution
▁forfeit
▁Incomprehensibl
▁midwest
▁valor
▁Monumental
▁fertility
▁capsule
▁cumulative
▁mistress
alette
▁unequal
▁complimentary
▁loaf
▁earnest
▁perpendicular
▁innocuous
rummer
raveyard
▁Wobbl
▁scheduling
▁Callous
▁botch
▁Earnest
▁sociopathic
arness
▁gmail
▁debilitating
▁burnout
▁leap
▁correctness
beatable
sill
▁drugg
▁Fret
▁Sponge
isparity
▁forget
▁sensational
▁smokey
▁Slay
▁scorer
▁monumental
ova
rolong
ola
▁aerospace
ndearing
▁allegiance
▁berserk
▁whoop
eware
▁Mech
isbelief
nticipation
ffinity
▁Dictator
eluxe
ignity
oredom
utshell
mmigrant
ctopus
lympic
ossip
ehalf
isceral
▁Tangent
▁quantitative
▁techno
▁vigorous
▁lactose
▁generosity
▁greatsword
▁moose
▁sentinel
▁rudimentary
▁romanian
▁sofa
▁cheerful
▁midway
▁Bore
▁arithmetic
▁yada
ived
▁pedo
▁administer
etaphysical
▁tm
▁Dime
▁achievable
often
▁welding
aveat
▁sit
vasion
▁legaliz
▁bonding
▁gutt
lew
▁ancestor
▁accountant
▁Segregat
andwriting
arginalize
▁Comb
▁maniac
ntiquated
enseless
corpion
diocy
nnocence
verlord
ffseason
enchmark
onscience
▁Approx
▁carnage
▁celsius
▁contingent
▁checkpoint
▁swtor
▁waitress
▁weightlifting
▁theorem
▁compilation
▁raffle
▁assorted
▁diagnostic
▁Arbitrar
▁supplier
▁prohibitive
▁repo
▁berserker
djustment
▁lcd
▁Offen
ultiverse
▁mugg
▁cert
▁Statut
ssignment
tribution
▁advertis
hitless
ankruptcy
▁Degrad
▁Coerc
onfiguration
▁allocation
amine
▁reduc
andom
itman
▁provision
▁lol
llergy
▁correlat
etabolism
▁Swag
oddler
chizophrenia
ibbon
indshield
umulative
▁voluntari
▁Undergrad
▁Loft
▁Turtle
▁incompetence
▁mexico
▁spree
▁horseshit
▁cerebral
▁bracelet
▁floss
▁overbearing
▁compressor
▁cork
▁Enrol
▁webpage
▁restraint
ssorted
▁successor
▁Cran
▁countryside
natch
▁Guid
mbarrassment
tripper
▁Consequent
ontinental
eamwork
elt
▁convo
▁brainer
▁beater
▁fused
isposal
▁sell
▁Eff
▁ammunition
ivalry
▁ensure
▁silicone
▁skeptic
▁Existan
rithmetic
ngredient
ortfolio
attress
ullscreen
▁save
▁Inexplicabl
▁herring
▁hush
▁ultrasound
rn
▁initiation
▁odyssey
▁inclination
▁overshadow
▁senator
▁tempest
▁Peeve
pologise
▁nasal
▁debacle
▁departure
▁Undu
▁teeny
▁manipulat
▁Vac
nfection
nternship
▁Whim
allistic
▁liter
▁crazed
▁winger
▁compartment
▁cursory
▁Annex
rovoke
▁thematic
ttractiveness
▁teach
▁stripe
ureaucratic
ogecoin
▁actuality
▁relegat
▁serie
osage
▁miner
▁conceivable
dolescent
ftermath
udimentary
nnocuous
rotagonist
▁molecule
▁manslaughter
▁psu
▁comcast
▁plumbing
▁lategame
▁waterfall
▁slew
▁slit
▁archery
▁multiplier
eammate
▁eliminat
▁Whe
oteworthy
entimental
▁Dh
▁approximation
▁Defect
▁confirm
▁Crucif
▁Luna
▁lamb
nonymity
ikelihood
celandic
erebral
ylinder
▁cola
▁lunar
▁modifier
▁tangential
▁wird
▁backbone
▁unsolicited
▁ungodly
▁blogger
▁rematch
▁billionaire
▁untrained
eliability
▁recruitment
▁snatch
▁puddle
▁translator
▁nib
▁wonderland
etection
▁adolescent
▁trite
▁saver
▁jaws
▁Arse
▁bargaining
▁Emergen
▁tile
aik
▁Reproduc
easurement
intelligent
▁unbelievabl
▁pressur
▁drink
bps
hairman
xpertise
▁encourage
▁Skeptic
▁flank
iarrhea
amma
▁Remorse
ctivation
ntenna
ronunciation
▁bliss
ayroll
verbearing
▁mutilation
▁negligence
▁kiddo
▁chicago
▁climax
▁fodder
▁resin
▁gunslinger
▁gratification
▁paragon
▁prosperous
▁plumber
▁redundancy
▁operative
versight
▁industrializ
abia
▁nano
▁depressive
vw
▁undue
onservation
▁selling
▁Pup
▁dom
▁stamped
▁recycl
nspector
▁armory
▁Nausea
omplimentary
▁Disgrace
▁hugely
▁ymmv
▁psyched
▁whol
▁anthropology
zed
artridge
▁anomaly
potty
▁wort
eception
fro
alon
▁addon
determined
nsure
▁explain
▁inspect
afuq
ownfall
▁indoctrinat
▁immers
onut
uthoritative
cceleration
inja
eartbeat
▁grit
▁Cafe
▁Kayak
▁eccentric
▁vibration
▁upboat
▁understatement
▁complicit
▁chivalry
▁Relocat
▁gnostic
▁foggy
▁salvia
▁countdown
▁authoritative
▁overflow
▁trough
▁startled
ellphone
▁dishwasher
▁dopamine
▁denominator
irefox
runk
ntercourse
▁photon
iagnostic
roublesome
laze
▁surfer
▁crank
▁peg
lab
▁twitch
▁preachy
eetle
▁enroll
pidemic
ociopathic
ubmitter
▁nook
▁activism
▁Remed
▁Mut
asket
ebilitating
iagram
▁detriment
▁electro
▁jew
hroud
isconception
antra
▁Rattle
▁Oxid
▁hesitation
▁consolation
▁cleavage
▁collaboration
▁cucumber
▁mayhem
▁mermaid
▁lightsaber
▁retort
▁populous
▁prerogative
▁videogame
indset
▁classification
▁sitcom
▁unproductive
▁rugged
▁Effortless
▁ordeal
urvivability
▁mace
▁disdain
▁deodorant
pulsive
▁ti
▁experimentation
▁underpaid
▁Tac
acklash
▁Flank
▁prefix
▁directional
▁tug
▁rf
orldview
▁cig
hadowbanne
ealership
eacon
ious
▁Charisma
▁footed
▁Shar
ssassinate
nvision
▁Affection
▁Misc
romotional
▁abstinence
orch
ourney
essert
rapper
urability
▁recap
yntax
▁utilitarian
erpendicular
oundary
▁vog
▁Concur
▁wrx
▁clutch
▁counterpart
▁furnace
▁mascot
▁bathtub
▁breathtaking
▁prequel
▁giraffe
dministrator
lchemy
▁fluke
▁sedentary
▁superfluous
▁radiator
▁creationist
▁governance
roakie
▁hardline
▁badger
▁reload
▁behave
ppointment
▁theistic
arassment
▁cooker
▁sewer
ebra
▁instinctive
▁Psyched
tickie
ell
▁ssd
▁envision
▁performer
ellowship
rism
elodic
liver
▁Psyche
onjunction
▁preface
ransparency
▁Pric
magery
▁researcher
overboard
▁resurrect
wesomeness
esame
uperstar
bstacle
▁Infrequent
▁Jizz
▁bloke
▁reproduce
▁transphobic
▁Tenure
▁crocodile
▁morphine
▁petroleum
▁menial
▁unranked
quarium
ggregate
oax
▁symbolism
▁hangout
▁illustration
▁selfishness
arnish
heerful
▁rive
▁stealthy
ettuce
▁Undeserv
▁erroneous
eadset
▁atheistic
▁readi
tir
irus
sychologist
▁grind
ommentator
▁need
▁mystic
issonance
antrum
cooter
ureaucracy
▁merch
mbrella
▁joystick
▁hydraulic
▁corridor
▁cupcake
▁millennium
▁humanoid
▁rendition
▁unsubstantiated
▁longevity
▁compliance
▁presumptuous
▁bagel
▁renegade
▁homeland
▁weasel
▁timeframe
ppetite
▁Handicap
▁deterrent
ongering
▁diary
▁Poope
▁Dot
opularity
▁tit
▁encyclopedia
entric
▁ignor
omanian
▁airbender
▁Inquir
▁xenophobic
▁flirty
▁Scarf
ssertion
so
oalie
▁Assess
owntime
axpayer
equila
hitload
edentary
nterval
rerogative
heeple
▁Ejaculat
▁Hunch
▁taser
▁historian
▁cumbersome
▁minuscule
▁baptism
▁piston
▁presumption
▁stint
▁saber
▁sudo
▁necklace
▁neuroscience
▁nofap
▁sliver
▁turbine
▁deviation
▁Tick
omplicit
▁Quit
▁aversion
vershadow
▁preacher
estroom
kcd
njection
isconnected
▁rake
mmersion
▁blocker
▁Vu
▁Dehydrat
▁Frickin
▁Tran
nflux
▁Dialog
▁wig
▁robber
aption
avior
urplus
nostic
opulous
▁Incessant
▁degenerate
▁petrol
▁crossbow
▁monologue
▁blockchain
▁ftp
▁flagship
▁maternity
▁offshore
▁participant
▁payoff
▁spectator
▁precedence
▁Wrongful
ftermarket
mulet
iplomacy
▁dogmatic
ndicator
▁titty
▁sew
teration
▁spending
▁Refere
▁comfortabl
▁enchantment
▁sandy
wkwardness
▁sham
▁angst
▁attendant
▁Oft
ension
paceship
▁Heir
▁lather
▁affluent
heckout
avigation
uperfluous
reathtaking
umbersome
▁infrequent
▁Logistical
▁monogamy
andgun
istraction
▁caramel
▁flap
▁pdf
▁gradient
▁bodyweight
▁stir
▁slab
▁imperialism
▁unload
▁onset
▁fermentation
▁tabletop
lerk
▁parry
eizure
▁humiliation
▁tasteful
▁diva
harger
▁Cos
rosperous
ontradiction
lignment
isagreement
cosystem
▁austerity
▁Carbonat
▁fiancé
▁restrained
▁grader
utthole
▁grow
▁upkeep
▁versatility
▁halloween
▁Hedge
▁viability
ocktail
▁pinnacle
▁greenhouse
▁ignition
▁miscarriage
▁superstition
▁barrage
▁crest
▁rumour
iction
ffluent
scension
▁diablo
erenity
▁drawback
nclusion
▁dystopian
▁Diligent
overeignty
ttacker
▁Patron
▁mapp
▁dab
nvitation
go
▁contracting
cho
estroyer
▁nuance
apacity
fk
▁authentication
▁Jugg
ustomization
▁seasoning
▁Medicat
▁Lamb
rest
▁antivirus
agician
▁Intellect
▁distill
▁delight
ongressman
alesman
verthrow
ibido
roadband
aculty
▁quit
▁hoop
▁crucifi
▁foresight
▁metagame
▁flamethrower
▁Quadr
▁bonkers
▁Fia
▁pedestal
▁infrared
▁labia
▁nutritious
▁unattended
▁paddle
▁guitarist
▁blackmail
▁skateboard
▁quotation
▁notabl
▁divisive
▁dodge
emonade
▁Catalog
▁logistical
▁conversational
▁seeker
nnoyance
▁Chore
▁Prince
irmware
eservoir
hump
df
▁Pear
eppelin
tarcraft
▁Distil
hat
▁subsidy
▁Wal
▁downer
▁Unsecure
artnership
▁astronomy
marked
▁sexualiz
sychiatrist
wipe
▁Fanboy
▁Pigment
worthy
tool
olvent
▁hoard
▁bloom
▁compete
▁Broker
▁argumentative
▁cook
pinach
ffshore
inuscule
avoc
▁Eccentric
▁solace
▁miniscule
▁lopsided
▁ottoman
▁odor
▁inbred
▁rebellious
▁sluggish
▁swagger
▁stool
▁spiteful
▁installment
▁suggestive
▁demeanor
▁devotion
partheid
ctivist
rrogance
▁Handed
nraged
▁renowned
▁Steer
▁cameo
agma
rmy
▁wasp
▁Morta
▁notifi
▁Bum
cifi
▁Fixat
▁Degenerat
▁greed
▁lance
▁reliab
rue
spresso
▁ping
▁contribute
▁attire
ookup
▁expect
eamfight
elium
▁demonstrate
losure
▁aggravated
etermination
ario
▁understand
▁frickin
ompatibility
ydraulic
▁insect
▁knowledgable
ntuition
▁jailbroken
▁headquarters
▁optimism
▁crock
▁preposterous
▁goldfish
▁perpetuate
▁bedtime
▁cleanup
▁Grandm
▁domino
▁Apologetic
▁Camo
erpetuate
ntivirus
musement
sylum
reakdown
▁turnout
rgumentative
▁merger
weetie
hainsaw
▁participate
▁neighboring
▁Confiscat
▁Rive
▁vill
exualize
eadshot
ponsorship
ncremental
▁altar
▁contributor
▁slider
ndeavor
▁Stimulat
ystopian
iss
▁roleplay
▁Downst
lucose
carcity
▁diligent
▁emulation
▁uterus
▁biologist
▁laboratory
▁perimeter
▁persuasive
▁gator
▁normative
▁tofu
▁wrongful
▁thong
▁expiration
ouchdown
resumptuous
derdog
▁transmitte
edar
▁flea
onor
▁Fus
▁Mea
emp
▁Dispos
istortion
▁tack
ntropy
ompensation
▁Passer
▁realist
▁altruistic
▁prosecut
▁constru
▁Selfi
nsomnia
▁sac
crutiny
nfrared
▁snob
▁fibre
▁measly
▁cutscene
orilla
▁pharmacist
▁heathen
▁thursday
▁trinket
▁lineage
▁wd
▁revision
▁needs
nventory
rmenian
nthem
cademia
ggravated
▁fertilizer
▁Pott
▁skit
▁estrogen
dore
tp
▁clipp
▁Trop
nspection
▁Orientat
▁mister
versized
▁Infer
▁audition
▁Knowledg
▁assess
▁utiliz
▁armenian
▁Meas
prinkle
istro
ivisive
iaper
▁dehydrat
▁sprinkle
ersuasive
ntimacy
opsided
amboo
▁infer
▁horsepower
▁fructose
▁madam
inimize
uberty
▁supremacy
▁netbook
▁minimize
▁refrigerator
▁tripod
▁insulated
▁carry
▁summarize
ltruistic
mbition
utonomy
oorway
▁consume
▁Gr
▁backpacking
amepad
ictatorship
▁ember
oncussion
loth
▁walled
▁Critic
▁Decorat
▁annihilation
▁activate
▁dare
▁Unnotice
▁outdoors
ausation
verse
as
▁poet
onkers
idelity
▁euphoria
▁qualification
ucho
▁cushion
▁Malic
▁polygamy
▁gnarly
issionary
▁brownie
▁lighthearted
▁freestyle
▁touchscreen
▁teddy
▁playtime
hortcut
umanoid
▁parity
▁distributor
eferral
▁mention
▁exhaustion
▁herbal
▁preventable
▁mandat
▁computational
▁cooking
piteful
onnotation
▁outplay
▁originality
▁fuse
▁enclosure
▁Cad
llude
nvestigation
asement
▁deplet
eferendum
▁break
iced
▁hang
xamination
imulation
▁Cata
ano
▁Tast
▁organis
aturday
edestrian
hemo
urtain
▁Respirator
▁urgot
▁handshake
▁vicinity
▁carnival
▁cuisine
▁dependence
▁marvelous
▁footprint
▁poignant
▁proverbial
▁solitude
▁buildup
▁effing
▁scold
▁runaway
▁turmoil
dress
▁Unilateral
▁kart
▁disservice
▁nomination
▁Crow
▁avenue
ummarize
▁Dishonor
▁Dex
ojo
▁apologetic
▁esoteric
aving
tor
ialect
udity
▁underside
▁Tas
▁agnosticism
▁accordance
amster
quilibrium
▁compil
awk
▁recorder
▁dishonesty
lag
aycare
▁Feud
▁ethanol
▁distaste
luggish
iniscule
▁quartz
▁Habitual
▁Amplif
▁hurdle
▁barracks
▁imaging
▁poutine
▁interim
▁gratitude
▁reusable
▁crossfit
▁gilded
▁nuisance
▁squadron
▁Woodwork
▁tampon
▁effortless
▁rockin
▁exemption
▁Electron
▁Slipper
▁Chap
ecipient
▁embassy
nstallment
▁sideline
heorize
▁Corp
▁imbalanced
▁residency
▁thirst
orized
▁Mot
▁Sola
unrise
pproachable
▁Civ
▁baller
eager
▁repeat
▁requester
▁Neighbour
ddon
▁liberat
▁contaminat
ismantle
erewolf
utritious
jws
avement
erfume
ithium
allpark
▁Trespass
▁heartfelt
▁musk
▁brunette
▁brittle
▁librarian
▁cutoff
▁precursor
▁inconsistency
▁vacant
▁livestock
▁congregation
▁seatbelt
▁splash
▁torchlight
▁tshirt
▁expressive
tarvation
enowned
▁dismantle
▁linguistics
alf
▁dehydration
lgorithm
cronym
reatine
▁generational
▁hump
osh
ingularity
cenery
▁Inexperience
▁Bend
▁prove
rostitution
▁distinguished
▁Bee
▁Mutat
▁interven
▁hunting
▁subt
▁kink
▁antibiotic
▁Revere
ization
▁absurdity
lephant
erum
▁humiliat
▁counsel
▁utopia
▁pronoun
▁Pic
▁Pois
timulus
▁Hierarch
harmaceutical
igraine
hassis
ulprit
▁Preemptive
▁brilliance
▁equivalence
▁hilarity
▁homepage
▁cavity
▁cemetery
▁fluoride
▁Fella
▁parachute
▁ploy
▁pigeon
▁propane
▁sedan
▁squirtle
▁zoning
▁roach
ebuff
▁workload
▁reliance
▁buyout
▁Xer
▁discrepancy
▁draconian
irectional
▁continuation
▁spirituality
▁polarizing
▁advertise
▁Rib
▁conditional
▁teaching
la
▁approachable
▁flyer
evolve
▁composer
fold
kyline
▁query
▁Comma
▁Distaste
hutdown
▁fracture
▁Commen
cstasy
addening
corn
iren
ntegration
mpression
▁Quota
hysicist
▁fiend
carina
iscuit
arvelous
eartfelt
umility
▁groin
▁habitual
▁incessant
▁penetrate
▁piggy
▁vaccination
▁beverage
▁hemisphere
▁backend
▁golem
▁heavyweight
▁coercive
▁stringent
▁tiempo
▁rehabilitation
▁demolition
▁psn
▁tummy
▁Kindl
▁Avail
▁wrapper
bundance
▁Batt
▁Mane
ainland
eggie
▁lessen
fill
logan
▁barr
▁acrylic
▁ancestry
▁mush
▁peeve
ishlist
▁misc
▁scrapp
▁localiz
▁Eyes
▁Gar
▁redirect
▁dishonor
▁sooooo
elescope
readmill
restlemania
intendo
reposterous
utbreak
narly
onjecture
▁cascade
▁expansive
▁Fibr
▁vegas
▁chakra
▁connectivity
▁crosshair
▁cardiac
▁magnesium
▁mormonism
▁blueberry
▁barbell
▁bigfoot
▁preliminary
roverbial
▁spectacle
▁unspoken
▁solvent
▁gta
▁nba
▁Winn
▁lockout
▁revival
▁encourag
▁Strat
lienate
▁Realist
▁endorsement
ejected
▁promote
rosperity
▁avalanche
▁algae
hecklist
achinery
▁Veg
olidarity
soteric
▁Evo
trait
▁Her
ichotomy
offin
erminology
▁vitriol
accoon
eafood
oddess
reliminary
runette
alcium
cepter
▁knuckle
▁hobo
▁winrate
▁unmarried
▁xerath
▁Yank
▁oats
▁strife
▁underworld
▁ios
▁pouch
▁Frat
▁ballet
▁Mismatch
assy
▁guideline
▁arguable
lutch
actus
▁squeaky
▁Mole
▁brim
natomy
stronaut
gony
istress
▁Mosqu
▁Convince
▁disney
disclosed
ided
▁acquaintance
▁apostrophe
omosexuality
vr
ookah
▁vit
etector
▁antisocial
▁inhuman
▁traumatiz
egro
▁steal
icnic
elsius
▁vim
▁hazy
▁prevalence
▁vanguard
▁manpower
emplate
▁heartbroken
▁phoenix
▁preferential
▁supervision
▁saliva
▁secluded
▁respiratory
▁gps
▁brotha
▁clutter
▁termination
ettlement
▁disproven
norexic
cquisition
utocorrect
▁eyes
▁hijacking
ootage
▁serviceable
▁Serie
▁teller
nnouncer
▁encompass
▁fleeting
▁rioting
rosecutor
tringent
enetration
▁stand
irculation
▁Robe
▁Toa
▁anorexic
orrow
ulnerability
raconian
ildo
▁australia
hitstorm
▁Asthma
odfather
aradigm
▁better
eighbourhood
holesterol
ombustion
ockpit
▁Evacuat
▁elevation
▁menstrual
▁Reciproc
▁hollywood
▁colleague
▁csgo
▁minus
▁pelvic
▁broom
▁serotonin
achete
nterim
▁upstate
▁hookup
▁plight
▁payout
▁depiction
ntisocial
aircut
▁investigate
nvoker
▁ponder
▁Resto
▁adultery
▁dresser
▁axle
▁tenure
dor
nbred
ilded
xpectancy
ivinity
▁segregat
vidia
omrade
▁emulate
orearm
▁levy
▁cervix
▁connery
▁preschool
▁foe
▁fulfillment
▁powerhouse
rostate
▁scuba
▁resale
▁wildcard
▁afro
▁fledged
▁showdown
▁uppity
▁lifeless
▁deficiency
▁deranged
▁dispenser
▁slander
radle
ecretary
rmchair
utograph
▁hasty
elebration
omma
sale
▁Xe
rittle
▁spend
▁northwest
onsultant
uggestive
knowing
▁Digit
▁antagonistic
▁broth
▁afterthought
▁allow
▁wash
arrator
exterity
▁coerc
▁tester
ockery
infoil
orkforce
ecluded
enegade
ubmarine
eninsula
oignant
dentification
harcoal
ottage
▁wobbly
▁unsuspecting
▁leeway
▁fecal
▁psychosis
▁vibrator
▁ripoff
▁mashup
▁moonlight
▁gummy
▁breakout
▁underweight
▁bouncy
friendly
▁daenerys
▁Bron
▁watery
eathen
fterthought
▁snap
inse
clad
▁with
▁tighten
▁whole
▁spat
▁Sect
▁staffed
ushy
ncompass
torytelling
▁Glow
▁Programme
▁Inhale
▁reviewer
ebcam
erpent
choolboy
luetooth
ardiac
lusterfuck
ontingent
▁preemptive
▁hysteria
▁menacing
▁unilateral
▁ballsy
▁hearsay
▁velcro
▁knack
▁coordinator
▁centipede
▁mosquito
▁celery
▁predisposed
▁lovable
▁convertible
▁literacy
▁superstitious
▁wyoming
▁workflow
▁lineman
▁blowout
▁sparkle
▁tsunami
▁worldly
▁ala
ependency
▁dancing
eriousness
heism
▁Harp
▁Attain
▁elixir
reservation
▁masse
▁echo
▁desensitiz
▁zipper
annabe
▁attain
▁nuked
▁vigilante
tiquette
cological
voidable
▁chilly
▁Spur
uss
llowance
fr
ncarnation
▁forecast
ncouragement
▁hear
ontender
▁upst
▁ark
ailroad
▁Apprentice
athfinder
▁suspense
▁vag
oneliness
▁fascination
▁obedience
▁vandalism
▁mayonnaise
▁facade
▁counterpoint
▁lingerie
emainder
▁impulsive
▁incognito
▁prolific
▁shithead
nnings
▁hellish
▁nursery
arnage
▁reincarnation
▁timeout
▁daytime
▁sweetness
ollution
solated
viation
▁Balls
▁blazer
pologist
llegiance
dulthood
ccessory
▁derpy
▁ecological
welcome
▁ammonia
▁athleticism
ontractor
ledged
▁ass
▁Archer
ickness
▁Bubbl
▁finisher
▁accumulat
onvertible
▁rapey
aintball
▁fanatic
▁sect
aneuver
orthwest
ynthesis
obriety
uperpower
ayoff
itchfork
rritation
▁catastrophe
▁motivator
▁crux
▁circumstantial
▁craziness
▁unresponsive
▁giver
▁skillet
▁chapel
▁unsubscribed
▁spacecraft
▁superhuman
▁rinse
▁competence
▁tylenol
▁thunderbolt
reconceive
umpster
▁soulless
▁billboard
▁Menstrua
▁euphemism
▁biome
tupidity
esentment
▁docking
▁floored
▁eliminate
▁violate
rease
▁Constrain
▁investigat
ildcard
▁Bliss
▁Disclos
ramerate
obo
weetheart
elvic
rofanity
rolific
ottleneck
assette
reakbeat
ourglass
▁ubuntu
▁Burglar
▁hentai
▁handmade
▁extremism
▁mycket
▁bookstore
▁boston
▁counselling
▁unbeatable
▁milestone
▁hazardous
▁simcity
▁paternity
▁meltdown
▁notepad
▁playback
▁modmail
▁tandem
▁Wig
▁tranny
▁droid
▁contamination
▁degradation
cast
▁dashboard
▁shaven
▁tether
▁understanding
pecializes
oophole
▁Brim
iva
▁Predispos
everity
ntagonistic
essel
▁arguement
▁shocker
▁unnecessar
▁org
▁abuser
latoon
▁alum
▁survive
▁pear
impressed
oreplay
ompletion
▁Prose
▁ale
timulation
oothpaste
ayhem
suspecting
heeseburger
ontraception
▁Jock
▁Meticulous
▁unforgiving
abbage
▁tidal
▁hashtag
▁corgi
▁falcon
▁metadata
▁babysitter
▁patio
▁undefined
▁hairstyle
▁narcissism
▁subtext
▁warframe
▁wavelength
▁refurbish
▁werden
▁ironman
▁barren
▁flute
▁tact
▁deviant
▁distrust
robation
▁constrain
eparture
▁escalation
▁randomiz
ctivism
orecast
▁orgy
▁copy
▁absorption
▁gathering
lashback
tride
egislature
▁ebook
▁Th
▁packer
ratification
eflection
lvl
oothbrush
hyroid
aterfall
iolin
▁zealot
enerosity
afeteria
onservatism
▁ugliest
adith
▁capacitor
▁contextual
▁parenthesis
▁uninsured
▁cynicism
▁posh
▁sriracha
▁nugget
▁regressive
▁rundown
▁righteousness
▁hunch
▁familiarity
ervant
▁drivel
▁lurker
▁boon
▁dsl
ible
▁tapered
ffiliation
▁exclamation
▁grate
handed
▁Bombard
▁transgendered
▁consum
angster
roductivity
▁arbitrar
ff
▁Liter
uperman
▁athiest
▁Electro
▁catch
▁stumped
iking
▁venue
oercive
urf
anky
▁recess
▁inertia
▁antagonist
gression
▁orphan
entinel
▁Forfeit
aralysis
ancake
ircumstantial
▁Staunch
▁concur
▁embarassing
verdrive
▁maternal
▁crass
omebrew
▁shitter
▁junkie
▁splurge
▁subtlety
▁resentful
▁imprisonment
▁islamist
▁standup
▁trajectory
▁Sling
▁Spre
▁calibration
▁decorative
nappy
▁dormant
▁Pedo
▁tuner
▁invader
coff
▁dominate
union
▁notation
ssortment
thiest
rutch
bomination
ounseling
uffalo
▁ambiguity
ball
▁adderall
tl
▁bapti
mmortality
▁restore
resentation
▁yiss
ts
▁Diploma
etroactive
▁Sparkl
cursive
▁seam
▁speak
opamine
▁stabilize
▁infus
alor
hreesome
nowflake
enominator
crewdriver
lummet
ncognito
itrus
orridor
▁fanfic
▁overpopulation
▁racing
▁hobbit
▁circa
▁mortified
▁breakthrough
▁bayonet
▁belligerent
▁mitigation
▁rediculous
▁opiate
▁plummet
hortage
▁inaccessible
▁invulnerable
▁watermark
▁unneeded
▁suitcase
▁continuum
▁preconce
avalry
▁relaxation
▁conductor
▁cred
▁repeatable
▁dementia
mulator
▁transcription
▁Tra
▁preserve
▁angsty
characterization
nomaly
▁remarkabl
▁exploitative
efurbish
▁mushy
▁applause
▁gunn
▁Glaci
heckpoint
▁Bane
▁flaky
▁Coop
▁webs
▁Supervis
▁assortment
▁wheeler
▁Wp
▁Wank
▁multipli
heckmate
eodorant
▁stab
ersuade
otassium
uggage
ollaboration
anitor
▁consequent
▁staunch
▁floral
▁bishop
▁barley
▁potency
▁pendulum
▁playstation
▁persuade
▁perverse
▁secrecy
▁substrate
ontextual
▁lpt
▁redhead
▁investigative
emonstration
▁objectionable
▁trumpet
ino
▁tsp
osture
erden
▁gutter
llocation
▁slanted
▁revis
▁Repo
roid
▁Calibrat
▁admiration
orthodox
▁banker
▁Feudal
▁Habita
atriotism
eviant
▁crafty
▁moth
▁Merch
emise
nstitutionalize
ilemma
isdain
horn
aitress
ubtext
nclination
diculous
▁Cig
reatsword
▁cualquier
▁fifa
▁livable
▁homage
▁backseat
▁lieu
▁unintelligent
▁proponent
▁placeholder
▁parameter
▁spore
▁pathological
▁swastika
▁nutrient
▁singleplayer
▁theatrical
▁impactful
▁popup
▁interception
alvia
▁secretive
▁decoration
▁achieve
▁efficacy
▁healing
▁helper
▁gardening
▁rob
▁spar
lashlight
▁communicate
tarship
bble
▁Orphan
ailbox
odyweight
actose
onnector
ob
atriarchal
▁Skille
rovision
esensitize
uperstitious
upplier
articipant
▁Modifi
eightlifting
upcake
lumbing
▁Cascad
▁meticulous
▁invoice
▁gadget
▁synopsis
▁Porno
▁fundie
▁granny
▁rectangular
ismo
▁nationalistic
▁Rs
▁deceive
▁freelancer
▁bearing
tilted
nvulnerable
▁roleplaying
▁Misrepresent
▁Detriment
▁eat
erospace
▁tract
eartbroken
▁Dependen
hristianity
ountdown
reationist
▁accommodation
▁stor
ult
▁scented
▁blow
heorem
▁compensat
▁spotty
▁mandate
rumble
▁Revision
eceive
▁Erect
inth
iablo
nfringement
teroid
uperhuman
▁meet
▁rife
▁hotshot
▁credence
▁Grizzl
▁obsidian
▁intimidation
▁pitbull
▁ivy
▁chump
oisturizer
▁ilvl
▁parliamentary
▁sludge
▁bowel
satisfied
▁taiwanese
ucumber
ontage
▁darling
▁Mul
▁practicality
▁wipe
▁Mexic
▁midfielder
▁Flap
bstinence
otherboard
▁Contemplat
rt
▁Angst
cool
ighthearted
▁subsid
elta
▁Browni
lanetside
ormant
raternity
slamist
▁fry
▁configur
ishwasher
eranged
itrogen
cheduling
ndition
ongevity
andmade
naccessible
▁vapid
▁counterfeit
▁murky
▁flammable
▁physique
▁gameboy
▁grandson
▁ninth
▁whirlwind
▁travesty
enator
▁ssl
▁Prog
leavage
▁dumbfounded
▁feudal
▁raven
eavyweight
▁spel
lea
erverse
urnace
▁torrenting
ardship
▁expenditure
ecorative
isproven
rmory
mmunition
ncestor
efor
▁Dept
eductive
mpulsive
racelet
▁Loon
mmv
▁automobile
▁harvesting
▁fam
iary
odification
▁propose
▁starch
▁wack
nfuse
adiator
iiu
ngsty
▁celebrate
ettle
▁Psu
▁confiscat
orehead
▁Midwest
ebpage
▁fab
▁chemist
dyssey
▁bombard
ermaid
hicago
ightsaber
anslaughter
▁chromosome
▁mule
▁cologne
▁defiance
▁firepower
▁forensic
▁blockade
▁swole
▁grab
▁gonewild
▁litigation
▁untreated
▁syringe
▁staircase
▁spherical
▁strait
▁downst
▁interwebs
issent
▁boa
▁mindfulness
▁doorstep
pectator
▁dvr
▁deprivation
▁Sharpen
ixie
▁commuter
yclist
ompartment
▁tubing
▁brace
▁Tact
ompilation
udo
▁Exclusion
einforcement
▁sneak
llustrator
ortified
▁trusty
efendant
▁Fab
ccountant
▁Cert
▁improve
▁slash
▁Suburb
▁advert
azardous
▁denomination
elligerent
rocodile
▁Sporadic
▁qualifier
▁quid
▁ultimatum
▁uproar
▁chalice
▁copypasta
▁mango
▁overhyped
▁godsend
▁permissible
▁inexcusable
▁unopened
▁serbian
▁rotor
▁tidbit
▁lingo
▁spotify
▁textbox
▁admir
ditorial
▁lager
▁calculate
iston
uise
▁exclusivity
nvestor
ccredit
▁exorbitant
▁pursue
▁Ether
▁authorization
▁aggressor
▁aim
aptize
mperialism
loy
▁glow
▁Fundi
▁craze
▁potty
▁mot
ttendant
udition
lassification
arp
omcast
edundancy
▁windowed
▁Ry
heatrical
refix
onument
lamethrower
apsule
▁Cualquier
▁physiology
▁heatsink
▁victorious
▁malfunction
▁moveset
thanol
▁littlefinger
▁labyrinth
hivalry
▁viewership
▁outcast
▁Provabl
▁emergent
▁rectangle
▁nebulous
▁sitter
▁obliterat
▁Molecul
▁miserabl
▁blindness
▁sideboard
▁rib
▁Tm
nformational
▁Admire
▁Monogam
▁downloadable
▁Freewa
athological
▁Grate
ttire
moral
▁alimony
▁arthritis
▁avg
▁archetype
▁Fertilize
mber
▁Pacifis
▁attentive
▁acre
edged
▁rite
▁hearty
▁Mason
esignation
hipment
aiwanese
▁mason
nadvertent
reface
ounterfeit
ounterpart
▁pacifist
▁sleazy
▁hammock
▁congestion
▁cardiovascular
▁communion
▁mmorpg
▁malaysian
ofap
▁infancy
▁invisibility
▁prowess
▁playbook
▁scapegoat
▁roulette
▁swipe
▁glock
▁tonne
▁plush
▁tradeoff
▁wod
▁Lol
▁Swol
▁offside
▁braid
emote
▁Caste
derstatement
▁Dom
▁underway
▁slip
ompliant
▁extravagant
radient
eased
▁hubby
arliamentary
aragon
▁usefull
lask
▁prepare
▁Retrieve
iterate
ricing
▁grainy
cre
▁Ordina
▁forgive
▁Expo
urmoil
itcom
iraffe
unslinger
resumption
▁Wort
limax
▁Fiend
▁geology
▁volleyball
▁categorize
▁chlorine
▁mixtape
▁Catastroph
▁moustache
▁objectivity
▁harem
▁policeman
▁parasitic
▁molestation
▁vga
▁spatial
▁lotta
▁tarp
▁restless
emeanor
▁Hal
ctuality
umbfounded
▁advise
▁steroid
▁strengthen
▁tutoring
nvestigative
▁sinner
▁eyesight
ect
▁advocacy
▁feeder
ray
usterity
▁disinterested
▁xml
hp
adam
▁accredit
ncyclopedia
xorbitant
▁tiered
▁assembl
istorian
ebacle
bliterate
▁urge
▁proto
imeframe
easel
ectangular
▁Perv
orensic
rosshair
▁fixated
▁persistence
▁cataclysm
▁hoe
▁requisite
▁litecoin
▁lebanese
▁oyster
▁phobia
▁planner
▁recollection
lammable
nexcusable
▁wormhole
▁npc
▁mutilated
▁tyrannical
▁wavy
▁supper
scientific
▁Whack
▁disruption
appy
▁eyeball
aber
▁elliptical
▁Rapi
uster
pproximation
ttentive
panned
evotion
▁poof
ousing
▁dictate
ifficulty
▁Lov
▁tally
ollywood
▁manipulate
ategorize
▁watcher
▁db
▁Priv
▁inhale
isp
mpactful
yrannical
reestyle
euroscience
oldfish
verhyped
ackfire
lockchain
urky
rossbow
▁Sleaz
▁estimation
▁ordinance
▁heisenberg
▁hearthstone
▁backfire
▁childbirth
▁thrive
▁unauthorized
▁sandpaper
etroleum
▁infidelity
▁canoe
▁blight
▁trimester
▁telegraph
▁splinter
▁professionalism
▁cleanser
▁dioxide
▁daredevil
▁deathmatch
iancé
▁sino
arrage
erring
▁leafs
wtor
rgot
wagger
leasurable
atchet
nthropology
▁avoidance
▁examine
▁Grit
otta
low
▁Plush
ractor
▁crusty
▁incline
orgiveness
lapse
▁discriminat
▁Oat
xploitative
▁sup
apid
▁Suprise
▁piled
urbine
hock
▁Petrol
ebulous
ecklace
▁Techno
alaysian
▁biz
▁sporadic
▁jargon
▁jitsu
▁observant
▁viking
oresight
▁Exert
▁behemoth
▁formidable
▁kung
▁proficiency
▁pepperoni
▁insidious
▁paramount
▁venomous
▁steampunk
▁stockpile
▁scoff
▁sparring
▁psychopathic
▁qt
▁photographic
▁rut
▁ripple
▁palatable
aptism
▁visitor
▁Caramel
▁woot
quisite
▁openness
itrate
▁econ
▁positional
▁excerpt
ampon
▁Slack
▁arceus
▁Kilo
▁chipp
lliptical
xtravagant
trustworthy
nclosure
omputational
ipeline
rinket
pherical
ermissible
ascot
utscene
icinity
▁delegate
▁phenom
▁reversal
▁shitton
▁tyrant
▁userbase
ormidable
▁contentious
▁Invaria
▁manifestation
▁payload
▁Multipli
patial
sgo
▁encoding
▁fragment
▁thrilling
omino
▁Enclos
▁thinker
esentful
irbender
nb
▁Digest
▁abstraction
▁abbreviation
oercion
▁reservation
ripod
apered
▁socializ
arkup
hirlwind
▁pierc
▁snappy
ymbolism
eartless
ective
▁Dab
onsideration
hursday
collection
eige
erbian
ardiovascular
alloween
▁Larva
▁fencing
orseshit
▁cinematography
isjudge
▁companionship
▁unmarked
▁granite
▁hangar
▁predecessor
▁salaried
▁scenic
▁specialization
▁parkour
▁plaid
▁smoothie
▁dealbreaker
▁outage
acant
▁gran
▁displace
▁forcibl
▁dnd
ropane
▁Unsupport
▁dismissal
▁victimiz
▁revolting
egregation
ompressor
▁Snob
▁Crock
▁Refine
▁Garn
hickness
▁remover
▁Disrupt
daptive
iscarriage
ationalistic
teering
▁Rot
issatisfied
eatbelt
uperstition
nsidious
arnival
athtub
orsepower
▁Evaporat
▁oriental
▁rapier
▁collusion
▁qq
▁faucet
▁foreground
▁meager
▁bison
▁iceberg
▁parmesan
▁pikachu
▁byte
▁prosthetic
hakra
▁robin
▁pantry
▁swimmer
▁Recharge
▁suppressor
ontractual
▁nun
ideogame
▁dissatisfied
▁dept
requel
▁scoreboard
▁skater
illennium
▁Sap
medicated
ertification
▁arbor
▁Displace
▁xur
▁spiller
▁Bandi
ofu
▁Ex
▁abdominal
maginable
▁adaptive
▁accelerat
▁televis
eldom
ebanese
ongregation
▁aroma
▁Zipp
▁kief
▁hypertrophy
▁contractual
▁många
▁faq
▁remaster
▁cadence
▁outcry
▁också
▁pandemic
▁parole
▁wretched
▁tbsp
▁tactile
▁accuse
▁emote
▁classless
▁weirdness
arley
▁Poet
▁shader
ushion
▁puny
▁Vega
▁electrician
▁expedition
rchery
hear
▁apparatus
▁poder
etbook
▁Incur
▁mater
egotiation
eddy
▁Sac
▁Craze
strogen
▁Candid
ccordance
ersecution
ratitude
▁Hospitaliz
rossover
upremacy
erimeter
emisphere
▁Respawn
▁treble
▁collab
▁vindictive
▁caravan
▁bookshelf
▁Hoop
▁lavender
▁pixie
▁subculture
▁yacht
▁cubicle
▁motel
uccessor
▁businessman
▁perpetrator
▁teaspoon
▁narration
▁ride
▁deja
▁Minus
▁distraught
▁deplorable
▁devolve
▁stinking
▁Vill
iologist
▁Perpetrat
▁sampler
▁Muffle
▁formatting
▁endzone
uthentication
lagship
onviction
reenhouse
▁noticeabl
▁authenticity
▁royale
▁memoriz
print
maging
▁campy
▁Regenerat
ictorious
reed
▁reef
elery
mitigated
harmacist
cuba
▁regimen
▁candid
hoenix
innacle
utsource
ilingual
▁Merciless
▁mediocrity
▁privy
▁homogeneous
andshake
▁crochet
▁mathematician
▁bullpen
▁homeowner
▁leviathan
▁inflammation
▁occult
▁plywood
▁glimmer
aboratory
▁theorist
▁ominous
▁feeble
▁rebate
▁soluble
▁takeover
▁veganism
▁runtime
▁shorthand
cenic
▁dividend
▁unintentionally
▁disapproval
pacecraft
igeon
▁dependable
iness
ouchscreen
▁dilut
▁meaty
ntibiotic
postrophe
actile
redetermine
aramount
gnosticism
▁Reef
ontentious
▁Brillian
▁rotate
▁yen
eplorable
econstruction
▁Orde
uisance
pectacle
▁responsib
olygamy
ttoman
arracks
ructose
onologue
onnectivity
▁Populis
▁noice
▁uptoke
▁correspondence
eadquarters
▁bilingual
▁unworthy
▁livelihood
▁mirage
▁pikmin
urdle
▁ozone
▁silhouette
▁coolant
▁palate
▁displacement
▁devious
orphine
▁consolidated
alaried
▁shoutout
▁overreaction
▁cuteness
▁mower
ilarity
▁ro
rawback
▁glitchy
▁allocat
▁erratic
▁armpit
▁Brace
▁Complet
ackend
▁anesthesia
rossfit
▁accumulation
bdominal
bsorption
lgae
ltar
stronomy
▁ledge
▁sparkly
ancing
evious
▁whiney
inhabited
quirtle
▁outing
▁symmetry
▁outsource
oluble
uisine
▁sentencing
etagame
edestal
omepage
▁bootloader
▁flack
▁fanfiction
▁takedown
▁oxymoron
▁battleship
▁outrun
▁infiltrator
▁neurotic
▁waifu
▁snobby
▁unexplained
▁qr
▁throwback
▁trespassing
clean
▁firefighter
▁stump
▁Newb
▁Nav
▁ambassador
ivestock
▁amplifier
valanche
▁Stun
ungal
ootprint
▁scan
calp
▁refugee
▁Invoke
avity
owner
▁Stoic
▁pegg
▁digest
istraught
andem
▁df
hapel
▁heli
▁Xxxxxxxxxxxx
arbell
▁stoic
ccult
▁intro
omogeneous
▁radiance
▁respawn
▁timber
▁compulsion
▁frisbee
▁milkshake
▁merciful
▁barista
▁bicep
▁fungal
▁unfriendly
▁hamper
▁disturbance
▁immaturity
▁positivity
▁fling
▁sociological
▁negotiable
▁lockdown
▁forthcoming
▁screenplay
▁pallet
▁deputy
▁executable
new
▁yank
nvention
▁handler
▁Genom
▁exposition
▁emerald
▁forgettable
vamp
▁apparel
▁smit
ibrarian
▁celebrat
eeway
lack
▁wal
ideline
rratic
bashed
ormalize
ular
outine
▁cartoony
isqualif
isservice
▁stingy
▁jug
erciful
▁hyrule
▁caricature
▁blossom
▁unqualified
▁practitioner
▁plaza
▁nothingness
▁shitfaced
▁latch
minous
▁retroactive
▁thermostat
▁www
▁humanist
▁rez
▁consultation
▁comms
▁Inertia
▁cupboard
▁drywall
▁demise
▁renewal
ameo
▁enforcer
▁discourage
▁villager
pi
▁testable
▁Vim
▁acclaim
▁Reck
imaginable
▁slap
▁of
▁agreeable
xle
agel
cquaintance
▁befo
▁regulator
nobby
▁wep
▁inventor
ackbone
▁pant
▁acting
eterrent
▁dork
utoff
owerhouse
▁Fam
▁enclos
egotiable
imcity
arachute
reschool
nconsistency
indictive
▁girth
▁grizzly
▁sentience
▁martyr
▁capitalization
▁incidence
▁pokeball
▁grunge
▁irreversible
▁sysadmin
▁objectification
▁unnamed
acation
▁skillset
ndoctrination
▁regression
▁scarra
breakable
▁derail
▁sharpness
ehemently
oulless
hank
▁Geolog
▁contraction
quadron
ashtag
▁flip
▁Profess
▁alligator
▁Monoton
bridge
bra
▁genome
ncestry
▁testing
▁disrupt
sunami
▁perpetrat
eurotic
ociological
araphrase
rosthetic
andalism
▁bulge
▁livid
▁ulterior
▁Obstruct
▁urethra
▁vasectomy
▁cheesecake
▁chimney
▁makeshift
▁chock
▁paraphrase
▁stylus
▁repository
▁oasis
▁scrawny
▁surname
▁voicemail
▁carriage
▁unreadable
▁railway
▁bondage
▁deregulation
▁fabrication
▁Lance
▁Xxxxxx
▁Slander
▁acknowledgement
▁Rm
▁boiler
luke
▁suppose
▁Bake
crylic
▁albino
▁bogg
uper
mbassy
▁rw
oaf
▁Antagonist
ml
▁Funni
▁shifter
emolition
iempo
luoride
ookstore
▁smokin
▁jive
▁luxurious
▁classmate
▁giggle
▁visualization
▁recursive
▁harry
▁hitbox
acade
▁runescape
▁theocracy
▁thai
▁condemnation
▁dermatologist
▁causality
▁disgruntled
oston
retched
▁mead
▁Infertil
hindered
▁organizational
ispenser
bsurdity
▁tonal
▁pervert
▁improvis
▁ensemble
mprovise
j
iteracy
▁Webs
▁Indulge
istributor
sychopathic
grossed
isposition
▁Suspense
▁camper
radicate
obbyist
▁Inward
▁loader
▁heartbreak
▁plank
▁clam
iscrepancy
arasitic
otepad
▁marr
plurge
crawny
isney
recursor
ervix
laystation
▁Kenne
▁elitism
▁Piggy
▁celiac
▁misfortune
▁mustang
▁beige
▁procrastination
▁gypsy
▁interpersonal
▁pantheon
▁monolithic
▁sculpture
▁sniff
▁turnaround
eviation
▁dibs
▁nighttime
▁incarceration
ategame
▁Thr
▁analogue
▁aluminium
lip
▁atheon
▁applicant
▁animosity
▁arousal
▁migrat
▁budgeting
ole
ary
lbino
▁afa
nnihilation
ounselling
▁Spat
iberalism
unchline
▁Boon
eficiency
isgruntled
▁calibrat
hunderbolt
unfire
ehabilitation
arameter
ayonnaise
obbit
abysitter
▁merciless
▁cesaro
▁melon
▁finesse
▁mammoth
▁barbecue
▁crt
▁redistribution
▁impeccable
▁pornographic
▁latte
▁silliness
▁supernova
▁php
▁grail
▁rationalization
▁rowdy
▁fireplace
▁sewage
▁rubble
▁runny
▁hairline
▁wanker
▁dissertation
rreversible
▁fixable
▁rustle
▁fanatical
▁duper
▁extortion
▁Ingest
ttainable
▁Mbp
▁chatter
▁compile
vy
spire
hitfaced
▁intrigue
▁mouthed
otted
▁Physiolog
▁cater
erail
eeble
loral
atio
iece
▁amplifi
igfoot
▁evict
erotonin
ingleplayer
nhabit
▁Evangeli
nterpersonal
sychosis
ormonism
akeshift
▁diligence
▁ejaculation
▁groovy
▁necro
▁bead
▁verbose
▁heartwarming
▁compendium
▁ferret
▁blacksmith
▁byproduct
▁unimpressed
▁unwelcome
▁midgame
▁intangible
▁lsd
▁specimen
▁seldom
▁reversible
▁testicle
▁caveman
▁deflation
▁Vale
▁cheapo
▁Quart
▁Pollut
▁timey
▁checker
▁fleece
otshot
▁compensate
ehydration
▁pest
▁pier
▁rowing
avern
irtight
▁Justif
ationalize
hootout
efrigerator
▁customiz
lixir
uphemism
▁skid
rilling
olem
▁Acquaint
rguement
eform
▁acquaint
ammoth
ingerie
ycket
osquito
▁Heretic
▁femininity
▁hellfire
▁membrane
▁misconduct
▁fungus
▁bystander
▁unorthodox
▁mouthpiece
▁blueprint
▁opium
▁optimum
▁headlight
ntangible
▁methane
▁shepherd
▁sorority
▁thermometer
▁snot
niff
▁postage
▁endure
▁Palat
▁expendable
▁crep
▁deport
▁Sodom
▁embodiment
▁embargo
unishable
strained
aq
eport
▁Fif
▁factoring
▁grindy
rightness
▁toner
▁snark
▁Rect
fficacy
harter
enomous
▁Machin
▁profess
▁retract
entai
▁arsed
trife
bsidian
reakthrough
entipede
elcro
▁infertile
▁karaoke
▁hallucination
▁hardwood
olleague
▁childfree
▁melatonin
▁microscopic
▁blackjack
▁infographic
▁gauntlet
▁goverment
▁parcel
▁implausible
▁courageous
▁controllable
▁sustainability
onnery
▁pea
▁molester
▁invalidate
ynicism
greeable
▁disillusioned
hong
dermine
▁Toke
▁clump
▁Australia
▁deform
▁autopilot
hai
▁Tonal
▁skip
ashboard
▁passing
▁airtight
maginative
dultery
appe
▁Moth
▁Fertiliz
▁Cater
▁Vit
orgettable
▁ferment
epiction
elfishness
hobia
▁offlane
▁incur
▁Fanfic
ylenol
olitude
mpeccable
lueberry
emetery
▁electorate
▁indifference
▁populist
▁carbine
▁Hysteri
▁bittersweet
▁latitude
▁peroxide
▁peut
▁stimulant
▁Sch
▁newsletter
▁Bogg
anguard
▁tenuous
▁spiderman
▁trackpad
▁detergent
▁newb
▁dickbutt
ruly
▁woe
▁supplemental
▁looking
▁insertion
▁blower
▁dictat
url
▁poke
▁abandonment
arrow
▁brazil
▁brag
▁Repay
dmiration
bito
▁demot
oordination
▁kayak
aenerys
icroscopic
anpower
▁Nonchalant
▁Watermark
▁evangelion
▁hotdog
▁katana
▁zealous
▁monstrosity
▁unsatisfied
▁fisherman
▁hydration
▁garrison
▁inference
eartwarming
▁walnut
▁sax
▁spineless
▁ttc
▁noticable
▁Overse
gated
lockade
ware
▁predicate
▁Industrializ
▁relax
▁escrow
▁designation
redence
ighttime
trengthen
▁Cynic
rchetype
pplause
▁Cred
raziness
leaver
▁seminar
▁unsecure
ndy
motionless
abletop
orgi
ementia
onsolation
▁synonym
▁stretchy
▁inn
itbull
ptimum
rioritize
nvoice
ologne
▁kurdish
laceholder
▁cyclone
▁concession
▁philly
▁multiplication
▁impossibility
▁cuddle
▁handbook
▁stubble
▁scorn
▁pax
▁prioritize
▁fruitful
▁bitchin
▁vocalist
▁lfr
▁socialization
▁smuggling
▁detox
▁soreness
▁lapse
▁cello
▁hospitality
▁Brai
mp
▁puffy
▁distressed
▁Ear
▁architectural
▁Incarcerat
▁Jumble
mmonia
utomobile
leanup
thleticism
vg
▁shine
▁undermine
xclamation
xclusivity
▁Quid
save
uxurious
▁sch
omeland
enuous
ickbutt
isillusioned
▁Biome
mplausible
omage
▁narcissist
▁coincide
agnesium
▁fundraising
▁verizon
▁camouflage
▁campfire
▁cyberpunk
▁bootcamp
▁predicament
▁somethin
▁clockwork
▁sensationalism
▁tabloid
▁otter
▁Jug
▁outback
▁dynamite
▁refer
ownloadable
▁utopian
▁habitable
ayonet
andomize
ellish
▁decal
▁soloq
ociology
▁Intercept
▁appliance
▁retainer
▁regret
▁refuge
▁Spor
▁interpreter
kateboard
ounterpoint
▁earthly
▁bouncer
owdy
▁adviser
cclaim
▁heater
▁diver
oastal
isapproval
▁unb
iring
riracha
adget
ataclysm
▁precaution
▁Biz
▁jello
▁junction
▁volatility
▁kratom
▁substitution
oticable
▁cardigan
▁unrest
▁multinational
▁resonance
▁unappealing
▁backfield
▁llama
▁sandstorm
▁sequitur
▁sweatshirt
▁youtuber
▁gearbox
▁unclean
▁cellar
earsay
▁bassist
▁vaporizer
▁cancellation
▁disgraceful
▁Livi
▁Cou
▁Chemist
▁utilize
▁assurance
▁estos
egradation
▁youthful
arling
piate
▁hide
dis
▁Wo
rchitectural
yoming
▁legalize
▁Raven
xpenditure
ronman
▁For
▁Smit
▁Waaa
▁Morph
▁Amend
orchlight
ravesty
▁Ultima
lavic
ittersweet
▁Chromosom
▁genocidal
▁volcanic
▁cauliflower
▁cleanliness
▁collaborative
▁criterion
▁marshmallow
▁cpa
▁ooze
▁imitation
▁immaterial
▁punitive
▁beaver
▁laundering
▁rapport
▁spoof
▁waltz
▁nylon
▁usability
▁translucent
▁reconstruction
idway
▁cutout
▁pollen
▁docile
▁knockout
redicate
▁volt
ecretive
▁Gloom
▁Ed
enomination
uperiority
▁drawing
happiness
mate
ovable
eversible
ilestone
▁auditory
▁memorize
ursery
onversational
▁cou
uditory
▁felon
utcast
rux
▁Ou
▁Timb
edan
▁jewel
hithead
▁Doub
eprivation
owngrade
▁goddam
banne
▁preserv
wastika
arenthesis
endulum
stracize
hildfree
morpg
▁tickle
▁disobedience
▁hotkey
▁invaria
▁microscope
▁misdemeanor
▁brunch
▁lacrosse
▁introspection
▁ostracize
▁guinea
▁pejorative
▁inadvertent
▁uncontrolled
▁rhapsody
▁ppg
▁warlord
▁mound
▁tailgate
▁turntable
▁talkative
▁predictive
▁Vag
▁insistence
▁wether
▁dyslexic
▁downgrade
▁polluted
▁subdued
▁crater
onolithic
ipoff
▁effeminate
mprisonment
▁coop
▁agonizing
utspoken
claim
attage
onne
ourageous
ludge
▁Volt
alcon
▁Indifferen
stos
eagle
typical
erpy
▁Metaphysic
▁exhibition
randson
▁sine
yno
▁robo
▁farce
▁harmonic
utrient
elegraph
ranslucent
avelength
arcissism
ugget
▁jock
▁entrepreneur
etadata
olcanic
eisenberg
▁kangaroo
▁homogenous
▁cheerleader
▁cheque
▁contour
▁biography
▁cog
▁customary
▁untrustworthy
▁fixture
ishop
▁footwork
▁nozzle
▁gooey
▁softball
▁payback
▁Lieu
▁codex
aliva
▁carbonated
▁defer
▁execute
▁sizeable
▁embryo
rsed
ountryside
▁exalted
▁beastly
▁examin
unaway
▁Refrigerat
ulfillment
▁Broom
▁Waaaa
rumpet
gonizing
udiophile
bbreviation
ggressor
rthritis
▁Boa
rceus
▁stylistic
▁Cling
ffeminate
xacerbate
supervised
▁hospitaliz
ontinuum
aytime
▁invoke
▁freeze
ecrecy
tockpile
ubstrate
onewild
alfunction
ultinational
omogenous
▁Collab
▁homeopathy
▁upstanding
▁hardworking
▁hindrance
▁Jig
▁flannel
▁mastermind
▁uncool
▁linebacker
▁gulf
▁grassroots
▁gunshot
▁repayment
▁stepdad
▁neutron
▁ringtone
▁muck
▁slob
▁fapp
▁suction
▁heroine
▁escalator
▁mcd
▁plunger
▁bagg
▁jobless
oonlight
irca
flamed
foot
▁anguish
▁discriminate
wi
▁attrition
▁simulat
▁exacerbate
ammock
▁flicker
▁platformer
ontrollable
▁audiophile
nvalidate
▁Pea
isgraceful
ffhand
dderall
poof
▁merc
▁riddle
yringe
orthcoming
▁Maxim
edtime
▁schooler
▁vol
yesight
▁dysfunction
salted
entative
nternalize
ntimidation
otency
rowess
abyrinth
itecoin
appealing
earthstone
▁Underperform
▁geometric
▁quarantine
▁resemble
▁malphite
▁monotonous
eatsink
▁ibuprofen
▁bloodborne
▁intolerable
▁imperialist
arista
▁ransom
▁cleaver
▁tablespoon
▁rulebook
▁rooftop
▁smallish
▁blurb
▁rudeness
▁dell
▁Econ
voidance
olleyball
▁dud
ornographic
ongestion
co
▁mannered
▁protect
ccommodation
▁Augment
op
▁batt
alculation
ayman
▁augment
rassroots
nsurmountable
urdish
▁volley
ameboy
▁garner
▁obscurity
▁quaint
▁reassurance
▁clique
▁crosswalk
▁filibuster
▁kale
▁unhappiness
▁personhood
▁insurmountable
▁glamorous
▁maul
▁indy
▁ralts
▁slavic
▁teamspeak
▁tortilla
▁interrogation
▁tdm
▁transsexual
▁tentative
▁redness
▁drugstore
ndorsement
▁write
▁accessibility
plinter
▁gon
▁airspace
▁amnesty
▁epiphany
▁appropriation
atte
derworld
▁misl
▁imaginative
▁Privatiz
▁lifter
lad
angered
▁sprain
gitated
nimosity
▁baker
▁definet
▁Goddam
▁Haggl
isallow
ocile
▁Recreat
anitary
▁octave
rajectory
mmaterial
epperoni
unitive
ollaborative
▁Telecom
▁recreate
▁unforgivable
▁valuation
▁handjob
▁creme
▁cyanide
▁bootleg
▁flustered
▁backlog
▁landmark
▁paywall
▁postseason
▁ghoul
▁solemn
▁warcraft
▁witchcraft
▁trampoline
▁tycoon
▁incapacitated
▁resistor
nitiation
▁tart
▁disposition
▁fucken
▁disallow
▁reviv
▁impressionable
phobic
▁mbp
▁sharpen
▁eligibility
▁asphalt
▁prefer
▁Symmetr
▁Sprawl
eathmatch
▁invite
▁ingest
llustration
parent
ashup
▁threading
apacitor
ersonalize
uthorization
▁overuse
▁disqualifi
uthenticity
haracterization
mpathize
▁Alum
hildbirth
▁Coloniz
yslexic
teampunk
ynopsis
armesan
ejorative
nfancy
▁instill
▁undeserved
▁Wrinkle
▁hierarchical
▁cougar
▁crummy
▁hubris
▁lubricant
rochet
▁lollipop
▁rub
▁Woeful
ntolerable
▁composure
▁insurgency
▁marrow
▁frail
▁unmatched
▁sincerity
▁complementary
▁redone
▁unwritten
▁breadth
▁sdk
▁procreation
▁skillful
ardworking
▁lossless
oliceman
▁Seam
lamorous
▁Determine
ubicle
▁espionage
▁exquisite
cha
ubtlety
▁internalize
buser
▁agitated
efer
arem
▁Vent
▁drag
mbassador
pplicant
orefront
arration
▁Defian
xcerpt
xalted
howdown
▁itch
▁bumpy
alatable
oustache
▁Immigrat
ctave
lustered
oulette
ompulsion
opypasta
▁nonchalant
▁treasury
▁kryptonite
▁umpire
▁swim
▁cliffhanger
▁cilantro
▁cliché
▁cetera
▁finicky
▁minivan
▁courthouse
▁lightbulb
▁reiterate
▁betta
▁stench
▁necromancer
ierarchical
▁ventilation
▁profitability
▁memorization
▁lard
▁pathway
ubdued
▁sinus
▁useable
▁Differentiat
mpressionable
▁tonic
▁fractional
▁Derp
▁adversity
▁compost
▁etymology
▁sender
distribution
topper
▁stylist
ustomary
▁Rut
▁Empt
nterwebs
ependable
ship
nformed
ide
ccumulation
limony
mbiguity
pparel
odmail
pineless
wind
▁steer
▁deathly
▁Demoniz
irepower
aravan
▁homophobe
▁jamaican
▁obedient
▁reckon
▁scrim
▁corsair
▁unscathed
▁bothersome
▁briefcase
▁catalogue
▁indonesian
▁nonprofit
▁rgb
▁unplanned
▁spectral
▁overwatch
▁toolbar
▁flippant
▁chic
▁dispensary
olemn
▁stroller
▁personaliz
▁atrocity
▁duality
▁impose
uitarist
laza
▁aide
▁dunk
arole
uitcase
ming
▁whack
▁inward
ewage
▁Rem
▁Unexplain
▁lie
oorstep
▁empti
heocracy
ubculture
redecessor
roponent
hlorine
herish
ackseat
▁homeschool
▁visor
▁cherish
▁funni
▁flaccid
▁lyanna
▁onslaught
▁plaque
▁periwinkle
▁impotent
▁gory
▁ruse
▁sportsmanship
▁beanie
▁reggae
▁colonization
ncapacitated
▁receptionist
▁containment
▁illustrate
submit
▁axiom
▁aero
▁Cleanse
▁technicality
▁Ep
▁enzyme
▁astonished
▁Delegat
▁xanax
▁mince
eja
▁amber
▁Putt
pprehensive
stonished
lligator
xquisite
▁Wav
nchantment
rimester
ranssexual
▁nested
raction
ectangle
▁Byte
lackmail
▁platter
easpoon
▁Aroma
ncidence
▁phonetic
idbit
ilhouette
ivelihood
▁Phenom
yrule
itsu
▁urgency
▁cortex
▁impromptu
▁piglet
▁shitpost
▁Chic
▁bile
▁skeletal
▁whiff
▁begin
▁masterful
▁madman
▁ifs
▁moldy
▁vehemently
taircase
▁transitional
▁afterall
uppression
lywood
eltdown
▁rotat
▁mutter
▁distribute
▁buttery
▁Ala
▁irk
mperialist
▁crusher
earing
ommunion
▁attainable
▁geo
▁negate
▁hooded
pparatus
▁amoral
lung
wan
merald
ebate
eighboring
▁averse
tfo
▁redi
▁plunge
pectral
odsend
xymoron
ookshelf
erret
▁zinc
▁corrosion
▁ceremonial
▁congested
▁boardwalk
▁unnerving
▁unscientific
▁fingerprint
▁priesthood
▁buzzword
sweetened
▁gasket
▁naruto
▁sapiens
intelligible
▁workstation
▁cameraman
▁underhanded
▁longing
▁vent
▁roomate
▁disorganized
▁descendant
▁uniqueness
▁liquidity
▁unimaginable
▁appendix
▁transferable
▁traumatizing
lanner
▁amino
ividend
ypertrophy
define
ompanionship
nundate
nesthesia
▁apprehensive
rummy
mpire
▁condone
▁Boiler
▁Uk
ster
icep
▁proppe
▁demonize
onotonous
▁boomer
▁sanitary
▁encod
ailout
▁mutat
andpaper
ikachu
ckså
avender
scathed
inematography
▁bourgeois
ilkshake
heesecake
▁juke
lippant
▁Rehears
▁jackpot
▁tendon
ndonesian
▁categorical
▁cesspool
▁childcare
▁polio
▁custard
einstate
▁courtroom
▁strenuous
▁succesful
inicky
▁omission
▁bribery
▁jagged
▁utilization
▁followup
▁organizer
▁reinstate
upervision
nvisibility
▁ridiculousness
▁digestion
▁sickly
limmer
isciplinary
reme
uppressor
▁decoy
othersome
efficient
▁Heli
▁playing
▁Mater
ormatting
▁obtainable
yeball
arter
rousal
dvocacy
okeball
oreground
▁polariz
▁watchable
rojector
nfidelity
▁seek
lipper
rywall
aredevil
▁incarcerat
luff
▁validate
arframe
apiens
ysadmin
hysique
ositivity
eviathan
ixtape
laccid
▁mammal
▁differentiate
▁fundraiser
▁vassal
▁carpenter
▁unbreakable
▁lupus
▁refining
▁realtor
▁stature
▁offhand
▁materialistic
▁sensual
isorganized
▁vaseline
▁cbt
▁stronghold
▁uptime
▁corresponds
▁pastry
▁bandage
▁beholden
▁erotica
▁dumbbell
▁disciplinary
▁snipe
wimmer
▁directive
▁rodeo
▁civility
undown
▁integrate
▁euthanasia
▁emptiness
▁sporty
iewership
cursion
lingy
▁Abduct
oordinator
omplementary
adence
▁astounded
▁escalate
urname
idge
▁pooper
isplacement
quatic
laybook
dobe
killful
▁woodwork
ealbreaker
ecimate
ioxide
issertation
▁retrieve
▁abduct
▁collage
roficiency
▁Cultivat
onprofit
mpotent
mpromptu
ehemoth
eremonial
ongested
aucet
▁pretense
▁bubbly
lossom
▁landslide
▁genesect
▁inflatable
▁skydiving
▁fleshlight
▁banish
▁revamp
▁differentiation
▁fruitless
▁decimate
atitude
trenuous
▁rotational
▁nitpicky
▁serve
overment
▁enrollment
▁epilogue
▁earthbound
theon
▁Mow
▁natured
▁adobe
ationalization
▁Exp
ensual
▁Plum
ryer
▁Somethi
tty
rbor
stounded
▁quirk
▁lighting
▁gall
isruption
aturation
eregulation
▁adore
attleship
orority
▁visib
nflatable
▁prude
halice
▁Jitter
▁hereditary
▁circumference
▁crimson
▁malaria
▁backdrop
ullpen
▁lifeguard
▁exec
▁uncircumcised
▁stylized
utcry
▁preoccupied
▁tipsy
▁reaver
xpedition
carra
▁repression
▁disjointed
tchy
▁assassinat
▁Computation
▁Infiltrat
diced
radeoff
▁aquatic
extbox
▁panty
alkative
▁Clam
irage
oveset
▁nav
▁extraordinar
▁squish
rmpit
▁orchestrat
▁rocker
▁computation
ooey
roposal
▁reclaim
dviser
ecoration
▁perky
eputy
▁privatiz
esticle
keletal
culpture
uccesful
lackjack
isfortune
aricature
asectomy
▁Bulg
▁Masochist
▁equitable
▁sorc
▁underwhelmed
▁hotspot
▁contingency
▁myspace
▁bulldog
▁lasagna
▁ballad
▁aptitude
miscommunication
▁crayon
▁build
▁tsm
tandup
▁Tr
▁saggy
▁speculate
▁homelessness
▁carton
▁backside
▁doctorate
▁Stagnat
yster
▁Tyran
▁momento
ire
▁gyro
arcel
▁chaser
antry
rusted
mallish
▁pane
▁locate
ust
ipper
▁Ro
bstraction
xposition
rofessionalism
▁intercept
ermatologist
ractitioner
nerving
artyr
▁Collage
▁godless
▁swine
▁fictitious
ånga
▁plagiarism
omeowner
▁introspective
▁untapped
▁unrestricted
▁unreleased
▁skincare
▁lich
▁retardation
▁wiener
▁podium
▁worrisome
▁parish
▁nameless
▁obstruction
▁capitalistic
▁determinism
parring
killset
▁altruism
ebellious
▁breathe
orrespondence
▁asterisk
▁aghs
ungus
▁fill
▁Stylist
▁arctic
▁soften
▁epilepsy
▁brit
▁stunted
▁Cog
ceberg
▁Phil
pecialization
onductor
escendant
▁extroverted
▁decide
▁trample
andemic
▁burglar
utopilot
luminium
laskan
ipsy
▁silky
cknowledgement
▁Situat
▁situat
hermostat
capegoat
▁Fig
athematician
risbee
ereditary
▁qualitative
▁hijab
▁kiddie
▁bidder
▁cardinal
▁corrosive
▁midterm
▁mozzarella
readable
▁pellet
▁intoxication
▁guerrilla
▁impairment
▁Deflation
▁gratuitous
▁Noi
▁untested
▁napkin
ootloader
▁mitt
▁teleportation
isjointed
▁natty
▁gunk
▁defensible
▁fearless
▁altercation
lueprint
▁rigging
ustainability
▁alaskan
▁Mistreat
▁arise
▁accuser
runge
▁decorat
field
ompiler
lassmate
nterception
▁Homeopath
▁Kil
antheon
▁stereotyped
▁cub
▁loft
▁Narcissist
mplifier
arkour
▁fussy
latter
eactivate
▁sink
▁taunt
hermometer
▁Homeschool
▁forsaken
▁captivity
▁marksman
▁huddle
▁flagrant
▁irritable
▁geopolitical
▁undocumented
▁songwriter
▁supremacist
▁wordpress
▁takeaway
▁transistor
▁transient
▁investigator
▁existant
isherman
anfiction
arbine
▁he
▁disparate
▁discernible
lacksmith
▁transmitter
▁commando
ikmin
irefighter
▁specification
▁develop
▁flake
▁epoxy
udgeting
prain
▁xxxxxx
▁likeness
horthand
▁register
▁Criticis
▁bleached
▁pic
asculinity
▁demonstrabl
▁Flex
▁grime
othingness
bsp
nalogue
outhpiece
▁equat
elon
iscernible
▁waaa
nflammation
▁coefficient
▁libel
▁Disobedien
▁behead
▁harddrive
▁hecarim
▁chute
▁bezel
ntrospective
▁pandacoin
▁chimp
▁brunt
▁scrotum
▁nutjob
▁uninspired
▁skunk
▁shortsighted
▁bottomless
▁tombstone
▁consumerism
pecimen
▁exhaustive
▁successive
lama
▁dotted
▁Prude
oze
▁goon
▁alternator
▁constraint
▁avoidable
▁loner
lissful
▁adjust
▁autopsy
class
▁ota
▁Glide
equential
sync
disposed
▁pent
ecriminalization
potify
pack
▁Wd
▁excel
▁Unread
orrisome
eutron
upernova
yproduct
ystander
amouflage
eliac
orrosive
▁familial
▁Turbulen
▁haiku
▁hummus
▁veracity
▁cathartic
▁blackberry
▁inaction
▁persuasion
▁propulsion
▁ingenious
▁unprovoked
▁gunpoint
▁hoot
▁propensity
▁indictment
▁nutella
▁snippet
▁wdis
▁mouthful
▁citizenry
aporizer
▁beak
▁sous
▁Bead
▁hairless
▁espn
▁resignation
▁eraser
▁arbiter
▁asparagus
ormhole
▁patty
▁theism
▁Propagat
▁connect
runch
▁Deb
▁Pant
▁pursu
ibs
▁vac
ppropriation
nsemble
gie
rample
ifiable
usinessman
▁Diligen
▁Familia
▁Symphon
umbbell
inesse
▁telecom
▁chilli
bandonment
abloid
hepherd
ratuitous
ittlefinger
ictitious
sonance
pium
▁permalink
arantine
▁condescension
▁menthol
▁mucus
▁photogenic
▁sidekick
▁nightlife
▁plow
▁fundamentalism
▁darkrai
inebacker
▁existance
▁assailant
▁piping
eopolitical
▁Pier
aterialistic
mir
▁fruition
▁abyssal
▁linen
▁everlasting
▁Disinterest
moothie
▁define
ultiplication
▁Sup
▁Pest
ride
▁Intro
▁suprise
utopsy
▁Precaution
▁textured
erpetrator
▁Woe
efensible
ynamite
▁immigrat
gb
▁learner
alnut
hortsighted
rritable
▁bloc
aundering
arbecue
ampfire
himney
andmark
▁Mesmeriz
▁cervical
▁medicaid
▁manhood
▁melodramatic
▁octane
▁incumbent
▁overzealous
▁glycogen
▁inconclusive
▁woeful
ottomless
▁waaaay
▁uncensored
▁blissful
▁nidalee
▁rectum
▁repugnant
orkplace
illiness
▁letdown
▁flatten
▁headless
otdog
▁shear
▁vpn
▁disconcerting
fflane
▁Reuni
▁politeness
▁alloy
isparate
▁astrology
ransient
▁Soloq
lectrician
favorable
▁submit
▁Spik
lockwork
▁ancestral
lagrant
▁Resent
tylized
arthbound
▁trucker
▁provable
ideboard
edhead
▁perv
▁convince
▁grin
▁Grin
spirin
ndrogynous
scrow
xtortion
ncestral
bide
urnaround
ailgate
nconclusive
ester
isconduct
esaro
erizon
▁cobra
▁embarassed
▁jquery
▁milf
▁reptile
▁chelsea
▁conduit
ypsy
▁contrarian
▁filesystem
▁unknowing
leanliness
▁outpost
▁visage
▁gourmet
▁proletariat
▁rollercoaster
▁slag
▁cyclical
▁wisp
▁lint
▁diseased
▁chillin
▁anorexia
nfographic
▁additive
▁favourable
▁bearer
▁visitation
itbox
ublicity
▁decaying
nference
▁intervene
▁Brazil
watchable
▁exp
▁mistreat
▁communicat
oven
ustang
▁Cub
▁punish
ouchy
ppliance
sphalt
▁Gra
ac
let
apport
▁publicize
▁temperament
epugnant
werve
hotogenic
ngenious
▁Sax
athartic
ervical
mokin
▁garment
atana
▁kilo
▁oxide
▁holographic
▁facilitate
▁botlane
▁hermit
▁lockscreen
▁mojo
▁pendant
▁intruder
▁purgatory
▁grotesque
▁sanctuary
▁swerve
▁wolverine
▁xyz
▁rigor
assist
▁audiobook
▁moba
▁boutique
▁defamation
▁overworked
▁accutane
ocialization
▁diehard
▁deprecating
▁relegation
▁lotus
airstyle
▁bite
▁sodomy
▁shaker
acrosse
oftball
eanie
▁orderly
▁androgynous
▁ep
▁fragrance
▁Intimidate
▁Dysfunction
reoccupied
weatshirt
query
hotographic
▁Snot
istic
motivated
egeneration
▁decor
verlasting
mbargo
▁sweep
▁climber
▁Obe
▁inexplicable
▁verba
auntlet
eroxide
embrane
ellfire
ratom
rethra
▁Desolat
▁jellyfish
▁complication
▁tyre
heerleader
▁manifold
▁recursion
▁collectible
▁innuendo
▁grapefruit
▁protean
▁starfleet
▁snooze
▁stencil
▁portability
▁colonialism
▁outset
▁thorn
▁artery
ayload
▁detroit
▁deactivate
▁consumable
▁eviction
riterion
▁dnb
▁stateless
▁Grat
▁inferiority
nfiltrator
ublicize
▁aerodynamic
▁Cano
▁Confederat
▁atypical
▁trolling
ix
▁witcher
▁bel
lank
▁represent
▁husk
▁Manufactur
▁Expend
ttrition
creenplay
nsinuate
▁affirmation
▁Unrest
▁cyst
ewsletter
ozzle
equitur
alsifiable
ollipop
elodramatic
ontrarian
indrance
▁Perplex
▁cognition
▁coyote
▁cranberry
▁mdma
▁unthinkable
ccrue
▁oligarchy
▁inquisitor
▁ponytail
▁goalkeeper
▁granola
▁vial
▁housework
▁insinuat
▁rubick
▁raptor
yclical
▁trickery
▁arbitration
tepdad
▁pivotal
epository
▁clover
▁Involuntar
etergent
▁asbestos
▁amphetamine
gress
olographic
▁instructional
isor
▁nuff
▁Sass
▁supervised
unshot
lven
tr
tylistic
▁overthrow
uildup
eekday
▁terminat
ll
▁spook
irspace
mnesty
▁cynic
stray
▁fertiliz
▁firefight
▁Deter
▁barter
▁pusher
iehard
isconcerting
etox
aifu
ndiscriminate
arshmallow
ompendium
rosswalk
▁coca
▁keychain
rotesque
▁hedgehog
▁cohesion
▁mindfuck
▁tram
▁placenta
▁gunpowder
▁immaculate
▁kickoff
▁spandex
▁snitch
▁counterplay
▁insistent
▁tentacle
▁torpedo
▁rehearsal
rotean
foreseen
▁warmup
ardwood
rackpad
lique
▁disappearance
ardigan
nnihilate
▁hold
▁elven
alibration
ssurance
▁ruin
itterness
▁fatigued
aveman
ith
ethane
oughness
▁tick
▁alarmed
▁Mil
onk
pirituality
ecromancer
muggling
timulant
ntrospection
verzealous
alphite
elatonin
ilibuster
onsumable
▁kiwi
▁typing
▁centaur
▁manitoba
astermind
▁jackson
▁reprint
▁polymer
▁impedance
▁prologue
piderman
▁immobile
▁pixelated
▁inbound
▁maggot
▁gurl
▁scotia
▁festive
▁rosetta
▁bedding
▁acetone
▁shaving
▁throughput
▁accelerator
▁unwise
▁tantamount
▁quantifiable
▁conformity
▁nfs
▁lobbyist
ansom
▁sled
▁displeasure
▁atomizer
▁excelle
unned
alts
ubble
▁Robo
▁teal
▁erosion
lute
symmetrical
▁flicking
▁trucking
▁Angr
mino
ruitful
▁putt
▁ringer
entilation
cting
▁Brun
▁suede
ligibility
ellar
erodynamic
itchcraft
▁stagger
▁Stagger
▁Deduct
utation
▁Hil
▁deflat
andstorm
ubmerge
arrison
nsurgency
ightbulb
ootcamp
ougar
yberpunk
yanide
▁Ostensibl
▁metropolis
▁Compost
▁obey
▁Necro
▁inmate
▁movespeed
▁miscellaneous
▁doggie
▁unsupervised
▁rouge
▁proliferation
▁glyph
▁imbecile
▁ineligible
▁gown
isdemeanor
▁subjectivity
▁stipend
▁seraph
▁skillshot
▁nirvana
tch
▁submerge
▁betterment
▁tesla
▁percussion
ivotal
▁Deflat
▁yardage
▁flipside
▁inventive
▁seduction
▁wreckage
▁formulaic
ixelated
▁deletion
▁symphony
icroscope
▁wearable
▁xxxxxxxxxxxx
onderland
rocrastination
ausality
mastere
idgame
▁arabian
eut
▁teary
ingtone
▁alphabetical
▁lander
lphabetical
impressive
▁indent
▁Entrepreneur
ir
do
revention
otor
▁bend
▁Rus
▁pickled
layback
ollectible
ocking
▁emission
▁prefered
▁wt
▁breather
tymology
dvisable
▁analytic
▁voyage
ycoon
much
▁jihad
kydiving
ango
onstrosity
oncession
ryptonite
▁Smuggle
▁pricy
▁vocab
▁pike
▁butane
▁flabbergasted
▁flamboyant
▁mawile
▁ingenuity
▁ponzi
▁provocation
▁pandora
▁mayan
▁retcon
▁godawful
▁nucleus
▁rancid
▁splatter
▁wikileaks
ened
▁addendum
▁minimalism
▁snowman
▁infestation
▁defunct
▁dismal
▁disenfranchise
▁synonyms
▁validat
ensationalize
▁whooping
anifold
▁ante
▁educate
▁refresher
▁Humanis
▁zodiac
▁yeezus
tubble
dm
rection
▁modesty
▁sensationalize
▁repos
osy
▁puff
redictive
luck
rabian
fterall
▁butch
▁cleanse
nterrogation
▁waive
ortilla
swear
mmaculate
ostseason
▁eyelid
▁razer
▁ukulele
▁htpc
▁kebab
▁ketogenic
▁vendetta
▁vernacular
▁culpable
▁malpractice
▁midwife
▁butler
▁halt
▁planeswalker
▁infraction
▁pinball
▁readability
▁unionized
▁pox
ireplace
▁doomsday
▁aggressiveness
▁lookup
▁deduct
ynergy
ontinuity
thinkable
riesthood
▁ingrown
▁lecturer
▁flickr
▁Fluctuat
▁grower
unescape
ermentation
rave
▁digger
▁Analytic
▁rink
▁divide
▁ws
ercussion
asterful
rosecution
anax
ubris
hoir
bjectification
own
mbodiment
piphany
▁Volley
spionage
eprecating
nguish
▁Dispers
▁heretic
▁materia
▁ancap
▁anvil
ancid
hapsody
antamount
uinea
iscellaneous
ancellation
ilantro
etogenic
▁haggle
▁canister
▁conundrum
▁concave
▁qi
▁melancholy
▁blip
▁incense
▁unmanned
▁opportunistic
▁cask
▁relativism
▁softcore
▁subordinate
▁thorium
▁confinement
▁bluray
▁tpb
orkstation
▁idealism
▁orgasmic
▁discord
▁discontent
▁deadbeat
▁Vol
▁searing
▁corrective
▁Vamp
▁Observe
▁crumble
▁advisable
▁defend
ourthouse
aturity
mitation
icket
▁Stub
▁simulate
▁inexperience
ingerprint
mbryo
nsistence
▁Lo
▁Repos
rctic
▁allegation
▁smog
ractise
nslaught
eggae
lamboyant
oncave
mmobile
angaroo
orsair
▁grats
▁kennel
▁quarry
▁harbour
▁violet
▁colossus
▁bloodshed
▁fanservice
▁metalcore
▁bestiality
▁unruly
▁clitoral
▁practise
▁indiscriminate
▁sappy
▁reimbursement
▁mover
▁understated
▁latent
▁gland
▁damnation
killable
▁diffrent
▁tlc
▁infusion
▁shredder
▁deflection
▁hotness
▁regiment
▁hoarder
▁complexion
▁debe
awile
inivan
yclone
ontour
▁dorky
▁manage
▁inso
ourtroom
eezus
▁bowler
mpossibility
▁tripe
ontamination
platter
ackfield
▁apologise
▁conceive
dk
dversity
▁adherence
ssimilate
▁Eyeli
iffrent
isenfranchise
ispensary
etera
mbecile
iography
labbergasted
heque
omposure
▁Jihad
▁decree
▁ketamine
ulpable
▁mindblowing
▁centrist
▁overdraft
▁orchid
▁paramedic
▁yellowstone
▁bling
▁shareholder
▁unresolved
▁spinoff
leanser
▁outreach
▁toolbox
elancholy
▁ontop
▁swatch
hitpost
▁immorality
ngrown
acklog
▁barbed
ersonhood
▁leafy
▁yolk
▁individuality
hanged
▁falsifiable
▁emacs
▁extraneous
lassless
▁Pane
litoral
▁dreamy
▁pigment
loodborne
outhful
apitalistic
▁understandabl
acity
▁uncontrollabl
▁undeniabl
ismissal
ravel
▁discover
▁enforceable
xtraneous
trocity
pl
▁sprawl
dma
efunct
▁stagnat
portsmanship
redicament
lannel
ezel
▁folly
▁virtuous
▁battalion
▁housemate
▁resubmit
▁honorary
▁polka
▁paging
▁pseudoscience
▁porcelain
▁fallible
▁cannibalism
▁hunk
▁sermon
▁sauna
▁whelp
▁flavorful
▁thrall
▁brokerage
▁Skimp
▁douchebaggery
▁fixation
▁mythos
▁defenseman
otkey
arcraft
tench
▁configure
neligible
▁limo
▁cultured
▁breaking
▁Tria
simplif
▁emotionless
▁flooring
onsultation
▁customize
▁extrovert
▁Raz
▁wrestle
laytime
▁Waaaaa
▁plum
ismal
▁require
ootwork
ppendix
eadbeat
nsistent
▁evacuat
▁dispers
▁induce
▁frosty
ablespoon
incerity
odawful
ntoxication
pportunistic
indblowing
▁metaphysics
▁headband
▁legible
▁blogspam
▁unsatisfying
▁intrusion
▁unison
▁styrofoam
▁mural
▁replication
▁sequential
▁equator
olio
▁shank
arlord
ndzone
▁engrave
▁Gramm
▁momentary
weetness
assal
▁Panty
▁coupe
▁engage
▁leaky
ocation
potter
▁injure
owl
itt
ltercation
▁Sociolog
aruto
ceptical
houl
efrain
eriwinkle
oardwalk
andjob
▁calibre
▁desolate
▁grammer
▁hilt
▁hiphop
▁hypnosis
▁unknowable
▁megathread
ootleg
arpenter
▁beagle
▁inflection
▁intestinal
▁gyno
▁gunfire
▁sceptical
▁screencap
▁claymore
▁trundle
ulldog
▁secession
▁bday
▁combative
▁dip
▁hissy
oftcore
octorate
▁ethos
▁personable
▁refrain
upus
▁executioner
enchant
▁tac
▁sanding
uccessive
nspire
▁agree
hash
nzyme
pilogue
uthanasia
▁ration
redefined
▁tha
▁starr
▁stopper
▁allegory
enounce
▁fig
▁adolescence
▁Exec
buprofen
aywall
ozzarella
▁quiver
▁curvature
▁holo
▁peice
▁vengeful
▁premeditated
▁strangle
▁syllabus
▁resurgence
▁scottish
ackdrop
▁footwear
▁swan
▁middleman
▁torchic
▁stagnation
▁Bloc
▁spotless
▁apron
pool
▁astral
▁bannable
▁finalize
▁maximize
▁foundational
orrosion
▁penal
trangle
ertility
▁widen
miss
▁crapp
personalize
▁spammy
oolbar
▁rebell
▁feelin
ngrave
enophobic
stral
ztec
sparagus
ghs
▁nub
▁lumber
▁slack
ncaps
▁Di
▁morph
▁manifest
rampoline
▁Zig
utjob
mplode
auliflower
esspool
hildcare
yanna
▁canopy
▁civilisation
▁cryptocurrency
▁bodybuilder
▁fluorescent
▁yelp
▁lgbt
▁maddening
▁polygon
▁instinctual
ardinal
▁sigil
▁rosemary
▁walrus
▁colourful
urntable
▁sissy
upboard
▁wrt
▁Endow
▁dongle
indfulness
▁vamp
▁implode
▁stare
liché
▁jumbled
▁parable
▁dusk
eminar
▁equestria
▁physicality
ime
rbiter
▁staffing
odeo
ubordinate
aximize
▁mismatched
▁gloom
▁affect
▁scare
pilepsy
▁Steriliz
strology
xiom
sterisk
▁clarif
allied
▁apprenticeship
utout
kincare
alaria
satisfying
▁intestine
▁juxtaposition
▁variability
▁vantage
ellet
▁carefree
▁hottie
▁motorbike
▁feline
▁unkillable
▁bloatware
▁loooong
▁inconceivable
▁gratifying
▁minigame
▁fanart
▁burrow
▁paternal
▁lotto
▁splitter
▁mallet
altz
▁tertiary
▁omen
losing
▁rev
▁minimalistic
riefcase
▁primetime
▁underdeveloped
▁wartime
▁doormat
▁dehumanizing
▁aztec
▁Rigor
iscommunication
▁etf
▁aspirin
iu
sounding
▁terminate
rayon
▁Brit
▁Repuls
ombstone
ulf
▁Conductiv
nquiry
borne
▁explore
▁cliched
orcerer
ensationalism
etta
▁treat
yan
▁Chilli
▁clouded
erviceable
apitalization
▁adress
▁archaeology
lternator
ltruism
ccessibility
ordpress
crutinize
ourgeois
aijin
asagna
▁identif
ircumference
luorescent
engeful
otspot
ummus
editdeletereply
▁veterinary
▁chiropractor
▁collegiate
▁landscaping
▁gaijin
▁shrapnel
▁recluse
▁scrutinize
▁coursework
▁nmom
▁shtick
▁unsigned
▁timestamp
▁wingman
eterinary
▁secondhand
▁diversified
▁dissimilar
▁Wil
▁giftee
▁thc
poxy
ift
olonization
▁Scare
▁mangle
orous
mptiness
nventive
▁Libe
ooftop
▁spotter
ondemnation
mom
▁Mammal
▁washy
mpairment
igestion
rofitability
ncarceration
▁divert
help
▁crafting
▁footballer
▁settle
derhanded
▁Multicultural
▁tanker
▁chewy
▁puss
▁accelerate
▁attribution
ready
▁illustrat
▁antithesis
issimilar
ommuter
▁multicultural
ertiary
▁prosecute
cottish
upremacist
nconceivable
enesect
nstinctual
ubricant
liffhanger
arefree
idterm
▁confederate
▁glacier
▁quintessential
▁basin
ratifying
▁hologram
▁catfish
▁measles
▁meepo
▁guacamole
▁bloodstream
▁spokesman
▁nihilism
▁pylon
▁receptor
▁reblogged
▁triad
▁idealized
▁undervalued
▁commendable
▁emergence
▁Judicia
▁fic
shop
▁Decor
uzzword
▁clipper
ribery
▁deg
▁shifty
opularize
▁xenophobia
wig
ci
▁systemd
▁May
world
iener
▁assemble
▁thrower
ambiguous
▁wart
tronghold
sized
evise
▁Chillin
▁awaken
▁blurt
ulebook
▁autobiography
igging
atalogue
dditive
▁tethered
isarm
▁tulpa
etardation
oalkeeper
laque
▁Thir
ilesystem
yspace
ecarim
lackberry
▁Scrim
▁perplexed
▁yasuo
▁hitchhiker
▁rehost
▁bandaid
▁unfavorable
▁freshwater
▁pneumonia
▁motif
▁greyhound
▁enigma
▁shelby
▁sanitation
▁slideshow
▁sectarian
▁newsworthy
▁infuriated
▁botrk
▁speck
▁tooltip
▁irate
▁terrestrial
▁conductive
▁clipboard
▁downturn
▁devour
ommendable
nippet
▁disarm
ifeguard
▁adaptable
▁banal
▁ezreal
earbox
▁divisional
▁derive
imilarity
raint
arish
and
nfected
sv
loof
▁Gifte
itpicky
▁renter
lover
▁rattl
onorary
athway
▁clicker
ndictment
avory
ehumanizing
nrich
▁strategical
waken
loatware
▁clap
mphetamine
ssailant
rouch
angri
lloy
errestrial
eamspeak
uerrilla
▁Reconcil
▁reconcile
▁smoky
arddrive
▁foliage
▁longterm
▁pamphlet
▁polyamorous
▁porous
▁gelatin
▁omelette
▁newcomer
▁schtick
▁sociable
▁relativistic
▁spacebar
▁tenacity
▁commandment
rocreation
▁pcb
▁descriptor
▁displeased
▁longtime
pear
oooong
ropensity
▁extermination
evour
▁rationalize
▁yak
oolant
▁putty
▁Ws
▁degrade
mmaturity
remeditated
▁sharking
apkin
▁reporting
olyamorous
▁bear
rosion
▁Reimburse
▁Geo
▁Boomer
pron
flattering
▁outfield
▁lurk
▁automoderator
norexia
eterminism
▁revive
rek
▁stub
ectarian
andora
ersuasion
ntruder
ontingency
▁episodic
▁reverence
▁frostbite
▁macaroni
▁modicum
arksman
▁perennial
▁uninterrupted
▁scourge
▁ryze
▁wholesome
▁backlight
▁tirade
▁ambivalent
honetic
▁cabal
▁annihilated
▁welder
entrist
tter
▁Penal
▁Str
▁stinger
implification
anhood
▁golfer
estimate
iglet
olourful
allible
houtout
irtuous
himp
▁momentar
▁confuse
▁shaded
▁sue
piece
mpedance
rode
mbivalent
sbestos
tomizer
▁steriliz
idalee
▁subscribe
nnuendo
ropulsion
ligarchy
andslide
intessential
▁sulfur
▁homeopathic
▁genus
▁cinderella
▁filtration
▁fortitude
▁jetpack
▁muay
▁bedrock
▁unforeseen
▁unwatchable
▁cutesy
▁cushy
▁ovulation
▁prodigy
▁idiocracy
▁petulant
ndefensible
▁indefensible
▁flurry
▁sightstone
▁excellence
▁saddening
▁sith
▁chalkboard
▁homecoming
multiculturalism
▁sanitizer
▁coder
▁depraved
▁lewd
▁fest
▁enrich
▁stuffy
ewsworthy
▁hippo
ontainment
▁socialize
▁whit
▁want
▁proofing
▁Militariz
▁ord
▁pierce
andbook
iversified
▁Swin
▁iu
ionized
▁stink
byssal
▁bod
▁derp
▁aatrox
tank
▁fade
urport
bject
lleviate
ccutane
ispleased
rugstore
▁Hija
hroughput
orpedo
ransistor
ollercoaster
ourmet
helsea
indfuck
ollegiate
▁evaporate
▁keepin
▁propagate
▁housewife
▁craftsmanship
▁curfew
▁impunity
▁icebreaker
▁peppermint
▁posible
▁opacity
▁fanny
▁shaymin
iolet
▁panther
ransmitter
▁bitrate
▁kindof
▁testicular
kunk
▁nobility
elativistic
▁snowboard
▁drainage
▁Roug
▁extinguisher
ired
▁rancher
▁singing
inker
▁mismatch
▁Dent
dealized
▁Growl
▁rever
ectum
▁alienat
nrollment
▁absentee
ifferentiation
amba
esticular
ightlife
crotum
ociable
erennial
lagiarism
ncumbent
urgatory
edicaid
▁engram
▁ostensibl
▁constituency
▁jib
▁waaaaa
ongterm
▁humbling
▁clout
▁ffxi
▁fuckwit
▁freudian
▁mythological
▁lethargic
▁impediment
▁casket
▁gamemode
▁indignant
▁tux
▁sweetener
▁subservient
▁sativa
▁soapbox
▁toxin
▁spinner
▁handwritten
▁mew
▁underperforming
▁Mediat
▁mindedness
▁abject
osible
▁treatable
▁dpi
▁proton
▁mecha
▁gass
▁punter
mc
utane
ccuser
▁lifting
▁painting
consider
ameraman
hoste
azed
▁gil
umidity
▁alteration
emperament
agged
▁deflect
▁Photoshop
entacle
ongwriter
ndignant
nterconnect
reudian
▁Unequivocal
▁idiom
▁constipation
ragrance
▁radial
▁fission
▁microatx
▁crouch
▁migrant
▁bodyfat
▁corporal
▁casualty
▁Toplane
aiku
▁imprint
▁stabilization
▁sustenance
▁heartache
▁subsection
▁nightclub
▁shadowrun
▁naturalistic
▁interconnect
▁orphanage
▁glider
▁playin
udiobook
▁daemon
▁orchestral
▁alleviate
▁pasty
hinged
▁sheath
▁teleporter
▁devise
▁Wip
▁pluck
utesy
holesome
▁ether
▁mow
doptive
nvader
ythological
▁Understate
▁Cyst
count
reported
▁commend
▁Deflect
▁Prot
oid
▁Nip
▁aegis
ip
ntestinal
▁Sorc
▁Qualif
lop
etroit
▁exert
▁walkthrough
isown
rbitration
igil
ncap
andacoin
aramedic
revail
▁refurb
lacenta
olossus
▁qualif
eadband
▁voip
▁holistic
▁citadel
▁competetive
▁closing
▁bulgarian
▁campsite
▁belittle
▁coveted
▁omnipresent
▁Conceit
▁hornet
▁prevail
▁tingle
▁mare
▁skyscraper
▁hatchet
▁nectar
▁webcomic
▁poodle
▁touchpad
▁wuss
unpoint
▁disown
▁detachable
▁douchy
▁adoptive
▁goatee
▁aloof
yro
▁boozer
▁ancaps
▁tk
▁Visualiz
▁asymmetrical
▁victor
▁misty
▁col
▁oversee
▁Objectif
hredder
▁celeb
▁Optimist
onna
▁Ampe
inball
▁Tyr
leshlight
▁Affirm
orresponds
uthanize
questria
▁accumulate
▁affliction
▁allure
daptable
▁Adhere
onformity
▁wwe
epraved
arkrai
oyage
ptitude
▁Dedicate
hag
ddendum
olverine
▁astute
▁adhere
anctuary
idekick
▁reimburse
lycogen
ostpone
anitoba
enthol
▁epistemology
▁jester
ebab
▁handcuff
hute
▁justify
▁captivating
▁carcass
▁cockroach
▁misconstrue
▁myopic
▁foolproof
endant
▁Converge
▁pretext
▁indecent
▁postpone
▁mischief
▁scrimmage
▁unwashed
▁stalemate
▁samba
▁pooh
▁startling
▁fps
▁muddle
alrus
▁senile
▁fuckup
▁swede
▁bloodline
▁shyness
▁competitiveness
▁smoothness
▁devastation
sed
▁euthanize
▁Calibr
ailway
▁fiancée
aturalistic
orporal
▁wayyy
ewd
▁Deviat
▁lice
▁bur
▁restrict
kit
▁Lob
▁verif
▁determine
ombative
olonialism
▁Tro
▁Thri
andcuff
efamation
▁toke
▁masochist
ikileaks
cotia
etulant
orcelain
roletariat
▁deceit
ulgarian
igrant
ccelerator
onduit
edgehog
▁jig
▁vilket
▁Dismay
▁chameleon
▁Propel
▁crowbar
▁outburst
▁perl
▁identifier
▁phreak
▁unchained
▁shockwave
▁sunburn
▁wellbeing
▁smp
▁paperback
▁rican
▁Equator
▁diversion
▁victimless
▁dyslexia
▁dwarven
▁formulation
otlane
attainable
oreness
▁clappe
▁dweller
▁drinkable
▁formality
▁pcs
orrectness
▁Reptil
nitch
pb
hrowback
oveted
▁Conform
tenable
▁wordy
▁obit
ebcomic
▁attend
min
▁recycle
ayback
▁shun
▁alter
larmed
acilitate
imless
having
ethargic
▁Flai
▁expose
pn
payment
macs
▁fetch
onsumerism
▁mutt
rimetime
utler
iscontent
oomsday
▁deviat
ucus
esla
▁erect
ucleus
ubservient
roliferation
mnipresent
anservice
ondescension
onundrum
ranberry
yopic
endetta
▁Unsurprising
▁flax
▁syndicate
▁turbulence
▁constipated
▁himym
▁honk
▁hulu
▁malnourished
▁brisket
▁unimpressive
▁cogent
▁powerlifting
▁gerrymandering
▁inactivity
▁surrogate
▁repertoire
▁nimble
olymer
▁meek
stute
▁tortoise
▁diplomat
▁bulletin
▁questline
▁dilation
▁drizzle
▁Junky
▁Whit
▁tightness
▁woodworking
rologue
▁Deg
▁eddard
▁lure
scent
▁trim
▁wishy
hrall
otation
elativism
▁peachy
reachable
ockscreen
adman
isage
ton
uality
ounterplay
men
▁linguist
▁fragmented
ivisible
ispleasure
ouchebaggery
▁hallmark
▁Coca
ipated
eprimand
irvana
rapefruit
laneswalker
ndecent
nflection
seudoscience
entaur
▁Permalink
▁futility
onytail
▁muffled
▁moniker
▁mosaic
▁mullet
▁Lubricat
▁footnote
▁unmotivated
▁civilised
▁malleable
▁impersonal
▁incendiary
▁checkbox
▁pupil
▁själv
▁nominee
▁psychoactive
▁spartan
▁nonviolent
▁reprimand
▁thunderstorm
ubick
▁lull
▁perfectionist
dolescence
▁tavern
▁hobbyist
▁fireman
▁doughnut
▁déjà
xpendable
imble
▁resolve
▁dislocat
pandex
▁decriminaliz
etachable
▁Intestin
▁rng
▁emoticon
tpc
dealism
▁affirm
house
▁aloe
nvil
▁Aero
lavorful
oi
umbling
urrow
scar
▁spacey
▁Typ
verdraft
mog
cetone
open
ander
▁loon
▁spay
tencil
hit
harpness
structure
utpost
itizenry
oormat
eletion
▁reincarnat
nub
▁vase
onviolent
utella
eraph
▁hate
unpowder
mpersonal
ctane
oolproof
▁inseam
▁textual
▁competency
▁filmmaker
▁meloetta
▁lattice
▁oldschool
▁pediatrician
▁petrified
▁cornerstone
▁spokesperson
▁sanctity
▁remnant
▁optimist
▁teapot
▁trombone
▁vat
▁cartoonish
▁tinker
▁materialism
▁fallback
▁tanned
▁ipl
▁squirt
▁retriever
▁brainless
rtery
ggressiveness
▁longboard
osetta
▁modal
elittle
▁Squirt
▁savory
▁Fol
▁backer
uttered
bjectivity
to
ockdown
▁inconvenienced
laymore
renched
▁Narrat
vi
▁picker
▁Cask
▁cringy
▁mast
uteness
ulu
▁regress
ranola
éjà
▁bub
▁indulge
tipend
ncendiary
alnourished
isconstrue
ologram
estiality
▁polyamory
▁varsity
▁corset
▁caretaker
▁caterpillar
▁cusp
▁mfw
▁undergone
▁headroom
▁pesticide
▁gigabit
▁gladiator
▁prenatal
▁salient
▁impish
▁togepi
peshi
▁prebuilt
▁Sled
▁intellectualism
▁downstream
▁Tram
alleable
▁Proportionate
▁Rever
▁locale
▁equivalency
▁Spinn
etalcore
nset
▁nip
sychoactive
mother
▁anterior
aging
▁formulat
▁tome
▁Inhibit
olistic
odiac
▁degrad
▁anesthetic
faithful
▁comm
aptor
▁argumentation
arrange
rimson
▁antisemitism
ulpa
nooze
pokesman
tyrofoam
partan
logspam
ernacular
▁hiccup
▁histogram
▁chihuahua
▁cantonese
▁crapshoot
▁celtic
▁predisposition
▁unix
▁paprika
▁scavenger
▁nomenclature
▁undiagnosed
▁helix
▁writeup
▁unedited
▁typewriter
▁telltale
▁tankiness
▁boatload
▁secularism
▁sesh
▁untold
▁fragmentation
▁individualism
eblogged
▁dharma
▁discretionary
▁doublelift
▁slowdown
ncense
▁childless
▁playa
▁soapy
▁irrationality
▁Metropoli
▁sweeper
▁wicking
reventable
▁mult
eceptionist
▁lofty
scribe
▁Pik
▁sli
▁plating
oolbox
tf
nfraction
onfinement
▁cite
olarizing
▁bake
vasive
▁airfield
rater
ermon
rickery
islocate
hieving
ihilism
ntrusion
etrified
urvature
▁whirl
▁machina
▁reunite
▁vertigo
▁contraceptive
▁unfathomable
ovespeed
▁infertility
▁indignation
▁invincibility
▁battlelog
▁indisputable
▁intonation
▁brothel
▁smallpox
brande
anopy
▁subhuman
▁Enigma
▁spiel
▁pasture
ompetetive
▁trashcan
▁engie
▁tactful
▁combatant
▁jawline
▁unsurprising
▁formative
▁Lang
▁condensation
▁Obv
ecoy
uperimpose
lyph
▁fatality
▁roadside
yze
ratty
▁endemic
▁evasive
grown
ndemic
ffirmation
ending
▁tingly
▁milling
usp
▁Yel
▁revise
▁Ante
nstructional
ringy
▁lend
▁pip
eadlight
▁allowable
ooltip
esurgence
nquisitor
renatal
ldschool
loodthirsty
fathomable
alpractice
antonese
egathread
▁oxidation
▁purported
▁cheetah
▁methadone
etamine
▁bloodthirsty
▁larvitar
▁resounding
odybuilder
▁indigo
▁oscar
▁overpass
▁booklet
▁siphon
▁shoujo
▁blindfold
▁splendid
▁oddball
▁revisionist
▁puffin
▁circuitry
▁sterilization
▁privatization
amped
▁mesmerizing
▁dissatisfaction
▁leakage
▁deceitful
▁skimpy
llegory
▁proportionate
▁thoughtless
▁detect
▁Falsif
▁prem
▁eczema
▁sighting
ownstream
pinoff
eimbursement
etterment
▁wiper
▁shadowy
▁lair
▁Increment
upplemental
▁deist
▁twitchy
htick
▁Annoy
allback
ivilised
resser
rdain
isinterested
▁gatherer
▁buzzer
▁linker
clectic
xtermination
▁Bod
auna
▁Mutt
▁autoimmune
▁loosen
mpish
tarfleet
ubhuman
idwife
hiropractor
ohesion
▁elaboration
▁kiosk
▁brine
▁abhor
▁ceasefire
▁humankind
▁untenable
▁rehash
▁plaintiff
▁perseverance
▁impolite
▁pornstar
▁grueling
▁muppet
▁semitism
▁silverware
▁picket
▁trifecta
▁tupperware
▁stipulation
▁muggle
▁recessive
▁hegemony
▁chit
▁inert
▁divisible
▁instrumentation
ollen
ntithesis
pprenticeship
▁recount
gbt
alient
ndisputable
▁bubbler
▁Sarcas
▁poser
▁eclectic
▁presentable
▁rusher
patient
▁modif
etting
▁hast
▁rattle
▁extend
▁Def
indu
▁leveraged
▁tracking
llowable
elated
▁boarder
orkflow
▁Synerg
▁larva
anther
nowman
▁publish
▁refrigerat
horium
▁cannibal
mpolite
onzi
eppermint
acaroni
rapshoot
rchid
▁udyr
▁hairdresser
▁volition
▁canary
▁jpg
▁celibate
▁fervor
▁biochemistry
easles
enacity
▁wol
▁mothership
▁mousepad
▁smithing
▁skirmish
▁swordsman
▁unidentified
▁wordplay
▁farmland
▁tcg
▁scion
▁stutter
▁depreciation
▁brash
▁allocate
▁dropout
sa
▁Engra
uple
▁du
▁methodical
▁ecig
▁unification
eceitful
▁Holo
dergone
dherence
oicemail
▁denier
cs
▁undo
tylus
▁convoy
aptivity
erfectionist
ecaying
▁Fir
▁Engross
nfusion
inigame
▁Textu
▁racket
▁applejack
▁artisan
ontinuation
▁regulate
▁Logi
▁auxiliary
ayyy
▁vale
▁narrat
amnation
▁Materia
hrapnel
▁repuls
ewcomer
andscaping
oyote
ypnosis
▁Sulfur
▁jewellery
▁frient
▁vegetation
▁monotone
▁manaphy
▁cobblestone
▁fob
▁posterior
rueling
▁prelude
▁indulgent
▁surly
▁silica
▁slog
▁undeveloped
▁terminus
▁bork
attalion
▁flex
iscretionary
uxiliary
utomoderator
llegation
▁sprawling
▁observational
▁Fray
chtick
▁distressing
▁Detonat
killshot
ibrator
ornstar
▁specif
▁detectable
▁tramp
artoonish
▁distract
ottie
▁lobe
hereabouts
▁disintegrat
▁Ext
mass
oapbox
oli
▁declare
▁Tar
▁concentrate
anifestation
▁adaption
▁Celeb
▁uncomfortabl
orsake
▁Inert
ongle
imestamp
eceptor
amphlet
ngenuity
elibate
melette
itchhiker
▁insular
▁manuscript
▁monastery
▁malevolent
▁blunder
▁propagation
▁hick
▁playmaker
▁fuckery
▁incandescent
▁frontline
▁netcode
▁foothold
▁globalization
▁consistant
▁trident
▁tuxedo
▁toolkit
▁misdirection
▁thieving
▁aimless
▁doorbell
▁manor
ownturn
▁landline
utoimmune
▁conceited
imic
▁extradition
une
▁Decre
▁Devalu
▁xeon
rovocation
▁Diplomat
anister
▁stimulate
▁Numeric
arbour
any
olka
ory
allucination
nvestigator
questionabl
▁artosis
actful
▁reap
lean
mi
creencap
▁rewrit
suitable
ortoise
ecluse
plendid
ubjectivity
hareholder
alevolent
olygon
▁hospice
▁third
▁unequivocal
▁veneer
▁cathedral
▁cocksucker
▁canine
▁conscientious
▁brevity
▁cordial
▁cowardice
▁unflattering
▁unambiguous
▁boolean
▁latvian
▁infatuation
▁inductive
▁prairie
▁inebriated
▁modder
▁objectifi
▁subsidiary
▁supersonic
▁garnish
▁spork
▁Consistant
▁cooperate
▁stank
▁endo
lideshow
▁bedside
▁earn
▁tradable
sport
ccommodate
ccusatory
loodshed
▁oft
▁hardness
▁regularity
otif
▁Erran
▁Syndicat
▁golfing
▁lagg
moan
vulation
▁devalue
immer
▁orthodoxy
▁Refurb
cg
ws
▁appraisal
size
▁Quantif
xtinguisher
list
pm
uggle
rinking
aemon
iscord
▁exe
osemary
yllabus
▁Vocab
omprehend
onscientious
arcass
iphop
▁bridal
▁getaway
▁jiu
▁vietnam
▁hillbilly
▁casserole
▁courtyard
▁comprehend
▁friendliness
▁misnomer
▁mohawk
▁monocle
▁uncaring
▁bumbling
▁lawnmower
▁inbreeding
▁perjury
▁pretzel
▁polynomial
▁scientology
▁suave
▁subliminal
▁surefire
▁remake
▁hte
▁icecream
▁plotline
anitation
▁denounce
▁tamper
▁crave
atvian
reshwater
etdown
▁disinformation
▁barge
rchaeology
eepo
▁entrapment
▁eyewitness
njury
▁ripper
▁repeater
efenseman
▁Tort
▁shilling
▁Motivate
isintegrate
▁molding
▁intend
ivisional
omeopathic
asualty
▁climbing
ndulgent
▁ashe
▁observe
oolean
▁cease
fw
▁affix
▁ear
zreal
▁arson
▁accommodate
▁accusatory
iancée
▁rabbi
warven
▁aws
▁Devote
urrogate
courge
uave
diocracy
ncandescent
olynomial
osterior
▁Chime
onspicuous
otorbike
ivilisation
chimed
▁orientated
▁quinoa
▁terrier
▁hindu
▁resonat
andaid
owerlifting
▁carbohydrate
▁hdtv
▁monoxide
▁blackface
▁bjj
▁bohemian
▁unreported
▁masturbatory
▁announce
▁restructure
▁inefficiency
▁impetus
▁grandiose
▁lighthouse
▁grandparent
ubliminal
▁shoplifting
▁stifle
▁flourish
▁replayability
▁tundra
amemode
▁setback
▁culmination
▁signage
▁summation
▁Differ
▁differ
lteration
▁realtime
tateless
▁whiteboard
▁dojo
▁Adver
ka
ron
▁armoured
annibalism
▁hurr
▁putter
uay
ightstone
raps
ooperate
▁overstate
coreboard
▁disconnect
▁distinguish
▁seedy
rundle
▁dismay
▁xray
▁redact
▁Vase
pacebar
▁Ration
▁alibi
▁amazement
ov
ordial
▁Mytho
escriptor
▁Idiom
urefire
ubsection
uacamole
nebriated
neumonia
ediatrician
ryptocurrency
▁Blister
▁bronn
▁jailbait
▁playboy
▁quibble
▁transphobia
▁jerry
▁hostess
▁mouthwash
▁bonsai
urfew
▁mistrust
▁Abhor
▁servitude
▁tinnitus
▁groundwork
mprint
▁svenska
▁vegetarianism
▁clot
ised
▁pts
▁psp
▁lanky
irade
▁riverside
▁exploitable
wry
thos
llure
▁epidural
antage
▁Endo
▁ergonomic
▁Mew
▁annoy
▁platforming
irefight
boxing
▁Rn
rowbar
anart
ousework
ousemate
profitable
plitter
▁Naivet
▁abolition
▁zeal
▁bind
▁jitter
▁gloss
enophobia
▁Rev
▁recognize
▁wimp
▁Haw
upil
njure
arton
rope
▁maxim
▁toplane
▁Tux
▁unreasonabl
▁falsifi
helby
crimmage
reyhound
▁halal
▁kilt
▁emery
▁jingle
▁conspicuous
▁contraption
▁vsync
▁rebrand
▁boomerang
▁programmable
▁expat
▁irrefutable
▁palpable
▁gaudy
▁nil
▁reddish
▁subtitle
▁takeoff
ilket
▁lament
▁trainwreck
▁Mast
▁geological
▁schoolwork
▁lyfe
uckwit
▁revisit
▁humidor
oxxe
▁dissolution
tifle
▁constructor
▁lender
▁workin
ota
▁apologis
▁empiricism
▁closeness
atrox
▁ecology
▁slasher
eological
▁ejection
ostess
▁editing
oursework
▁promoter
▁fitter
▁laughabl
▁burglary
▁ymir
ampsite
▁jab
cig
econdhand
ignified
▁sever
hole
▁pigmented
▁Vene
aptivating
▁Absolut
etectable
oatload
savory
▁aspartame
akeover
xhilarating
▁appreciable
ortify
▁brandy
▁reconsider
▁unread
ustenance
cebreaker
▁grub
icroatx
▁blizz
▁hawt
▁vod
▁manliness
▁clench
▁heirloom
▁blasphemous
▁convergence
▁libyan
▁inevitability
▁gfycat
▁inaccuracy
▁fingernail
▁nickelodeon
▁pansexual
▁narwhal
▁rngesus
▁remission
▁spear
ipation
▁typhoon
caring
lench
▁Equalize
▁duress
▁demoman
ntological
▁sod
▁nervousness
eddish
audy
oliage
▁extender
▁censor
▁larvae
▁reliever
▁peat
egis
harma
▁expulsion
▁prepp
ppreciable
utobiography
mpediment
▁lighten
bleed
▁exhilarating
▁esport
▁Wai
▁aerobic
▁Vat
eice
▁investing
ssured
▁Rng
end
▁crawler
▁Fulfill
pacity
atin
uxtaposition
aperback
ischief
ission
▁Generalize
nferiority
xtrapolate
anine
▁formulate
anctity
jälv
errymandering
avish
edrock
ohemian
talemate
hameleon
hihuahua
ibyan
ockroach
▁Choreograph
▁Irresp
▁quark
▁strive
▁peril
fxi
▁cosmology
▁counsellor
▁perp
▁claustrophobic
▁lavish
▁oregano
nactivity
▁cavern
▁reconciliation
▁unlicensed
▁nosy
▁septic
▁rodent
▁splice
▁ruleset
▁distillery
▁dessa
igate
▁destitute
▁toothless
▁distinguishable
▁bisexuality
▁groupon
▁adage
▁lily
▁Tha
▁eggplant
ntisemitism
▁extrapolate
▁overrid
▁banger
inland
asturbatory
pork
risket
▁aether
heckbox
▁runt
potless
usly
▁wg
halkboard
▁crook
▁warming
ansexual
▁poopy
rson
reppe
▁Wart
▁asiata
▁deprive
point
uggernaut
leased
oughnut
▁ascent
▁Playa
extraterrestrial
oxin
rashcan
ightclub
woop
rrefutable
mpunity
odyfat
inderella
laustrophobic
atfish
▁neuron
▁worsen
▁pansy
▁cajun
▁unsub
▁chastity
▁midlane
▁foreclosure
▁unattainable
▁pianist
▁immutable
▁impenetrable
▁indecisive
▁prehistoric
▁sunflower
▁sigma
▁swimsuit
▁nautilus
▁reluctance
▁slaughterhouse
▁spacious
▁yearbook
▁equalizer
▁manure
▁ppc
▁theros
▁gunman
estitute
▁diaphragm
▁corpus
▁divergent
▁confidentiality
▁pushover
▁nominate
rtisan
pacious
▁absolut
▁craps
▁survivable
▁limiter
rainage
im
▁dispatcher
[...]
